{
  "version": "1.0",
  "truncation": null,
  "padding": null,
  "added_tokens": [
    {
      "id": 0,
      "content": "<unk>",
      "single_word": false,
      "lstrip": false,
      "rstrip": false,
      "normalized": false,
      "special": true
    }
  ],
  "normalizer": null,
  "pre_tokenizer": {
    "type": "ByteLevel",
    "add_prefix_space": false,
    "trim_offsets": true,
    "use_regex": true
  },
  "post_processor": null,
  "decoder": {
    "type": "ByteLevel",
    "add_prefix_space": true,
    "trim_offsets": true,
    "use_regex": true
  },
  "model": {
    "type": "BPE",
    "dropout": null,
    "unk_token": "<unk>",
    "continuing_subword_prefix": null,
    "end_of_word_suffix": null,
    "fuse_unk": false,
    "byte_fallback": false,
    "ignore_merges": false,
    "vocab": {
      "<unk>": 0,
      "!": 1,
      "\"": 2,
      "#": 3,
      "$": 4,
      "%": 5,
      "&": 6,
      "'": 7,
      "(": 8,
      ")": 9,
      "*": 10,
      "+": 11,
      ",": 12,
      "-": 13,
      ".": 14,
      "/": 15,
      "0": 16,
      "1": 17,
      "2": 18,
      "3": 19,
      "4": 20,
      "5": 21,
      "6": 22,
      "7": 23,
      "8": 24,
      "9": 25,
      ":": 26,
      ";": 27,
      "<": 28,
      "=": 29,
      ">": 30,
      "?": 31,
      "@": 32,
      "A": 33,
      "B": 34,
      "C": 35,
      "D": 36,
      "E": 37,
      "F": 38,
      "G": 39,
      "H": 40,
      "I": 41,
      "J": 42,
      "K": 43,
      "L": 44,
      "M": 45,
      "N": 46,
      "O": 47,
      "P": 48,
      "Q": 49,
      "R": 50,
      "S": 51,
      "T": 52,
      "U": 53,
      "V": 54,
      "W": 55,
      "X": 56,
      "Y": 57,
      "Z": 58,
      "[": 59,
      "\\": 60,
      "]": 61,
      "^": 62,
      "_": 63,
      "`": 64,
      "a": 65,
      "b": 66,
      "c": 67,
      "d": 68,
      "e": 69,
      "f": 70,
      "g": 71,
      "h": 72,
      "i": 73,
      "j": 74,
      "k": 75,
      "l": 76,
      "m": 77,
      "n": 78,
      "o": 79,
      "p": 80,
      "q": 81,
      "r": 82,
      "s": 83,
      "t": 84,
      "u": 85,
      "v": 86,
      "w": 87,
      "x": 88,
      "y": 89,
      "z": 90,
      "{": 91,
      "|": 92,
      "}": 93,
      "~": 94,
      "¡": 95,
      "¢": 96,
      "£": 97,
      "¤": 98,
      "¥": 99,
      "¦": 100,
      "§": 101,
      "¨": 102,
      "©": 103,
      "ª": 104,
      "«": 105,
      "¬": 106,
      "®": 107,
      "¯": 108,
      "°": 109,
      "±": 110,
      "²": 111,
      "³": 112,
      "´": 113,
      "µ": 114,
      "¶": 115,
      "·": 116,
      "¸": 117,
      "¹": 118,
      "º": 119,
      "»": 120,
      "¼": 121,
      "½": 122,
      "¾": 123,
      "¿": 124,
      "Â": 125,
      "Ã": 126,
      "Ä": 127,
      "Å": 128,
      "Æ": 129,
      "Ç": 130,
      "È": 131,
      "É": 132,
      "Ê": 133,
      "Ë": 134,
      "Ì": 135,
      "Í": 136,
      "Î": 137,
      "Ï": 138,
      "×": 139,
      "á": 140,
      "â": 141,
      "ê": 142,
      "ï": 143,
      "ā": 144,
      "Ă": 145,
      "ć": 146,
      "Ĉ": 147,
      "ĉ": 148,
      "Ċ": 149,
      "ċ": 150,
      "ē": 151,
      "Ě": 152,
      "Ĝ": 153,
      "Ġ": 154,
      "Ģ": 155,
      "ģ": 156,
      "Ĥ": 157,
      "ĥ": 158,
      "Ħ": 159,
      "ħ": 160,
      "Ĩ": 161,
      "ĩ": 162,
      "Ī": 163,
      "ī": 164,
      "Ĭ": 165,
      "ĭ": 166,
      "Į": 167,
      "į": 168,
      "İ": 169,
      "ı": 170,
      "Ĳ": 171,
      "ĳ": 172,
      "Ĵ": 173,
      "ĵ": 174,
      "Ķ": 175,
      "ķ": 176,
      "ĸ": 177,
      "Ĺ": 178,
      "ĺ": 179,
      "Ļ": 180,
      "ļ": 181,
      "Ľ": 182,
      "ľ": 183,
      "Ŀ": 184,
      "ŀ": 185,
      "Ł": 186,
      "ł": 187,
      "Ń": 188,
      "Ġt": 189,
      "he": 190,
      "Ġa": 191,
      "ĠĠ": 192,
      "in": 193,
      "Ġthe": 194,
      "Ġo": 195,
      "re": 196,
      "Ġw": 197,
      "Ġs": 198,
      "nd": 199,
      "er": 200,
      "ha": 201,
      "is": 202,
      "Ġb": 203,
      "it": 204,
      "on": 205,
      "Ġof": 206,
      "ou": 207,
      "ed": 208,
      "en": 209,
      "Ġf": 210,
      "Ġm": 211,
      "Ġc": 212,
      "Ġand": 213,
      "or": 214,
      "ĠĠĠĠ": 215,
      "es": 216,
      "Ġto": 217,
      "ing": 218,
      "ar": 219,
      "Ġp": 220,
      "ll": 221,
      "at": 222,
      "Ġin": 223,
      "an": 224,
      "Ġd": 225,
      "as": 226,
      "Ġh": 227,
      "Ġl": 228,
      "om": 229,
      "Ġn": 230,
      "ic": 231,
      "Ġhe": 232,
      "le": 233,
      "Ġha": 234,
      "Ġbe": 235,
      "hat": 236,
      "ot": 237,
      "st": 238,
      "Ġg": 239,
      "ĠI": 240,
      "Ġe": 241,
      "ow": 242,
      "ut": 243,
      "al": 244,
      "ion": 245,
      "se": 246,
      "ve": 247,
      "ent": 248,
      "im": 249,
      "Ġth": 250,
      "ly": 251,
      "ld": 252,
      "ce": 253,
      "id": 254,
      "gh": 255,
      "Ġre": 256,
      "Ġthat": 257,
      "ĠT": 258,
      "ir": 259,
      "ĠĠĠĠĠĠĠĠ": 260,
      "et": 261,
      "Ġwh": 262,
      "ith": 263,
      "Ġon": 264,
      "Ġwas": 265,
      "Ġit": 266,
      "Ġu": 267,
      "ver": 268,
      "ur": 269,
      "ay": 270,
      "Ġfor": 271,
      "Ġy": 272,
      "ro": 273,
      "Ġas": 274,
      "ĠA": 275,
      "ad": 276,
      "Ġis": 277,
      "Ġwith": 278,
      "--": 279,
      "ac": 280,
      "Ġwe": 281,
      "Ġhis": 282,
      "ri": 283,
      "the": 284,
      "ĠS": 285,
      "am": 286,
      "Ġst": 287,
      "ght": 288,
      "ter": 289,
      "ec": 290,
      "ĊĊ": 291,
      "Ġan": 292,
      "and": 293,
      "Ġyou": 294,
      "Ġnot": 295,
      "ain": 296,
      "ĠM": 297,
      "ill": 298,
      "th": 299,
      "ĠC": 300,
      "Ġat": 301,
      "ich": 302,
      "ĠĠĠ": 303,
      "il": 304,
      "if": 305,
      "od": 306,
      "ch": 307,
      "ĠH": 308,
      "ĠThe": 309,
      "ke": 310,
      "Ġhad": 311,
      "ĠB": 312,
      "ould": 313,
      "ore": 314,
      "Ġby": 315,
      "rom": 316,
      "us": 317,
      "all": 318,
      "ess": 319,
      "ul": 320,
      "her": 321,
      "red": 322,
      "ge": 323,
      "Ġwhich": 324,
      "ation": 325,
      "Ġse": 326,
      "Ġsu": 327,
      "ra": 328,
      "Ġme": 329,
      "to": 330,
      "qu": 331,
      "Ġor": 332,
      "pp": 333,
      "'s": 334,
      "Ġhim": 335,
      "ol": 336,
      "ĠW": 337,
      "est": 338,
      "Ġher": 339,
      "Ġfrom": 340,
      "ĊĠ": 341,
      "Ġ\"": 342,
      "Ġde": 343,
      "ome": 344,
      "Ġhave": 345,
      "Ġcon": 346,
      "ĊĠĠĠ": 347,
      "Ġv": 348,
      "ĠP": 349,
      "res": 350,
      "Ġso": 351,
      "ight": 352,
      "ab": 353,
      "Ġall": 354,
      "Ġbut": 355,
      "Ġ1": 356,
      "um": 357,
      "ĠL": 358,
      "Ġk": 359,
      "ous": 360,
      "nt": 361,
      "Ġthis": 362,
      "ist": 363,
      "em": 364,
      "ers": 365,
      "Ġthey": 366,
      "os": 367,
      "ant": 368,
      "Ġsa": 369,
      "ĠG": 370,
      "our": 371,
      "Ġex": 372,
      "Ġup": 373,
      "Ġr": 374,
      "Ġ_": 375,
      "ard": 376,
      "Ġwere": 377,
      "Ġmy": 378,
      "Ġare": 379,
      "Ġwhe": 380,
      "ust": 381,
      "el": 382,
      "Ġsh": 383,
      "ig": 384,
      "art": 385,
      "ong": 386,
      "ĠF": 387,
      "ct": 388,
      "Ġsp": 389,
      "un": 390,
      "ear": 391,
      "ect": 392,
      "Ġman": 393,
      "ate": 394,
      "Ġthem": 395,
      "ame": 396,
      "op": 397,
      "Ġtheir": 398,
      "iv": 399,
      "Ġwho": 400,
      "ie": 401,
      "ast": 402,
      "ound": 403,
      "ĠĠĠĠĠĠĠĠĠĠĠĠĠĠĠĠ": 404,
      "Ġal": 405,
      "Ġone": 406,
      "very": 407,
      "ive": 408,
      "Ġshe": 409,
      "ĠE": 410,
      "ind": 411,
      ".\"": 412,
      "âĢ": 413,
      "ĠD": 414,
      "The": 415,
      "Ġcom": 416,
      "ĠO": 417,
      "Ġdo": 418,
      "out": 419,
      "ood": 420,
      "ord": 421,
      "ok": 422,
      "pt": 423,
      "ity": 424,
      "ell": 425,
      "han": 426,
      "ies": 427,
      "ort": 428,
      "Ġpro": 429,
      "ĠN": 430,
      "Ġne": 431,
      "ak": 432,
      "sel": 433,
      "Ġno": 434,
      "ther": 435,
      "Ġlo": 436,
      "ĠR": 437,
      "Ġab": 438,
      "own": 439,
      "ough": 440,
      "reat": 441,
      "ure": 442,
      "ĊĠĠĠĠ": 443,
      "Ġthere": 444,
      "one": 445,
      "Ġpl": 446,
      "ry": 447,
      "of": 448,
      "Ġun": 449,
      "ost": 450,
      "ag": 451,
      "Ġbeen": 452,
      "ine": 453,
      "ĠJ": 454,
      "Ġsaid": 455,
      "Ġout": 456,
      ",\"": 457,
      "Ġwill": 458,
      "Ġkn": 459,
      "Ġwould": 460,
      "ose": 461,
      "itt": 462,
      "ide": 463,
      "Ġle": 464,
      "ass": 465,
      "Ġwhen": 466,
      "Ġ(": 467,
      "hed": 468,
      "Ġar": 469,
      "ment": 470,
      "Ġsha": 471,
      "ish": 472,
      "ven": 473,
      "end": 474,
      "ond": 475,
      "ĠHe": 476,
      "au": 477,
      "ace": 478,
      "ack": 479,
      "are": 480,
      "ru": 481,
      "ĠAnd": 482,
      "cc": 483,
      "Ġj": 484,
      "ake": 485,
      "ff": 486,
      "per": 487,
      "able": 488,
      "ance": 489,
      "pl": 490,
      "Ġ2": 491,
      "Ġwor": 492,
      "ck": 493,
      "Ġmore": 494,
      "ime": 495,
      "ence": 496,
      "Ġqu": 497,
      "ep": 498,
      "Ġother": 499,
      "fore": 500,
      "self": 501,
      "Ġag": 502,
      "Ġtw": 503,
      "Ġinto": 504,
      "ud": 505,
      "Ġsome": 506,
      "ree": 507,
      "hi": 508,
      "ice": 509,
      "we": 510,
      "Ġus": 511,
      "ally": 512,
      "Ġli": 513,
      "ade": 514,
      "ount": 515,
      "ite": 516,
      "ans": 517,
      "Ġgo": 518,
      "ĊĊĠ": 519,
      "Ġam": 520,
      "Ġif": 521,
      "ew": 522,
      "Ġany": 523,
      "Ġcan": 524,
      "Ġbr": 525,
      "Ġupon": 526,
      "av": 527,
      "ci": 528,
      "Ġhas": 529,
      "ire": 530,
      "Ġcl": 531,
      "Ġad": 532,
      "ble": 533,
      "ings": 534,
      "ays": 535,
      "Ġen": 536,
      "urn": 537,
      "other": 538,
      "Ġthan": 539,
      "age": 540,
      "fter": 541,
      "Ġro": 542,
      "ions": 543,
      "ber": 544,
      "Ġits": 545,
      "ated": 546,
      "Ġvery": 547,
      "Ġim": 548,
      "ng": 549,
      "Ġour": 550,
      "ap": 551,
      "ĠIt": 552,
      "Ġpr": 553,
      "Ġgr": 554,
      "te": 555,
      "Ġwhat": 556,
      "Ġdis": 557,
      "Ġtime": 558,
      "Ġgreat": 559,
      "Ġyour": 560,
      "ĊĠĠĠĠĠĠĠĠ": 561,
      "ary": 562,
      "be": 563,
      "act": 564,
      "Ġtr": 565,
      "ress": 566,
      "Ġcould": 567,
      "ought": 568,
      "wn": 569,
      "oll": 570,
      "Ġapp": 571,
      "nder": 572,
      "Ġper": 573,
      "ach": 574,
      "bl": 575,
      "his": 576,
      "ied": 577,
      "_,": 578,
      "Ġbl": 579,
      "ious": 580,
      "Ġover": 581,
      "ne": 582,
      "ick": 583,
      "ved": 584,
      "Ġthen": 585,
      "Ġpart": 586,
      "ittle": 587,
      "uch": 588,
      "----": 589,
      "ather": 590,
      "Ġfl": 591,
      "Ġbo": 592,
      "tain": 593,
      "'t": 594,
      "Ġnow": 595,
      "Ġtwo": 596,
      "Ġabout": 597,
      "irst": 598,
      "Ġ'": 599,
      "so": 600,
      "Ġoff": 601,
      "Ġdid": 602,
      "Ġagain": 603,
      "ife": 604,
      "Ġshall": 605,
      "Ġonly": 606,
      "har": 607,
      "ark": 608,
      "for": 609,
      "Ġsee": 610,
      "Ġ3": 611,
      "Ġmade": 612,
      "Ġlike": 613,
      "ue": 614,
      "Ġmay": 615,
      "ull": 616,
      "Ġthese": 617,
      "Ġhand": 618,
      "Ġpre": 619,
      "hing": 620,
      "Ġshould": 621,
      "ful": 622,
      "Ġafter": 623,
      "ness": 624,
      "ward": 625,
      "ile": 626,
      "ty": 627,
      "Ġknow": 628,
      "ove": 629,
      "ign": 630,
      "Ġpo": 631,
      "old": 632,
      "ons": 633,
      "ink": 634,
      "ath": 635,
      "Ġlittle": 636,
      "Ġthr": 637,
      "int": 638,
      "ren": 639,
      "ĊĠĠĠĠĠĠĠĠĠĠ": 640,
      "ĠBut": 641,
      "cl": 642,
      "Ġrem": 643,
      "00": 644,
      "ia": 645,
      "Ġdes": 646,
      "man": 647,
      "Ġfe": 648,
      "ise": 649,
      "Ġbefore": 650,
      "ĠK": 651,
      "orn": 652,
      "Ġgood": 653,
      "ian": 654,
      "Ġpe": 655,
      "ĠIn": 656,
      "ER": 657,
      "iz": 658,
      "Ġri": 659,
      "Ġlong": 660,
      "._": 661,
      "ĠV": 662,
      "Ġcomp": 663,
      "?\"": 664,
      ".,": 665,
      "Ġday": 666,
      "Ġfirst": 667,
      "Ġwhere": 668,
      "Ġsuch": 669,
      "ater": 670,
      "ĠMr": 671,
      "Ġdown": 672,
      "Ġunder": 673,
      "Ġmen": 674,
      "fe": 675,
      "ps": 676,
      "ĠY": 677,
      "hen": 678,
      "Ġhow": 679,
      "oss": 680,
      "Ġsc": 681,
      "ran": 682,
      "Ġres": 683,
      "ĠSt": 684,
      "og": 685,
      "Ġmust": 686,
      "oth": 687,
      "way": 688,
      "ave": 689,
      "Ġmuch": 690,
      "Ġch": 691,
      "ft": 692,
      "ens": 693,
      "ory": 694,
      "mer": 695,
      "ult": 696,
      "pe": 697,
      "de": 698,
      "Ġlook": 699,
      "Ġsm": 700,
      "Ġ18": 701,
      "ition": 702,
      "Ġbec": 703,
      "ii": 704,
      "hes": 705,
      "Ġmost": 706,
      "Ġold": 707,
      "Ġwell": 708,
      "ors": 709,
      "âĢĻ": 710,
      "Ġcame": 711,
      "Ġcont": 712,
      "Ġevery": 713,
      "Ġacc": 714,
      "Ġbet": 715,
      "Ġsay": 716,
      "Ġcomm": 717,
      "iss": 718,
      "ations": 719,
      "ical": 720,
      "ouse": 721,
      "ears": 722,
      "land": 723,
      "Ġeven": 724,
      "Ġbeing": 725,
      "not": 726,
      "Ġthose": 727,
      "ady": 728,
      "Ġown": 729,
      "that": 730,
      "Ġpass": 731,
      "ily": 732,
      "Ġear": 733,
      "Ġwork": 734,
      "Ġmany": 735,
      "ves": 736,
      "ict": 737,
      "ving": 738,
      "wh": 739,
      "ced": 740,
      "Ġcons": 741,
      "Ġob": 742,
      "aw": 743,
      "led": 744,
      "Ġra": 745,
      "Ġthrough": 746,
      "ener": 747,
      "ces": 748,
      "air": 749,
      "li": 750,
      "Ġatt": 751,
      "Ġ4": 752,
      "Ġfound": 753,
      "Ġimp": 754,
      "Ġcome": 755,
      "Ġway": 756,
      "les": 757,
      "ever": 758,
      "oy": 759,
      "Ġmight": 760,
      "resent": 761,
      "Ġwr": 762,
      "ople": 763,
      "Ġsame": 764,
      "Ġnever": 765,
      "Ġcall": 766,
      "Ġgl": 767,
      "ial": 768,
      "ause": 769,
      "ase": 770,
      "med": 771,
      "ried": 772,
      "igh": 773,
      "Ġbel": 774,
      "ix": 775,
      "ex": 776,
      "Ġser": 777,
      "!\"": 778,
      "Ġhere": 779,
      "Ġlife": 780,
      "ĠCh": 781,
      "ĊĠĠĠĠĠ": 782,
      "Ġent": 783,
      "ject": 784,
      "row": 785,
      "Ġ[": 786,
      "Ġseem": 787,
      "Ġlet": 788,
      "pect": 789,
      "ted": 790,
      "Ġback": 791,
      "ang": 792,
      "ower": 793,
      "Ġmake": 794,
      "Ġalso": 795,
      "Ġco": 796,
      "ction": 797,
      "),": 798,
      "ollow": 799,
      "atter": 800,
      "ail": 801,
      "Ġhimself": 802,
      "ged": 803,
      "ered": 804,
      "ĠTh": 805,
      "ished": 806,
      "du": 807,
      "with": 808,
      "Ġey": 809,
      "Ġsl": 810,
      "Ġdist": 811,
      "ible": 812,
      "ĠGod": 813,
      "Ġrep": 814,
      "ared": 815,
      "Ġbeg": 816,
      "less": 817,
      "ĠĠĠĠĠĠ": 818,
      "Ġpeople": 819,
      "up": 820,
      "und": 821,
      "con": 822,
      "Ġword": 823,
      "ple": 824,
      "ked": 825,
      "lf": 826,
      "Ġke": 827,
      "ither": 828,
      "ild": 829,
      "Ġfar": 830,
      "Ġplace": 831,
      "Ġend": 832,
      "Ġsub": 833,
      "Ġtoo": 834,
      "ock": 835,
      "Ġwent": 836,
      "ents": 837,
      "Ġhead": 838,
      "Ġthink": 839,
      "Ġlast": 840,
      "me": 841,
      "ms": 842,
      "get": 843,
      "OR": 844,
      "Ġwithout": 845,
      "Ġjust": 846,
      "ened": 847,
      "ks": 848,
      "Ġop": 849,
      "ince": 850,
      "ertain": 851,
      "Ġcount": 852,
      "Ġthought": 853,
      "Ġcar": 854,
      "omet": 855,
      "..": 856,
      "Ġfri": 857,
      "here": 858,
      "ret": 859,
      "Ġ5": 860,
      "HE": 861,
      "its": 862,
      "ular": 863,
      "Ġaway": 864,
      "com": 865,
      "ss": 866,
      "ĠĠĠĠĠĠĠĠĠĠĠĠĠĠĠĠĠĠĠĠĠĠĠĠĠĠĠĠĠĠĠĠ": 867,
      "Ġret": 868,
      "Ġnat": 869,
      "hy": 870,
      "Ġstill": 871,
      "Ġthree": 872,
      "su": 873,
      "âĢľ": 874,
      "Ġhar": 875,
      "ĊĊĠĠĠĠ": 876,
      "Ġturn": 877,
      "Ġchar": 878,
      "It": 879,
      "ates": 880,
      "eth": 881,
      "was": 882,
      "ĠThis": 883,
      "ĠShe": 884,
      "Ġwhile": 885,
      "Ġtake": 886,
      "imes": 887,
      "Ġrel": 888,
      "but": 889,
      "Ġfollow": 890,
      "aking": 891,
      "Ġint": 892,
      "ip": 893,
      "He": 894,
      "ON": 895,
      "ual": 896,
      "Ġhouse": 897,
      "Ġ|": 898,
      "vers": 899,
      "uth": 900,
      "Ġdif": 901,
      "Ġyet": 902,
      "Ġthou": 903,
      "ĠThey": 904,
      "Ġwar": 905,
      "'d": 906,
      "aid": 907,
      "Ġac": 908,
      "ĊĊĠĠĠ": 909,
      "ited": 910,
      "Ġput": 911,
      "Ġinst": 912,
      "hild": 913,
      "ĠU": 914,
      "Ġnor": 915,
      "Ġsec": 916,
      "rest": 917,
      "Ġright": 918,
      "Ġnew": 919,
      "Ġset": 920,
      "Ġcour": 921,
      "ale": 922,
      "Ġname": 923,
      "Ġsupp": 924,
      "Ġlar": 925,
      "ody": 926,
      "ner": 927,
      "Ġ*": 928,
      "Ġget": 929,
      "Ġgiv": 930,
      "Ġ6": 931,
      "Ġmar": 932,
      "Ġrec": 933,
      "Ġspe": 934,
      "Ġyears": 935,
      "ently": 936,
      "ins": 937,
      "ning": 938,
      "ween": 939,
      "gg": 940,
      "ĠFor": 941,
      "Ġem": 942,
      "cept": 943,
      "Ġreg": 944,
      "IN": 945,
      "Ġever": 946,
      "ĠWe": 947,
      "Ġking": 948,
      "ined": 949,
      "Ġev": 950,
      "der": 951,
      "Ġchild": 952,
      "Ġheart": 953,
      "Ġfriend": 954,
      "Ġleft": 955,
      "Ġsur": 956,
      "Ġeach": 957,
      "ived": 958,
      "Ġsw": 959,
      "Ġanother": 960,
      "Ġnight": 961,
      "rist": 962,
      "âĢĿ": 963,
      "att": 964,
      "ters": 965,
      "Ġthy": 966,
      "Ġpers": 967,
      "most": 968,
      "Ġdec": 969,
      "Ġagainst": 970,
      "Ġcha": 971,
      "Ġunto": 972,
      "Ġnear": 973,
      "Ġlight": 974,
      "ser": 975,
      "TER": 976,
      "Ġexp": 977,
      "And": 978,
      "ures": 979,
      "Ġx": 980,
      "RE": 981,
      "Ġwom": 982,
      "Ġthough": 983,
      "by": 984,
      "Ġyoung": 985,
      "ts": 986,
      "Ġind": 987,
      "ĠThere": 988,
      "osed": 989,
      "AL": 990,
      "Ġfew": 991,
      "Ġocc": 992,
      "ph": 993,
      "aut": 994,
      "Ġfind": 995,
      "ief": 996,
      "Ġgener": 997,
      "01": 998,
      "ways": 999,
      "cri": 1000,
      "Ġposs": 1001,
      "Ġtook": 1002,
      "als": 1003,
      "over": 1004,
      "Ġeyes": 1005,
      "ised": 1006,
      "Ġamong": 1007,
      "Ġside": 1008,
      "ĠAs": 1009,
      "apt": 1010,
      "Ġonce": 1011,
      "ont": 1012,
      "ook": 1013,
      "ob": 1014,
      "Ġbre": 1015,
      "Ġsaw": 1016,
      "pr": 1017,
      "Ġgive": 1018,
      "Ġlove": 1019,
      "aught": 1020,
      "Ġpur": 1021,
      "Ġpresent": 1022,
      "Ġland": 1023,
      "ars": 1024,
      "ĠAn": 1025,
      "ope": 1026,
      "vel": 1027,
      "ired": 1028,
      "ird": 1029,
      "Ġext": 1030,
      "ib": 1031,
      "Ġcalled": 1032,
      "Ġchan": 1033,
      "Ġthings": 1034,
      "Ġstr": 1035,
      ".'": 1036,
      "outh": 1037,
      "den": 1038,
      "ĠTo": 1039,
      "rew": 1040,
      "ows": 1041,
      "ten": 1042,
      "Ġworld": 1043,
      "ants": 1044,
      "Ġsmall": 1045,
      "In": 1046,
      "selves": 1047,
      "Ġbetween": 1048,
      "aken": 1049,
      "ier": 1050,
      "oc": 1051,
      "Ġcr": 1052,
      "Ġsomet": 1053,
      "Ġwater": 1054,
      "Ġboth": 1055,
      "vent": 1056,
      "any": 1057,
      "ched": 1058,
      "Ġtri": 1059,
      "ments": 1060,
      "Ġseen": 1061,
      "which": 1062,
      "Ġtell": 1063,
      "men": 1064,
      "Ġple": 1065,
      "cy": 1066,
      "Ġkind": 1067,
      "ĠEng": 1068,
      "Ġbu": 1069,
      "app": 1070,
      "sh": 1071,
      "ting": 1072,
      "ubl": 1073,
      "ities": 1074,
      "Ġinc": 1075,
      "Ġrest": 1076,
      "Ġstre": 1077,
      "ating": 1078,
      "my": 1079,
      "AN": 1080,
      "Ġnothing": 1081,
      "ross": 1082,
      "thing": 1083,
      "Ġ----": 1084,
      "Ġfather": 1085,
      "ffect": 1086,
      ".]": 1087,
      "Ġadd": 1088,
      "Ġnum": 1089,
      "Ġact": 1090,
      "iet": 1091,
      "ield": 1092,
      "fl": 1093,
      "rent": 1094,
      "br": 1095,
      "Ġreturn": 1096,
      "Ġspec": 1097,
      "Ġdisc": 1098,
      "ason": 1099,
      "ger": 1100,
      "But": 1101,
      "Ġ7": 1102,
      "'ll": 1103,
      "ern": 1104,
      "Ġmon": 1105,
      "Ġart": 1106,
      "Ġlarge": 1107,
      "Ġface": 1108,
      "alk": 1109,
      "Ġgu": 1110,
      "Ġthee": 1111,
      "wards": 1112,
      "Ġter": 1113,
      "Ġwhom": 1114,
      "gin": 1115,
      "Ġinter": 1116,
      "Ġmind": 1117,
      "EN": 1118,
      "oh": 1119,
      "Ġwhole": 1120,
      "Ġcertain": 1121,
      "Ġfo": 1122,
      "AR": 1123,
      "Ġpoint": 1124,
      "Ġdep": 1125,
      "ustr": 1126,
      "gether": 1127,
      "ĠBr": 1128,
      "Ġdone": 1129,
      "Ġmin": 1130,
      "Ġcountry": 1131,
      "uring": 1132,
      "Ġhaving": 1133,
      "Ġfell": 1134,
      "Ġhalf": 1135,
      "ably": 1136,
      "aster": 1137,
      "ians": 1138,
      "ute": 1139,
      "Ġdays": 1140,
      "Ġfam": 1141,
      "Ġsoon": 1142,
      "ene": 1143,
      "Ġsent": 1144,
      "Ġi": 1145,
      "iness": 1146,
      "ĠThen": 1147,
      "Ġalways": 1148,
      "Ġhapp": 1149,
      "ully": 1150,
      "Ġtru": 1151,
      "pro": 1152,
      "Ġbecause": 1153,
      "ee": 1154,
      "Ġhands": 1155,
      "Ġform": 1156,
      "Ġconf": 1157,
      "ĠIf": 1158,
      "ained": 1159,
      "ĊĊĊĊ": 1160,
      "ton": 1161,
      "mon": 1162,
      "ah": 1163,
      "Ġcle": 1164,
      "Ġye": 1165,
      "Ġhigh": 1166,
      "Ġfour": 1167,
      "Ġhum": 1168,
      "Ġfact": 1169,
      "Ġread": 1170,
      "Ġ8": 1171,
      "ntil": 1172,
      "Ġtold": 1173,
      "_.": 1174,
      "oun": 1175,
      "ĠĠĠĠĠĠĠĠĠĠĠĠĠĠĠĠĠĠĠĠĠĠĠĠ": 1176,
      "Ġthing": 1177,
      ",'": 1178,
      "ling": 1179,
      "amp": 1180,
      "Ġheard": 1181,
      "gr": 1182,
      "Ġless": 1183,
      "Ġcur": 1184,
      "ately": 1185,
      "Ġstand": 1186,
      "Ġdeath": 1187,
      "Ġhour": 1188,
      "Ġhome": 1189,
      "ub": 1190,
      "II": 1191,
      "ains": 1192,
      "Ġwant": 1193,
      "ider": 1194,
      "ceed": 1195,
      "Ġans": 1196,
      "ĠLord": 1197,
      "ines": 1198,
      "ĠAr": 1199,
      "ets": 1200,
      "pped": 1201,
      "ĠHis": 1202,
      "Ġdra": 1203,
      "Ġgot": 1204,
      "Ġref": 1205,
      "ET": 1206,
      "Ġvar": 1207,
      "az": 1208,
      "ung": 1209,
      "ĠWhen": 1210,
      "Ġpower": 1211,
      "Ġcond": 1212,
      "Ġbest": 1213,
      "Ġsk": 1214,
      "Ġtra": 1215,
      "ĠSo": 1216,
      "ury": 1217,
      "Ġdel": 1218,
      "xt": 1219,
      "ific": 1220,
      "Ġfore": 1221,
      "Ġround": 1222,
      "Ġmom": 1223,
      "Ġass": 1224,
      "Ġmo": 1225,
      "Ġnec": 1226,
      "ĠThat": 1227,
      "ES": 1228,
      "ys": 1229,
      "Ġgra": 1230,
      "Ġson": 1231,
      "terest": 1232,
      "ĠIs": 1233,
      "Ġbro": 1234,
      "fic": 1235,
      "Ġgiven": 1236,
      "ĠâĢľ": 1237,
      "ention": 1238,
      "urch": 1239,
      "oub": 1240,
      "Ġsat": 1241,
      "Ġtre": 1242,
      "Ġcent": 1243,
      ".--": 1244,
      "Ġhor": 1245,
      "ĠChrist": 1246,
      "ĠWh": 1247,
      "ote": 1248,
      "ages": 1249,
      "Ġcare": 1250,
      "ches": 1251,
      "ĠTHE": 1252,
      "had": 1253,
      "ison": 1254,
      "ĠYou": 1255,
      "ense": 1256,
      "Ġgave": 1257,
      "aces": 1258,
      "ĠAt": 1259,
      "Ġwind": 1260,
      "Ġbelie": 1261,
      "Ġwords": 1262,
      "Ġbrought": 1263,
      "Ġfr": 1264,
      "lect": 1265,
      "Ġadv": 1266,
      "ĠInd": 1267,
      "Ġste": 1268,
      "lish": 1269,
      "owed": 1270,
      "oul": 1271,
      "02": 1272,
      "Ġmatter": 1273,
      "Ġsim": 1274,
      "Ġii": 1275,
      "sp": 1276,
      "bed": 1277,
      "undred": 1278,
      "ĠMar": 1279,
      "ĠĠĠĠĠ": 1280,
      "atch": 1281,
      "ives": 1282,
      "Ġlooked": 1283,
      "Ġhard": 1284,
      "elt": 1285,
      "Ġfeel": 1286,
      "Ġuse": 1287,
      "Ġes": 1288,
      "unt": 1289,
      "Ġcourse": 1290,
      "Ġsuff": 1291,
      "Ġvis": 1292,
      "Ġuntil": 1293,
      "Ġbetter": 1294,
      "Ġasked": 1295,
      "Ġtaken": 1296,
      "Ġrece": 1297,
      "now": 1298,
      "Ġprop": 1299,
      "Ġquite": 1300,
      "Ġkeep": 1301,
      "ides": 1302,
      "Ġhowever": 1303,
      "ually": 1304,
      "Ġthus": 1305,
      "ĠNo": 1306,
      "cha": 1307,
      "Ġel": 1308,
      "Ġ17": 1309,
      "eter": 1310,
      "Ġserv": 1311,
      "Ġcol": 1312,
      "Ġopen": 1313,
      "oice": 1314,
      "ug": 1315,
      "orning": 1316,
      "oud": 1317,
      "Ġwhite": 1318,
      "Ġdon": 1319,
      "Ġroom": 1320,
      "Ġbeaut": 1321,
      "osition": 1322,
      "Ġpleas": 1323,
      "Ġfire": 1324,
      "Ġsy": 1325,
      "Ġche": 1326,
      "You": 1327,
      "day": 1328,
      "Ġseemed": 1329,
      "Ġwhose": 1330,
      "ering": 1331,
      "Ġdoes": 1332,
      "irc": 1333,
      "iew": 1334,
      "aced": 1335,
      "Ġlaw": 1336,
      "Ġalmost": 1337,
      "ident": 1338,
      "Ġwoman": 1339,
      "Ġmoment": 1340,
      "ohn": 1341,
      "Ġsil": 1342,
      "Ġte": 1343,
      "ĠOn": 1344,
      "par": 1345,
      "Ġfeet": 1346,
      "Ġgoing": 1347,
      "ached": 1348,
      "you": 1349,
      "Ġdiffe": 1350,
      "ided": 1351,
      "Ġknew": 1352,
      "right": 1353,
      "Ġfull": 1354,
      "Ġfall": 1355,
      "Ġabove": 1356,
      "Ġsays": 1357,
      "ative": 1358,
      "ĊĠĠĠĠĠĠĠ": 1359,
      "read": 1360,
      "Ġbeh": 1361,
      "fect": 1362,
      "form": 1363,
      "Ġpri": 1364,
      "ĠRe": 1365,
      "meric": 1366,
      "hip": 1367,
      "Ġ--": 1368,
      "Ġrather": 1369,
      "ution": 1370,
      "Ġfa": 1371,
      "Ġothers": 1372,
      "Ġmil": 1373,
      "ĠAl": 1374,
      "Ġdire": 1375,
      "Ġcontin": 1376,
      "Ġ9": 1377,
      "ĊĠĠ": 1378,
      "ank": 1379,
      "18": 1380,
      "ĠKing": 1381,
      "Ġhon": 1382,
      "ured": 1383,
      "Ġused": 1384,
      "Ġsince": 1385,
      "Ġenough": 1386,
      "oke": 1387,
      "ressed": 1388,
      "ORD": 1389,
      "ĠWhat": 1390,
      "Ġdoor": 1391,
      "Ġinterest": 1392,
      "Ġperson": 1393,
      "Ġtrue": 1394,
      "ey": 1395,
      "stand": 1396,
      "Ġbody": 1397,
      "Ġthemselves": 1398,
      "ĠSp": 1399,
      "ned": 1400,
      "ended": 1401,
      "cho": 1402,
      "Ġcannot": 1403,
      "ham": 1404,
      "haps": 1405,
      "ards": 1406,
      "Ġearth": 1407,
      "ric": 1408,
      "ude": 1409,
      "Ġhundred": 1410,
      "Ġhear": 1411,
      "oney": 1412,
      "Ġtogether": 1413,
      "ius": 1414,
      "ism": 1415,
      "no": 1416,
      ",--": 1417,
      "ery": 1418,
      "Ġlay": 1419,
      "Ġsun": 1420,
      "ublic": 1421,
      "Ġdark": 1422,
      "ĠPr": 1423,
      "Ġill": 1424,
      "from": 1425,
      "Ġwa": 1426,
      "irit": 1427,
      "âĢĶ": 1428,
      "ĠOF": 1429,
      "bit": 1430,
      "fort": 1431,
      "Ġmother": 1432,
      "entle": 1433,
      "Ġins": 1434,
      "ural": 1435,
      "overed": 1436,
      "used": 1437,
      "Ġknown": 1438,
      "irl": 1439,
      "Ġsign": 1440,
      "akes": 1441,
      "range": 1442,
      "Ġ19": 1443,
      "We": 1444,
      "llustr": 1445,
      "ames": 1446,
      "Ġadm": 1447,
      "uck": 1448,
      "eng": 1449,
      "Ġcor": 1450,
      "Ġmet": 1451,
      "Ġhel": 1452,
      "estion": 1453,
      "wor": 1454,
      "ized": 1455,
      "Ġopp": 1456,
      "Ġmorning": 1457,
      "Ġnext": 1458,
      "Ġneed": 1459,
      "Ġtill": 1460,
      "aint": 1461,
      "ĠNor": 1462,
      "Ġsing": 1463,
      "mb": 1464,
      "Ġchildren": 1465,
      "Ġdr": 1466,
      "Ġinv": 1467,
      "aven": 1468,
      "Ġbegan": 1469,
      "ott": 1470,
      "aim": 1471,
      "Ġyear": 1472,
      "Ġair": 1473,
      "son": 1474,
      "fully": 1475,
      "well": 1476,
      "Ġsle": 1477,
      "ances": 1478,
      "illed": 1479,
      "Ġground": 1480,
      "HA": 1481,
      "No": 1482,
      "him": 1483,
      "Ġcharac": 1484,
      "Ġcase": 1485,
      ".)": 1486,
      "veral": 1487,
      "Ġbus": 1488,
      "Ġturned": 1489,
      "Ġpres": 1490,
      "enty": 1491,
      "Ġspeak": 1492,
      "Ġcity": 1493,
      "Ġmod": 1494,
      "they": 1495,
      "ĠĠĠĠĠĠĠ": 1496,
      "Ġbook": 1497,
      "Ġ=": 1498,
      "Ġalong": 1499,
      "ality": 1500,
      "Ġprodu": 1501,
      "Ġ16": 1502,
      "Ġdoub": 1503,
      "empt": 1504,
      "Ġ15": 1505,
      "Ġsix": 1506,
      "Ġgre": 1507,
      "Ġtherefore": 1508,
      "Ġdead": 1509,
      "use": 1510,
      "Ġsecond": 1511,
      "ĠBe": 1512,
      "Ġorder": 1513,
      "sc": 1514,
      "ready": 1515,
      "Ġshort": 1516,
      "Ġstrong": 1517,
      "ĠJohn": 1518,
      "Ġwithin": 1519,
      "This": 1520,
      "tern": 1521,
      "Ġed": 1522,
      "uc": 1523,
      "Ġoften": 1524,
      "Ġhold": 1525,
      "Ġfin": 1526,
      "Ġaff": 1527,
      "ature": 1528,
      "Ġappear": 1529,
      "Ġsomething": 1530,
      "ient": 1531,
      "ording": 1532,
      "Illustr": 1533,
      "--------": 1534,
      "oint": 1535,
      "Ġexc": 1536,
      "rence": 1537,
      "ĠAmeric": 1538,
      "Ġmean": 1539,
      "ĠLORD": 1540,
      "ying": 1541,
      "ousand": 1542,
      "Ġest": 1543,
      "ane": 1544,
      "Ġpoor": 1545,
      "Ġprom": 1546,
      "Ġsubject": 1547,
      "Ġclose": 1548,
      "Ġnumber": 1549,
      "Ġwife": 1550,
      "Ġstood": 1551,
      "Ġaw": 1552,
      "Illustration": 1553,
      "Ġtown": 1554,
      "Ġfair": 1555,
      "alth": 1556,
      "What": 1557,
      "str": 1558,
      "Ġblack": 1559,
      "Ġ12": 1560,
      "Ġsea": 1561,
      "ALL": 1562,
      "iting": 1563,
      "ash": 1564,
      "Ġmeans": 1565,
      "Ġmyself": 1566,
      "There": 1567,
      "Ġrun": 1568,
      "Ġtimes": 1569,
      "hil": 1570,
      "ĠMrs": 1571,
      "where": 1572,
      "Ġtrans": 1573,
      "Ġswe": 1574,
      "iving": 1575,
      ".=": 1576,
      "ax": 1577,
      "ges": 1578,
      "ister": 1579,
      "ĠNew": 1580,
      "Ġplay": 1581,
      "what": 1582,
      "Ġred": 1583,
      "Ġori": 1584,
      "have": 1585,
      "Ġcirc": 1586,
      "Ġpassed": 1587,
      "ĠMiss": 1588,
      "ĠQ": 1589,
      "Ġseveral": 1590,
      ").": 1591,
      "Ġpar": 1592,
      "Ġfur": 1593,
      "Ġ----,": 1594,
      "Ġbrother": 1595,
      "were": 1596,
      "Ġnecess": 1597,
      "Ġcommon": 1598,
      "ĊĊĊ": 1599,
      "Ġreason": 1600,
      "Ġide": 1601,
      "ĠUn": 1602,
      "co": 1603,
      "ists": 1604,
      "Ġobser": 1605,
      "Ġshow": 1606,
      "Ġconsider": 1607,
      "Ġwond": 1608,
      "Ġbur": 1609,
      "Ġdef": 1610,
      "ccess": 1611,
      "Ġten": 1612,
      "uthor": 1613,
      "king": 1614,
      "Ġrepl": 1615,
      "iful": 1616,
      "IS": 1617,
      "IC": 1618,
      "Ġcommand": 1619,
      "Ġmer": 1620,
      "rop": 1621,
      "Ġsure": 1622,
      "ility": 1623,
      "ety": 1624,
      "Ġconst": 1625,
      "Ġinde": 1626,
      "Ġeither": 1627,
      "Ġnature": 1628,
      "Ġgold": 1629,
      "iter": 1630,
      "val": 1631,
      "Ġdiv": 1632,
      "ĠX": 1633,
      "ĠWith": 1634,
      "Ġmid": 1635,
      "them": 1636,
      "ert": 1637,
      "10": 1638,
      "Ġwall": 1639,
      "19": 1640,
      "Ġgentle": 1641,
      "une": 1642,
      "ken": 1643,
      "ĠDe": 1644,
      "che": 1645,
      "Ġ10": 1646,
      "Ġsoul": 1647,
      "Ġsum": 1648,
      "their": 1649,
      "ĠSir": 1650,
      "there": 1651,
      "Ġval": 1652,
      "Ġfelt": 1653,
      "Ġrequ": 1654,
      "Ġwood": 1655,
      "icular": 1656,
      "Ġbar": 1657,
      "ley": 1658,
      "Ġdeep": 1659,
      "ĊĊĠĠĠĠĠĠĠĠ": 1660,
      "this": 1661,
      "Ġitself": 1662,
      "US": 1663,
      "Ġgirl": 1664,
      "Ġfriends": 1665,
      "wer": 1666,
      "Ġdev": 1667,
      "Ġvoice": 1668,
      "peri": 1669,
      "Ġbring": 1670,
      "âĢĺ": 1671,
      "ats": 1672,
      "Ġmount": 1673,
      "ped": 1674,
      "ĠCl": 1675,
      "IT": 1676,
      "ially": 1677,
      "Ġeffect": 1678,
      "Ġview": 1679,
      "ĠCom": 1680,
      "aughter": 1681,
      "Ġprin": 1682,
      "Ġoffic": 1683,
      "Ġfear": 1684,
      "AT": 1685,
      "ium": 1686,
      "ots": 1687,
      "though": 1688,
      "itted": 1689,
      "let": 1690,
      "part": 1691,
      "Ġdoubt": 1692,
      "min": 1693,
      "ize": 1694,
      "Ġ14": 1695,
      "Ġhuman": 1696,
      "Ġ.": 1697,
      "cient": 1698,
      "io": 1699,
      "like": 1700,
      "attle": 1701,
      "Ġcut": 1702,
      "Ġmoney": 1703,
      "cript": 1704,
      "Ġthousand": 1705,
      "Ġexpl": 1706,
      "Ġequ": 1707,
      "Ġlead": 1708,
      "Ġduring": 1709,
      "Ġblood": 1710,
      "ites": 1711,
      "Ġmus": 1712,
      "REE": 1713,
      "12": 1714,
      "tr": 1715,
      "Ġ13": 1716,
      "Ġcharacter": 1717,
      "Ġprob": 1718,
      "olog": 1719,
      "ĠAll": 1720,
      "ek": 1721,
      "ream": 1722,
      "Ġremark": 1723,
      "ĠEnglish": 1724,
      "Ġgone": 1725,
      "hile": 1726,
      "Ġreal": 1727,
      "Ġmanner": 1728,
      "Ġaccount": 1729,
      "Ġbelieve": 1730,
      "ETTER": 1731,
      "Ġleast": 1732,
      "Ġ&": 1733,
      "aves": 1734,
      "Ġmis": 1735,
      "ones": 1736,
      "Ġlive": 1737,
      "ilt": 1738,
      "ounded": 1739,
      "ring": 1740,
      "eared": 1741,
      "Ġjud": 1742,
      "Ġorigin": 1743,
      "Ġeas": 1744,
      "Ġvol": 1745,
      "oor": 1746,
      "Ġalready": 1747,
      "ĠLETTER": 1748,
      "ĠHow": 1749,
      "ĠHer": 1750,
      "Ġlear": 1751,
      "she": 1752,
      "tained": 1753,
      "ĠMy": 1754,
      "Ġinf": 1755,
      "asion": 1756,
      "Ġdest": 1757,
      "Ġpol": 1758,
      "Ġcap": 1759,
      "Ġstru": 1760,
      "15": 1761,
      "Ġproper": 1762,
      "Ġfig": 1763,
      "Ġsir": 1764,
      "Ġobject": 1765,
      "Ġdifferent": 1766,
      "ster": 1767,
      "{~": 1768,
      "Ġpossess": 1769,
      "Ġmeet": 1770,
      "~}": 1771,
      "ĠSM": 1772,
      "Ġconc": 1773,
      "rel": 1774,
      "iam": 1775,
      "13": 1776,
      "idence": 1777,
      "pper": 1778,
      "Ġhorse": 1779,
      "gy": 1780,
      "Ġleave": 1781,
      "Ġstate": 1782,
      "ĠLe": 1783,
      "Ġgeneral": 1784,
      "rie": 1785,
      "Ġfive": 1786,
      "rem": 1787,
      "Ġrespect": 1788,
      "She": 1789,
      "Ġchief": 1790,
      "Ġhist": 1791,
      "14": 1792,
      "Ġalone": 1793,
      "Ġanim": 1794,
      "side": 1795,
      "ued": 1796,
      "Ġca": 1797,
      "que": 1798,
      "That": 1799,
      "Ġport": 1800,
      "Ġce": 1801,
      "oe": 1802,
      "uss": 1803,
      "Ġexam": 1804,
      "arent": 1805,
      "Ġclear": 1806,
      "Ġxx": 1807,
      "REEK": 1808,
      "ices": 1809,
      "bs": 1810,
      "Ġhath": 1811,
      "Ġdear": 1812,
      "cap": 1813,
      "Ġtem": 1814,
      "iment": 1815,
      "ĠOf": 1816,
      "Ġspirit": 1817,
      "dden": 1818,
      "orrow": 1819,
      "Ġabs": 1820,
      "Ġele": 1821,
      "GREEK": 1822,
      "Ġmark": 1823,
      "ĠAN": 1824,
      "medi": 1825,
      "dom": 1826,
      "arch": 1827,
      "Ġbehind": 1828,
      "ĠSMALL": 1829,
      "Ġbecome": 1830,
      "rench": 1831,
      "Ġfree": 1832,
      "Ġlady": 1833,
      "Ġstart": 1834,
      "aj": 1835,
      "Ġquestion": 1836,
      "ING": 1837,
      "iled": 1838,
      "Ġprov": 1839,
      "Ġwild": 1840,
      "ries": 1841,
      "Ġhast": 1842,
      "Ġir": 1843,
      "head": 1844,
      "Ġheld": 1845,
      "ĠNow": 1846,
      "Ġriver": 1847,
      "Ġsuccess": 1848,
      "Th": 1849,
      "Ġreplied": 1850,
      "Ġanything": 1851,
      "Ġcried": 1852,
      "orm": 1853,
      "Ġindeed": 1854,
      "Ġbed": 1855,
      "ember": 1856,
      "Ġfollowing": 1857,
      "Ġfine": 1858,
      "Ġpublic": 1859,
      "Ġforth": 1860,
      "Ġenem": 1861,
      "As": 1862,
      "Ġfre": 1863,
      "Ġmed": 1864,
      "Ġfort": 1865,
      "iar": 1866,
      "Ġhope": 1867,
      "Ġline": 1868,
      "aptain": 1869,
      "ract": 1870,
      "ement": 1871,
      "wered": 1872,
      "Ġsudden": 1873,
      "Ġpast": 1874,
      "ection": 1875,
      "Ġpurp": 1876,
      "Ġbes": 1877,
      "iously": 1878,
      "ising": 1879,
      "Ġdri": 1880,
      "Ġran": 1881,
      "Ġbecame": 1882,
      "Ġauthor": 1883,
      "Ġprof": 1884,
      "Ġseems": 1885,
      "ounds": 1886,
      "dle": 1887,
      "Ġimport": 1888,
      "ney": 1889,
      "IL": 1890,
      "Ġbear": 1891,
      "Ġ(?": 1892,
      "To": 1893,
      "Ġsight": 1894,
      "Ġstri": 1895,
      "16": 1896,
      "Ã©": 1897,
      "Ġpa": 1898,
      "rying": 1899,
      "Ġperfect": 1900,
      "itions": 1901,
      "eor": 1902,
      "who": 1903,
      "Ġstud": 1904,
      "Ġperhaps": 1905,
      "Ġlost": 1906,
      "oura": 1907,
      "Ġpret": 1908,
      "mber": 1909,
      "ler": 1910,
      "Ġchurch": 1911,
      "Ġearly": 1912,
      "Ġtowards": 1913,
      "Ġtruth": 1914,
      "gan": 1915,
      "inct": 1916,
      "ased": 1917,
      "Ġet": 1918,
      "Ġdirect": 1919,
      "Ġkept": 1920,
      "ament": 1921,
      "Ġfamily": 1922,
      "owing": 1923,
      "Ġcoll": 1924,
      "17": 1925,
      "ĠSc": 1926,
      "Ġfav": 1927,
      "na": 1928,
      "Ġbird": 1929,
      "Ġexist": 1930,
      "ald": 1931,
      "Ġpat": 1932,
      "chool": 1933,
      "Ġboy": 1934,
      "band": 1935,
      "Ġru": 1936,
      "els": 1937,
      "tered": 1938,
      "Ġsold": 1939,
      "ony": 1940,
      "Ġherself": 1941,
      "ĠBy": 1942,
      "Ġdiffic": 1943,
      "'ve": 1944,
      "'m": 1945,
      "mp": 1946,
      "inc": 1947,
      "Ġsal": 1948,
      "Ġfaith": 1949,
      "ĠOne": 1950,
      "ĠPar": 1951,
      "Ġpain": 1952,
      "Ġho": 1953,
      "Ġexcept": 1954,
      "reg": 1955,
      "When": 1956,
      "Ġhelp": 1957,
      "ondon": 1958,
      "under": 1959,
      "ĠEngland": 1960,
      "ĠSe": 1961,
      "bo": 1962,
      "ĠCon": 1963,
      "Ġroad": 1964,
      "ics": 1965,
      "owers": 1966,
      "An": 1967,
      "ues": 1968,
      "nment": 1969,
      "Ġlow": 1970,
      "Ġarm": 1971,
      "Ġreceived": 1972,
      "Ġcast": 1973,
      "ging": 1974,
      "Ġwhether": 1975,
      "body": 1976,
      "ords": 1977,
      "ught": 1978,
      "Ġarri": 1979,
      "Ġtwenty": 1980,
      "ination": 1981,
      "Ġanswered": 1982,
      "ases": 1983,
      "idge": 1984,
      "inter": 1985,
      "ron": 1986,
      "Ġsort": 1987,
      "ified": 1988,
      "They": 1989,
      "03": 1990,
      "Ġcomple": 1991,
      "ĠFr": 1992,
      "Ġfoot": 1993,
      "ength": 1994,
      "Ġcoming": 1995,
      "itude": 1996,
      "kn": 1997,
      "Ġmonth": 1998,
      "aving": 1999,
      "--\"": 2000,
      "itten": 2001,
      "Then": 2002,
      "Ġelse": 2003,
      "pre": 2004,
      "sequ": 2005,
      "ouble": 2006,
      "ĠPro": 2007,
      "ĠGer": 2008,
      "gs": 2009,
      "Ġcause": 2010,
      "bes": 2011,
      "isf": 2012,
      "Ġvill": 2013,
      "ĠBl": 2014,
      ".âĢĿ": 2015,
      "Ġeye": 2016,
      "utes": 2017,
      "Ġlater": 2018,
      "wo": 2019,
      "Ġpossible": 2020,
      "dis": 2021,
      "Ġeng": 2022,
      "Ġletter": 2023,
      "Ġable": 2024,
      "On": 2025,
      ".[": 2026,
      "Ġmaking": 2027,
      "Ġaccording": 2028,
      "ression": 2029,
      "vol": 2030,
      "Ġexpect": 2031,
      "ĠOr": 2032,
      "Ġspecies": 2033,
      "Ġparticular": 2034,
      "ĠWill": 2035,
      "Ġut": 2036,
      "11": 2037,
      "Ġlau": 2038,
      "pec": 2039,
      "Ġbegin": 2040,
      "~}{~": 2041,
      "Ġreturned": 2042,
      "Ġworth": 2043,
      "Ġfif": 2044,
      "irm": 2045,
      "ours": 2046,
      "Ġtalk": 2047,
      "iver": 2048,
      "ze": 2049,
      "ledge": 2050,
      "Mr": 2051,
      "Ġappro": 2052,
      "Ġmag": 2053,
      "Ġbeautiful": 2054,
      "ĠCol": 2055,
      "go": 2056,
      "LE": 2057,
      "Ġve": 2058,
      "Ġaround": 2059,
      "Ġarms": 2060,
      "Ġsaying": 2061,
      "iod": 2062,
      "mbl": 2063,
      "erous": 2064,
      "HAP": 2065,
      "then": 2066,
      "Ġsol": 2067,
      "angu": 2068,
      "cious": 2069,
      "Ġ(?),": 2070,
      "would": 2071,
      "oot": 2072,
      "Ġcarried": 2073,
      "avy": 2074,
      "Ġcold": 2075,
      "Ġsweet": 2076,
      "usband": 2077,
      "ush": 2078,
      "Ġmiles": 2079,
      "Ġnearly": 2080,
      "Ġmere": 2081,
      "At": 2082,
      "Yes": 2083,
      "Ġrelig": 2084,
      "Ġsit": 2085,
      "Ġpray": 2086,
      "Ġwhy": 2087,
      "ume": 2088,
      "Ġready": 2089,
      "will": 2090,
      "ĠThese": 2091,
      "irt": 2092,
      "Ġmot": 2093,
      "Ġbuild": 2094,
      "af": 2095,
      "Ġunderstand": 2096,
      "reek": 2097,
      "Ġdecl": 2098,
      "Ġwomen": 2099,
      "ĠPl": 2100,
      "Ġsometimes": 2101,
      "000": 2102,
      "HAPTER": 2103,
      "cons": 2104,
      "oman": 2105,
      "ina": 2106,
      "Ġord": 2107,
      "Ġwonder": 2108,
      "ead": 2109,
      "ĠZ": 2110,
      "Ġresult": 2111,
      "Ġtend": 2112,
      "rodu": 2113,
      "Ġdisp": 2114,
      "antly": 2115,
      "Ġcross": 2116,
      "itting": 2117,
      "Ġregard": 2118,
      "Ġhill": 2119,
      "Well": 2120,
      "Ġlab": 2121,
      "Ġaccom": 2122,
      "OU": 2123,
      "uct": 2124,
      "Ġwish": 2125,
      "THE": 2126,
      "Ġfield": 2127,
      "Ġ(_": 2128,
      "Ġbusiness": 2129,
      "Ġquar": 2130,
      "mand": 2131,
      "Ġfront": 2132,
      "ED": 2133,
      "Ġheaven": 2134,
      "Ġfight": 2135,
      "off": 2136,
      "Ġlength": 2137,
      "osp": 2138,
      "ior": 2139,
      "stem": 2140,
      "cle": 2141,
      "Ġquick": 2142,
      "Ġmain": 2143,
      "night": 2144,
      "uke": 2145,
      "cend": 2146,
      "Ġprinci": 2147,
      "pan": 2148,
      "Ġdet": 2149,
      "Ġreally": 2150,
      "ivers": 2151,
      "Ġperiod": 2152,
      "Ġclass": 2153,
      "hall": 2154,
      "ĠGr": 2155,
      "Ġ25": 2156,
      "ĠLondon": 2157,
      "St": 2158,
      "ĠPer": 2159,
      "ump": 2160,
      "Ġoccasion": 2161,
      "ĠFrench": 2162,
      "Ġmove": 2163,
      "anc": 2164,
      "ision": 2165,
      "Ġstrange": 2166,
      "ls": 2167,
      "inary": 2168,
      "Ġpract": 2169,
      "ples": 2170,
      "If": 2171,
      "Ġfollowed": 2172,
      "lt": 2173,
      "ission": 2174,
      "Ġtou": 2175,
      "Ġmine": 2176,
      "Ġentire": 2177,
      "room": 2178,
      "ork": 2179,
      "flu": 2180,
      "Ġevening": 2181,
      "ustom": 2182,
      "EL": 2183,
      "Ġnone": 2184,
      "Ġremain": 2185,
      "Ġlatter": 2186,
      "Ġdang": 2187,
      "uff": 2188,
      "ma": 2189,
      "._,": 2190,
      "Ġexcl": 2191,
      "Ġhur": 2192,
      "Oh": 2193,
      "OL": 2194,
      "Ġbad": 2195,
      "Ġlooking": 2196,
      "!'": 2197,
      "ogn": 2198,
      "oses": 2199,
      "For": 2200,
      "Ġdraw": 2201,
      "Ġbene": 2202,
      "ils": 2203,
      "Ġrepresent": 2204,
      "Ġeight": 2205,
      "yond": 2206,
      "Ġcal": 2207,
      "Ġfurther": 2208,
      "cell": 2209,
      "usion": 2210,
      "Ġstory": 2211,
      "Ġpict": 2212,
      "ops": 2213,
      "Ġwit": 2214,
      "Ġpay": 2215,
      "more": 2216,
      "yn": 2217,
      "20": 2218,
      "light": 2219,
      "ĠAND": 2220,
      "do": 2221,
      "iers": 2222,
      "Ġneither": 2223,
      "Ġlad": 2224,
      "iece": 2225,
      "Ġgover": 2226,
      "ruit": 2227,
      "ĠGeor": 2228,
      "....": 2229,
      "Ġidea": 2230,
      "Ġforce": 2231,
      "Ġsound": 2232,
      "âĢĵ": 2233,
      "Ġmaster": 2234,
      "Ġage": 2235,
      "Ġincl": 2236,
      "ĠâĢĺ": 2237,
      "Ġgod": 2238,
      "Ġnatural": 2239,
      "ences": 2240,
      "Ġcreat": 2241,
      "Ġsto": 2242,
      "OM": 2243,
      "Ġlist": 2244,
      "ribut": 2245,
      "ech": 2246,
      "Ġplaced": 2247,
      "alked": 2248,
      "airs": 2249,
      "Ġformer": 2250,
      "Ġsqu": 2251,
      "Ġpeace": 2252,
      "Ġtable": 2253,
      "Ġhours": 2254,
      "Ġacross": 2255,
      "vo": 2256,
      "Ġstra": 2257,
      "iol": 2258,
      "Ġgreen": 2259,
      "Ġver": 2260,
      "ellow": 2261,
      "ĠSee": 2262,
      "hys": 2263,
      "Ġhusband": 2264,
      "when": 2265,
      "Ġsoci": 2266,
      "ĠEd": 2267,
      "Ġwalk": 2268,
      "Ġhair": 2269,
      "Ġsleep": 2270,
      "Ġmouth": 2271,
      "Ġnecessary": 2272,
      "Ġdaughter": 2273,
      "fer": 2274,
      "amed": 2275,
      "uous": 2276,
      "Ġled": 2277,
      "ĠNot": 2278,
      "gl": 2279,
      "Ġacqu": 2280,
      "Ġprobably": 2281,
      "Ġlonger": 2282,
      "Ġmention": 2283,
      "Ġsense": 2284,
      "face": 2285,
      "come": 2286,
      "cess": 2287,
      "some": 2288,
      "Ġpurpose": 2289,
      "hold": 2290,
      ",âĢĿ": 2291,
      "Ġsac": 2292,
      "Ġloc": 2293,
      "Ġreached": 2294,
      "Ġproceed": 2295,
      "Ġescap": 2296,
      "ining": 2297,
      "imp": 2298,
      "rit": 2299,
      "ĠBrit": 2300,
      "Ġlate": 2301,
      "ĠDr": 2302,
      "ĠHar": 2303,
      "gu": 2304,
      "Ġship": 2305,
      "ift": 2306,
      "Ġpal": 2307,
      "Ġlaid": 2308,
      "Ġ20": 2309,
      "Ġdeg": 2310,
      "So": 2311,
      "riage": 2312,
      "Ġdied": 2313,
      "Ġstep": 2314,
      "Ġdeal": 2315,
      "how": 2316,
      "Ġimmedi": 2317,
      "roy": 2318,
      "ann": 2319,
      "ouses": 2320,
      "ho": 2321,
      "Ġ24": 2322,
      "?'": 2323,
      "Ġbit": 2324,
      ":--": 2325,
      "Ġposition": 2326,
      "ighb": 2327,
      "Ġparts": 2328,
      "Ġanswer": 2329,
      "des": 2330,
      "Ġdro": 2331,
      "ae": 2332,
      "AS": 2333,
      "look": 2334,
      "ĠAd": 2335,
      "Ġpi": 2336,
      "Ġthick": 2337,
      "aimed": 2338,
      "house": 2339,
      "eneral": 2340,
      "Ġscar": 2341,
      "Ġparty": 2342,
      "ingly": 2343,
      "Ġpen": 2344,
      "been": 2345,
      "atic": 2346,
      "erv": 2347,
      "Ġbig": 2348,
      "ror": 2349,
      "ivid": 2350,
      "Ġbattle": 2351,
      "Ġdut": 2352,
      "Ġvisit": 2353,
      "ĠChar": 2354,
      "inion": 2355,
      "Ġbreak": 2356,
      "iety": 2357,
      "Ġliving": 2358,
      "Ġbeyond": 2359,
      "Ġtoward": 2360,
      "acy": 2361,
      "aff": 2362,
      "Ġschool": 2363,
      "Ġmist": 2364,
      "Ġprot": 2365,
      "ested": 2366,
      "Ġrock": 2367,
      "Ġ23": 2368,
      "aged": 2369,
      "Ġappeared": 2370,
      "hand": 2371,
      "Ġbelong": 2372,
      "Ġcorn": 2373,
      "Ã¦": 2374,
      "Ġplain": 2375,
      "Ġhistory": 2376,
      "OT": 2377,
      "ĠAb": 2378,
      "vell": 2379,
      "velop": 2380,
      "23": 2381,
      "bert": 2382,
      "ected": 2383,
      "hard": 2384,
      "ĠFrom": 2385,
      "hood": 2386,
      "ask": 2387,
      "set": 2388,
      "ital": 2389,
      "Ġstreng": 2390,
      "ĠEx": 2391,
      "yl": 2392,
      "ford": 2393,
      "after": 2394,
      "ored": 2395,
      "Ġtreat": 2396,
      "Ġfail": 2397,
      "Ġjoy": 2398,
      "Ġgrand": 2399,
      "Ġtop": 2400,
      "Ġoccup": 2401,
      "Ġnar": 2402,
      "bur": 2403,
      "Ġeff": 2404,
      "Ġwatch": 2405,
      "lo": 2406,
      "ĠCar": 2407,
      "ean": 2408,
      "Ġglad": 2409,
      "Ġdescri": 2410,
      "arden": 2411,
      "Ġslow": 2412,
      "got": 2413,
      "ruct": 2414,
      "Ġtree": 2415,
      "ises": 2416,
      "cont": 2417,
      "Ġprison": 2418,
      "ires": 2419,
      "Ġbra": 2420,
      "ĠBar": 2421,
      "Ġwon": 2422,
      "24": 2423,
      "Ġ26": 2424,
      "Ġslight": 2425,
      "Ġwritten": 2426,
      "Ġwat": 2427,
      "ĠDo": 2428,
      "Ġsus": 2429,
      "has": 2430,
      "Ġfast": 2431,
      "Ġancient": 2432,
      "ĠHere": 2433,
      "rael": 2434,
      "Ġtaking": 2435,
      "Ġchange": 2436,
      "Ġoccur": 2437,
      "ral": 2438,
      "Ġcourt": 2439,
      "Ġsystem": 2440,
      "rupt": 2441,
      "pecially": 2442,
      "ests": 2443,
      "Ġpop": 2444,
      "Ġattempt": 2445,
      "My": 2446,
      "Ġadded": 2447,
      "aul": 2448,
      "Ġlord": 2449,
      "Ġant": 2450,
      "Ġsatisf": 2451,
      "ixed": 2452,
      "kes": 2453,
      "ĠMan": 2454,
      "Ġrich": 2455,
      "asure": 2456,
      "rect": 2457,
      "Ġtrees": 2458,
      "Ġla": 2459,
      "Ġask": 2460,
      "bec": 2461,
      "icked": 2462,
      "Ġquiet": 2463,
      "Ġstone": 2464,
      "ossible": 2465,
      "ploy": 2466,
      "ulation": 2467,
      "ext": 2468,
      "Ġhig": 2469,
      "orses": 2470,
      "Ġdoct": 2471,
      "Ġhot": 2472,
      "can": 2473,
      "joy": 2474,
      "upon": 2475,
      "Ġrose": 2476,
      "Ġincre": 2477,
      "Ġenemy": 2478,
      "Ġgreater": 2479,
      "Âł": 2480,
      "Ġsend": 2481,
      "Ġvarious": 2482,
      "Ġmur": 2483,
      "umst": 2484,
      "cent": 2485,
      "ically": 2486,
      "resh": 2487,
      "Ġprev": 2488,
      "ĠAm": 2489,
      "Ġfellow": 2490,
      "26": 2491,
      "count": 2492,
      "Ġdistance": 2493,
      "Ġservice": 2494,
      "pid": 2495,
      "ference": 2496,
      "thern": 2497,
      "Ġmor": 2498,
      "wise": 2499,
      "Ġer": 2500,
      "teen": 2501,
      "Ġpost": 2502,
      "Ġcontinued": 2503,
      "Ġimag": 2504,
      "Now": 2505,
      "Ġpriv": 2506,
      "aring": 2507,
      "Ġoper": 2508,
      "Ġ29": 2509,
      "Ġwide": 2510,
      "Ġought": 2511,
      "Ġsurpr": 2512,
      "ĠGeorge": 2513,
      "ience": 2514,
      "ument": 2515,
      "Ġdeter": 2516,
      "Ġeat": 2517,
      "Ġobl": 2518,
      "Ġsin": 2519,
      "Ġnorth": 2520,
      "Ġaffect": 2521,
      "irty": 2522,
      "Ġsett": 2523,
      "ency": 2524,
      "Ġstay": 2525,
      "ively": 2526,
      "Ġ27": 2527,
      "Al": 2528,
      "Ġdie": 2529,
      "How": 2530,
      "Ġcompany": 2531,
      "ston": 2532,
      "rough": 2533,
      "ĠEl": 2534,
      "ator": 2535,
      "Ġcoun": 2536,
      "Ġlim": 2537,
      "Ġdepart": 2538,
      "Ġcamp": 2539,
      "Ġbreat": 2540,
      "ilar": 2541,
      "Ġnation": 2542,
      "itary": 2543,
      "ips": 2544,
      "oon": 2545,
      "formed": 2546,
      "ĠLet": 2547,
      "oved": 2548,
      "urope": 2549,
      "Ġpretty": 2550,
      "Ġconn": 2551,
      "gar": 2552,
      "DW": 2553,
      "ening": 2554,
      "Ġgrow": 2555,
      "Ġbright": 2556,
      "Ġ28": 2557,
      "athe": 2558,
      "25": 2559,
      "ĠIN": 2560,
      "aching": 2561,
      "ĠAmerican": 2562,
      "time": 2563,
      "Ġty": 2564,
      "Ġforward": 2565,
      "iant": 2566,
      "Ġlangu": 2567,
      "bers": 2568,
      "Ġann": 2569,
      "Ġentered": 2570,
      "nor": 2571,
      "Ġspoke": 2572,
      "ION": 2573,
      "Ġago": 2574,
      "sec": 2575,
      "vere": 2576,
      "Ġboys": 2577,
      "enth": 2578,
      "Ġcomes": 2579,
      "iling": 2580,
      "'re": 2581,
      "Ġalthough": 2582,
      "isted": 2583,
      "Ġda": 2584,
      "iding": 2585,
      "rank": 2586,
      "Ġden": 2587,
      "Ġsuffic": 2588,
      "Ġgall": 2589,
      "ike": 2590,
      "Ġdelight": 2591,
      "Ġknowledge": 2592,
      "Ġplaces": 2593,
      "ĠGerman": 2594,
      "Ġsecret": 2595,
      "orted": 2596,
      "IG": 2597,
      "Ġdream": 2598,
      "ĠIsrael": 2599,
      "Ġiii": 2600,
      "iff": 2601,
      "Ġconcl": 2602,
      "Ġthird": 2603,
      "Ġsepar": 2604,
      "ivil": 2605,
      "Ġjour": 2606,
      "ories": 2607,
      "Ġlived": 2608,
      "ĠAfter": 2609,
      "Ġinflu": 2610,
      "Ġcrow": 2611,
      "into": 2612,
      "ded": 2613,
      "Ġneighb": 2614,
      "Ġminutes": 2615,
      "bet": 2616,
      "ingu": 2617,
      "ously": 2618,
      "bar": 2619,
      "ushed": 2620,
      "Ġhappy": 2621,
      "Ġgen": 2622,
      "Ġ189": 2623,
      "Ġboat": 2624,
      "cience": 2625,
      "Ġremember": 2626,
      "iii": 2627,
      "Ġbelow": 2628,
      "ns": 2629,
      "eds": 2630,
      "Ġcontr": 2631,
      "ĠCan": 2632,
      "unity": 2633,
      "ĠFl": 2634,
      "Ġsuddenly": 2635,
      "known": 2636,
      "Ġhop": 2637,
      "Ġmakes": 2638,
      "Ġappearance": 2639,
      "Ġevil": 2640,
      "great": 2641,
      "road": 2642,
      "Ġexperi": 2643,
      "ales": 2644,
      "Ġplan": 2645,
      "Ġarmy": 2646,
      "Ġsad": 2647,
      "Ġburn": 2648,
      "Ġattack": 2649,
      "Ġself": 2650,
      "orts": 2651,
      "gment": 2652,
      "Ġsingle": 2653,
      "Ġsugg": 2654,
      "CHAPTER": 2655,
      "ship": 2656,
      "Ġopened": 2657,
      "Ġdesp": 2658,
      "Ġgenerally": 2659,
      "raw": 2660,
      "Ġconce": 2661,
      "sembl": 2662,
      "ming": 2663,
      "ĠĠĠĠĠĠĠĠĠĠĠĠĠĠĠĠĠĠĠĠĠĠĠĠĠĠĠĠĠĠĠĠĠĠĠĠĠĠĠĠ": 2664,
      "Ġfrequ": 2665,
      "04": 2666,
      "rs": 2667,
      "ĠMay": 2668,
      "bel": 2669,
      "uture": 2670,
      "Ġstrength": 2671,
      "Ġheavy": 2672,
      "Ġprep": 2673,
      "oured": 2674,
      "eness": 2675,
      "ev": 2676,
      "pass": 2677,
      "Ch": 2678,
      "Ġcomplete": 2679,
      "about": 2680,
      "hel": 2681,
      "ĊĊĠĠĠĠĠĠĠĠĠ": 2682,
      "Ġcentury": 2683,
      "ager": 2684,
      "Ġremained": 2685,
      "ĠYork": 2686,
      "Ġdifficult": 2687,
      "Ġworks": 2688,
      "AM": 2689,
      "uted": 2690,
      "Ġgentleman": 2691,
      "Ġstat": 2692,
      "Ġcre": 2693,
      "Ġcry": 2694,
      "Ġsoft": 2695,
      "Ġlie": 2696,
      "22": 2697,
      "long": 2698,
      "Ġattention": 2699,
      "Ġemploy": 2700,
      "Ġyouth": 2701,
      "Ġfle": 2702,
      "Ġcovered": 2703,
      "Ġsn": 2704,
      "Ġblue": 2705,
      "Ġcompan": 2706,
      "ogra": 2707,
      "rief": 2708,
      "Ġmass": 2709,
      "eal": 2710,
      "ĠQu": 2711,
      "Ġsouth": 2712,
      "Ġappl": 2713,
      "Ġund": 2714,
      "Ġcertainly": 2715,
      "Ġhorses": 2716,
      "Ġbott": 2717,
      "idered": 2718,
      "anced": 2719,
      "osing": 2720,
      "Ġsave": 2721,
      "car": 2722,
      "Ġrecogn": 2723,
      "pping": 2724,
      "Ġgun": 2725,
      "ENT": 2726,
      "Ġdidn": 2727,
      "Ġleg": 2728,
      "ĠSome": 2729,
      "Ġespecially": 2730,
      "Ġjo": 2731,
      "Ġcru": 2732,
      "ĠEurope": 2733,
      "Ġdrink": 2734,
      "Ġeverything": 2735,
      "place": 2736,
      "Ġves": 2737,
      "Ġmem": 2738,
      "Ġcapt": 2739,
      "Ġestab": 2740,
      "stit": 2741,
      "Ġfruit": 2742,
      "just": 2743,
      "Ġvict": 2744,
      "pic": 2745,
      "oes": 2746,
      "rible": 2747,
      "Ġintell": 2748,
      "aded": 2749,
      "ding": 2750,
      "ruction": 2751,
      "Ġconv": 2752,
      "Ġnoble": 2753,
      "ray": 2754,
      "Ġsens": 2755,
      "Ġfood": 2756,
      "mar": 2757,
      "Ġdisapp": 2758,
      "sk": 2759,
      "ĠWhy": 2760,
      "ĠHen": 2761,
      "ny": 2762,
      "ĠPe": 2763,
      "erc": 2764,
      "Ġformed": 2765,
      "ĠStates": 2766,
      "could": 2767,
      "Ġsuppose": 2768,
      "ply": 2769,
      "inal": 2770,
      "esh": 2771,
      "ĠWhere": 2772,
      "ĠPhil": 2773,
      "Ġdress": 2774,
      "cil": 2775,
      "sm": 2776,
      "Ġang": 2777,
      "ividual": 2778,
      "Ġbeauty": 2779,
      "Ġbound": 2780,
      "Ġwrong": 2781,
      "Ġdoing": 2782,
      "ik": 2783,
      "Ġinqu": 2784,
      "Ġpleasure": 2785,
      "rif": 2786,
      "Ġhat": 2787,
      "Ġmusic": 2788,
      "All": 2789,
      "Ġnames": 2790,
      "mn": 2791,
      "Ġcircumst": 2792,
      "gress": 2793,
      "icate": 2794,
      "Ġclot": 2795,
      "Ġseven": 2796,
      "Ġscarce": 2797,
      "cceed": 2798,
      "iles": 2799,
      "certain": 2800,
      "Ġchance": 2801,
      "Ġopinion": 2802,
      "oted": 2803,
      "ching": 2804,
      "than": 2805,
      "Ġenjoy": 2806,
      "Ġisland": 2807,
      "ĠGreat": 2808,
      "Ġdesire": 2809,
      "Ġimmediately": 2810,
      "Ġfamil": 2811,
      "een": 2812,
      "Ġsons": 2813,
      "iced": 2814,
      "together": 2815,
      "rang": 2816,
      "Ġpersons": 2817,
      "Ġaf": 2818,
      "urs": 2819,
      "ĠChristian": 2820,
      "ĠChurch": 2821,
      "ession": 2822,
      "Ġmad": 2823,
      "gypt": 2824,
      "Ġsize": 2825,
      "Ġaccept": 2826,
      "ĠWho": 2827,
      "Ġfilled": 2828,
      "Ġcomfort": 2829,
      "Ġfool": 2830,
      "ĠTr": 2831,
      "pri": 2832,
      "Ġwalls": 2833,
      "Ġimportant": 2834,
      "Ġfat": 2835,
      "Ġlower": 2836,
      "Ġcondition": 2837,
      "Ġaction": 2838,
      "dered": 2839,
      "rill": 2840,
      "Ġpoet": 2841,
      "Ġfeeling": 2842,
      "Ġvessel": 2843,
      "ĠFrance": 2844,
      "Ġexact": 2845,
      "essed": 2846,
      "itable": 2847,
      "alled": 2848,
      "mit": 2849,
      "see": 2850,
      "olute": 2851,
      "ĠCha": 2852,
      "Ġdevelop": 2853,
      "esus": 2854,
      "ethod": 2855,
      "Ġtried": 2856,
      "reme": 2857,
      "por": 2858,
      "Ġbran": 2859,
      "ĠAmerica": 2860,
      "Ġheat": 2861,
      "Why": 2862,
      "Ġhost": 2863,
      "With": 2864,
      "pond": 2865,
      "ancy": 2866,
      "Ġviol": 2867,
      "Ġwindow": 2868,
      "again": 2869,
      "Ġpaper": 2870,
      "ables": 2871,
      "uliar": 2872,
      "should": 2873,
      "alley": 2874,
      "Ġintrodu": 2875,
      "Ġbuilt": 2876,
      "oom": 2877,
      "Ġpec": 2878,
      "ĠThus": 2879,
      "cription": 2880,
      "Ġsister": 2881,
      "Ġbroad": 2882,
      "Ġmemb": 2883,
      "IR": 2884,
      "Not": 2885,
      "gel": 2886,
      "Ġsomewhat": 2887,
      "reet": 2888,
      "Ġorgan": 2889,
      "bled": 2890,
      "ĠWilliam": 2891,
      "Ġrapid": 2892,
      "27": 2893,
      "Ġtro": 2894,
      "ĠIndian": 2895,
      "CH": 2896,
      "gra": 2897,
      "ishing": 2898,
      "ille": 2899,
      "Ġconsequ": 2900,
      "Ġsafe": 2901,
      "Ġhardly": 2902,
      "Ġenc": 2903,
      "ades": 2904,
      "omes": 2905,
      "Ġtrust": 2906,
      "Ġpiece": 2907,
      "orough": 2908,
      "aterial": 2909,
      "Ġ<": 2910,
      "Ġstanding": 2911,
      "ending": 2912,
      "Ġbroken": 2913,
      "Ġ188": 2914,
      "Ġcontain": 2915,
      "Ġspot": 2916,
      "Ġ186": 2917,
      "RO": 2918,
      "Ġwis": 2919,
      "Ġpra": 2920,
      "Ġwanted": 2921,
      "Ġbeginning": 2922,
      "Ġstream": 2923,
      "ĠItal": 2924,
      "Ġraised": 2925,
      "Ġvillage": 2926,
      "Ġhonour": 2927,
      "Ġgrace": 2928,
      "stood": 2929,
      "onel": 2930,
      "elve": 2931,
      "Ġconduct": 2932,
      "yr": 2933,
      "ulty": 2934,
      "Ġnote": 2935,
      "Ġafterwards": 2936,
      "aled": 2937,
      "imate": 2938,
      "lected": 2939,
      "Ġsword": 2940,
      "reen": 2941,
      "osop": 2942,
      "ĠNorth": 2943,
      "pes": 2944,
      "inner": 2945,
      "Ġdistinct": 2946,
      "ĠMary": 2947,
      "Ġhouses": 2948,
      "ourage": 2949,
      "ication": 2950,
      "Ġmonths": 2951,
      "ointed": 2952,
      "ĠCo": 2953,
      "vi": 2954,
      "ĠSouth": 2955,
      "ca": 2956,
      "Ġpresence": 2957,
      "Ġiron": 2958,
      "vey": 2959,
      "Ġinn": 2960,
      "Ġenter": 2961,
      "ĊĊĠĠ": 2962,
      "Ġban": 2963,
      "uge": 2964,
      "Ġplant": 2965,
      "Ġrepe": 2966,
      "Ġ30": 2967,
      "Ġfresh": 2968,
      "Ġshar": 2969,
      "Ġfigure": 2970,
      "Ġegg": 2971,
      "Ġfly": 2972,
      "ĠCaptain": 2973,
      "ST": 2974,
      "Ġweek": 2975,
      "Ġshore": 2976,
      "uded": 2977,
      "Ġbas": 2978,
      "iqu": 2979,
      "Ġcustom": 2980,
      "elled": 2981,
      "Ġnarrow": 2982,
      "Ġfurn": 2983,
      "eks": 2984,
      "Ġlines": 2985,
      "Ġsuper": 2986,
      "Ġsimilar": 2987,
      "Ġborn": 2988,
      "Ġduty": 2989,
      "Ġcompl": 2990,
      "icated": 2991,
      "ĠBritish": 2992,
      "28": 2993,
      "Ġrace": 2994,
      "Ġhy": 2995,
      "Ġcult": 2996,
      "ĠJer": 2997,
      "ĠYet": 2998,
      "Ġbread": 2999,
      "Ġwrote": 3000,
      "Ġobserved": 3001,
      "Ġdemand": 3002,
      "Ġtry": 3003,
      "III": 3004,
      "Ġshalt": 3005,
      "comm": 3006,
      "jo": 3007,
      "Ġeasy": 3008,
      "umb": 3009,
      "Ġhappened": 3010,
      "Ġmiddle": 3011,
      "iah": 3012,
      "Ġknight": 3013,
      "Ġweak": 3014,
      "igned": 3015,
      "rict": 3016,
      "Ġlaugh": 3017,
      "ett": 3018,
      "Ġchap": 3019,
      "ĠBo": 3020,
      "ĠJack": 3021,
      "ĠGu": 3022,
      "Ġstruck": 3023,
      "Ġoriginal": 3024,
      "50": 3025,
      "Ġsurface": 3026,
      "Ġfal": 3027,
      "eces": 3028,
      "UR": 3029,
      "30": 3030,
      "Of": 3031,
      "eb": 3032,
      "raid": 3033,
      "before": 3034,
      "21": 3035,
      "arm": 3036,
      "Ġsucceed": 3037,
      "habit": 3038,
      "Ġflesh": 3039,
      "ashion": 3040,
      "Ġcases": 3041,
      "Ġglass": 3042,
      "said": 3043,
      "ĠMad": 3044,
      "Ġbirds": 3045,
      "Ġpun": 3046,
      "Ġlanguage": 3047,
      "po": 3048,
      "Ġdestroy": 3049,
      "ends": 3050,
      "ĠQue": 3051,
      "het": 3052,
      "Ġtrouble": 3053,
      "Ġjourney": 3054,
      "Ġfuture": 3055,
      "Ġsimple": 3056,
      "Ġdrew": 3057,
      "Ġarrived": 3058,
      "pal": 3059,
      "Ġguard": 3060,
      "Ar": 3061,
      "Ġstraight": 3062,
      "Ġsong": 3063,
      "Ġtribe": 3064,
      "Ġanx": 3065,
      "Ġmaid": 3066,
      "ĠLady": 3067,
      "ĠTom": 3068,
      "little": 3069,
      "itation": 3070,
      "ux": 3071,
      "Ġdirection": 3072,
      "Ġentirely": 3073,
      "Ġnotice": 3074,
      "Ġappears": 3075,
      "Ġshown": 3076,
      "Ġ187": 3077,
      "Ġgovernment": 3078,
      "Ġhealth": 3079,
      "Ġinstead": 3080,
      "29": 3081,
      "Ġtrain": 3082,
      "Ġcarry": 3083,
      "ibly": 3084,
      "itive": 3085,
      "irth": 3086,
      "Ġwarm": 3087,
      "istance": 3088,
      "rig": 3089,
      "Ġspring": 3090,
      "bles": 3091,
      "zen": 3092,
      "iring": 3093,
      "ajor": 3094,
      "while": 3095,
      "Ġmagn": 3096,
      "Ġyellow": 3097,
      "ĠParis": 3098,
      "Ġball": 3099,
      "Ġgarden": 3100,
      "Ġcost": 3101,
      "Ġfun": 3102,
      "umed": 3103,
      "ĠEgypt": 3104,
      "Ġsole": 3105,
      "Ġphys": 3106,
      "zz": 3107,
      "Is": 3108,
      "ails": 3109,
      "wood": 3110,
      "Ġshad": 3111,
      "Ġexclaimed": 3112,
      "erved": 3113,
      "ĠCor": 3114,
      "Ġsupposed": 3115,
      "Ġforms": 3116,
      "ĊĠĠĠĠĠĠĠĠĠ": 3117,
      "Ġtest": 3118,
      "Ġtender": 3119,
      "istic": 3120,
      "Ġmeant": 3121,
      "Ġvalue": 3122,
      "Ġstreet": 3123,
      "enced": 3124,
      "Be": 3125,
      "Ġserve": 3126,
      "Ġcivil": 3127,
      "Ġeasily": 3128,
      "Ġindividual": 3129,
      "Ġdue": 3130,
      "asp": 3131,
      "ĠSh": 3132,
      "lar": 3133,
      "Ġgar": 3134,
      "Ġusual": 3135,
      "Ġgreatest": 3136,
      "Ġletters": 3137,
      "Ġforest": 3138,
      "oup": 3139,
      "bered": 3140,
      "action": 3141,
      "iction": 3142,
      "Ġvirt": 3143,
      "Ġimpossible": 3144,
      "ĠAnne": 3145,
      "Ġcomb": 3146,
      "work": 3147,
      "ĠPrince": 3148,
      "vation": 3149,
      "Ġsick": 3150,
      "two": 3151,
      "Ġmoved": 3152,
      "Ġbooks": 3153,
      "Ġpaid": 3154,
      "Ġexpress": 3155,
      "aste": 3156,
      "Ġdeterm": 3157,
      "Ġhang": 3158,
      "ishment": 3159,
      "oken": 3160,
      "ĊĊĠĠĠĠĠĠĠĠĠĠĠĠĠĠĠĠ": 3161,
      "Ġlips": 3162,
      "Ġmodern": 3163,
      "Ġpure": 3164,
      "inite": 3165,
      "Ġpeculiar": 3166,
      "Ġanimals": 3167,
      "ĠRo": 3168,
      "Ġ36": 3169,
      "Ġinfluence": 3170,
      "Ġhung": 3171,
      "pers": 3172,
      "Ġchanged": 3173,
      "only": 3174,
      "Ġdog": 3175,
      "rep": 3176,
      "Ġbod": 3177,
      "cr": 3178,
      "...": 3179,
      "Ġgrave": 3180,
      "].": 3181,
      "Ġkilled": 3182,
      "ĠWest": 3183,
      "Ġanimal": 3184,
      "arer": 3185,
      "chan": 3186,
      "Ġph": 3187,
      "olly": 3188,
      "Ġxxx": 3189,
      "Ġoffice": 3190,
      "every": 3191,
      "Ġetc": 3192,
      "formation": 3193,
      "Ġexcell": 3194,
      "ĠĠĠĠĠĠĠĠĠĠĠĠĠĠĠĠĠĠĠĠĠĠĠĠĠĠĠĠĠĠĠĠĠĠĠĠĠĠĠĠĠĠĠĠĠĠĠĠ": 3195,
      "Ġstarted": 3196,
      "ival": 3197,
      "nce": 3198,
      "Ġsitu": 3199,
      "Ġwinter": 3200,
      "Ġemb": 3201,
      "Ġfirm": 3202,
      "Ġtong": 3203,
      "hem": 3204,
      "field": 3205,
      "Ġconvers": 3206,
      "ĠEar": 3207,
      "ĠMor": 3208,
      "Ġbehold": 3209,
      "nat": 3210,
      "ai": 3211,
      "ify": 3212,
      "Ġsummer": 3213,
      "cher": 3214,
      "Ġdiscovered": 3215,
      "rid": 3216,
      "yal": 3217,
      "Ġkill": 3218,
      "Ġproduced": 3219,
      "cing": 3220,
      "ov": 3221,
      "Ġcover": 3222,
      "Ġconsidered": 3223,
      "ĠWell": 3224,
      "overnment": 3225,
      "Ġpursu": 3226,
      "osite": 3227,
      "ĠJesus": 3228,
      "iments": 3229,
      "ology": 3230,
      "Ġbell": 3231,
      "acher": 3232,
      "ĠIndians": 3233,
      "Ġpolit": 3234,
      "ague": 3235,
      "Ġwalked": 3236,
      "Ġgiving": 3237,
      "rees": 3238,
      "kind": 3239,
      "Ġamount": 3240,
      "Ġscene": 3241,
      "essor": 3242,
      "Ġcharge": 3243,
      "Ġcaught": 3244,
      "asts": 3245,
      "ublished": 3246,
      "uses": 3247,
      "reed": 3248,
      "Ġwhis": 3249,
      "lend": 3250,
      "Ġresol": 3251,
      "Ġminute": 3252,
      "Ġthirty": 3253,
      "even": 3254,
      "Ġprocess": 3255,
      "these": 3256,
      "ĠII": 3257,
      "Ġusually": 3258,
      "aries": 3259,
      "Ġbank": 3260,
      "Ġliber": 3261,
      "sha": 3262,
      "Ġcat": 3263,
      "Ġdi": 3264,
      "IV": 3265,
      "pany": 3266,
      "Ġmountain": 3267,
      "ĠDav": 3268,
      "Ġexistence": 3269,
      "Ġapparent": 3270,
      "Ġdom": 3271,
      "ternal": 3272,
      "Ġbeneath": 3273,
      "Ġfing": 3274,
      "Ġofficers": 3275,
      "OW": 3276,
      "AC": 3277,
      "Ġ11": 3278,
      "Ġknows": 3279,
      "AD": 3280,
      "sy": 3281,
      "noon": 3282,
      "Ġtemper": 3283,
      "antage": 3284,
      "40": 3285,
      "ĠMon": 3286,
      "Ġfifty": 3287,
      "fact": 3288,
      "erve": 3289,
      "Ġneck": 3290,
      "Ġsilver": 3291,
      "unk": 3292,
      "Ġspread": 3293,
      "ems": 3294,
      "Ġslowly": 3295,
      "Ġboard": 3296,
      "omen": 3297,
      "ization": 3298,
      "Ġsurr": 3299,
      "Ġseeing": 3300,
      "Ġquickly": 3301,
      "Ġoutside": 3302,
      "ITH": 3303,
      "----------------": 3304,
      "One": 3305,
      "Ġwine": 3306,
      "ulated": 3307,
      "ĠRoman": 3308,
      "His": 3309,
      "ĠRome": 3310,
      "From": 3311,
      "Ġgrew": 3312,
      "Ġsides": 3313,
      "ĠQueen": 3314,
      "Ġspecial": 3315,
      "Ġpros": 3316,
      "Ġcloud": 3317,
      "ye": 3318,
      "acle": 3319,
      "ceived": 3320,
      "ignor": 3321,
      "Ġdanger": 3322,
      "esty": 3323,
      "ĠSha": 3324,
      "After": 3325,
      "Ġutter": 3326,
      "Ġconsiderable": 3327,
      "Ġdistingu": 3328,
      "_)": 3329,
      "Ġmaterial": 3330,
      "Ġdrawn": 3331,
      "may": 3332,
      "char": 3333,
      "Ġdim": 3334,
      "ĠJud": 3335,
      "Ġescape": 3336,
      "Ġroll": 3337,
      "nal": 3338,
      "gain": 3339,
      "Ġdescend": 3340,
      ",[": 3341,
      "Ġpath": 3342,
      "Ġyourself": 3343,
      "ĠWas": 3344,
      "Ġbow": 3345,
      "Ġpassage": 3346,
      "alt": 3347,
      "ĠHenry": 3348,
      "Ġmerely": 3349,
      "made": 3350,
      "Ġprevent": 3351,
      "ourse": 3352,
      "ification": 3353,
      "Ġimpro": 3354,
      "Ġdwell": 3355,
      "Ġliter": 3356,
      "Ġupper": 3357,
      "Ġlearned": 3358,
      "through": 3359,
      "Ġpull": 3360,
      "Ġsoldiers": 3361,
      "Ġmess": 3362,
      "Ġsociety": 3363,
      "Ġfro": 3364,
      "Ġmentioned": 3365,
      "Ġtwelve": 3366,
      "hest": 3367,
      "soci": 3368,
      "Ġwise": 3369,
      "Ġgives": 3370,
      "Ġbrown": 3371,
      "ĠGl": 3372,
      "Ġrise": 3373,
      "ipp": 3374,
      "kin": 3375,
      "ĠCount": 3376,
      "Ġheight": 3377,
      "idently": 3378,
      "._--": 3379,
      "Ġfavour": 3380,
      "Ġleaves": 3381,
      "Ġband": 3382,
      "ration": 3383,
      "UT": 3384,
      "ĠDuke": 3385,
      "Ġextreme": 3386,
      "post": 3387,
      "Ġmethod": 3388,
      "ĠGeneral": 3389,
      "Ġequal": 3390,
      "Ġlives": 3391,
      "ented": 3392,
      "Ġmighty": 3393,
      "Ġforgot": 3394,
      "Ġwhatever": 3395,
      "Ġgetting": 3396,
      "oly": 3397,
      "Ġafraid": 3398,
      "worth": 3399,
      "Ġpress": 3400,
      "ander": 3401,
      "IA": 3402,
      "retched": 3403,
      "Ġmarried": 3404,
      "Ġfol": 3405,
      "Ġreach": 3406,
      "ĠVer": 3407,
      "Ġstock": 3408,
      "Ġsav": 3409,
      "Ġimm": 3410,
      "Ġshowed": 3411,
      "Ġchair": 3412,
      "Ġportion": 3413,
      "Ġpit": 3414,
      "Ġwrite": 3415,
      "Ġdescribed": 3416,
      "Ġmill": 3417,
      "Ġloved": 3418,
      "down": 3419,
      "Ġstopped": 3420,
      "ghed": 3421,
      "Ġcou": 3422,
      "lex": 3423,
      "Ġeast": 3424,
      "Ġbeside": 3425,
      "Ġcolour": 3426,
      "Ġhero": 3427,
      "á½": 3428,
      "ata": 3429,
      "otion": 3430,
      "Ġsilence": 3431,
      "Ġoblig": 3432,
      "ishop": 3433,
      "Ġthoughts": 3434,
      "clock": 3435,
      "ĠJew": 3436,
      "bey": 3437,
      "enn": 3438,
      "Ġreligion": 3439,
      "Ġ33": 3440,
      "Ġcra": 3441,
      "ĠCal": 3442,
      "Ġpassing": 3443,
      "ĠFather": 3444,
      "ĠWar": 3445,
      "ĊĊĠĠĠĠĠĠĠĠĠĠĠĠĠĠĠĠĠĠĠĠĠĠĠĠ": 3446,
      "aked": 3447,
      "Ġreceive": 3448,
      "happ": 3449,
      "chant": 3450,
      "Ġshout": 3451,
      "Ġopport": 3452,
      "Ġloss": 3453,
      "Ġcrown": 3454,
      "Ġinteresting": 3455,
      "eed": 3456,
      "Ġshell": 3457,
      "hire": 3458,
      "Ġcho": 3459,
      "Ġfalse": 3460,
      "Ġphil": 3461,
      "ĠEm": 3462,
      "Ġdegree": 3463,
      "Ġcommun": 3464,
      "Ġoffer": 3465,
      "ĠAnt": 3466,
      "Ġder": 3467,
      "Ġgrass": 3468,
      "Ġpicture": 3469,
      "Ġevidence": 3470,
      "Ġgods": 3471,
      "occ": 3472,
      "Ġleaving": 3473,
      "Ġrecord": 3474,
      "bid": 3475,
      "Ġmoon": 3476,
      "Ġscarcely": 3477,
      "Ġfem": 3478,
      "dy": 3479,
      "orne": 3480,
      "first": 3481,
      "Ġrid": 3482,
      "Ġgoes": 3483,
      "ception": 3484,
      "Ġvain": 3485,
      "Ġ35": 3486,
      "Ġbreath": 3487,
      "=:": 3488,
      "Ġwait": 3489,
      "Ġav": 3490,
      "Ġkingdom": 3491,
      "Ġfill": 3492,
      "Ġcop": 3493,
      "bing": 3494,
      "pon": 3495,
      "Ġprove": 3496,
      "Ġlif": 3497,
      "ĠTheir": 3498,
      "ĠHouse": 3499,
      "ĊĊĊĠ": 3500,
      "ailed": 3501,
      "Ġexample": 3502,
      "illy": 3503,
      "Ġdread": 3504,
      "Ġthin": 3505,
      "aver": 3506,
      "bre": 3507,
      "your": 3508,
      "Ġspeed": 3509,
      "Ġmembers": 3510,
      "fast": 3511,
      "Ġtrad": 3512,
      "back": 3513,
      "Ġdry": 3514,
      "Ġtears": 3515,
      "inent": 3516,
      "play": 3517,
      "Ġallowed": 3518,
      "never": 3519,
      "Ġexpected": 3520,
      "port": 3521,
      "Ġhabit": 3522,
      "Ġprint": 3523,
      "Ġspoken": 3524,
      "ato": 3525,
      "Ġrain": 3526,
      "being": 3527,
      "note": 3528,
      "mitted": 3529,
      "ĠOur": 3530,
      "Ġnumerous": 3531,
      "heart": 3532,
      "wr": 3533,
      "Ġsorrow": 3534,
      "Ġfloor": 3535,
      "inn": 3536,
      "icks": 3537,
      "icle": 3538,
      "Ġyes": 3539,
      "acc": 3540,
      "Ġspace": 3541,
      "Ġholy": 3542,
      "dist": 3543,
      "Ġfit": 3544,
      "Ġflowers": 3545,
      "omer": 3546,
      "Ġwitness": 3547,
      "Ġ37": 3548,
      "ĠDan": 3549,
      "Ġreligious": 3550,
      "Greek": 3551,
      "Ġshot": 3552,
      "Ġrule": 3553,
      "good": 3554,
      "pet": 3555,
      "Ġmut": 3556,
      "Ġthinking": 3557,
      "much": 3558,
      "Ġexperience": 3559,
      "ica": 3560,
      "44": 3561,
      "By": 3562,
      "Ġexper": 3563,
      "Ġmotion": 3564,
      "Ġess": 3565,
      "sed": 3566,
      "Ġbare": 3567,
      "ias": 3568,
      "orous": 3569,
      "Ġbuilding": 3570,
      "Ġobtained": 3571,
      "Ġdeli": 3572,
      "ffic": 3573,
      "Ġheads": 3574,
      "Ġmel": 3575,
      "RI": 3576,
      "Ġmult": 3577,
      "Ġforget": 3578,
      "Ġexec": 3579,
      "amb": 3580,
      "Ġpieces": 3581,
      "itiz": 3582,
      "Ġones": 3583,
      "ĠLa": 3584,
      "sub": 3585,
      "Ġmort": 3586,
      "Ġcircumstances": 3587,
      "Ġcorner": 3588,
      "Ġgate": 3589,
      "Ġpale": 3590,
      "Ġbold": 3591,
      "Ġauthority": 3592,
      "Ġsufficient": 3593,
      "father": 3594,
      "ĠSpan": 3595,
      "athered": 3596,
      "Ġfra": 3597,
      "Ġwest": 3598,
      "Ġstage": 3599,
      "Ġnamed": 3600,
      "Ġnations": 3601,
      "Ġrul": 3602,
      "Ġbottom": 3603,
      "isc": 3604,
      "ĠMe": 3605,
      "Ġarg": 3606,
      "Ġservant": 3607,
      "ĠCharles": 3608,
      "Ġoffered": 3609,
      "Ġrail": 3610,
      "ĠState": 3611,
      "Ġattract": 3612,
      "Ġstudy": 3613,
      "acing": 3614,
      "Ġnews": 3615,
      "iently": 3616,
      "Ġid": 3617,
      "Ġnative": 3618,
      "Ġdesign": 3619,
      "fortun": 3620,
      "Ġlearn": 3621,
      "Ġremains": 3622,
      "Ġglory": 3623,
      "Ġxl": 3624,
      "Ġspir": 3625,
      "Ġdinner": 3626,
      "Ġships": 3627,
      "Ġhall": 3628,
      "Ġsimply": 3629,
      "Ġprepared": 3630,
      "war": 3631,
      "Ġpleasant": 3632,
      "Ġofficer": 3633,
      "Ġsmile": 3634,
      "ĠCr": 3635,
      "tis": 3636,
      "ibility": 3637,
      "uly": 3638,
      "Ġsnow": 3639,
      "Ġbox": 3640,
      "Ġspeech": 3641,
      "asc": 3642,
      "Ġlikely": 3643,
      "ĠSm": 3644,
      "umber": 3645,
      "ĠThom": 3646,
      "Ġmarriage": 3647,
      "Ġvariety": 3648,
      "Ġbelieved": 3649,
      "Ġextra": 3650,
      "ĠOld": 3651,
      "apers": 3652,
      "Ġinstance": 3653,
      "such": 3654,
      "Ġmedium": 3655,
      "eless": 3656,
      "Ġrunning": 3657,
      "Ġprivate": 3658,
      "uments": 3659,
      "ĠEn": 3660,
      "Ġrequired": 3661,
      "Ġabsolute": 3662,
      "Ġapart": 3663,
      "Ġremarkable": 3664,
      "ien": 3665,
      "AY": 3666,
      "ichard": 3667,
      "iration": 3668,
      "Ġseek": 3669,
      "Ġ38": 3670,
      "Ġreply": 3671,
      "Ġcaused": 3672,
      "rey": 3673,
      "Ġexpression": 3674,
      "Ġcurious": 3675,
      "Ġstir": 3676,
      "Ġhigher": 3677,
      "ĠJames": 3678,
      "Ġiv": 3679,
      "Ġtit": 3680,
      "Ġsand": 3681,
      "Ġshape": 3682,
      "Ġring": 3683,
      "Ġearli": 3684,
      "Ġclaim": 3685,
      "ĠAug": 3686,
      "Ġremem": 3687,
      "ĠTO": 3688,
      "chief": 3689,
      "emed": 3690,
      "ators": 3691,
      "Ġur": 3692,
      "Ġways": 3693,
      "ĠUnited": 3694,
      "EC": 3695,
      "ram": 3696,
      "ĠDavid": 3697,
      "found": 3698,
      "iffe": 3699,
      "uten": 3700,
      "Ġproved": 3701,
      "might": 3702,
      "roll": 3703,
      "know": 3704,
      "Ġrevol": 3705,
      "Ġbroke": 3706,
      "antic": 3707,
      "Ġskin": 3708,
      "Ġears": 3709,
      "ĠDon": 3710,
      "Ġ185": 3711,
      "Ġdifficulty": 3712,
      "ĠPeter": 3713,
      "yle": 3714,
      "Ġthine": 3715,
      "ĠThou": 3716,
      "Ġsubst": 3717,
      "Ġtone": 3718,
      "Ġinhabit": 3719,
      "Ġgaz": 3720,
      "four": 3721,
      "estions": 3722,
      "rec": 3723,
      "Ġquarter": 3724,
      "Ġshut": 3725,
      "mission": 3726,
      "Ġopposite": 3727,
      "Ġweight": 3728,
      "Ġsake": 3729,
      "Ġ39": 3730,
      "Ġsitting": 3731,
      "Ġmeaning": 3732,
      "Ġcultiv": 3733,
      "law": 3734,
      "Ġpot": 3735,
      "ourt": 3736,
      "Ġspeaking": 3737,
      "Do": 3738,
      "Ġclosed": 3739,
      "inst": 3740,
      "arily": 3741,
      "ids": 3742,
      "ĠNep": 3743,
      "Ġfixed": 3744,
      "pected": 3745,
      "without": 3746,
      "AND": 3747,
      "fric": 3748,
      "ĠSw": 3749,
      "ĠEvery": 3750,
      "GE": 3751,
      "orious": 3752,
      "himself": 3753,
      "Ġseason": 3754,
      "Ġaut": 3755,
      "respond": 3756,
      "isto": 3757,
      "Ġpoints": 3758,
      "Ġmoral": 3759,
      "Ġkiss": 3760,
      "Ġconstit": 3761,
      "Ġmiss": 3762,
      "Ġreve": 3763,
      "Ġvent": 3764,
      "orse": 3765,
      "urg": 3766,
      "sect": 3767,
      "sl": 3768,
      "water": 3769,
      "Ġsevent": 3770,
      "Ġtravell": 3771,
      "Here": 3772,
      "ĠXX": 3773,
      "Ġprogress": 3774,
      "ARD": 3775,
      "hib": 3776,
      "Ġlaws": 3777,
      "Ġsharp": 3778,
      "iny": 3779,
      "Ġdetermined": 3780,
      "_;": 3781,
      "Ġappre": 3782,
      "Ġpossession": 3783,
      "eav": 3784,
      "nest": 3785,
      "wing": 3786,
      "erning": 3787,
      "hal": 3788,
      "sur": 3789,
      "ape": 3790,
      "Ġvan": 3791,
      "Ġwicked": 3792,
      "Ġrare": 3793,
      "Ġtot": 3794,
      "ĠJust": 3795,
      "ĠBlack": 3796,
      "Ġforty": 3797,
      "Ġwealth": 3798,
      "Ġtongue": 3799,
      "ieve": 3800,
      "ĊĠĠĠĠĠĠĠĠĠĠĠĠĠĠĠĠĠĠĠĠĠĠĠĠ": 3801,
      "``": 3802,
      "don": 3803,
      "Ġparent": 3804,
      "epend": 3805,
      "ĊĊĠĠĠĠĠĠ": 3806,
      "Ġspent": 3807,
      "Ġlies": 3808,
      "Ġcoast": 3809,
      "Ġphilosop": 3810,
      "Ġworthy": 3811,
      "Ġordered": 3812,
      "ranger": 3813,
      "Ġplease": 3814,
      "Ġfier": 3815,
      "Ġwaiting": 3816,
      "Ġbodies": 3817,
      "Ġproperty": 3818,
      "45": 3819,
      "Ġbeat": 3820,
      "Ġforeign": 3821,
      "rat": 3822,
      "ĠPaul": 3823,
      "view": 3824,
      "Ġstar": 3825,
      "eping": 3826,
      "Ġhid": 3827,
      "Ġwounded": 3828,
      "ores": 3829,
      "Ġjudgment": 3830,
      "Ġpp": 3831,
      "rance": 3832,
      "Ġafternoon": 3833,
      "uce": 3834,
      "Ġwaters": 3835,
      "Ġhunt": 3836,
      "Ġgro": 3837,
      "Ġillustr": 3838,
      "Ġcrit": 3839,
      "Ġcab": 3840,
      "Ġcaptain": 3841,
      "Ġstrugg": 3842,
      "duced": 3843,
      "ĠNe": 3844,
      "Ġproud": 3845,
      "ĠSy": 3846,
      "Ġvalley": 3847,
      "bu": 3848,
      "ox": 3849,
      "Ġsearch": 3850,
      "Ġdam": 3851,
      "Ġsplend": 3852,
      "Ġterrible": 3853,
      "Ġmountains": 3854,
      "icles": 3855,
      "ĠOh": 3856,
      "IO": 3857,
      "nec": 3858,
      "ulf": 3859,
      "order": 3860,
      "host": 3861,
      "Ġfashion": 3862,
      "Ġsteps": 3863,
      "Ġfortune": 3864,
      "Ġlying": 3865,
      "Ġfinally": 3866,
      "Ġfish": 3867,
      "ners": 3868,
      "Ġfacts": 3869,
      "Ġdarkness": 3870,
      "Ġmach": 3871,
      "Ġvast": 3872,
      "Ġclean": 3873,
      "Ġpack": 3874,
      "those": 3875,
      "AP": 3876,
      "Ġladies": 3877,
      "Ġsky": 3878,
      "half": 3879,
      "oned": 3880,
      "Ġinj": 3881,
      "Ġunless": 3882,
      "33": 3883,
      "Ġpersonal": 3884,
      "Ġsli": 3885,
      "Ġtribes": 3886,
      "Ġelect": 3887,
      "Ġfright": 3888,
      ",âĢĻ": 3889,
      "ĠMag": 3890,
      "Ġseat": 3891,
      "Ġplants": 3892,
      "ĠÃ": 3893,
      "Ġsteam": 3894,
      "ĠSam": 3895,
      "Ġturning": 3896,
      "Ġterms": 3897,
      "Ġperfectly": 3898,
      "new": 3899,
      "Ġbrave": 3900,
      "Ġtouch": 3901,
      "Ġcred": 3902,
      "Ġarch": 3903,
      "Ġvig": 3904,
      "Ġlaughed": 3905,
      "Ġfallen": 3906,
      "eous": 3907,
      "anted": 3908,
      "Ġpleased": 3909,
      "ole": 3910,
      "ational": 3911,
      "Ġdecided": 3912,
      "Ġsail": 3913,
      "Ġgrad": 3914,
      "Ġregular": 3915,
      "05": 3916,
      "Ġtall": 3917,
      "Ġpassion": 3918,
      "Ġexcellent": 3919,
      "Ġfrequently": 3920,
      "Ġhills": 3921,
      "Ġsupport": 3922,
      "ounced": 3923,
      "atures": 3924,
      "rate": 3925,
      "ERS": 3926,
      "estern": 3927,
      "ĠHigh": 3928,
      "race": 3929,
      "ashed": 3930,
      "ky": 3931,
      "somet": 3932,
      "ĠST": 3933,
      "Ġbreast": 3934,
      "ĠHim": 3935,
      "Ġourselves": 3936,
      "lished": 3937,
      "43": 3938,
      "Ġstop": 3939,
      "Ġcrowd": 3940,
      "thought": 3941,
      "Ġdeb": 3942,
      "TH": 3943,
      "Ġopportunity": 3944,
      "illa": 3945,
      "ĠStreet": 3946,
      "Ġbitter": 3947,
      "ĊĠĠĠĠĠĠĠĠĠĠĠĠĠĠĠĠ": 3948,
      "Ġbull": 3949,
      "ĊĠĠĠĠĠĠĠĠĠĠĠ": 3950,
      "Ġwear": 3951,
      "five": 3952,
      "Ġproof": 3953,
      "ĠRed": 3954,
      "exic": 3955,
      "46": 3956,
      "did": 3957,
      "lor": 3958,
      "ocks": 3959,
      "Ġwid": 3960,
      "morrow": 3961,
      "ĠEven": 3962,
      "Ġcler": 3963,
      "Ġmatters": 3964,
      "Ġdoctor": 3965,
      "ere": 3966,
      "Ġeduc": 3967,
      "Let": 3968,
      "ees": 3969,
      "Ġmeasure": 3970,
      "Ġrob": 3971,
      "Ġenemies": 3972,
      "Ġprince": 3973,
      "Ġadvantage": 3974,
      "Ġmemory": 3975,
      "Ġconditions": 3976,
      "icy": 3977,
      "ristot": 3978,
      "Ġsour": 3979,
      "isters": 3980,
      "ilst": 3981,
      "Ġagree": 3982,
      "Ġmarked": 3983,
      "These": 3984,
      "Ġadop": 3985,
      "bling": 3986,
      "ancing": 3987,
      "Ġod": 3988,
      "people": 3989,
      "ainted": 3990,
      "Ġloud": 3991,
      "Ġpopular": 3992,
      "[~": 3993,
      "Ġintellig": 3994,
      "Ġunf": 3995,
      "Ġinstant": 3996,
      "ege": 3997,
      "Ġconqu": 3998,
      "oyal": 3999,
      "Pro": 4000,
      "Ġfully": 4001,
      "Ġlot": 4002,
      "ĠWITH": 4003,
      "hens": 4004,
      "ograph": 4005,
      "42": 4006,
      "Ġwonderful": 4007,
      "Ġroyal": 4008,
      "Ġdifference": 4009,
      "ĊĊĠĠĠĠĠĠĠĠĠĠĠĠĠĠ": 4010,
      "ode": 4011,
      "Ġ45": 4012,
      "ĠCat": 4013,
      "ĠRom": 4014,
      "pit": 4015,
      "ĠAfric": 4016,
      "rose": 4017,
      "Ġcand": 4018,
      "Ġwriting": 4019,
      "fall": 4020,
      "asons": 4021,
      "ĠMin": 4022,
      "Ġwrit": 4023,
      "Ġordinary": 4024,
      "Ġoccupied": 4025,
      "itor": 4026,
      "Ġgreatly": 4027,
      "Ġwished": 4028,
      "lebr": 4029,
      "ĠProf": 4030,
      "Ġhearts": 4031,
      "Ġinches": 4032,
      "Ġcentre": 4033,
      "Ġdoll": 4034,
      "Ġpock": 4035,
      "Ġunderstood": 4036,
      "Ġtor": 4037,
      "Ġobtain": 4038,
      "Ġflag": 4039,
      "Ġpriest": 4040,
      "Ġsaith": 4041,
      "Ġdeclared": 4042,
      "Ġreign": 4043,
      "Ġdiscuss": 4044,
      "Ġneighbour": 4045,
      "Ġallow": 4046,
      "Ġjudge": 4047,
      "Ġjustice": 4048,
      "aval": 4049,
      "Ġ+": 4050,
      "Ġyield": 4051,
      "atus": 4052,
      "Ġblind": 4053,
      "Ġeager": 4054,
      "Ġquant": 4055,
      "Ġgame": 4056,
      "give": 4057,
      "Ġeld": 4058,
      "Ġthrew": 4059,
      "Ġperform": 4060,
      "verse": 4061,
      "Ġworse": 4062,
      "Ġspecim": 4063,
      "ĠHam": 4064,
      "Ġlarger": 4065,
      "Ġaccompl": 4066,
      "burg": 4067,
      "Ġtaste": 4068,
      "Ġsought": 4069,
      ");": 4070,
      "Ġbill": 4071,
      "ĠThomas": 4072,
      "theless": 4073,
      "Ġspite": 4074,
      "ios": 4075,
      "Ġwel": 4076,
      "Ġpictures": 4077,
      "Ġrend": 4078,
      "ctor": 4079,
      "Ġcompar": 4080,
      "lands": 4081,
      "Ġrefer": 4082,
      "standing": 4083,
      "ological": 4084,
      "Ġconcern": 4085,
      "ĠSuch": 4086,
      "Ġneg": 4087,
      ".--_": 4088,
      "vis": 4089,
      "Ġsuffer": 4090,
      "ĠGreek": 4091,
      "Ġhonest": 4092,
      "Ġexactly": 4093,
      "urally": 4094,
      "Ġlegs": 4095,
      "three": 4096,
      "ĠPal": 4097,
      "ĠMart": 4098,
      "gent": 4099,
      "shall": 4100,
      "ste": 4101,
      "Ġexerc": 4102,
      "ĠRichard": 4103,
      "Ġhide": 4104,
      "Ġcheer": 4105,
      "isp": 4106,
      "Ġcell": 4107,
      "Ġengaged": 4108,
      "Ġorders": 4109,
      "ĠIII": 4110,
      "supp": 4111,
      "looking": 4112,
      "met": 4113,
      "Ġextent": 4114,
      "orry": 4115,
      "Mar": 4116,
      "gen": 4117,
      "Ġsilent": 4118,
      "Ġattend": 4119,
      "Ġtakes": 4120,
      "Ġmeat": 4121,
      "Ġfamiliar": 4122,
      "36": 4123,
      "ĠPres": 4124,
      "Ġlooks": 4125,
      "dec": 4126,
      "Ġkings": 4127,
      "Ġseed": 4128,
      "pered": 4129,
      "Ġpalace": 4130,
      "Ġbirth": 4131,
      "Ġspirits": 4132,
      "Ġworking": 4133,
      "Ġcourage": 4134,
      "Ġpair": 4135,
      "Ġstreets": 4136,
      "Ġprec": 4137,
      "ams": 4138,
      "Ġrepeated": 4139,
      "attered": 4140,
      "cles": 4141,
      "Ġsurprise": 4142,
      "Ġmir": 4143,
      "ability": 4144,
      "ago": 4145,
      "Ġhistor": 4146,
      "Ġtroops": 4147,
      "Ġmidst": 4148,
      "Ġhence": 4149,
      "ĠHall": 4150,
      "Ġeggs": 4151,
      "Ġexceed": 4152,
      "Ġclothes": 4153,
      "umn": 4154,
      "Ġblow": 4155,
      "Ġdistrict": 4156,
      "ula": 4157,
      "Ġdate": 4158,
      "Ġresembl": 4159,
      "Ġthroughout": 4160,
      "Ġpointed": 4161,
      "ĠGood": 4162,
      "erable": 4163,
      "Ġignor": 4164,
      "ads": 4165,
      "oles": 4166,
      "must": 4167,
      "ĠMore": 4168,
      "Ġunivers": 4169,
      "acious": 4170,
      "outhern": 4171,
      "Ġclim": 4172,
      "ĠSoci": 4173,
      "Ġprim": 4174,
      "Ġpresented": 4175,
      "ĠMed": 4176,
      "irgin": 4177,
      "tw": 4178,
      "Ġservants": 4179,
      "ĠIr": 4180,
      "ĊĠĠĠĠĠĠ": 4181,
      "Ġcities": 4182,
      "uls": 4183,
      "Ġcruel": 4184,
      "Ġavo": 4185,
      "omin": 4186,
      "Ġgrown": 4187,
      "exp": 4188,
      "olic": 4189,
      "OD": 4190,
      "Ġrough": 4191,
      "oseph": 4192,
      "eper": 4193,
      "Ġcurrent": 4194,
      "Ġconversation": 4195,
      "ĠGree": 4196,
      "Ġgathered": 4197,
      "leep": 4198,
      "rue": 4199,
      "ĠIndia": 4200,
      "Ġthrown": 4201,
      "ID": 4202,
      "Ġprepar": 4203,
      "follow": 4204,
      "Ġpromise": 4205,
      "35": 4206,
      "Ġsymp": 4207,
      "Ġmeeting": 4208,
      "Pr": 4209,
      "Ġfamous": 4210,
      "Ġproport": 4211,
      "nes": 4212,
      "ĠRuss": 4213,
      "ensive": 4214,
      "requ": 4215,
      "ivered": 4216,
      "Ġcorrect": 4217,
      "Ġhonor": 4218,
      "Ġdistant": 4219,
      "Ind": 4220,
      "Ġshame": 4221,
      "inity": 4222,
      "fri": 4223,
      "Ġlod": 4224,
      "Ġdu": 4225,
      "Ġaid": 4226,
      "Ġfavor": 4227,
      "take": 4228,
      "uary": 4229,
      "rine": 4230,
      "called": 4231,
      "Ġfollows": 4232,
      "Ġintended": 4233,
      "Ġedge": 4234,
      "ĠFran": 4235,
      "alog": 4236,
      "Ġevidently": 4237,
      "47": 4238,
      "Wh": 4239,
      "48": 4240,
      "ĠGo": 4241,
      "ĠGovernment": 4242,
      "unch": 4243,
      "comp": 4244,
      "rol": 4245,
      "Ġquality": 4246,
      "alem": 4247,
      "many": 4248,
      "Ġbesides": 4249,
      "sell": 4250,
      "Ġnoticed": 4251,
      "peror": 4252,
      "41": 4253,
      "perior": 4254,
      "oming": 4255,
      "Ġtrying": 4256,
      "reck": 4257,
      "uries": 4258,
      "ading": 4259,
      "Ġweeks": 4260,
      "Ġshows": 4261,
      "ols": 4262,
      "Ġremoved": 4263,
      "Ġdoth": 4264,
      "ground": 4265,
      "Ġris": 4266,
      "Ġarrange": 4267,
      "Ġcarefully": 4268,
      "Ġdrawing": 4269,
      "ĠMexic": 4270,
      "Ġstranger": 4271,
      "Ġleading": 4272,
      "Ġnine": 4273,
      "Ġstation": 4274,
      "Ġtrou": 4275,
      "Where": 4276,
      "Ġendeav": 4277,
      "Ġfinished": 4278,
      "God": 4279,
      "Ġaud": 4280,
      "Ġcolor": 4281,
      "lin": 4282,
      "aches": 4283,
      "rant": 4284,
      "Ġfault": 4285,
      "ua": 4286,
      "Ġweather": 4287,
      "Ġdivine": 4288,
      "Ġstyle": 4289,
      "Ġpowers": 4290,
      "Ġtravel": 4291,
      "last": 4292,
      "Ġfate": 4293,
      "stone": 4294,
      "abb": 4295,
      "Eng": 4296,
      "UM": 4297,
      "Ġburied": 4298,
      "Ġserious": 4299,
      "Don": 4300,
      "ois": 4301,
      "Ġburst": 4302,
      "Ġstones": 4303,
      "arest": 4304,
      "ĠJo": 4305,
      "oked": 4306,
      "itz": 4307,
      "Ġimportance": 4308,
      "Ġ22": 4309,
      "la": 4310,
      "thren": 4311,
      "Ġunknown": 4312,
      "Ġdescription": 4313,
      "hum": 4314,
      "Ġaston": 4315,
      "ero": 4316,
      "ĠCome": 4317,
      "Ġvolume": 4318,
      "37": 4319,
      "hant": 4320,
      "Ġpublished": 4321,
      "Ġbelief": 4322,
      ".âĢĻ": 4323,
      "ĠWor": 4324,
      "Ġpred": 4325,
      "Ġtail": 4326,
      "Ġcitiz": 4327,
      "rud": 4328,
      "ĠSec": 4329,
      "Ġpet": 4330,
      "ths": 4331,
      "Ġ21": 4332,
      "Ġproduct": 4333,
      "astic": 4334,
      "Ġalive": 4335,
      "Ġtheory": 4336,
      "Ġlose": 4337,
      "Ġstands": 4338,
      "tering": 4339,
      "equ": 4340,
      "serv": 4341,
      "Î½": 4342,
      "Ġhither": 4343,
      "Ġhighest": 4344,
      "ker": 4345,
      "gged": 4346,
      "line": 4347,
      "ajesty": 4348,
      "ustri": 4349,
      "mes": 4350,
      "ĠWhich": 4351,
      "ique": 4352,
      "enes": 4353,
      "Ġprincipal": 4354,
      "Ġsolemn": 4355,
      "oms": 4356,
      "Ġmilitary": 4357,
      "Ġplayed": 4358,
      "Ġadvent": 4359,
      "pher": 4360,
      "ooth": 4361,
      "Ġgroup": 4362,
      "Ġsalt": 4363,
      "UL": 4364,
      "mas": 4365,
      "Ġforced": 4366,
      "rows": 4367,
      "49": 4368,
      "Ġsquare": 4369,
      "ĠAugust": 4370,
      "ule": 4371,
      "Ġthorough": 4372,
      "ulous": 4373,
      "Ġbless": 4374,
      "ĠCa": 4375,
      "Ġaltogether": 4376,
      "ributed": 4377,
      "ordinary": 4378,
      "using": 4379,
      "ĠColonel": 4380,
      "Ġmovement": 4381,
      "alities": 4382,
      "Ġpride": 4383,
      "Ġempt": 4384,
      "Ġholding": 4385,
      "add": 4386,
      "Ġ...": 4387,
      "ĠLou": 4388,
      "aud": 4389,
      "ari": 4390,
      "Ġgolden": 4391,
      "Ġsan": 4392,
      "ĠHeaven": 4393,
      "Ġthank": 4394,
      "Ġemp": 4395,
      "Ġgirls": 4396,
      "Ġroof": 4397,
      "ĠJe": 4398,
      "Ġopening": 4399,
      "38": 4400,
      "72": 4401,
      "Ġgrat": 4402,
      "Ġadvance": 4403,
      "ĠTe": 4404,
      "Ġmeas": 4405,
      "inet": 4406,
      "ĠVal": 4407,
      "ĠFort": 4408,
      "Ġreport": 4409,
      "ĠScot": 4410,
      "Ġconscious": 4411,
      "Her": 4412,
      "acon": 4413,
      "Ġdouble": 4414,
      "Ġhappiness": 4415,
      "van": 4416,
      "Ġfemale": 4417,
      "Ġdust": 4418,
      "ĠRep": 4419,
      "lection": 4420,
      "Ġemployed": 4421,
      "present": 4422,
      "Ġseries": 4423,
      "Ġevent": 4424,
      "ims": 4425,
      "Ġestablish": 4426,
      "spe": 4427,
      "Ġinformation": 4428,
      "ĠMo": 4429,
      "Ġpowerful": 4430,
      "Ġcontrary": 4431,
      "Ġcouldn": 4432,
      "Ġbecomes": 4433,
      "tar": 4434,
      "Ġimper": 4435,
      "Ġnumbers": 4436,
      "Ġdiscover": 4437,
      "Ġsucceeded": 4438,
      "enc": 4439,
      "Ġequally": 4440,
      "pret": 4441,
      "Ġteeth": 4442,
      "Ġaffairs": 4443,
      "col": 4444,
      "Con": 4445,
      "Ġamongst": 4446,
      "Ġparticularly": 4447,
      "Ġsettled": 4448,
      "ault": 4449,
      "Ġtruly": 4450,
      "IM": 4451,
      "06": 4452,
      "mod": 4453,
      "De": 4454,
      "Ġinstr": 4455,
      "Ġvers": 4456,
      "bits": 4457,
      "Ġrising": 4458,
      "gon": 4459,
      "ential": 4460,
      "ĠFig": 4461,
      "Ġnoise": 4462,
      "Ġlock": 4463,
      "Ġkeeping": 4464,
      "Ġcreature": 4465,
      "Ġ46": 4466,
      "bro": 4467,
      "say": 4468,
      "ĠWhile": 4469,
      "held": 4470,
      "aker": 4471,
      "Ġaffection": 4472,
      "inci": 4473,
      "Ġpos": 4474,
      "Ġrode": 4475,
      "Ġreck": 4476,
      "pril": 4477,
      "bury": 4478,
      "ĠDiv": 4479,
      "Ġaddition": 4480,
      "31": 4481,
      "Î¿": 4482,
      "ĠCast": 4483,
      "ĠTur": 4484,
      "ris": 4485,
      "Ġevents": 4486,
      "Ġwin": 4487,
      "Ġtrade": 4488,
      "turn": 4489,
      "Ġdish": 4490,
      "asant": 4491,
      "Ġhuge": 4492,
      "Ġcelebr": 4493,
      "Ġoccurred": 4494,
      "book": 4495,
      "jud": 4496,
      "Ġdesired": 4497,
      "del": 4498,
      "Ġflat": 4499,
      "Ġserved": 4500,
      "Ġinhabitants": 4501,
      "Ġadvanced": 4502,
      "ĠBer": 4503,
      "took": 4504,
      "Foot": 4505,
      "bon": 4506,
      "Ġthreat": 4507,
      "Ġconcerning": 4508,
      "ĠNephi": 4509,
      "Ġfreed": 4510,
      "aining": 4511,
      "Ġyards": 4512,
      "sw": 4513,
      "Ġscience": 4514,
      "Ġbase": 4515,
      "onder": 4516,
      "Ġcorrespond": 4517,
      "Ġwoods": 4518,
      "uding": 4519,
      "ranged": 4520,
      "Ġshadow": 4521,
      "Ġpage": 4522,
      "peare": 4523,
      "ILL": 4524,
      "ifferent": 4525,
      "Ġsuppl": 4526,
      "TA": 4527,
      "ĠPh": 4528,
      "Ġsevere": 4529,
      "Ġbore": 4530,
      "utation": 4531,
      "child": 4532,
      "ixt": 4533,
      "32": 4534,
      "oo": 4535,
      "bell": 4536,
      "urd": 4537,
      "Ġfaint": 4538,
      "cul": 4539,
      "ĠMarch": 4540,
      "Ġmanif": 4541,
      "ville": 4542,
      "ivity": 4543,
      "Ġproject": 4544,
      "usted": 4545,
      "Ġcapital": 4546,
      "sit": 4547,
      "Ġdise": 4548,
      "Ġbab": 4549,
      "Ġnest": 4550,
      "Ġobliged": 4551,
      "Ġdiam": 4552,
      "Ġpounds": 4553,
      "Ġgather": 4554,
      "Ġswift": 4555,
      "ĠColl": 4556,
      "Ġthro": 4557,
      "Ġcatch": 4558,
      "izab": 4559,
      "Ġentertain": 4560,
      "Ġpolitical": 4561,
      "usalem": 4562,
      "Ġspect": 4563,
      "ĠFirst": 4564,
      "Ġliberty": 4565,
      "Ġbridge": 4566,
      "Ġcalm": 4567,
      "Ġwouldn": 4568,
      "Ġgentlemen": 4569,
      "Who": 4570,
      "Ġafford": 4571,
      "Ġaccompan": 4572,
      "ait": 4573,
      "ĠAristot": 4574,
      "quis": 4575,
      "gments": 4576,
      "Ġrate": 4577,
      "Ġapparently": 4578,
      "Ġpromised": 4579,
      "Ex": 4580,
      "ĠTar": 4581,
      "acity": 4582,
      "ourn": 4583,
      "key": 4584,
      "Ġaside": 4585,
      "Ġslightly": 4586,
      "Ġwarri": 4587,
      "Ġ\"_": 4588,
      "umin": 4589,
      "Ġworked": 4590,
      "umes": 4591,
      "ĠSu": 4592,
      "teenth": 4593,
      "fit": 4594,
      "ĠJoseph": 4595,
      "acks": 4596,
      "Am": 4597,
      "Ġshoulder": 4598,
      "Ġthereof": 4599,
      "Ġcool": 4600,
      "ĠAL": 4601,
      "Ġhandsome": 4602,
      "mense": 4603,
      "Ġcommanded": 4604,
      "Ġdivided": 4605,
      "001": 4606,
      "Ġrelations": 4607,
      "ares": 4608,
      "atory": 4609,
      "ĠCH": 4610,
      "ishes": 4611,
      "UN": 4612,
      "osen": 4613,
      "Ġshook": 4614,
      "Ġdem": 4615,
      "Ġterm": 4616,
      "Ġconnected": 4617,
      "_),": 4618,
      "came": 4619,
      "Ġwatched": 4620,
      "Ġattached": 4621,
      "bly": 4622,
      "ĠMal": 4623,
      "Ġdropped": 4624,
      "Ġproceeded": 4625,
      "Ġspr": 4626,
      "ceive": 4627,
      "ĠBook": 4628,
      "against": 4629,
      "Ġinvent": 4630,
      "Ġdaily": 4631,
      "urb": 4632,
      "isions": 4633,
      "ĠJan": 4634,
      "Ġintroduced": 4635,
      "EM": 4636,
      "Ġdiss": 4637,
      "ocked": 4638,
      "pur": 4639,
      "ĠBen": 4640,
      "Ġpossessed": 4641,
      "giv": 4642,
      "ĠTH": 4643,
      "Ġsituation": 4644,
      "Ġquestions": 4645,
      "Ġwings": 4646,
      "07": 4647,
      "Ġnecessity": 4648,
      "enance": 4649,
      "Ġflight": 4650,
      "necess": 4651,
      "earing": 4652,
      "ds": 4653,
      "Ġestablished": 4654,
      "Ġsacred": 4655,
      "\"'": 4656,
      "39": 4657,
      "Ġdistinguished": 4658,
      "Ġsoldier": 4659,
      "because": 4660,
      "iel": 4661,
      "itch": 4662,
      "Or": 4663,
      "==": 4664,
      "Ġdeser": 4665,
      "\"--": 4666,
      "Ġsupply": 4667,
      "cut": 4668,
      "Ġshare": 4669,
      "Ġreading": 4670,
      "Ġforgotten": 4671,
      "Ġearnest": 4672,
      "Ġexped": 4673,
      "Ġaddress": 4674,
      "Ġtitle": 4675,
      "mother": 4676,
      "cond": 4677,
      "Ġremarked": 4678,
      "Ġcastle": 4679,
      "Ġvirtue": 4680,
      "uable": 4681,
      "Ġbranches": 4682,
      "utions": 4683,
      "Ġfaces": 4684,
      "Ġrapidly": 4685,
      "fle": 4686,
      "Ġfac": 4687,
      "002": 4688,
      "Ah": 4689,
      "Ġincreased": 4690,
      "ĠSpanish": 4691,
      "Ġotherwise": 4692,
      "Ġtaught": 4693,
      "ĠMoses": 4694,
      "utenant": 4695,
      "board": 4696,
      "Ġhosp": 4697,
      "Ġbearing": 4698,
      "Ġbrief": 4699,
      "astern": 4700,
      "umph": 4701,
      "empl": 4702,
      "Ġfancy": 4703,
      "Ġrad": 4704,
      "eg": 4705,
      "Footnote": 4706,
      "Ġvo": 4707,
      "Ġwand": 4708,
      "istory": 4709,
      "Ġfeather": 4710,
      "Ġsmoke": 4711,
      "Ġprovided": 4712,
      "Ġlean": 4713,
      "Ġpreced": 4714,
      "another": 4715,
      "Ġpractice": 4716,
      "ora": 4717,
      "ĠRoyal": 4718,
      "Ġcher": 4719,
      "ĠPet": 4720,
      "Ġtalking": 4721,
      "ushing": 4722,
      "ĠHel": 4723,
      "iest": 4724,
      "hether": 4725,
      "Ġfigures": 4726,
      "Un": 4727,
      "Ġsocial": 4728,
      "Ġanxious": 4729,
      "lly": 4730,
      "Ġmarry": 4731,
      "sue": 4732,
      "mark": 4733,
      "ama": 4734,
      "think": 4735,
      "Ġfled": 4736,
      "udes": 4737,
      "Ġsuffered": 4738,
      "Ġlabor": 4739,
      "Î±": 4740,
      "Ġfond": 4741,
      "interest": 4742,
      "isting": 4743,
      "Ġeffort": 4744,
      "ieties": 4745,
      "course": 4746,
      "Ġsmooth": 4747,
      "Ġtransl": 4748,
      "Ġworship": 4749,
      "Ġhighly": 4750,
      "Ġstro": 4751,
      "Ġrank": 4752,
      "Ġtype": 4753,
      "same": 4754,
      "Ġsubjects": 4755,
      "Ġharm": 4756,
      "ĠIts": 4757,
      "elling": 4758,
      "Ġnice": 4759,
      "Ġshoulders": 4760,
      "Ġwhilst": 4761,
      "rifice": 4762,
      "ĠSte": 4763,
      "Ġbutter": 4764,
      "Ġdare": 4765,
      "ĠYe": 4766,
      "ĠIm": 4767,
      "ĠAlex": 4768,
      "Ġ47": 4769,
      "Ġjoined": 4770,
      "life": 4771,
      "ĠĠĠĠĠĠĠĠĠ": 4772,
      "Ġcontent": 4773,
      "Ġreward": 4774,
      "Ġgrowing": 4775,
      "kespeare": 4776,
      "Ġsecure": 4777,
      "Ġbrill": 4778,
      "Ġexplained": 4779,
      "conf": 4780,
      "Ġbrethren": 4781,
      "CE": 4782,
      "ĠNat": 4783,
      "remon": 4784,
      "Ġfields": 4785,
      "Ġappointed": 4786,
      "far": 4787,
      "still": 4788,
      "aints": 4789,
      "vest": 4790,
      "ĠMark": 4791,
      "ician": 4792,
      "ĠHad": 4793,
      "Ġspake": 4794,
      "Ġwisdom": 4795,
      "Ġment": 4796,
      "Ġorn": 4797,
      "Ġpresently": 4798,
      "Ġdirectly": 4799,
      "ĠArch": 4800,
      "OP": 4801,
      "overy": 4802,
      "Ġfeelings": 4803,
      "izabeth": 4804,
      "Ġdevil": 4805,
      "aunt": 4806,
      "Ġident": 4807,
      "Ġinside": 4808,
      "olf": 4809,
      "agon": 4810,
      "Ġfought": 4811,
      "Ġluck": 4812,
      "ĠBab": 4813,
      "ĠMc": 4814,
      "Ġdressed": 4815,
      "ĠMont": 4816,
      "ĠMaster": 4817,
      "Ġproduce": 4818,
      "ĠÂ": 4819,
      "Ġcow": 4820,
      "lement": 4821,
      "Ġassoci": 4822,
      "OS": 4823,
      "ses": 4824,
      "Ġsell": 4825,
      "Ġcrossed": 4826,
      "Ġstorm": 4827,
      "Ġthrow": 4828,
      "eder": 4829,
      "Ġclosely": 4830,
      "Ġdriven": 4831,
      "Ġ48": 4832,
      "Ġfarther": 4833,
      "Ġinsect": 4834,
      "Ġsurely": 4835,
      "Ġgrief": 4836,
      "ĠJune": 4837,
      "Ġinstit": 4838,
      "country": 4839,
      "Ġfarm": 4840,
      "nothing": 4841,
      "Ġseized": 4842,
      "Ġremembered": 4843,
      "Ġideas": 4844,
      "!--": 4845,
      "003": 4846,
      "mans": 4847,
      "flict": 4848,
      "asing": 4849,
      "aper": 4850,
      "etch": 4851,
      "Ġfinding": 4852,
      "Ġbal": 4853,
      "Ġsuit": 4854,
      "Ġprefer": 4855,
      "between": 4856,
      "Ġangry": 4857,
      "Ġregarded": 4858,
      "Ġexpressed": 4859,
      "Ġsauce": 4860,
      "Ġride": 4861,
      "64": 4862,
      "cur": 4863,
      "Ġble": 4864,
      "Ġcomposed": 4865,
      "uel": 4866,
      "Ġdign": 4867,
      "zan": 4868,
      "Ġsorry": 4869,
      "Ġrepresented": 4870,
      "seen": 4871,
      "Ġlevel": 4872,
      "Ġwriter": 4873,
      "ĠProfessor": 4874,
      "Ġmyst": 4875,
      ".;": 4876,
      "Ġknowing": 4877,
      "ĠJuly": 4878,
      "ool": 4879,
      "Ġap": 4880,
      "Ġener": 4881,
      "Ġmile": 4882,
      "ĠLy": 4883,
      "Ġwindows": 4884,
      "IST": 4885,
      "Ġnon": 4886,
      "Ġreader": 4887,
      "Ġfaithful": 4888,
      "mount": 4889,
      "bus": 4890,
      "Ġqueen": 4891,
      "Ġglance": 4892,
      "Ġrequire": 4893,
      "Ġguns": 4894,
      "Ġslave": 4895,
      "Ġtu": 4896,
      "Ġpity": 4897,
      "Ġweap": 4898,
      "Ġju": 4899,
      "ais": 4900,
      "Ġerr": 4901,
      "aws": 4902,
      "Per": 4903,
      "Ġpocket": 4904,
      "Ġaver": 4905,
      ".\"[": 4906,
      "Ġtwice": 4907,
      "ĠWhite": 4908,
      "rated": 4909,
      "Ġsuspic": 4910,
      "chen": 4911,
      "Ġpill": 4912,
      ",)": 4913,
      "Ġque": 4914,
      "ĠThor": 4915,
      "ĠSociety": 4916,
      "quar": 4917,
      "spec": 4918,
      "istler": 4919,
      "Ġsplendid": 4920,
      "izing": 4921,
      "ardon": 4922,
      "Ġbond": 4923,
      "cribed": 4924,
      "iance": 4925,
      "Ġcup": 4926,
      "ĠPort": 4927,
      "atur": 4928,
      "á¼": 4929,
      "Ġsaved": 4930,
      "ĠFOR": 4931,
      "Ġcharacters": 4932,
      "Ġuncle": 4933,
      "rific": 4934,
      "ĠCHAPTER": 4935,
      "Ġfifteen": 4936,
      "Ġhun": 4937,
      "Ġsaf": 4938,
      "Ġpor": 4939,
      "Ġdangerous": 4940,
      "Ġsuperior": 4941,
      "ĠPat": 4942,
      "away": 4943,
      "Ġabund": 4944,
      "Ġagreed": 4945,
      "09": 4946,
      "cto": 4947,
      "sing": 4948,
      "Ġinstruct": 4949,
      "Pl": 4950,
      "Ġpick": 4951,
      "estic": 4952,
      "ĠRiver": 4953,
      "Ġcarrying": 4954,
      "vy": 4955,
      "rab": 4956,
      "Ġsuggested": 4957,
      "Ġinnoc": 4958,
      "rison": 4959,
      "Ġsheep": 4960,
      "aks": 4961,
      "Ġdevelopment": 4962,
      "Ġmale": 4963,
      "Ġresults": 4964,
      "Ġbeast": 4965,
      "Ġ[~": 4966,
      "Ġslain": 4967,
      "unday": 4968,
      "yer": 4969,
      "asse": 4970,
      "rection": 4971,
      "ĠPom": 4972,
      "Ġproportion": 4973,
      "ĠMer": 4974,
      "Ġpurcha": 4975,
      "Come": 4976,
      "Ġdestroyed": 4977,
      "icip": 4978,
      "ĠTwo": 4979,
      "ĠYes": 4980,
      "Ġclearly": 4981,
      "ĠArt": 4982,
      "ĠMany": 4983,
      "Ġsurprised": 4984,
      "themselves": 4985,
      "ourable": 4986,
      "pons": 4987,
      "Ġdisci": 4988,
      "Ġactually": 4989,
      "poss": 4990,
      "Ġpersu": 4991,
      "ĠJerusalem": 4992,
      "ĠTri": 4993,
      "isher": 4994,
      "Ġsatisfied": 4995,
      "Ġmal": 4996,
      "ĠDel": 4997,
      "Ġdozen": 4998,
      "Ġsoil": 4999,
      "Ġtal": 5000,
      "adv": 5001,
      "wind": 5002,
      "Ġstore": 5003,
      "Ġinch": 5004,
      "Ġmilk": 5005,
      "atin": 5006,
      "cean": 5007,
      "ĠHoly": 5008,
      "ĠLie": 5009,
      "004": 5010,
      "shi": 5011,
      "ĠSon": 5012,
      "Ġentrance": 5013,
      "Ġnaturally": 5014,
      "Ġinvest": 5015,
      "En": 5016,
      "Ġincrease": 5017,
      "nel": 5018,
      "Ġtired": 5019,
      "geon": 5020,
      "Ġrub": 5021,
      "Ġrelation": 5022,
      "Ġstars": 5023,
      "ĠBY": 5024,
      "Ġmercy": 5025,
      "Ġfortun": 5026,
      "Ġfierce": 5027,
      "Ġwore": 5028,
      "Mrs": 5029,
      "aman": 5030,
      "ounding": 5031,
      "Ġmoving": 5032,
      "iana": 5033,
      "Ġtask": 5034,
      "Ġwelcome": 5035,
      "Ġbent": 5036,
      "Ġquantity": 5037,
      "aus": 5038,
      "Ġcoat": 5039,
      "Ġerect": 5040,
      "bor": 5041,
      "ĠYour": 5042,
      "ĠTherefore": 5043,
      "**": 5044,
      "miss": 5045,
      "uit": 5046,
      "Ġfold": 5047,
      "Ġregion": 5048,
      "ĠGreen": 5049,
      "Ġwaited": 5050,
      "Ġfailed": 5051,
      "Ġapplied": 5052,
      "See": 5053,
      "vii": 5054,
      "var": 5055,
      "athy": 5056,
      "ELL": 5057,
      "ĠSpirit": 5058,
      "Ġnational": 5059,
      "tle": 5060,
      "going": 5061,
      "Ġseparate": 5062,
      "terday": 5063,
      "Ġasser": 5064,
      "aps": 5065,
      "non": 5066,
      "Ġhearing": 5067,
      "Ġfellows": 5068,
      "Ġacquaint": 5069,
      "Ġlack": 5070,
      "Ġimmense": 5071,
      "Ġabsence": 5072,
      "Ġcompanion": 5073,
      "Ġrefused": 5074,
      "Ġpraise": 5075,
      "--_": 5076,
      "uns": 5077,
      "Ġchamber": 5078,
      "Ġnose": 5079,
      "Ġflo": 5080,
      "Ġ$": 5081,
      "Ġloose": 5082,
      "irect": 5083,
      "acles": 5084,
      "Some": 5085,
      "Ġhorn": 5086,
      "ĠLouis": 5087,
      "Ġconsequence": 5088,
      "Ġbid": 5089,
      "ĠSax": 5090,
      "Ġconfidence": 5091,
      "005": 5092,
      "mind": 5093,
      "Ġflower": 5094,
      "Ġprinciple": 5095,
      "Ġtim": 5096,
      "iform": 5097,
      "ĠFrank": 5098,
      "Ġsavage": 5099,
      "ANT": 5100,
      "ana": 5101,
      "oking": 5102,
      "conscious": 5103,
      "chol": 5104,
      "ĠSer": 5105,
      "007": 5106,
      "mo": 5107,
      "Ġdoors": 5108,
      "Ġfil": 5109,
      "Ġ[_": 5110,
      "Ġexplan": 5111,
      "hus": 5112,
      "Ġwhence": 5113,
      "Ġlifted": 5114,
      "Ġz": 5115,
      "mond": 5116,
      "Ġassu": 5117,
      "Ġrocks": 5118,
      "mal": 5119,
      "Ġprevious": 5120,
      "Com": 5121,
      "Ġtalked": 5122,
      "Ġpour": 5123,
      "Ġwalking": 5124,
      "Ġbag": 5125,
      "Ġuseful": 5126,
      "Ġhappen": 5127,
      "Ġfighting": 5128,
      "UC": 5129,
      "Ġox": 5130,
      "ĠEast": 5131,
      "iation": 5132,
      "anim": 5133,
      "gate": 5134,
      "Ġwholly": 5135,
      "opp": 5136,
      "Ġwilling": 5137,
      "Ġsingular": 5138,
      "Nor": 5139,
      "ĊĊĠĠĠĠĠ": 5140,
      "Ġmarch": 5141,
      "Ġstruct": 5142,
      "Ġinsp": 5143,
      "Ġescaped": 5144,
      "Ġforces": 5145,
      "ros": 5146,
      "stitution": 5147,
      "Ġbrothers": 5148,
      "ATION": 5149,
      "iden": 5150,
      "ĠWood": 5151,
      "Ġfathers": 5152,
      "Ġfalling": 5153,
      "ĠItaly": 5154,
      "Ġfingers": 5155,
      "born": 5156,
      "Ġlands": 5157,
      "viii": 5158,
      "ĠJac": 5159,
      "Ġdull": 5160,
      "Ġge": 5161,
      "Ġ49": 5162,
      "ocr": 5163,
      "net": 5164,
      "ĠBel": 5165,
      "Ġsigns": 5166,
      "aming": 5167,
      "ĠSpain": 5168,
      "ĠSept": 5169,
      "ĠIV": 5170,
      "amps": 5171,
      "Ġlocation": 5172,
      "Ġpossibly": 5173,
      "Ġshel": 5174,
      "Ġnearer": 5175,
      "atively": 5176,
      "asted": 5177,
      "Ġvessels": 5178,
      "hon": 5179,
      "006": 5180,
      "contin": 5181,
      "Cl": 5182,
      "Ġinterrupt": 5183,
      "ĠIrish": 5184,
      "imony": 5185,
      "Ġguess": 5186,
      "Ġcarriage": 5187,
      "Ġempty": 5188,
      "],": 5189,
      "ĠMa": 5190,
      "Ġyours": 5191,
      "Ġlabour": 5192,
      "unning": 5193,
      "ĠEll": 5194,
      "ieved": 5195,
      "Ġkinds": 5196,
      "also": 5197,
      "Ġdrive": 5198,
      "Ġgrowth": 5199,
      "irable": 5200,
      "Ġprice": 5201,
      "ĠSmith": 5202,
      "fam": 5203,
      "Ġarose": 5204,
      "Ġsugar": 5205,
      "Ġvisited": 5206,
      "Ġobjects": 5207,
      "ousin": 5208,
      "ĠNature": 5209,
      "Ġlovely": 5210,
      "ĠEdward": 5211,
      "Ã¨": 5212,
      "Ġpapers": 5213,
      "acter": 5214,
      "ĠOl": 5215,
      "Ġrender": 5216,
      "Ġplate": 5217,
      "ĠVen": 5218,
      "Ġbegun": 5219,
      "ĠItalian": 5220,
      "eas": 5221,
      "ĠApril": 5222,
      "Ġprayer": 5223,
      "Ġburning": 5224,
      "rous": 5225,
      "Ġing": 5226,
      "Christ": 5227,
      "Ġshield": 5228,
      "ĠJim": 5229,
      "Ġlake": 5230,
      "ĠMil": 5231,
      "Ġspo": 5232,
      "Ġconnection": 5233,
      "ĠAthen": 5234,
      "Ġgloom": 5235,
      "Ġtrembl": 5236,
      "va": 5237,
      "Ġtouched": 5238,
      "Ġearlier": 5239,
      "seless": 5240,
      "Ġbranch": 5241,
      "point": 5242,
      "Ġminds": 5243,
      "AB": 5244,
      "Ġtale": 5245,
      "icious": 5246,
      "Ġhurt": 5247,
      "Sir": 5248,
      "aith": 5249,
      "pring": 5250,
      "Ġtells": 5251,
      "Ġintellect": 5252,
      "Ġcouple": 5253,
      "ĊĠĠĠĠĠĠĠĠĠĠĠĠĠĠĠĠĠĠĠĠĠĠĠĠĠĠĠĠĠĠĠĠ": 5254,
      "Ġice": 5255,
      "Ġflour": 5256,
      "ĠEarl": 5257,
      "ĠDes": 5258,
      "Ġstriking": 5259,
      "Ġstates": 5260,
      "udden": 5261,
      "ba": 5262,
      "(_": 5263,
      "ino": 5264,
      "Ġreven": 5265,
      "Ġdelivered": 5266,
      "ĠHal": 5267,
      "Ġtemple": 5268,
      "Ġwed": 5269,
      "berg": 5270,
      "ĠBrown": 5271,
      "Ġaccompanied": 5272,
      "Ġarrival": 5273,
      "Ġthrone": 5274,
      "Ġindepend": 5275,
      "Ġobey": 5276,
      "ccording": 5277,
      "Ġapproach": 5278,
      "Ġwound": 5279,
      "Ġquietly": 5280,
      "Ġdisplay": 5281,
      "Ġskill": 5282,
      "34": 5283,
      "Ġaband": 5284,
      ";\"": 5285,
      "Ġdeck": 5286,
      "Good": 5287,
      "ĠMic": 5288,
      "Ġpartly": 5289,
      "Ġexplain": 5290,
      "Ġlocal": 5291,
      "Ġpan": 5292,
      "taining": 5293,
      "Ġoffering": 5294,
      "Ġevident": 5295,
      "Ġworn": 5296,
      "esides": 5297,
      "Ġhate": 5298,
      "Ġrighteous": 5299,
      "power": 5300,
      "Ġcountries": 5301,
      "cientific": 5302,
      "Ġdeliver": 5303,
      "Col": 5304,
      "Ġarranged": 5305,
      "Ġfeed": 5306,
      "cor": 5307,
      "KE": 5308,
      "Ġimpl": 5309,
      "Ġregret": 5310,
      "aughters": 5311,
      "Ġconclusion": 5312,
      "Ġgrey": 5313,
      "ĠTol": 5314,
      "Ġanger": 5315,
      "Ġpopulation": 5316,
      "Ġmagnific": 5317,
      "atives": 5318,
      "Ġdollars": 5319,
      "Tis": 5320,
      "ref": 5321,
      "Le": 5322,
      "Ġgain": 5323,
      "Ġaccident": 5324,
      "ldom": 5325,
      "Ġunt": 5326,
      "Ġsafety": 5327,
      "Ġtempt": 5328,
      "ĠMount": 5329,
      "Ġbringing": 5330,
      "inction": 5331,
      "ĠBur": 5332,
      "ĠGrand": 5333,
      "Br": 5334,
      "imon": 5335,
      "Ġstated": 5336,
      "Ġbreakfast": 5337,
      "Ġfeatures": 5338,
      "Ġadmitted": 5339,
      "IUS": 5340,
      "reland": 5341,
      "Ġcro": 5342,
      "Ġsolid": 5343,
      "Ġblessed": 5344,
      "rer": 5345,
      "Ġamid": 5346,
      "Ġguide": 5347,
      "Ġresolved": 5348,
      "Ġamb": 5349,
      "Ġceased": 5350,
      "dep": 5351,
      "Re": 5352,
      "taken": 5353,
      "sey": 5354,
      "rived": 5355,
      "circ": 5356,
      "conc": 5357,
      "Ġobsc": 5358,
      "ĠHomer": 5359,
      "hington": 5360,
      "Ġpup": 5361,
      "Ġended": 5362,
      "alls": 5363,
      "Ġworst": 5364,
      "009": 5365,
      "Ġgradually": 5366,
      "ĠAristotle": 5367,
      "008": 5368,
      "_\"": 5369,
      "Ġprobable": 5370,
      "Ġparents": 5371,
      "Ġcredit": 5372,
      "ĠBec": 5373,
      "too": 5374,
      "ĠWil": 5375,
      "Ġprecious": 5376,
      "cknow": 5377,
      "Ġrelief": 5378,
      "iber": 5379,
      "inions": 5380,
      "ĠSar": 5381,
      "Ġterror": 5382,
      "Ġcounsel": 5383,
      "things": 5384,
      "XX": 5385,
      "Ġdelay": 5386,
      ".),": 5387,
      "Ġstick": 5388,
      "Ġdeeply": 5389,
      "Ġspiritual": 5390,
      "Ġends": 5391,
      "Ġvaluable": 5392,
      "disc": 5393,
      "Ġsmaller": 5394,
      "went": 5395,
      "Ġtum": 5396,
      "Ġisn": 5397,
      "Ġsuffering": 5398,
      "Ġcompletely": 5399,
      "Ġshowing": 5400,
      "iquity": 5401,
      "Ġfreedom": 5402,
      "Ġcloth": 5403,
      "Ab": 5404,
      "Ġcontained": 5405,
      "umpt": 5406,
      "Ġbrain": 5407,
      "Ġthence": 5408,
      "dra": 5409,
      "Sp": 5410,
      "ta": 5411,
      "Ġrout": 5412,
      "Ġchosen": 5413,
      "Ġfamilies": 5414,
      "pter": 5415,
      "ĠOx": 5416,
      "ĠPresident": 5417,
      "bour": 5418,
      "itement": 5419,
      "ĠCourt": 5420,
      "Ġmyster": 5421,
      "others": 5422,
      "Ġ40": 5423,
      "Ġmurder": 5424,
      ".^": 5425,
      "cis": 5426,
      "Ġcondem": 5427,
      "Ġexchan": 5428,
      "ĠÃł": 5429,
      "vious": 5430,
      "ĠSan": 5431,
      "Ġprisoner": 5432,
      "Ġtext": 5433,
      "Ġdaye": 5434,
      "Ġacknow": 5435,
      "65": 5436,
      "among": 5437,
      "white": 5438,
      "Ġsurrounded": 5439,
      "iable": 5440,
      "years": 5441,
      "sued": 5442,
      "Ġcareful": 5443,
      "Ġconstant": 5444,
      "olved": 5445,
      "make": 5446,
      "hend": 5447,
      "Ġeternal": 5448,
      "lying": 5449,
      "ĠAss": 5450,
      "Ġrom": 5451,
      "Ġlest": 5452,
      "Îµ": 5453,
      "itchen": 5454,
      "ufact": 5455,
      "Ġliqu": 5456,
      "phy": 5457,
      "Ġdelicate": 5458,
      "Ġhurried": 5459,
      "Ġtur": 5460,
      "Ġjoin": 5461,
      "Ġextremely": 5462,
      "ĠSen": 5463,
      "rait": 5464,
      "ĠRev": 5465,
      "Ġpainted": 5466,
      "Ġbones": 5467,
      "Qu": 5468,
      "aly": 5469,
      "Will": 5470,
      "ĠPers": 5471,
      "dem": 5472,
      "ums": 5473,
      "Miss": 5474,
      "Ġimpression": 5475,
      "Ġaware": 5476,
      "raham": 5477,
      "Ġven": 5478,
      "Ġsmiled": 5479,
      "gener": 5480,
      "Ġrendered": 5481,
      "Ġtent": 5482,
      "ĠNever": 5483,
      "case": 5484,
      "urches": 5485,
      "liament": 5486,
      "wers": 5487,
      "Ġgent": 5488,
      "Ġneeded": 5489,
      "Ġpreserved": 5490,
      "Ġmurm": 5491,
      "ĠCent": 5492,
      "early": 5493,
      "Ġactual": 5494,
      "Ġdirected": 5495,
      "Ġabsolutely": 5496,
      "Ġassured": 5497,
      "enger": 5498,
      "Ġgenius": 5499,
      "Ġseated": 5500,
      "Ġ`": 5501,
      "echan": 5502,
      "rences": 5503,
      "ĠKING": 5504,
      "inese": 5505,
      "Ġsacrifice": 5506,
      "name": 5507,
      "Ġsex": 5508,
      "ĠFair": 5509,
      "agle": 5510,
      "Ġcrim": 5511,
      "Ġunfortun": 5512,
      "Ġbuy": 5513,
      "ĠSol": 5514,
      "ĠBill": 5515,
      "Ġteach": 5516,
      "Ġtowns": 5517,
      "AU": 5518,
      "Ġrejo": 5519,
      "Ġprinted": 5520,
      "Ġmajor": 5521,
      "Ġreference": 5522,
      "ilities": 5523,
      "Ġgained": 5524,
      "Ġpron": 5525,
      "Ġcattle": 5526,
      "Ġ50": 5527,
      "ctober": 5528,
      "pres": 5529,
      "Ġputting": 5530,
      "Ġinfer": 5531,
      "IP": 5532,
      "Ġrepro": 5533,
      "idenote": 5534,
      "uzz": 5535,
      "Sidenote": 5536,
      "cial": 5537,
      "Ġadvice": 5538,
      "ĠDE": 5539,
      "wed": 5540,
      "eenth": 5541,
      "Ġ{": 5542,
      "ESS": 5543,
      "Ġcauses": 5544,
      "Ġcompanions": 5545,
      "Ġfare": 5546,
      "Ġfairly": 5547,
      "otes": 5548,
      "ĠThough": 5549,
      "Ġimagine": 5550,
      "Lord": 5551,
      "bird": 5552,
      "Ġain": 5553,
      "Ġcard": 5554,
      "Ġadmit": 5555,
      "Ġvine": 5556,
      "Ġarmed": 5557,
      "ointment": 5558,
      "fig": 5559,
      "Ġdemon": 5560,
      "ĠFar": 5561,
      "Ġcircle": 5562,
      "ĠSunday": 5563,
      "ĠCoun": 5564,
      "Ġprinciples": 5565,
      "Ġclasses": 5566,
      "ealous": 5567,
      "ension": 5568,
      "Ġdemanded": 5569,
      "tra": 5570,
      "Ġcountenance": 5571,
      "return": 5572,
      "inced": 5573,
      "ĠMass": 5574,
      "fin": 5575,
      "Ġbusy": 5576,
      "Ġeducation": 5577,
      "?âĢĿ": 5578,
      "pi": 5579,
      "abor": 5580,
      "Ġheav": 5581,
      "ĠElizabeth": 5582,
      "Ġ55": 5583,
      "Ġ57": 5584,
      "Ġdying": 5585,
      "ustomed": 5586,
      "Ġretreat": 5587,
      "pent": 5588,
      "happy": 5589,
      "sat": 5590,
      "Ġtreated": 5591,
      "Ġgray": 5592,
      "010": 5593,
      "ada": 5594,
      "Ġvisible": 5595,
      "Ġmas": 5596,
      "arts": 5597,
      "Ġceremon": 5598,
      "Ġdepend": 5599,
      "Ġneeds": 5600,
      "gend": 5601,
      "Ġsprang": 5602,
      "Ġ179": 5603,
      "large": 5604,
      "win": 5605,
      "ese": 5606,
      "Ġcalling": 5607,
      "Ġdestruction": 5608,
      "bably": 5609,
      "ĠĊĠ": 5610,
      "inging": 5611,
      "Ġnotes": 5612,
      "Ġinher": 5613,
      "ropri": 5614,
      "Ġuniversal": 5615,
      "Ġcrew": 5616,
      "Ġsubstance": 5617,
      "having": 5618,
      "Ġtower": 5619,
      "Ġdogs": 5620,
      "Ġleap": 5621,
      "Ġfourth": 5622,
      "Ġpaied": 5623,
      "duce": 5624,
      "atre": 5625,
      "ria": 5626,
      "Ġvictory": 5627,
      "_--": 5628,
      "ĠShakespeare": 5629,
      "mosp": 5630,
      "ĠĠĠĠĠĠĠĠĠĠ": 5631,
      "ovember": 5632,
      "Ġma": 5633,
      "Ġstern": 5634,
      "abbath": 5635,
      "011": 5636,
      "lers": 5637,
      "Ġtelling": 5638,
      "Ġcitizens": 5639,
      "ĠHu": 5640,
      "Ġoil": 5641,
      "Ġsouls": 5642,
      "Ġwasn": 5643,
      "Ġsuccessful": 5644,
      "something": 5645,
      "Ġsource": 5646,
      "Ġvarieties": 5647,
      "aret": 5648,
      "Ġmoder": 5649,
      "Ġappeal": 5650,
      "ĠCam": 5651,
      "Ġasleep": 5652,
      "ulate": 5653,
      "antry": 5654,
      "common": 5655,
      "Ġrooms": 5656,
      "Ġfulf": 5657,
      "Ġproposed": 5658,
      "Ġenorm": 5659,
      "Ġpriests": 5660,
      "Ġeffects": 5661,
      "Ġcapable": 5662,
      "Ġdespair": 5663,
      "amm": 5664,
      "trans": 5665,
      "omb": 5666,
      "ĠHill": 5667,
      "Ġchoice": 5668,
      "pot": 5669,
      "Ġgas": 5670,
      "ruits": 5671,
      "Ġsupper": 5672,
      "ĠBefore": 5673,
      "riot": 5674,
      "ĠWel": 5675,
      "Ġcollect": 5676,
      "Ġduties": 5677,
      "ĠJews": 5678,
      "IF": 5679,
      "boy": 5680,
      "INE": 5681,
      "ilty": 5682,
      "oser": 5683,
      "ĠJoe": 5684,
      "ĠVol": 5685,
      "Ġstew": 5686,
      "ĠFred": 5687,
      "Ġunable": 5688,
      "Ġawful": 5689,
      "Ġmerchant": 5690,
      "Ġaccepted": 5691,
      "ĠSal": 5692,
      "Ġages": 5693,
      "icity": 5694,
      "ĠCath": 5695,
      "Ġextraordinary": 5696,
      "Ġmachine": 5697,
      "ĠVirgin": 5698,
      "put": 5699,
      "six": 5700,
      "urely": 5701,
      "Ġobserv": 5702,
      "Ġfer": 5703,
      "mir": 5704,
      "olit": 5705,
      "oper": 5706,
      "bridge": 5707,
      "Ġprisoners": 5708,
      "natural": 5709,
      "Ġhollow": 5710,
      "world": 5711,
      "ugg": 5712,
      "Ġdig": 5713,
      "Ġrear": 5714,
      "osal": 5715,
      "owned": 5716,
      "Ġphysical": 5717,
      "zo": 5718,
      "ĠEs": 5719,
      "agement": 5720,
      "Ġquarters": 5721,
      "Ġcreated": 5722,
      "Ġhopes": 5723,
      "blem": 5724,
      "Ġthousands": 5725,
      "eps": 5726,
      "Ġclo": 5727,
      "Ġdiscovery": 5728,
      "Ġdoctrine": 5729,
      "John": 5730,
      "tri": 5731,
      "Ġchiefly": 5732,
      "Ġwatching": 5733,
      "ĠAfrica": 5734,
      "ĠMat": 5735,
      "Ġdrove": 5736,
      "Ġprophe": 5737,
      "erness": 5738,
      "Ġsufficiently": 5739,
      "phe": 5740,
      "ĠThose": 5741,
      "Ġappreci": 5742,
      "Ġascend": 5743,
      "Ġtrem": 5744,
      "ĠRobert": 5745,
      "ylon": 5746,
      "TR": 5747,
      "isl": 5748,
      "uscript": 5749,
      "oyage": 5750,
      "Ġcontinue": 5751,
      "Ġprotect": 5752,
      "osom": 5753,
      "Ġlikewise": 5754,
      "Ġpulled": 5755,
      "Ġinformed": 5756,
      "Ġknees": 5757,
      "ĠWal": 5758,
      "Ġwheel": 5759,
      "cast": 5760,
      "Ġremarks": 5761,
      "inth": 5762,
      "aling": 5763,
      "inder": 5764,
      "Ġraise": 5765,
      "Ġenthus": 5766,
      "ounce": 5767,
      "consider": 5768,
      "Ġdisappeared": 5769,
      "Ġreasons": 5770,
      "Ġactive": 5771,
      "Thus": 5772,
      "Ġconfess": 5773,
      "Ġnur": 5774,
      "forth": 5775,
      "ĠWhistler": 5776,
      "Ġborne": 5777,
      "Ġadopted": 5778,
      "ĠApp": 5779,
      "Ġaltar": 5780,
      "yard": 5781,
      "ĠAh": 5782,
      "aph": 5783,
      "Ġghost": 5784,
      "cember": 5785,
      "pat": 5786,
      "Ġfleet": 5787,
      "care": 5788,
      "Ġknife": 5789,
      "Ġmember": 5790,
      "Ġbuildings": 5791,
      "Ġspecimens": 5792,
      "esar": 5793,
      "ĠDar": 5794,
      "agger": 5795,
      "igation": 5796,
      "Ġexcited": 5797,
      "ĠMac": 5798,
      "Ġere": 5799,
      "ĠIreland": 5800,
      "ona": 5801,
      "Ġnovel": 5802,
      "Ġlisten": 5803,
      "Ġstatement": 5804,
      "--'": 5805,
      "ĠDid": 5806,
      "Ġconstantly": 5807,
      "Ġbecoming": 5808,
      "iversity": 5809,
      "mus": 5810,
      "Ġpil": 5811,
      "Ġkindly": 5812,
      "Ġfame": 5813,
      "Ġgoods": 5814,
      "Ġelement": 5815,
      "Ġwhispered": 5816,
      "Fig": 5817,
      "Ġprofession": 5818,
      "Ġdrop": 5819,
      "ella": 5820,
      "Ġacid": 5821,
      "Ġprospect": 5822,
      "Ġinterested": 5823,
      "Ġvi": 5824,
      "Ġrequest": 5825,
      "Alma": 5826,
      "offe": 5827,
      "Ġbanks": 5828,
      "lie": 5829,
      "ĠPri": 5830,
      "Ġdesper": 5831,
      "Bl": 5832,
      "Ġamaz": 5833,
      "SIL": 5834,
      "ĠDem": 5835,
      "Ġcrime": 5836,
      "Ġstead": 5837,
      "Ġsooner": 5838,
      "Ġrange": 5839,
      "Ġrev": 5840,
      "Ġchanges": 5841,
      "Ġfinal": 5842,
      "AV": 5843,
      "ĠSch": 5844,
      "draw": 5845,
      "ga": 5846,
      "Ġstrang": 5847,
      "mag": 5848,
      "Ġexception": 5849,
      "Ġbrilliant": 5850,
      "SS": 5851,
      "Ġfeast": 5852,
      "Ġhoped": 5853,
      "Ġformerly": 5854,
      "woman": 5855,
      "ĠÎ": 5856,
      "ĠSk": 5857,
      "Ġstructure": 5858,
      "ĠChan": 5859,
      "elle": 5860,
      "Ġcopy": 5861,
      "Americ": 5862,
      "Ġexha": 5863,
      "Ġseldom": 5864,
      "Ġadmin": 5865,
      "Ġartist": 5866,
      "always": 5867,
      "Ġobst": 5868,
      "armed": 5869,
      "Ġlistened": 5870,
      "wa": 5871,
      "Ġreadily": 5872,
      "Ġefforts": 5873,
      "uv": 5874,
      "Ġexplanation": 5875,
      "Ġkeen": 5876,
      "Ġmistress": 5877,
      "Ġavoid": 5878,
      "Ġstruggle": 5879,
      "thy": 5880,
      "Ġrushed": 5881,
      "pen": 5882,
      "Ġaim": 5883,
      "Ġstrict": 5884,
      "Your": 5885,
      "Ġ178": 5886,
      "Ġweary": 5887,
      "ĠLittle": 5888,
      "ardens": 5889,
      "young": 5890,
      "Ġfinger": 5891,
      "och": 5892,
      "ĠCompany": 5893,
      "icted": 5894,
      "appear": 5895,
      "Ġthoroughly": 5896,
      "Ġgrie": 5897,
      "ĠAct": 5898,
      "AG": 5899,
      "arse": 5900,
      "Ġtrial": 5901,
      "regular": 5902,
      "Ġplenty": 5903,
      "Ġpurposes": 5904,
      "incess": 5905,
      "Ġapple": 5906,
      "IAN": 5907,
      "Ġouter": 5908,
      "Ġdevoted": 5909,
      "Ġcord": 5910,
      "Ġdance": 5911,
      "Ġgently": 5912,
      "utch": 5913,
      "60": 5914,
      "sign": 5915,
      "012": 5916,
      "Ġhidden": 5917,
      "Our": 5918,
      "vert": 5919,
      "ĠMus": 5920,
      "Ġperformed": 5921,
      "-+": 5922,
      "ĠĠĠĠĠĠĠĠĠĠĠĠ": 5923,
      "ĠOR": 5924,
      "Ġ31": 5925,
      "ĠFeb": 5926,
      "Ġteacher": 5927,
      "ĠAre": 5928,
      "expected": 5929,
      "asions": 5930,
      "OUN": 5931,
      "Ġboats": 5932,
      "Ġcenturies": 5933,
      "Ġclouds": 5934,
      "BER": 5935,
      "oration": 5936,
      "Ġviews": 5937,
      "EW": 5938,
      "ef": 5939,
      "Ġbought": 5940,
      "Ġcalls": 5941,
      "ĠLove": 5942,
      "Ġcelebrated": 5943,
      "master": 5944,
      "Ġaspect": 5945,
      "dif": 5946,
      "sky": 5947,
      "cal": 5948,
      "Ġá¼": 5949,
      "Ġsen": 5950,
      "Ġham": 5951,
      "Ġhole": 5952,
      "tic": 5953,
      "Ġeverywhere": 5954,
      "aved": 5955,
      "iosity": 5956,
      "Ġchapter": 5957,
      "Ġemer": 5958,
      "Ġfrequent": 5959,
      "kins": 5960,
      "Ġcompelled": 5961,
      "Ġproperly": 5962,
      "IGH": 5963,
      "Ġargument": 5964,
      "thur": 5965,
      "ĠPo": 5966,
      "oring": 5967,
      "Ġalike": 5968,
      "expl": 5969,
      "Ġarticle": 5970,
      "VI": 5971,
      "gest": 5972,
      "inking": 5973,
      "Ġsigh": 5974,
      "Ġgle": 5975,
      "Ġtriumph": 5976,
      "greg": 5977,
      "ara": 5978,
      "Ġgay": 5979,
      "iddle": 5980,
      "force": 5981,
      "wen": 5982,
      "Ġsteep": 5983,
      "Ġbelonging": 5984,
      "Ġdisease": 5985,
      "Î¹": 5986,
      "Ġinquir": 5987,
      "nar": 5988,
      "ifying": 5989,
      "ĠHave": 5990,
      "Ġinstinct": 5991,
      "looked": 5992,
      "Ġinquired": 5993,
      "Ġnet": 5994,
      "ĠSil": 5995,
      "Ġcreatures": 5996,
      "ĠWashington": 5997,
      "Ġcommer": 5998,
      "oonful": 5999,
      "cad": 6000,
      "Ġsovere": 6001,
      "Ġlords": 6002,
      "umm": 6003,
      "ĠBehold": 6004,
      "Ġconsideration": 6005,
      "ĠKe": 6006,
      "Ġveget": 6007,
      "gels": 6008,
      "ĠLaw": 6009,
      "Ġnorthern": 6010,
      "uddenly": 6011,
      "Ġwants": 6012,
      "ICH": 6013,
      "itect": 6014,
      "rian": 6015,
      "Ġassistance": 6016,
      "Ġcontaining": 6017,
      "otest": 6018,
      "Ġrights": 6019,
      "ache": 6020,
      "Ġconvey": 6021,
      "Ġimmediate": 6022,
      "fire": 6023,
      "Ġlat": 6024,
      "ĠLike": 6025,
      "OUR": 6026,
      "Can": 6027,
      "reason": 6028,
      "Ġdaughters": 6029,
      "Ġinfinite": 6030,
      "Ġshop": 6031,
      "Cha": 6032,
      "Ġbay": 6033,
      "Ġstret": 6034,
      "Ġparties": 6035,
      "syn": 6036,
      "Ã¶": 6037,
      "Ġease": 6038,
      "oqu": 6039,
      "Ġnod": 6040,
      "Ġtea": 6041,
      "ĠLong": 6042,
      "Ġcontains": 6043,
      "Ġfurnished": 6044,
      "Ġmission": 6045,
      "iforn": 6046,
      "013": 6047,
      "each": 6048,
      "foot": 6049,
      "urity": 6050,
      "Ġofficial": 6051,
      "ĠHowever": 6052,
      "Ġrespons": 6053,
      "Ġregiment": 6054,
      "Ġdawn": 6055,
      "ailing": 6056,
      "Ġprosper": 6057,
      "Ġmud": 6058,
      "ĠHol": 6059,
      "Ġintention": 6060,
      "Ġwet": 6061,
      "Ġarrest": 6062,
      "heard": 6063,
      "eling": 6064,
      "Ġabroad": 6065,
      "Ġthanks": 6066,
      "Ġsatisfaction": 6067,
      "Ġflying": 6068,
      "urrection": 6069,
      "ĠEmperor": 6070,
      "Ġvision": 6071,
      "ĠSea": 6072,
      "Ad": 6073,
      "ĠRus": 6074,
      "Ġapproached": 6075,
      "Ġcultivated": 6076,
      "IX": 6077,
      "Ġpages": 6078,
      "ĠMen": 6079,
      "Ġstrike": 6080,
      "stra": 6081,
      "Ġshoot": 6082,
      "Ġleaf": 6083,
      "Ġahead": 6084,
      "arded": 6085,
      "Ġax": 6086,
      "Ġruin": 6087,
      "Ġlog": 6088,
      "Ġfounded": 6089,
      "ĠThy": 6090,
      "Ġfriendly": 6091,
      "Ġhabits": 6092,
      "Ġliked": 6093,
      "While": 6094,
      "Ġbapt": 6095,
      "Ġexercise": 6096,
      "Ġperpet": 6097,
      "OND": 6098,
      "Ġacquainted": 6099,
      "ĠAmong": 6100,
      "Ġinstrument": 6101,
      "ĠChe": 6102,
      "Ġsinging": 6103,
      "Ġgates": 6104,
      "ĠKen": 6105,
      "Ġminister": 6106,
      "Ġmoments": 6107,
      "Ġassist": 6108,
      "sal": 6109,
      "Ġconven": 6110,
      "Ġburnt": 6111,
      "ĠComm": 6112,
      "Ġmultitude": 6113,
      "Ġcir": 6114,
      "Ġunus": 6115,
      "Ïģ": 6116,
      "ĠGil": 6117,
      "Ġoccasionally": 6118,
      "cest": 6119,
      "ras": 6120,
      "ÏĤ": 6121,
      "Ġrelated": 6122,
      "Ġdeveloped": 6123,
      "Ġfeathers": 6124,
      "ÏĦ": 6125,
      "Ġsore": 6126,
      "Ġunderstanding": 6127,
      "Ġinclined": 6128,
      "Ġtradition": 6129,
      "Ġcritic": 6130,
      "?;": 6131,
      "uts": 6132,
      "ĠRob": 6133,
      "hedral": 6134,
      "ĠUpon": 6135,
      "014": 6136,
      "Ġrang": 6137,
      "Ġremaining": 6138,
      "Ġnobody": 6139,
      "beaut": 6140,
      "Ġmistake": 6141,
      "Ġhesit": 6142,
      "otted": 6143,
      "respect": 6144,
      "Ġmode": 6145,
      "Ġimprove": 6146,
      "necessary": 6147,
      "sent": 6148,
      "Ġacquaintance": 6149,
      "Ġplaying": 6150,
      "yet": 6151,
      "tains": 6152,
      "Ġrage": 6153,
      "Ġmarket": 6154,
      "Ġpractical": 6155,
      "Ġcompared": 6156,
      "Ġfatal": 6157,
      "eral": 6158,
      "hab": 6159,
      "Ġexcitement": 6160,
      "however": 6161,
      "IES": 6162,
      "tow": 6163,
      "orial": 6164,
      "ĠAgain": 6165,
      "Ġchoose": 6166,
      "illing": 6167,
      "given": 6168,
      "oused": 6169,
      "Ġextended": 6170,
      "ette": 6171,
      "Ġseparated": 6172,
      "Ġassembl": 6173,
      "rier": 6174,
      "question": 6175,
      "015": 6176,
      "Ġdetails": 6177,
      "Ġexhib": 6178,
      "omy": 6179,
      "Ġ59": 6180,
      "Ġmat": 6181,
      "ban": 6182,
      "ĠChinese": 6183,
      "Ġthrust": 6184,
      "ĠRomans": 6185,
      "Ġnaked": 6186,
      "Ġolder": 6187,
      "ĠScott": 6188,
      "Ġric": 6189,
      "Ġoath": 6190,
      "Ġ58": 6191,
      "Ġcheck": 6192,
      "Ġkindness": 6193,
      "ĠEmp": 6194,
      "Ġconcerned": 6195,
      "ĠBible": 6196,
      "Ġeverybody": 6197,
      "Tr": 6198,
      "inks": 6199,
      "Ġengine": 6200,
      "inger": 6201,
      "Ġinner": 6202,
      "ulations": 6203,
      "Ġrecent": 6204,
      "Ġthir": 6205,
      "Ġangel": 6206,
      "henomen": 6207,
      "Ġobserve": 6208,
      "Ġded": 6209,
      "Ġjealous": 6210,
      "Ġframe": 6211,
      "LY": 6212,
      "ĠSav": 6213,
      "ĠBishop": 6214,
      "Ġdoubtless": 6215,
      "lan": 6216,
      "small": 6217,
      "ĠCastle": 6218,
      "Ġinterior": 6219,
      "ĠĠĠĠĠĠĠĠĠĠĠ": 6220,
      "closed": 6221,
      "Ġglorious": 6222,
      "Ġaffair": 6223,
      "houses": 6224,
      "Ġtrace": 6225,
      "Ġshouted": 6226,
      "Ġsympathy": 6227,
      "Ġsounds": 6228,
      "door": 6229,
      "era": 6230,
      "weet": 6231,
      "leg": 6232,
      "Ġwaste": 6233,
      "Ġscattered": 6234,
      "Ġhaste": 6235,
      "Ġwing": 6236,
      "orig": 6237,
      "Ġtele": 6238,
      "Ġdeparted": 6239,
      "08": 6240,
      "Ġpatient": 6241,
      "oped": 6242,
      "ĠON": 6243,
      "Ġattended": 6244,
      "ĠReg": 6245,
      "Ġmerry": 6246,
      "edy": 6247,
      "arted": 6248,
      "Ġaverage": 6249,
      "Ġmanifest": 6250,
      "ashing": 6251,
      "urbed": 6252,
      "Ġsixty": 6253,
      "mosphere": 6254,
      "mist": 6255,
      "Ġinstantly": 6256,
      "Ġhal": 6257,
      "idents": 6258,
      "ĠJacob": 6259,
      "once": 6260,
      "Ġdivision": 6261,
      "bow": 6262,
      "Ġthinks": 6263,
      "div": 6264,
      "sea": 6265,
      "const": 6266,
      "both": 6267,
      "ĠCity": 6268,
      "66": 6269,
      "Ġslept": 6270,
      "Ġdefe": 6271,
      "Ġpound": 6272,
      "ĠBet": 6273,
      "Ġproc": 6274,
      "Ġmanufact": 6275,
      "Ġshade": 6276,
      "Ġmounted": 6277,
      "rical": 6278,
      "Ġstories": 6279,
      "Ġinstances": 6280,
      "Ġaddressed": 6281,
      "Ġfoolish": 6282,
      "west": 6283,
      "Ġbatt": 6284,
      "Ġtomb": 6285,
      "Ġmankind": 6286,
      "Ġkey": 6287,
      "Ġgreet": 6288,
      "Ġbeasts": 6289,
      "erson": 6290,
      "ialect": 6291,
      "eight": 6292,
      "vals": 6293,
      "Ġvoices": 6294,
      "ĠTer": 6295,
      "Ġbosom": 6296,
      "ĠLife": 6297,
      "ruary": 6298,
      "Ġdeparture": 6299,
      "low": 6300,
      "uthors": 6301,
      "Ġgift": 6302,
      "passed": 6303,
      "Ġsubs": 6304,
      "?--": 6305,
      "Ġben": 6306,
      "ancho": 6307,
      "ĠSomet": 6308,
      "ĠPel": 6309,
      "comple": 6310,
      "Ġpardon": 6311,
      "Ġyesterday": 6312,
      "mination": 6313,
      "Ġpoison": 6314,
      "withstanding": 6315,
      "Ġindign": 6316,
      "vention": 6317,
      "Ġflew": 6318,
      "Ġprecise": 6319,
      "Car": 6320,
      "di": 6321,
      "heme": 6322,
      "Ġ100": 6323,
      "ĠPen": 6324,
      "dest": 6325,
      "Ġphr": 6326,
      "Ġderived": 6327,
      "Ġdesert": 6328,
      "Ġconfusion": 6329,
      "ĠCouncil": 6330,
      "Ġpolice": 6331,
      "Ġmanners": 6332,
      "Ġprey": 6333,
      "Ġimpress": 6334,
      "ospel": 6335,
      "Ġmessage": 6336,
      "Ġenormous": 6337,
      "Ġwooden": 6338,
      "Ġpunishment": 6339,
      "Ġlux": 6340,
      "asses": 6341,
      "ĠPerhaps": 6342,
      "oubt": 6343,
      "ĠVI": 6344,
      "Ġchurches": 6345,
      "Ġornament": 6346,
      "Ġremind": 6347,
      "Ġcontract": 6348,
      "Ġintelligence": 6349,
      "mat": 6350,
      "Ġscorn": 6351,
      "Ġsubsequ": 6352,
      "Ġelectric": 6353,
      "URE": 6354,
      "Ġbul": 6355,
      "Ġconsent": 6356,
      "Ġconscience": 6357,
      "inate": 6358,
      "ĠLand": 6359,
      "mis": 6360,
      "success": 6361,
      "ĠIS": 6362,
      "ĠThan": 6363,
      "irs": 6364,
      "ĠEach": 6365,
      "Ġadmiration": 6366,
      "Ġtar": 6367,
      "Ġprofound": 6368,
      "Ġvii": 6369,
      "ieur": 6370,
      "Ġmonarch": 6371,
      "Ġfan": 6372,
      "ĠGold": 6373,
      "Ġcouncil": 6374,
      "ĠSoc": 6375,
      "Ġreturning": 6376,
      "Ġlaughing": 6377,
      "Ġaccomplished": 6378,
      "Ġexcess": 6379,
      "ĠCorn": 6380,
      "Ġcommitted": 6381,
      "Ġstrongly": 6382,
      "Ġliterature": 6383,
      "Ġthunder": 6384,
      "Ġmagnificent": 6385,
      "OV": 6386,
      "eys": 6387,
      "lot": 6388,
      "Ġming": 6389,
      "ĠMajor": 6390,
      "Ġgenus": 6391,
      "rain": 6392,
      "Ġped": 6393,
      "Ġconsult": 6394,
      "ĠIsland": 6395,
      "Ġdefence": 6396,
      "round": 6397,
      "uk": 6398,
      "wild": 6399,
      "Ġmixed": 6400,
      "Ġkitchen": 6401,
      "istent": 6402,
      "Ġrude": 6403,
      "Ġsentiment": 6404,
      "Ġgrape": 6405,
      "Ġcorrupt": 6406,
      "brought": 6407,
      "ICE": 6408,
      "Every": 6409,
      "Ġwaves": 6410,
      "owder": 6411,
      "high": 6412,
      "Ġservices": 6413,
      "left": 6414,
      "ĠLatin": 6415,
      "Ġspeaks": 6416,
      "ĠMadame": 6417,
      "ĠTarzan": 6418,
      "Ġflood": 6419,
      "Ġfriendship": 6420,
      "Sh": 6421,
      "Ġhaven": 6422,
      "Ġfeared": 6423,
      "engers": 6424,
      "Ġcaut": 6425,
      "ĠGermany": 6426,
      "ĠJudah": 6427,
      "ĠCaliforn": 6428,
      "iverse": 6429,
      "olid": 6430,
      "ĠOnly": 6431,
      "ancholy": 6432,
      "SE": 6433,
      "oral": 6434,
      "Ġstretched": 6435,
      "top": 6436,
      "Ġrecognized": 6437,
      "ini": 6438,
      "Ġprompt": 6439,
      "iture": 6440,
      "Ġpressed": 6441,
      "abled": 6442,
      "_:": 6443,
      "Ġber": 6444,
      "Ġspear": 6445,
      "Ġpipe": 6446,
      "Ġpig": 6447,
      "Ġlit": 6448,
      "Ġstuff": 6449,
      "position": 6450,
      "ena": 6451,
      "Ġthither": 6452,
      "Ġimage": 6453,
      "Ġslaves": 6454,
      "Ġsetting": 6455,
      "Ġacts": 6456,
      "therefore": 6457,
      "Ġmiserable": 6458,
      "ositions": 6459,
      "Ġexposed": 6460,
      "Ġcock": 6461,
      "ĠCaesar": 6462,
      "hind": 6463,
      "Ġreality": 6464,
      "!âĢĿ": 6465,
      "oups": 6466,
      "Ġblank": 6467,
      "Ġyea": 6468,
      "Ġislands": 6469,
      "Ġmechan": 6470,
      "empor": 6471,
      "Ġyounger": 6472,
      "016": 6473,
      "Ġelements": 6474,
      "Ġenergy": 6475,
      "Ġpoetry": 6476,
      "Ġutterly": 6477,
      "icable": 6478,
      "pless": 6479,
      "Ġwrought": 6480,
      "May": 6481,
      "Ġvic": 6482,
      "oping": 6483,
      "character": 6484,
      "Ġhell": 6485,
      "ĠFR": 6486,
      "ART": 6487,
      "Ġchest": 6488,
      "Ġtestimony": 6489,
      "mouth": 6490,
      "Ġcollection": 6491,
      "Ġexperiment": 6492,
      "Ġessential": 6493,
      "ĠScotland": 6494,
      "Ġscientific": 6495,
      "ĠĠĠĠĠĠĠĠĠĠĠĠĠĠ": 6496,
      "ĠBO": 6497,
      "fulness": 6498,
      "ĠEuropean": 6499,
      "Ġexpedition": 6500,
      "find": 6501,
      "lla": 6502,
      "ĠBabylon": 6503,
      "Ġrecomm": 6504,
      "ĠRog": 6505,
      "Ġsurv": 6506,
      "Ġchain": 6507,
      "Ġplainly": 6508,
      "ĠMess": 6509,
      "olution": 6510,
      "ĠUnion": 6511,
      "Ġwriters": 6512,
      "Ġimagination": 6513,
      "MA": 6514,
      "elf": 6515,
      "zy": 6516,
      "eyes": 6517,
      "Ġnerv": 6518,
      "ĠJean": 6519,
      "Ġlights": 6520,
      "ĠOxford": 6521,
      "General": 6522,
      "Just": 6523,
      "hael": 6524,
      "Ġmeal": 6525,
      "ibus": 6526,
      "volution": 6527,
      "Ġbend": 6528,
      "Ġocean": 6529,
      "Ġcabin": 6530,
      "tell": 6531,
      "Ġape": 6532,
      "ĠSaint": 6533,
      "Ġpermitted": 6534,
      "Ġdefend": 6535,
      "hundred": 6536,
      "oph": 6537,
      "HER": 6538,
      "sim": 6539,
      "Ġforbid": 6540,
      "ĠCap": 6541,
      "Ġreferred": 6542,
      "lessly": 6543,
      ";--": 6544,
      "Ġdreadful": 6545,
      "inces": 6546,
      "stri": 6547,
      "Ġlearning": 6548,
      "ĠCong": 6549,
      "ittee": 6550,
      "ĠStill": 6551,
      "Ġviolent": 6552,
      "Ġdignity": 6553,
      "ront": 6554,
      "mann": 6555,
      "Ġexisted": 6556,
      "Ġprocl": 6557,
      "perhaps": 6558,
      "jected": 6559,
      "ĠAnn": 6560,
      "Ġtax": 6561,
      "Ġsignal": 6562,
      "either": 6563,
      "Ġpul": 6564,
      "Ġcommenced": 6565,
      "comfort": 6566,
      "matter": 6567,
      "ĠTake": 6568,
      "ĠShall": 6569,
      "person": 6570,
      "75": 6571,
      "black": 6572,
      "ĠArthur": 6573,
      "ighed": 6574,
      "Ġcompre": 6575,
      "Ġdil": 6576,
      "Ġgif": 6577,
      "Ġwrath": 6578,
      "',": 6579,
      "Par": 6580,
      "Ġcompass": 6581,
      "Ġbelonged": 6582,
      "Ġhotel": 6583,
      "ti": 6584,
      "ĠHon": 6585,
      "ritory": 6586,
      "Ġcounter": 6587,
      "rog": 6588,
      "ills": 6589,
      "Ġpursued": 6590,
      "Ġguilty": 6591,
      "Ġbears": 6592,
      "ĠOther": 6593,
      "........": 6594,
      "Ġwishes": 6595,
      "ima": 6596,
      "ĠCle": 6597,
      "upid": 6598,
      "Ġinterests": 6599,
      "Ġprotection": 6600,
      "Se": 6601,
      "ĠBay": 6602,
      "fty": 6603,
      "ĠAg": 6604,
      "ĠMars": 6605,
      "ĠBal": 6606,
      "Ġjew": 6607,
      "dro": 6608,
      "Ġfee": 6609,
      "ĠChic": 6610,
      "coll": 6611,
      "Ġowing": 6612,
      "ĠRE": 6613,
      "ĠTem": 6614,
      "olk": 6615,
      "Sc": 6616,
      "Ġthroat": 6617,
      "Ġreduced": 6618,
      "Ġpier": 6619,
      "emy": 6620,
      "Ġaccustomed": 6621,
      "Ġwretched": 6622,
      "ĠOctober": 6623,
      "sil": 6624,
      "Ġmild": 6625,
      "Ġfever": 6626,
      "Ġhorror": 6627,
      "Ġsusp": 6628,
      "Ġlion": 6629,
      "Ġtrail": 6630,
      "Ġlover": 6631,
      "Ġprophet": 6632,
      "ĠCOM": 6633,
      "fts": 6634,
      "almost": 6635,
      "thus": 6636,
      "ĠDick": 6637,
      "UE": 6638,
      "Ġproduction": 6639,
      "Ġincluding": 6640,
      "Ġpreviously": 6641,
      "apa": 6642,
      "Ġstout": 6643,
      "ĠBoth": 6644,
      "Ġrope": 6645,
      "Ġ65": 6646,
      "Ġ75": 6647,
      "Ġsimpl": 6648,
      "Ġtables": 6649,
      "Ġmanuscript": 6650,
      "Ġ68": 6651,
      "amped": 6652,
      "Ġmaiden": 6653,
      "ĠDec": 6654,
      "Ġgeneration": 6655,
      "Ġadminist": 6656,
      "love": 6657,
      "Ġprivile": 6658,
      "Ġreported": 6659,
      "Ġhanging": 6660,
      "ĠFrancis": 6661,
      "ĠLake": 6662,
      "Ġhumble": 6663,
      "Ġbade": 6664,
      "ĠRow": 6665,
      "ĠJane": 6666,
      "Ġsouthern": 6667,
      "ĠLu": 6668,
      "hamed": 6669,
      "ouch": 6670,
      "Ġhit": 6671,
      "Ġelder": 6672,
      "Did": 6673,
      "IGHT": 6674,
      "verted": 6675,
      "ĠDen": 6676,
      "Ġbarbar": 6677,
      "Ġverse": 6678,
      "Ġcuriosity": 6679,
      "stead": 6680,
      "Ġleader": 6681,
      "ulture": 6682,
      "Ġincident": 6683,
      "ĠRussian": 6684,
      "lets": 6685,
      "ĠSand": 6686,
      "ules": 6687,
      "ĠGen": 6688,
      "Ġdiff": 6689,
      "Ġcareer": 6690,
      "Ġinnocent": 6691,
      "ĠAp": 6692,
      "ĠCont": 6693,
      "Ġcontempt": 6694,
      "Ġcompleted": 6695,
      "Are": 6696,
      "Ġdeeds": 6697,
      "boat": 6698,
      "grace": 6699,
      "hor": 6700,
      "Ġstepped": 6701,
      "Ġignorant": 6702,
      "itled": 6703,
      "Ġnoted": 6704,
      "ĠDuring": 6705,
      "English": 6706,
      "ĠSince": 6707,
      "Ġanybody": 6708,
      "Ġbride": 6709,
      "Ġimpat": 6710,
      "Ġswall": 6711,
      "friend": 6712,
      ")/": 6713,
      "Ġvel": 6714,
      "Ġlone": 6715,
      "ĠAy": 6716,
      "udd": 6717,
      "Ġdemonstr": 6718,
      "018": 6719,
      "whole": 6720,
      "Ġtight": 6721,
      "Ġvoyage": 6722,
      "Ġspl": 6723,
      "ĠGal": 6724,
      "Ġancest": 6725,
      "children": 6726,
      "llen": 6727,
      "Ġbeheld": 6728,
      "import": 6729,
      "Ġsed": 6730,
      "rub": 6731,
      "Ġpoem": 6732,
      "ĠWelsh": 6733,
      "lim": 6734,
      "Ġpin": 6735,
      "sto": 6736,
      "ĠThree": 6737,
      "Ġdelighted": 6738,
      "offic": 6739,
      "actory": 6740,
      "Ġsorts": 6741,
      "ĠDoctor": 6742,
      "Obs": 6743,
      "Ġspare": 6744,
      "Ġgrate": 6745,
      "Ġboil": 6746,
      "Ġharmon": 6747,
      "Ġindic": 6748,
      "ipped": 6749,
      "stairs": 6750,
      "ĠAng": 6751,
      "ĠMet": 6752,
      "Ġshining": 6753,
      "Ġspend": 6754,
      "Ġschools": 6755,
      "LD": 6756,
      "LL": 6757,
      "ummer": 6758,
      "hibit": 6759,
      "days": 6760,
      "Ġenjoyed": 6761,
      "Ġsanct": 6762,
      "Ġavail": 6763,
      "Ġarrangement": 6764,
      "awn": 6765,
      "tes": 6766,
      "umped": 6767,
      "Ġcontrol": 6768,
      "Ġcousin": 6769,
      "ĠĠĠĠĠĠĠĠĠĠĠĠĠ": 6770,
      "ĠRes": 6771,
      "ensity": 6772,
      "Ġdischar": 6773,
      "Ġvigorous": 6774,
      "town": 6775,
      "Ġsins": 6776,
      "Ġnevertheless": 6777,
      "Ġsettle": 6778,
      "aying": 6779,
      "Ġaccur": 6780,
      "Ġaccord": 6781,
      "Go": 6782,
      "Ġsang": 6783,
      "itated": 6784,
      "Ġep": 6785,
      "Ġdistinction": 6786,
      "Ġspark": 6787,
      "Ġsymb": 6788,
      "Ġelsewhere": 6789,
      "represent": 6790,
      "Ġexceedingly": 6791,
      "making": 6792,
      "prom": 6793,
      "AST": 6794,
      "OC": 6795,
      "Ġschol": 6796,
      "until": 6797,
      "ĠBesides": 6798,
      "Ġclever": 6799,
      "Ġreflect": 6800,
      "Ġslender": 6801,
      "Ġprinces": 6802,
      "Have": 6803,
      "New": 6804,
      "RY": 6805,
      "Ġcliff": 6806,
      "Ġwives": 6807,
      "cip": 6808,
      "Ġexamined": 6809,
      "Ġmarks": 6810,
      "icine": 6811,
      "King": 6812,
      "rative": 6813,
      "Ġbetray": 6814,
      "Ġrecoll": 6815,
      "Ġobservation": 6816,
      "Ġfired": 6817,
      "Ġapproaching": 6818,
      "human": 6819,
      "ĠBE": 6820,
      "Ġplates": 6821,
      "ein": 6822,
      "Ġcomr": 6823,
      "mom": 6824,
      "ĠAunt": 6825,
      "ements": 6826,
      "mean": 6827,
      "Ġmental": 6828,
      "Ġcott": 6829,
      "Ġsym": 6830,
      "Another": 6831,
      "crow": 6832,
      "ĠSeptember": 6833,
      "ĠOs": 6834,
      "pert": 6835,
      "Ġ32": 6836,
      "Ġhunting": 6837,
      "Ġib": 6838,
      "Ġexperiments": 6839,
      "Ġwilt": 6840,
      "Ġphenomen": 6841,
      "Ġsees": 6842,
      "Ġmetal": 6843,
      "Ġarticles": 6844,
      "urance": 6845,
      "useum": 6846,
      "ĠCatholic": 6847,
      "Ġwilderness": 6848,
      "gone": 6849,
      "Ġasking": 6850,
      "Ġgallant": 6851,
      "ĠGra": 6852,
      "ĠSaxon": 6853,
      "Ġecon": 6854,
      "ĠHence": 6855,
      "Ġindust": 6856,
      "tion": 6857,
      "Ġtom": 6858,
      "told": 6859,
      "oston": 6860,
      "Ġbloom": 6861,
      "Ġmisery": 6862,
      "ĠPark": 6863,
      "Ġalarm": 6864,
      "Ġconstruct": 6865,
      "resses": 6866,
      "Ġstandard": 6867,
      "Ġtransp": 6868,
      "inally": 6869,
      "Ġdepth": 6870,
      "Ġunfortunate": 6871,
      "ĠBra": 6872,
      "apan": 6873,
      "ĠAnother": 6874,
      "Ġgrounds": 6875,
      "Ġmystery": 6876,
      "ĠLook": 6877,
      "osure": 6878,
      "Ġrot": 6879,
      "ĠEr": 6880,
      "Ġcards": 6881,
      "Ġdece": 6882,
      "Ġflame": 6883,
      "whose": 6884,
      "rigade": 6885,
      "horse": 6886,
      "orter": 6887,
      "Ġwrites": 6888,
      "apped": 6889,
      "oubted": 6890,
      "bal": 6891,
      "Ġoperation": 6892,
      "ĠProv": 6893,
      "Ġbeloved": 6894,
      "Ġauthorities": 6895,
      "Ġmortal": 6896,
      "Ġuniform": 6897,
      "Ġcharming": 6898,
      "Ġdisposed": 6899,
      "Ġimmort": 6900,
      "dig": 6901,
      "liness": 6902,
      "Ġanch": 6903,
      "ĠBro": 6904,
      "Ġrow": 6905,
      "Ġhelped": 6906,
      "Ġcharm": 6907,
      "Ġdepos": 6908,
      "Ġheavens": 6909,
      "Ġoun": 6910,
      "ĠHell": 6911,
      "inted": 6912,
      "def": 6913,
      "--\"_": 6914,
      "Very": 6915,
      "ĠHy": 6916,
      "Ġmarched": 6917,
      "illery": 6918,
      "Ġrivers": 6919,
      "ĠDeath": 6920,
      "lder": 6921,
      "ĠPR": 6922,
      "since": 6923,
      "ĠNovember": 6924,
      "Ġplans": 6925,
      "Ġquarrel": 6926,
      "Ġsovereign": 6927,
      "Ġtrack": 6928,
      "suffic": 6929,
      "Ġov": 6930,
      "Ġarea": 6931,
      "Ġwestern": 6932,
      "acqu": 6933,
      "Ġpurple": 6934,
      "Ġprominent": 6935,
      "strong": 6936,
      "fur": 6937,
      "Ġwag": 6938,
      "Ġdeed": 6939,
      "Ġgranted": 6940,
      "Ġscale": 6941,
      "Ġexcuse": 6942,
      "particular": 6943,
      "Ġsect": 6944,
      "eries": 6945,
      "Ġmatch": 6946,
      "Ġdegrees": 6947,
      "build": 6948,
      "table": 6949,
      "ĊĊĊĠĠĠ": 6950,
      "Ġsust": 6951,
      "Ġ60": 6952,
      "Ġren": 6953,
      "ĠNothing": 6954,
      "dr": 6955,
      "vil": 6956,
      "Ġcaval": 6957,
      "Ġnatives": 6958,
      "prise": 6959,
      "Ġtreatment": 6960,
      "stre": 6961,
      "irmed": 6962,
      "Ġlighted": 6963,
      "ĠJanuary": 6964,
      "Gu": 6965,
      "ico": 6966,
      "Ġrust": 6967,
      "aze": 6968,
      "Ġconvinced": 6969,
      "ĠEnter": 6970,
      "offee": 6971,
      "ĠScript": 6972,
      "avor": 6973,
      "Ġsacrific": 6974,
      "017": 6975,
      "Ġhoriz": 6976,
      "Ġcolon": 6977,
      "umption": 6978,
      "elia": 6979,
      "019": 6980,
      "Ġconfined": 6981,
      "Ġatmosphere": 6982,
      "olate": 6983,
      "Ġobed": 6984,
      "Ġassumed": 6985,
      "Ġpressure": 6986,
      "Ġsailed": 6987,
      "Gr": 6988,
      "Ġerror": 6989,
      "omed": 6990,
      "Ġunited": 6991,
      "Ġdifficulties": 6992,
      "Ġrailway": 6993,
      "TON": 6994,
      "thr": 6995,
      "Ġqualities": 6996,
      "command": 6997,
      "Ġaudience": 6998,
      "Ġwarriors": 6999,
      "Ġextrem": 7000,
      "ioned": 7001,
      "terior": 7002,
      "illes": 7003,
      "ĠWould": 7004,
      "Ġburned": 7005,
      "Ġcas": 7006,
      "ĠMS": 7007,
      "ĠĠĠĠĠĠĠĠĠĠĠĠĠĠĠĠĠĠĠĠĠĠĠĠĠ": 7008,
      "Ġexamination": 7009,
      "ĠBu": 7010,
      "close": 7011,
      "Ġeste": 7012,
      "ĠHarry": 7013,
      "__": 7014,
      "Ġlamp": 7015,
      "aments": 7016,
      "Ġexternal": 7017,
      "ORK": 7018,
      "ggy": 7019,
      "ĠPrincess": 7020,
      "ĠSecond": 7021,
      "Ġloving": 7022,
      "Ġretired": 7023,
      "Ġaffl": 7024,
      "Ġmovements": 7025,
      "ĠGreece": 7026,
      "wick": 7027,
      "Ġ}": 7028,
      "Ġsisters": 7029,
      "enough": 7030,
      "Ġamuse": 7031,
      "Ġadapt": 7032,
      "Ġ67": 7033,
      "princi": 7034,
      "iated": 7035,
      "Ġlust": 7036,
      "Ġrese": 7037,
      "ĠAT": 7038,
      "Ġrefuse": 7039,
      "Ġga": 7040,
      "ĠTrans": 7041,
      "Ġfrightened": 7042,
      "ĠKent": 7043,
      "Ġsmiling": 7044,
      "Ġopera": 7045,
      "58": 7046,
      "Ġforming": 7047,
      "Ġfreely": 7048,
      "Ġmanaged": 7049,
      "Ġneighbourhood": 7050,
      "done": 7051,
      "Ġbatter": 7052,
      "Ġscheme": 7053,
      "Ġreputation": 7054,
      "arn": 7055,
      "Ġdefinite": 7056,
      "coat": 7057,
      "rot": 7058,
      "zed": 7059,
      "Ġ-": 7060,
      "Ġpicked": 7061,
      "quarters": 7062,
      "Ġpropri": 7063,
      "tte": 7064,
      "Ġwire": 7065,
      "Ġcav": 7066,
      "ĠEp": 7067,
      "compl": 7068,
      "Ġrecords": 7069,
      "Ġcrack": 7070,
      "Ġruns": 7071,
      "Ġtotal": 7072,
      "ĠGreeks": 7073,
      "ĠAccording": 7074,
      "Ġlegend": 7075,
      "ĠBritain": 7076,
      "Ġrevel": 7077,
      "Ġtreasure": 7078,
      "Ġutmost": 7079,
      "Ġconcluded": 7080,
      "Ġ56": 7081,
      "Ġfert": 7082,
      "ĠTw": 7083,
      "ĠJos": 7084,
      "Ġwhenever": 7085,
      "Ġgrant": 7086,
      "Ġscenes": 7087,
      "Ġsuggest": 7088,
      "Ġdescended": 7089,
      "ĠDu": 7090,
      "Ġlibr": 7091,
      "account": 7092,
      "Ġsecured": 7093,
      "picuous": 7094,
      "Ġhungry": 7095,
      "Ġinherit": 7096,
      "rane": 7097,
      "ĠAsia": 7098,
      "appeared": 7099,
      "tree": 7100,
      "exam": 7101,
      "welt": 7102,
      "otan": 7103,
      "Ġstiff": 7104,
      "ĠMAR": 7105,
      "erves": 7106,
      "ange": 7107,
      "ĠHaving": 7108,
      "Ġcollected": 7109,
      "Ġdeny": 7110,
      "ĠAlexander": 7111,
      "Ġcontempl": 7112,
      "Ġbegins": 7113,
      "Ġpaint": 7114,
      "eman": 7115,
      "Ġmajority": 7116,
      "Ġrenew": 7117,
      "Ġnearest": 7118,
      "better": 7119,
      "Ġze": 7120,
      "enses": 7121,
      "Ġdecor": 7122,
      "Ġviolence": 7123,
      "Ġtemperature": 7124,
      "Ġyard": 7125,
      "Ġfinds": 7126,
      "Ġentering": 7127,
      "Ġdomestic": 7128,
      "FF": 7129,
      "real": 7130,
      "Ġexecution": 7131,
      "Ġsteel": 7132,
      "usive": 7133,
      "ribution": 7134,
      "effect": 7135,
      "otton": 7136,
      "Ġissued": 7137,
      "------": 7138,
      "Ġcompet": 7139,
      "ixture": 7140,
      "osa": 7141,
      "ĠUnder": 7142,
      "Ġoccasions": 7143,
      "Ġdreams": 7144,
      "Ġcomfortable": 7145,
      "tem": 7146,
      "uan": 7147,
      "aylor": 7148,
      "Ġfoundation": 7149,
      "Ġhousehold": 7150,
      "Ġsentence": 7151,
      "Ġmysterious": 7152,
      "home": 7153,
      "Ġhaunt": 7154,
      "Ġvac": 7155,
      "ĠUncle": 7156,
      "Ġcharacteristic": 7157,
      "Ġinvited": 7158,
      "Ġbasis": 7159,
      "Ġconsists": 7160,
      "Ġhumanity": 7161,
      "ĠAlice": 7162,
      "Ġ&?;": 7163,
      "Ġbark": 7164,
      "ĠOM": 7165,
      "Ġperceived": 7166,
      "Ġopinions": 7167,
      "Ġsection": 7168,
      "coming": 7169,
      "020": 7170,
      "Ġmusical": 7171,
      "onsieur": 7172,
      "Ġindul": 7173,
      "Ġsituated": 7174,
      "Ġadventure": 7175,
      "reci": 7176,
      "ĠAR": 7177,
      "ĠCL": 7178,
      "Ġauthors": 7179,
      "Ġmart": 7180,
      "ĠSabbath": 7181,
      "ĠJul": 7182,
      "Ġgrim": 7183,
      "Ġrecently": 7184,
      "ĠDecember": 7185,
      "Ġearliest": 7186,
      "uation": 7187,
      "Ġresc": 7188,
      "Ġintense": 7189,
      "Ġhitherto": 7190,
      "satisf": 7191,
      "atherine": 7192,
      "\",": 7193,
      "grow": 7194,
      "hered": 7195,
      "Ġmidnight": 7196,
      "ĠConst": 7197,
      "Ġconsciousness": 7198,
      "Fl": 7199,
      "taking": 7200,
      "ÉĻ": 7201,
      "Ġrele": 7202,
      "Ġcentral": 7203,
      "Ġaffected": 7204,
      "rich": 7205,
      "xed": 7206,
      "Ġcolours": 7207,
      "ĠParliament": 7208,
      "Ġphilosophy": 7209,
      "asped": 7210,
      "Ġangels": 7211,
      "Ġblame": 7212,
      "Ġglo": 7213,
      "fell": 7214,
      "Ġtied": 7215,
      "Ġfalls": 7216,
      "Ġmerc": 7217,
      "different": 7218,
      "rick": 7219,
      "Ġlately": 7220,
      "iron": 7221,
      "istle": 7222,
      "Ġsport": 7223,
      "Ġcharged": 7224,
      "Ġcrowded": 7225,
      "Ġfavourite": 7226,
      "twenty": 7227,
      "Ġbath": 7228,
      "eding": 7229,
      "ĠMother": 7230,
      "ante": 7231,
      "change": 7232,
      "_--\"_": 7233,
      "seemed": 7234,
      "ĠSub": 7235,
      "ĠHort": 7236,
      "Ġupright": 7237,
      "Ġcook": 7238,
      "Ġpatience": 7239,
      "Ġcircumstance": 7240,
      "ĊĊĊĊĊĠĠĠĠĠĠĠĠĠĠĠĠĠĠĠĠĠĠĠĠĠĠĠĠ": 7241,
      "ĠMexico": 7242,
      "VII": 7243,
      "mediate": 7244,
      "Ġinterrupted": 7245,
      "ĠMajesty": 7246,
      "Ġattempted": 7247,
      "worthy": 7248,
      "orus": 7249,
      "Never": 7250,
      "Ġfund": 7251,
      "ura": 7252,
      "Ġintent": 7253,
      "Ġperformance": 7254,
      "Ġuseless": 7255,
      "Ġhanded": 7256,
      "hearted": 7257,
      "Man": 7258,
      "Ġhistorical": 7259,
      "RON": 7260,
      "Ġascertain": 7261,
      "Ġcoach": 7262,
      "cat": 7263,
      "elp": 7264,
      "Ġroot": 7265,
      "compan": 7266,
      "Ġbreaking": 7267,
      "Ġfury": 7268,
      "Ġnamely": 7269,
      "turned": 7270,
      "ARE": 7271,
      "Ġau": 7272,
      "Ġbeings": 7273,
      "olation": 7274,
      "Ġclub": 7275,
      "feet": 7276,
      "Ġshortly": 7277,
      "Ġeleven": 7278,
      "perfect": 7279,
      "break": 7280,
      "Ġashamed": 7281,
      "ĠMost": 7282,
      "Ġunhappy": 7283,
      "Ġbenefit": 7284,
      "Such": 7285,
      "pha": 7286,
      "Ġfix": 7287,
      "alia": 7288,
      "usions": 7289,
      "Ġturns": 7290,
      "Ġcontinually": 7291,
      "Ġaven": 7292,
      "Ġmelancholy": 7293,
      "Ġmeasures": 7294,
      "Ġshelter": 7295,
      "saw": 7296,
      "ĠTy": 7297,
      "Ġcommod": 7298,
      "Ġtempor": 7299,
      "ĠCham": 7300,
      "ĠGe": 7301,
      "._)": 7302,
      "ĠChina": 7303,
      "021": 7304,
      "aine": 7305,
      "Ġaltern": 7306,
      "Ġpassages": 7307,
      "ungle": 7308,
      "HAT": 7309,
      "Ġdimin": 7310,
      "Ġou": 7311,
      "Ġexpense": 7312,
      "Ġwinds": 7313,
      "Ġprepare": 7314,
      "Ġinsects": 7315,
      "anus": 7316,
      "Ġperman": 7317,
      "din": 7318,
      "Ġcries": 7319,
      "ĠSl": 7320,
      "abs": 7321,
      "Ġunion": 7322,
      "Ġ69": 7323,
      "Ġliterary": 7324,
      "ĠĠĠĠĠĠĠĠĠĠĠĠĠĠĠĠĠĠĠĠ": 7325,
      "Ġgroups": 7326,
      "uine": 7327,
      "Ġshock": 7328,
      "----\"": 7329,
      "death": 7330,
      "incol": 7331,
      "ography": 7332,
      "full": 7333,
      "Ġrip": 7334,
      "Ġrepent": 7335,
      "022": 7336,
      "Ġsongs": 7337,
      "rather": 7338,
      "Ġfearful": 7339,
      "Ġwidow": 7340,
      "borough": 7341,
      "oft": 7342,
      "Ġpasses": 7343,
      "Ġissue": 7344,
      "Ġvague": 7345,
      "ĠOut": 7346,
      "gram": 7347,
      "fortune": 7348,
      "_).": 7349,
      "Ġcheeks": 7350,
      "Ġlofty": 7351,
      "soon": 7352,
      "Ġwra": 7353,
      "Ġgiant": 7354,
      "Ġappropri": 7355,
      "Ġconsequently": 7356,
      "Ġarchitect": 7357,
      "brew": 7358,
      "Ġweapons": 7359,
      "Ġash": 7360,
      "ands": 7361,
      "ĠBoy": 7362,
      "Ger": 7363,
      "ĠĠĠĠĠĠĠĠĠĠĠĠĠĠĠ": 7364,
      "open": 7365,
      "ĠUniversity": 7366,
      "ĠCollege": 7367,
      "Ġendure": 7368,
      "prov": 7369,
      "past": 7370,
      "quite": 7371,
      "whom": 7372,
      "Ġdoesn": 7373,
      "ĠDivision": 7374,
      "ĠDor": 7375,
      "suff": 7376,
      "Ġideal": 7377,
      "second": 7378,
      "Ġconstitution": 7379,
      "Ġpreceding": 7380,
      "arian": 7381,
      "unction": 7382,
      "Ġsilk": 7383,
      "Ġrecorded": 7384,
      "Ġtrick": 7385,
      "Ġnights": 7386,
      "overnor": 7387,
      "END": 7388,
      "Ġach": 7389,
      "ĠSat": 7390,
      "Ġsumm": 7391,
      "Ġodd": 7392,
      "Ġflow": 7393,
      "Ġswear": 7394,
      "headed": 7395,
      "Ġaunt": 7396,
      "ouring": 7397,
      "Ġbuck": 7398,
      "Ġabsurd": 7399,
      "mediately": 7400,
      "hur": 7401,
      "pir": 7402,
      "ĠColumb": 7403,
      "ĠCons": 7404,
      "Ġappar": 7405,
      "Ġscream": 7406,
      "sight": 7407,
      "arms": 7408,
      "burn": 7409,
      "atched": 7410,
      "oni": 7411,
      "Ġrestored": 7412,
      "Ġexamples": 7413,
      "wall": 7414,
      "Ġpoured": 7415,
      "Ġbaby": 7416,
      "El": 7417,
      "avery": 7418,
      "Ġvolunt": 7419,
      "Ġpause": 7420,
      "omach": 7421,
      "Ġrum": 7422,
      "Ġapost": 7423,
      "ĊĊĠĠĠĠĠĠĠĠĠĠĠĠĠĠĠĠĠĠĠĠĠĠĠĠĠĠĠĠĠĠĠĠ": 7424,
      "ĠHaw": 7425,
      "Ġmarble": 7426,
      "Ġsafely": 7427,
      "gans": 7428,
      "ĠPRO": 7429,
      "Ġshr": 7430,
      "alo": 7431,
      "pose": 7432,
      "ĠProp": 7433,
      "obser": 7434,
      "During": 7435,
      "Ġcrying": 7436,
      "Ġriding": 7437,
      "Ġintim": 7438,
      "Ġuttered": 7439,
      "Ġhospital": 7440,
      "Ġexchange": 7441,
      "Ġfruits": 7442,
      "Ġwash": 7443,
      "Ġquoted": 7444,
      "Ġlanded": 7445,
      "Ġhorrible": 7446,
      "criptions": 7447,
      "amin": 7448,
      "Ġresidence": 7449,
      "Ġswept": 7450,
      "Ġrush": 7451,
      "Ġneat": 7452,
      "Ġnewsp": 7453,
      "ĠAngel": 7454,
      "Ġ79": 7455,
      "Ġrisk": 7456,
      "Ġreckon": 7457,
      "ida": 7458,
      "EST": 7459,
      "hands": 7460,
      "Ġcivilization": 7461,
      "rors": 7462,
      "itate": 7463,
      "Ġwherein": 7464,
      "ĠĠĠĠĠĠĠĠĠĠĠĠĠĠĠĠĠĠĠĠĠĠĠĠĠĠ": 7465,
      "VIII": 7466,
      "Ġfoe": 7467,
      "pop": 7468,
      "Ġrolled": 7469,
      "subject": 7470,
      "Than": 7471,
      "Ġdwelt": 7472,
      "landers": 7473,
      "Ġcart": 7474,
      "oria": 7475,
      "Ġpresents": 7476,
      "sa": 7477,
      "vous": 7478,
      "Ġstronger": 7479,
      "Ġdistinctly": 7480,
      "dark": 7481,
      "Ġdared": 7482,
      "Ġecho": 7483,
      "allel": 7484,
      "Ġbrow": 7485,
      "Ġholds": 7486,
      "Ġagreeable": 7487,
      "Yet": 7488,
      "ĠAbraham": 7489,
      "num": 7490,
      "Ġcave": 7491,
      "Ġpint": 7492,
      "Ġlect": 7493,
      "hio": 7494,
      "Ġcontents": 7495,
      "ĠIndeed": 7496,
      "Ġprimitive": 7497,
      "Ġlaughter": 7498,
      "Ġheap": 7499,
      "appro": 7500,
      "Ġlargely": 7501,
      "--------------------------------": 7502,
      "Ġstrangers": 7503,
      "irie": 7504,
      "rive": 7505,
      "green": 7506,
      "Ġestate": 7507,
      "Ġmotor": 7508,
      "eck": 7509,
      "Ġcounty": 7510,
      "iate": 7511,
      "ĠNay": 7512,
      "Ġstraw": 7513,
      "according": 7514,
      "Ġsupported": 7515,
      "chester": 7516,
      "Ġaccompany": 7517,
      "Ġcalc": 7518,
      "ĠPhilip": 7519,
      "Ġsuspicion": 7520,
      "thousand": 7521,
      "city": 7522,
      "za": 7523,
      "bler": 7524,
      "icken": 7525,
      "Ġdisposition": 7526,
      "burgh": 7527,
      "Ġlonely": 7528,
      "Ġsomewhere": 7529,
      "Ġburden": 7530,
      "Ġoriginally": 7531,
      "pherd": 7532,
      "yes": 7533,
      "Ġresistance": 7534,
      "Geor": 7535,
      "Two": 7536,
      "Ġwoe": 7537,
      "Ġnotion": 7538,
      "Ġacquired": 7539,
      "ONT": 7540,
      "ĠDay": 7541,
      "Ġdescent": 7542,
      "Ġannounced": 7543,
      "Ġpushed": 7544,
      "anks": 7545,
      "Ġtroubled": 7546,
      "Ġapt": 7547,
      "Ġtherein": 7548,
      "._]": 7549,
      "Ġclergy": 7550,
      "Ġacknowled": 7551,
      "orders": 7552,
      "Ġbrass": 7553,
      "Ġshadows": 7554,
      "ĠMur": 7555,
      "Ġforehead": 7556,
      "moment": 7557,
      "pest": 7558,
      "icit": 7559,
      "Ġregions": 7560,
      "Ġedition": 7561,
      "Ġwondered": 7562,
      "Ġroads": 7563,
      "Ġpenet": 7564,
      "Look": 7565,
      "hia": 7566,
      "Ġbelongs": 7567,
      "Ġdescribe": 7568,
      "Ġanxiety": 7569,
      "ĠBob": 7570,
      "ĠWater": 7571,
      "Ġventure": 7572,
      "Ġwounds": 7573,
      "Ġwars": 7574,
      "Ġmaintain": 7575,
      "Before": 7576,
      "Ġnervous": 7577,
      "isk": 7578,
      "Ġstem": 7579,
      "Ġdetail": 7580,
      "55": 7581,
      "Ġoft": 7582,
      "Ġbeha": 7583,
      "Ġmead": 7584,
      "ĠNed": 7585,
      "Ġruins": 7586,
      "Char": 7587,
      "asures": 7588,
      "ĠBoston": 7589,
      "Ġsurre": 7590,
      "diffic": 7591,
      "Ġbind": 7592,
      "Ġdesperate": 7593,
      "direct": 7594,
      "Ġtort": 7595,
      "Ġbon": 7596,
      "earth": 7597,
      "Ġshake": 7598,
      "ĠĠĠĠĠĠĠĠĠĠĠĠĠĠĠĠĠĠĠĠĠĠĠĠĠĠĠĠ": 7599,
      "iasm": 7600,
      "Ġshed": 7601,
      "Ġlin": 7602,
      "Ġconflict": 7603,
      "aux": 7604,
      "Ġabsor": 7605,
      "Ġengra": 7606,
      "maid": 7607,
      "Ġstairs": 7608,
      "ĠBa": 7609,
      "Ġindividuals": 7610,
      "morning": 7611,
      "incl": 7612,
      "Ġfest": 7613,
      "ĠCy": 7614,
      "Ġ34": 7615,
      "izes": 7616,
      "Ġawa": 7617,
      "asket": 7618,
      "Ġintellectual": 7619,
      "ington": 7620,
      "ensions": 7621,
      "Ġbegged": 7622,
      "Ġhurry": 7623,
      "Ġmoreover": 7624,
      "Ġlawyer": 7625,
      "ĠMartin": 7626,
      "Ġtear": 7627,
      "ĠVIII": 7628,
      "Ġcheek": 7629,
      "Dr": 7630,
      "ulating": 7631,
      "Ġteaching": 7632,
      "Ġsignific": 7633,
      "Ġsleeping": 7634,
      "ĠArab": 7635,
      "emon": 7636,
      "Ġchose": 7637,
      "Ġdrunk": 7638,
      "Ġeleg": 7639,
      "ĠPol": 7640,
      "Ġextract": 7641,
      "Ġprize": 7642,
      "gentle": 7643,
      "68": 7644,
      "Ġnoon": 7645,
      "Ġgenerous": 7646,
      "Ġconcealed": 7647,
      "rates": 7648,
      "Ġwave": 7649,
      "alks": 7650,
      "ulgar": 7651,
      "Ġforever": 7652,
      "Ġmillions": 7653,
      "occup": 7654,
      "ĠSig": 7655,
      "Ġempire": 7656,
      "Ġ177": 7657,
      "Ġexisting": 7658,
      "general": 7659,
      "Ġasse": 7660,
      "Ġconception": 7661,
      "Ġlimbs": 7662,
      "ĠSur": 7663,
      "Ġusing": 7664,
      "Ġmagic": 7665,
      "Ġlimited": 7666,
      "cross": 7667,
      "Ġtorn": 7668,
      "Ġtoler": 7669,
      "Ġlament": 7670,
      "Ġrecovered": 7671,
      "Ġ78": 7672,
      "Ġdelightful": 7673,
      "Ġplays": 7674,
      "Ġignorance": 7675,
      "pleasant": 7676,
      "ĠProtest": 7677,
      "ucky": 7678,
      "Ġattacked": 7679,
      "ij": 7680,
      "Ġgardens": 7681,
      "Ġurged": 7682,
      "sus": 7683,
      "Ġcongreg": 7684,
      "artment": 7685,
      "Mon": 7686,
      "fles": 7687,
      "Ġridge": 7688,
      "Ġuncertain": 7689,
      "ĠIsa": 7690,
      "Ġtrip": 7691,
      "Ġsupplied": 7692,
      "mem": 7693,
      "tre": 7694,
      "Ġselected": 7695,
      "Ġpursuit": 7696,
      "Ġmasters": 7697,
      "iot": 7698,
      "lest": 7699,
      "ĠLuc": 7700,
      "Ġbuff": 7701,
      "SILON": 7702,
      "PSILON": 7703,
      "Ġthread": 7704,
      "Ġproblem": 7705,
      "Ġcommission": 7706,
      "Ġrules": 7707,
      "ĠEN": 7708,
      "Ġsoftly": 7709,
      "Ġunconscious": 7710,
      "Ġdistress": 7711,
      "Ġpaused": 7712,
      "Ġsenses": 7713,
      "bear": 7714,
      "Ġbowed": 7715,
      "Ġcam": 7716,
      "geance": 7717,
      "Ġopposition": 7718,
      "Sha": 7719,
      "ĠNich": 7720,
      "Ġwhisper": 7721,
      "Ġseas": 7722,
      "best": 7723,
      "stru": 7724,
      "ulus": 7725,
      "pract": 7726,
      "Ġtroubles": 7727,
      "Ġtrembling": 7728,
      "Ġowner": 7729,
      "mbly": 7730,
      "OG": 7731,
      "covered": 7732,
      "Ġplun": 7733,
      "Ġresumed": 7734,
      "Ġerected": 7735,
      "ĠServ": 7736,
      "ĠGun": 7737,
      "ĠJones": 7738,
      "Ġhundreds": 7739,
      "Ġopposed": 7740,
      "roduced": 7741,
      "ĠMoreover": 7742,
      "cord": 7743,
      "ita": 7744,
      "Ġalter": 7745,
      "Ġentitled": 7746,
      "Ġemotion": 7747,
      "ĠĠĠĠĠĠĠĠĠĠĠĠĠĠĠĠĠĠĠĠĠĠĠĠĠĠĠĠĠĠĠ": 7748,
      "Ġdiscussion": 7749,
      "istence": 7750,
      "ĠAny": 7751,
      "relig": 7752,
      "inations": 7753,
      "Ġborrow": 7754,
      "Ġshoes": 7755,
      "Ġclerk": 7756,
      "Ġchat": 7757,
      "Ġloves": 7758,
      "Ġvary": 7759,
      "Ġattitude": 7760,
      "ĠChristmas": 7761,
      "Ġconstruction": 7762,
      "whether": 7763,
      "geant": 7764,
      "Ġacted": 7765,
      "words": 7766,
      "ĠTell": 7767,
      "Ġcommonly": 7768,
      "Thou": 7769,
      "Ġaccordingly": 7770,
      "Ġbree": 7771,
      "Ġmould": 7772,
      "Ġroots": 7773,
      "ogg": 7774,
      "Ġcommunity": 7775,
      "Ġdeclare": 7776,
      "hers": 7777,
      "da": 7778,
      "Ġrelative": 7779,
      "Ġanti": 7780,
      "Ġmood": 7781,
      "organ": 7782,
      "Ġeaten": 7783,
      "Ġcaptured": 7784,
      "Ġweakness": 7785,
      "Ġassembled": 7786,
      "several": 7787,
      "Ġremote": 7788,
      "Ġrifle": 7789,
      "enery": 7790,
      "MAN": 7791,
      "Ġcontact": 7792,
      "ĠOnce": 7793,
      "Ġranks": 7794,
      "ĠCrown": 7795,
      "shine": 7796,
      "Ġbottle": 7797,
      "ikov": 7798,
      "Ġdiamond": 7799,
      "Ġinferior": 7800,
      "Ġtribut": 7801,
      "023": 7802,
      "ĠNorman": 7803,
      "ĠAmericans": 7804,
      "Ġparish": 7805,
      "Ġstor": 7806,
      "Ġunlike": 7807,
      "Ġcoal": 7808,
      "Ġrested": 7809,
      "ĠCentral": 7810,
      "Ġindustry": 7811,
      "'-": 7812,
      "IE": 7813,
      "Ġsuitable": 7814,
      "Ġcenter": 7815,
      "Ġgazed": 7816,
      "Ġcomparison": 7817,
      "Ġunusual": 7818,
      "ĠAch": 7819,
      "Ġrevolution": 7820,
      "stock": 7821,
      "Ġbrid": 7822,
      ".=--": 7823,
      "Ġmethods": 7824,
      "^{": 7825,
      "ties": 7826,
      "uated": 7827,
      "ouri": 7828,
      "Ġfears": 7829,
      "Ġrud": 7830,
      "ĠSqu": 7831,
      "Ġindicated": 7832,
      "ĠLieutenant": 7833,
      "Har": 7834,
      "RS": 7835,
      "ctions": 7836,
      "ĠRussell": 7837,
      "piece": 7838,
      "times": 7839,
      "Ġow": 7840,
      "ĠSun": 7841,
      "Ġflung": 7842,
      "Ġinterpret": 7843,
      "ĠĠĠĠĠĠĠĠĠĠĠĠĠĠĠĠĠĠĠĠĠĠĠĠĠĠĠ": 7844,
      "upp": 7845,
      "Î»": 7846,
      "alling": 7847,
      "eanwhile": 7848,
      "rolled": 7849,
      "Ġdeserted": 7850,
      "Ġforgive": 7851,
      "ĠMos": 7852,
      "Ġafterward": 7853,
      "Ġrespecting": 7854,
      "Ġhom": 7855,
      "sometimes": 7856,
      "acco": 7857,
      "Ġpolicy": 7858,
      "Ġdirections": 7859,
      "ĠJudge": 7860,
      "\";": 7861,
      "bra": 7862,
      "Ġpubl": 7863,
      "ĠMill": 7864,
      "ĠFour": 7865,
      "agree": 7866,
      "Ġboiling": 7867,
      "Ġmerit": 7868,
      "Ġconceal": 7869,
      "Ġcraft": 7870,
      "Ġdiameter": 7871,
      "ĠCape": 7872,
      "nant": 7873,
      "whe": 7874,
      "anything": 7875,
      "Ġprofit": 7876,
      "Ġfirmly": 7877,
      "mble": 7878,
      "ĠBell": 7879,
      "istor": 7880,
      "ogue": 7881,
      "aware": 7882,
      "Ġwarning": 7883,
      "phan": 7884,
      "Ġclay": 7885,
      "proper": 7886,
      "Ġecc": 7887,
      "ĠCur": 7888,
      "Ġincluded": 7889,
      "Ġ0": 7890,
      "ĠWales": 7891,
      "Ġhastily": 7892,
      "Ġlegisl": 7893,
      "Ġremove": 7894,
      "Ġtermin": 7895,
      "Ġformation": 7896,
      "Ġcy": 7897,
      "Ġbeard": 7898,
      "ĠBR": 7899,
      "ola": 7900,
      "Ġentreat": 7901,
      "Ġrealized": 7902,
      "Ġoperations": 7903,
      "blood": 7904,
      "Ġmargin": 7905,
      "ĠOlaf": 7906,
      "OH": 7907,
      "ĠPope": 7908,
      "Ġplat": 7909,
      "Ġstrain": 7910,
      "Ġspecimen": 7911,
      "live": 7912,
      "Ġfeature": 7913,
      "ribute": 7914,
      "Ġours": 7915,
      "Ġlargest": 7916,
      "Ġcease": 7917,
      "Ġrent": 7918,
      "ulse": 7919,
      "Enter": 7920,
      "Ġphrase": 7921,
      "NE": 7922,
      "author": 7923,
      "gave": 7924,
      "erity": 7925,
      "aria": 7926,
      "Ġtrump": 7927,
      "quisite": 7928,
      "London": 7929,
      "ige": 7930,
      "Ġjest": 7931,
      "Ġvillages": 7932,
      "Ġlift": 7933,
      "ĠOb": 7934,
      "Ġgrasp": 7935,
      "Ġkissed": 7936,
      "Ġsolution": 7937,
      "Ġmistaken": 7938,
      "Ġvon": 7939,
      "ĠOff": 7940,
      "oid": 7941,
      "estab": 7942,
      "ĠFri": 7943,
      "resently": 7944,
      "vity": 7945,
      "ĠSel": 7946,
      "Ġram": 7947,
      "Ġjob": 7948,
      "Ġperil": 7949,
      "bot": 7950,
      "Ġdialect": 7951,
      "ĠTest": 7952,
      "ĠRel": 7953,
      "Ġbrand": 7954,
      "Ġimagined": 7955,
      "Ġcreation": 7956,
      "ulpt": 7957,
      "Ġagric": 7958,
      "Ġgets": 7959,
      "Ġprayers": 7960,
      "ĠFebruary": 7961,
      "ĠTaylor": 7962,
      "ĠPost": 7963,
      "achment": 7964,
      "Ġleads": 7965,
      "Ġsuccession": 7966,
      "Ġdrift": 7967,
      "Ġdriving": 7968,
      "Ġstudied": 7969,
      "Ġrevealed": 7970,
      "within": 7971,
      "Ġvictim": 7972,
      "Ġclust": 7973,
      "ĠMarius": 7974,
      "Ġzeal": 7975,
      "OK": 7976,
      "quet": 7977,
      "First": 7978,
      "gly": 7979,
      "Ġdancing": 7980,
      "Ġclock": 7981,
      "Ġcompanies": 7982,
      "59": 7983,
      "Ġmate": 7984,
      "Ġhadn": 7985,
      "Ġkeeps": 7986,
      "Ġgenuine": 7987,
      "Ġnurse": 7988,
      "Phil": 7989,
      "Ġmajesty": 7990,
      "ĠSto": 7991,
      "ĠRem": 7992,
      "Ġbrings": 7993,
      "ĠThrough": 7994,
      "hu": 7995,
      "sters": 7996,
      "ayed": 7997,
      "remark": 7998,
      "oleon": 7999,
      "ĊĊĠĠĠĠĠĠĠ": 8000,
      "Ġexperienced": 8001,
      "ĠWalter": 8002,
      "Ġborder": 8003,
      "Ġreaching": 8004,
      "Ġfastened": 8005,
      "exc": 8006,
      "Ġstayed": 8007,
      ".âĢĶ": 8008,
      "alys": 8009,
      "ĠCraw": 8010,
      "othy": 8011,
      "Ġfarmer": 8012,
      "Ġdrinking": 8013,
      "Ġgifts": 8014,
      "Was": 8015,
      "rely": 8016,
      "eches": 8017,
      "ĠConf": 8018,
      "Ġfolk": 8019,
      "Ġestablishment": 8020,
      "incoln": 8021,
      "spring": 8022,
      "Ġportrait": 8023,
      "Ġexists": 8024,
      "Ġindependent": 8025,
      "aign": 8026,
      "orable": 8027,
      "ĠTra": 8028,
      "Ġactions": 8029,
      "Ġdebt": 8030,
      "PE": 8031,
      "cel": 8032,
      "Ġanywhere": 8033,
      "ifications": 8034,
      "Ġestim": 8035,
      "Ġconducted": 8036,
      "cas": 8037,
      "nature": 8038,
      "Ġfitted": 8039,
      "Ġconnect": 8040,
      "Ġtide": 8041,
      "Ġlap": 8042,
      "ĠOX": 8043,
      "Ġunexpected": 8044,
      "Ġpermit": 8045,
      "rus": 8046,
      "ĠâĢĶ": 8047,
      "Ġhind": 8048,
      "ĠPre": 8049,
      "Ġrevenge": 8050,
      "Ġbi": 8051,
      "itudes": 8052,
      "grim": 8053,
      "Ġphot": 8054,
      "Ġabandoned": 8055,
      "rass": 8056,
      "vill": 8057,
      "Ġcoffee": 8058,
      "Ġscri": 8059,
      "GH": 8060,
      "PHA": 8061,
      "few": 8062,
      "omon": 8063,
      "Ġknee": 8064,
      "IND": 8065,
      "52": 8066,
      "Ġdur": 8067,
      "iche": 8068,
      "Ġshallow": 8069,
      "Ġrespond": 8070,
      "iary": 8071,
      "Ġdoc": 8072,
      "rels": 8073,
      "Ġthirst": 8074,
      "Ġraces": 8075,
      "ĠKnight": 8076,
      "Ġrespects": 8077,
      "Ġoccurs": 8078,
      "itors": 8079,
      "Ġfain": 8080,
      "ĠSpe": 8081,
      "ECT": 8082,
      "ĠMax": 8083,
      "ĠFer": 8084,
      "Ġarts": 8085,
      "ila": 8086,
      "ĠFore": 8087,
      "Ġannoy": 8088,
      "Ġcustoms": 8089,
      "hast": 8090,
      "Ġmour": 8091,
      "istol": 8092,
      "Perhaps": 8093,
      "nation": 8094,
      "Ġfed": 8095,
      "ĠGall": 8096,
      "Ġfifth": 8097,
      "Ġingen": 8098,
      "ws": 8099,
      "Ġtiny": 8100,
      "ĠXXX": 8101,
      "tec": 8102,
      "Ġknock": 8103,
      "Ġlightly": 8104,
      "ENE": 8105,
      "ARY": 8106,
      "rage": 8107,
      "Ġdeer": 8108,
      "istics": 8109,
      "Ġperceive": 8110,
      "soever": 8111,
      "former": 8112,
      "except": 8113,
      "ala": 8114,
      "endous": 8115,
      "Ġ'_": 8116,
      "Ġmaintained": 8117,
      "Ġcontrast": 8118,
      "list": 8119,
      "oard": 8120,
      "Ġsank": 8121,
      "Ġrab": 8122,
      "Ġguests": 8123,
      "ounter": 8124,
      "Ġirregular": 8125,
      "Ġpace": 8126,
      "Ġchiefs": 8127,
      "Ġcunning": 8128,
      "already": 8129,
      "chaikov": 8130,
      "UD": 8131,
      "mi": 8132,
      "Ġsack": 8133,
      "amation": 8134,
      "Ġcapacity": 8135,
      "ĠVirginia": 8136,
      "bable": 8137,
      "ĠCard": 8138,
      "ĠLind": 8139,
      "ĠDutch": 8140,
      "Ġleis": 8141,
      "Ġovercome": 8142,
      "Ġseeking": 8143,
      "Ġseventy": 8144,
      "ĠPart": 8145,
      "Ġgrows": 8146,
      "Ġrival": 8147,
      "Ġrav": 8148,
      "ĠYoung": 8149,
      "ICK": 8150,
      "ĠSometimes": 8151,
      "intell": 8152,
      "Ġguest": 8153,
      "Ġfailure": 8154,
      "Ġsaddle": 8155,
      "Zo": 8156,
      "ridge": 8157,
      "orge": 8158,
      "unus": 8159,
      "Ġsmell": 8160,
      "Ġwaist": 8161,
      "Ġrighteousness": 8162,
      "number": 8163,
      "rim": 8164,
      "Ġpains": 8165,
      "Ġult": 8166,
      "ĠOri": 8167,
      "Ġanyone": 8168,
      "ferred": 8169,
      "Ġridic": 8170,
      "ĠWorld": 8171,
      "Ġbadly": 8172,
      "Ġdeliber": 8173,
      "Ġduke": 8174,
      "Ġeating": 8175,
      "ĠĠĠĠĠĠĠĠĠĠĠĠĠĠĠĠĠĠĠĠĠĠĠĠĠĠĠĠĠ": 8176,
      "ĠChristians": 8177,
      "posed": 8178,
      "trees": 8179,
      "ĠSE": 8180,
      "ĠĠĠĠĠĠĠĠĠĠĠĠĠĠĠĠĠĠĠĠĠĠĠ": 8181,
      "Ġrequires": 8182,
      "Ġwarrior": 8183,
      "ĠHistory": 8184,
      "Ġhers": 8185,
      "Ġinsult": 8186,
      "Ġgaze": 8187,
      "Ġlibrary": 8188,
      "phant": 8189,
      "grand": 8190,
      "Ġpractically": 8191,
      "chaikovsky": 8192,
      "forms": 8193,
      "Ġeffic": 8194,
      "eunt": 8195,
      "lock": 8196,
      "main": 8197,
      "along": 8198,
      "Ġaccounts": 8199,
      "urgis": 8200,
      "ĠBecause": 8201,
      "asg": 8202,
      "Ġbrick": 8203,
      "Ġregards": 8204,
      "Ġinvol": 8205,
      "Ġcovering": 8206,
      "AGE": 8207,
      "lay": 8208,
      "school": 8209,
      "Ġjungle": 8210,
      "Ġcomposition": 8211,
      "produ": 8212,
      "Ġslipped": 8213,
      "Ġastonishment": 8214,
      "ĠGilbert": 8215,
      "Ġeastern": 8216,
      "idd": 8217,
      "Ġwhereas": 8218,
      "024": 8219,
      "Ġfoul": 8220,
      "ĠHE": 8221,
      "Ġscra": 8222,
      "Ġsummon": 8223,
      "wit": 8224,
      "aned": 8225,
      "ĠCamp": 8226,
      "Ġgoodness": 8227,
      "Ġcorp": 8228,
      "Ġtin": 8229,
      "Ġ200": 8230,
      "contr": 8231,
      "Ġmasses": 8232,
      "IB": 8233,
      "aron": 8234,
      "Ġresting": 8235,
      "69": 8236,
      "affect": 8237,
      "ĠHebrew": 8238,
      "ĊĠĠĠĠĠĠĠĠĠĠĠĠĠ": 8239,
      "ints": 8240,
      "Ġbone": 8241,
      "Ġinform": 8242,
      "above": 8243,
      ".\"--": 8244,
      "class": 8245,
      "Ġcurse": 8246,
      "Ġobjection": 8247,
      "Ġobscure": 8248,
      "rock": 8249,
      "river": 8250,
      "Ġaloud": 8251,
      "Ġobvious": 8252,
      "myself": 8253,
      "Ġmischief": 8254,
      "Ġdistricts": 8255,
      "oubtedly": 8256,
      "fashion": 8257,
      "Ġfires": 8258,
      "Ġnut": 8259,
      "ĠTim": 8260,
      "Ġrays": 8261,
      "61": 8262,
      "Ġrig": 8263,
      "Ġintroduction": 8264,
      "Ġfolks": 8265,
      "Ġenabled": 8266,
      "ĊĊĠĠĠĠĠĠĠĠĠĠĠĠĠĠĠĠĠĠĠ": 8267,
      "ĠWestern": 8268,
      "ĠĠĠĠĠĠĠĠĠĠĠĠĠĠĠĠĠĠĠĠĠĠ": 8269,
      "Ġ80": 8270,
      "Ġprincess": 8271,
      "Ġlistening": 8272,
      "Ġfarewell": 8273,
      "ĠWy": 8274,
      "ouraged": 8275,
      "Ġidle": 8276,
      "creat": 8277,
      "Ġmourn": 8278,
      "Their": 8279,
      "Ġcolumn": 8280,
      "Ġmingled": 8281,
      "Ġpars": 8282,
      "ĠMel": 8283,
      "sold": 8284,
      "Ġpointing": 8285,
      "Ġcultivation": 8286,
      "word": 8287,
      "Ġsupre": 8288,
      "ultural": 8289,
      "gers": 8290,
      "Ġanticip": 8291,
      "Ġgratitude": 8292,
      "ĠRepublic": 8293,
      "Ġwi": 8294,
      "Ġrecover": 8295,
      "Ġawake": 8296,
      "fare": 8297,
      "iast": 8298,
      "year": 8299,
      "ĠTill": 8300,
      "ĠSn": 8301,
      "ĠVII": 8302,
      "ginald": 8303,
      "Ġreceiving": 8304,
      "ĠLeon": 8305,
      "Ġix": 8306,
      "ĠHard": 8307,
      "anta": 8308,
      "ĠStr": 8309,
      "probably": 8310,
      "Ġles": 8311,
      "Ġterritory": 8312,
      "Ġobservations": 8313,
      "Ġsupreme": 8314,
      "dess": 8315,
      "Ġoh": 8316,
      "utter": 8317,
      "ĠSH": 8318,
      "ĠĠĠĠĠĠĠĠĠĠĠĠĠĠĠĠĠĠĠĠĠ": 8319,
      "Ġjoint": 8320,
      "plain": 8321,
      "ĠĠĠĠĠĠĠĠĠĠĠĠĠĠĠĠĠĠ": 8322,
      "ĠRu": 8323,
      "Ġabrupt": 8324,
      "why": 8325,
      "Ġshells": 8326,
      "Ġseventh": 8327,
      "Ġeagerly": 8328,
      "George": 8329,
      "uting": 8330,
      "Ġcopper": 8331,
      "Ġdeadly": 8332,
      "lord": 8333,
      "Ġroute": 8334,
      "Ã¶l": 8335,
      "Ġdar": 8336,
      "Ġlan": 8337,
      "ĠFIG": 8338,
      "Ġscore": 8339,
      "Ġdisturb": 8340,
      "Ġgenerations": 8341,
      "Ġdwelling": 8342,
      "eer": 8343,
      "ppers": 8344,
      "Ġthrowing": 8345,
      "Ġtendency": 8346,
      "Ġreaders": 8347,
      "miral": 8348,
      "ĠDown": 8349,
      "does": 8350,
      "Ġcheerful": 8351,
      "American": 8352,
      "Ġcavity": 8353,
      "mil": 8354,
      "sac": 8355,
      "von": 8356,
      "Ġbeach": 8357,
      "ĠRec": 8358,
      "experi": 8359,
      "ĠChief": 8360,
      "Ġsalvation": 8361,
      "67": 8362,
      "Again": 8363,
      "ĠBull": 8364,
      "antages": 8365,
      "ĠNap": 8366,
      "Ġfox": 8367,
      "ĠMarg": 8368,
      "SC": 8369,
      "pel": 8370,
      "Ġfount": 8371,
      "Ġconsisted": 8372,
      "Ġregarding": 8373,
      "Ġrarely": 8374,
      "Ġceremony": 8375,
      "ĠBilly": 8376,
      "Ġcomment": 8377,
      "prof": 8378,
      "Ġmoist": 8379,
      "Ġsaints": 8380,
      "Ġfolly": 8381,
      "spirit": 8382,
      ".-": 8383,
      "icians": 8384,
      "Ġstomach": 8385,
      "Ġwarn": 8386,
      "Ġextensive": 8387,
      "Ġadmire": 8388,
      "Ġcommunication": 8389,
      "Ġhoney": 8390,
      "ado": 8391,
      "ĠALPHA": 8392,
      "zing": 8393,
      "ĠSchool": 8394,
      "ĠWH": 8395,
      "ĠCarl": 8396,
      "Ġknights": 8397,
      "drawn": 8398,
      "erm": 8399,
      "Ġenable": 8400,
      "Ġastonished": 8401,
      "hot": 8402,
      "Ġugly": 8403,
      "Ġvoc": 8404,
      "ieu": 8405,
      "Ġdisg": 8406,
      "forward": 8407,
      "ĠSouthern": 8408,
      "object": 8409,
      "ATE": 8410,
      "Ġwreck": 8411,
      "isation": 8412,
      "ĠSC": 8413,
      "Ġleather": 8414,
      "Ġdram": 8415,
      "ĠCongress": 8416,
      "pict": 8417,
      "ĠBon": 8418,
      "Ġplanted": 8419,
      "Ġthyself": 8420,
      "Ġtick": 8421,
      "Ġvest": 8422,
      "elly": 8423,
      "placed": 8424,
      "Ġ42": 8425,
      "Ġcutting": 8426,
      "complete": 8427,
      "ients": 8428,
      "indeed": 8429,
      "Ġwanting": 8430,
      "Ġlimits": 8431,
      "Ġheavily": 8432,
      "isible": 8433,
      "ĠBapt": 8434,
      "Ġrefuge": 8435,
      "Ġhastened": 8436,
      "Ġcontrad": 8437,
      "possible": 8438,
      "aters": 8439,
      "Ġactivity": 8440,
      "LES": 8441,
      "Sec": 8442,
      "ele": 8443,
      "plied": 8444,
      "Ġ[-": 8445,
      "Ġfollowers": 8446,
      "Ġstudents": 8447,
      "Ġmock": 8448,
      "pled": 8449,
      "following": 8450,
      "Captain": 8451,
      "Ġcyl": 8452,
      "Ġinser": 8453,
      "Ġchamp": 8454,
      "cer": 8455,
      "Ġstaff": 8456,
      "occasion": 8457,
      "Ġsho": 8458,
      "Ġhealthy": 8459,
      "Ġprecisely": 8460,
      "urred": 8461,
      "ĠLE": 8462,
      "Ġparted": 8463,
      "ĊĊĠĠĠĠĠĠĠĠĠĠĠĠĠĠĠĠĠĠĠĠĠĠĠĠĠĠĠĠĠĠĠ": 8464,
      "Ġenthusiasm": 8465,
      "ipt": 8466,
      "Ġpoems": 8467,
      "Ġsuspect": 8468,
      "Ġdenied": 8469,
      "Ġfurnish": 8470,
      "icing": 8471,
      "ĠGermans": 8472,
      "believe": 8473,
      "ĠMichael": 8474,
      "public": 8475,
      "Ġfrank": 8476,
      "Ġspell": 8477,
      "iae": 8478,
      "Ġcontinuous": 8479,
      "Ġconsiderably": 8480,
      "Ġsensible": 8481,
      "Ġfet": 8482,
      "Ġdrank": 8483,
      "thel": 8484,
      "amma": 8485,
      "Ġconj": 8486,
      "Ġdisturbed": 8487,
      "glass": 8488,
      "Ġautumn": 8489,
      "Ġblessing": 8490,
      "mel": 8491,
      "á¿": 8492,
      "inqu": 8493,
      "Ġtoss": 8494,
      "Ġdisgu": 8495,
      "Ġtrunk": 8496,
      "About": 8497,
      "rers": 8498,
      "sels": 8499,
      "ressing": 8500,
      "Ġapply": 8501,
      "Ġ70": 8502,
      "ĠOXIA": 8503,
      "Ġtha": 8504,
      "Ġcrest": 8505,
      "Ġgri": 8506,
      "umer": 8507,
      "Ġsale": 8508,
      "ĠĠĠĠĠĠĠĠĠĠĠĠĠĠĠĠĠ": 8509,
      "Ġseriously": 8510,
      "Ġswim": 8511,
      "Ġcottage": 8512,
      "ĊĠĠĠĠĠĠĠĠĠĠĠĠĠĠĠ": 8513,
      "Ġchim": 8514,
      "Ġglanced": 8515,
      "Ġstring": 8516,
      "Ġdefin": 8517,
      "unto": 8518,
      "Ġworshi": 8519,
      "ĠĠĠĠĠĠĠĠĠĠĠĠĠĠĠĠĠĠĠĠĠĠĠĠĠĠĠĠĠĠ": 8520,
      "Ġinspect": 8521,
      "Ġperfection": 8522,
      "Ġrecognised": 8523,
      "uity": 8524,
      "keeper": 8525,
      "east": 8526,
      "Ġign": 8527,
      "itself": 8528,
      "Ġpond": 8529,
      "ĠEve": 8530,
      "landson": 8531,
      "rified": 8532,
      "Ġdisciples": 8533,
      "Ġtun": 8534,
      "keep": 8535,
      "Ġuneas": 8536,
      "hour": 8537,
      "Ġpreserve": 8538,
      "Ġfinest": 8539,
      "Ġcandle": 8540,
      "Ġcomparatively": 8541,
      "inence": 8542,
      "especially": 8543,
      "idel": 8544,
      "Ġpoets": 8545,
      "Ġdepths": 8546,
      "Ġbloody": 8547,
      "Ġapplication": 8548,
      "Ġsteamer": 8549,
      "ĠOhio": 8550,
      "beautiful": 8551,
      "fif": 8552,
      "Ġsul": 8553,
      "uming": 8554,
      "Ġresist": 8555,
      "Ġabundant": 8556,
      "91": 8557,
      "====": 8558,
      "verty": 8559,
      "Ġstared": 8560,
      "ender": 8561,
      "Ġcoarse": 8562,
      "uset": 8563,
      "Ġcomplex": 8564,
      "ĠAbout": 8565,
      "rd": 8566,
      "Ġpuzz": 8567,
      "Ġabsent": 8568,
      "Ġgovern": 8569,
      "jac": 8570,
      "Ġretained": 8571,
      "Ġpoverty": 8572,
      "ĊĊĊĊĊ": 8573,
      "Ġnecessarily": 8574,
      "Ġleaders": 8575,
      "friends": 8576,
      "MER": 8577,
      "Ġtheatre": 8578,
      "onet": 8579,
      "agues": 8580,
      "conn": 8581,
      "Ġmedicine": 8582,
      "iency": 8583,
      "money": 8584,
      "Ïĥ": 8585,
      "Ġstupid": 8586,
      "Ġ51": 8587,
      "Ġpainful": 8588,
      "Ġremainder": 8589,
      "ĠChicago": 8590,
      "Tom": 8591,
      "itud": 8592,
      "church": 8593,
      "ĠAndrew": 8594,
      "Ġaccess": 8595,
      "Ġ44": 8596,
      "Ġconceived": 8597,
      "near": 8598,
      "ĠTor": 8599,
      "Ġsomebody": 8600,
      "achuset": 8601,
      "ĠNorthern": 8602,
      "nora": 8603,
      "Brit": 8604,
      "Mad": 8605,
      "Ġremo": 8606,
      "achusetts": 8607,
      "Ġhomes": 8608,
      "grat": 8609,
      "Ġearthly": 8610,
      "Ġarmour": 8611,
      "iage": 8612,
      "Ġhated": 8613,
      "ĠTime": 8614,
      "Ġdost": 8615,
      "Ġartific": 8616,
      "rooms": 8617,
      "appearance": 8618,
      "Ġting": 8619,
      "ĠFox": 8620,
      "Ġcondemned": 8621,
      "ifully": 8622,
      "Ġloyal": 8623,
      "Ġangle": 8624,
      "Nothing": 8625,
      "Ġwedding": 8626,
      "Me": 8627,
      "Pe": 8628,
      "girl": 8629,
      "wife": 8630,
      "brother": 8631,
      "Ġintervals": 8632,
      "Ġorganization": 8633,
      "ĠSpani": 8634,
      "Ġgown": 8635,
      "ĠAustr": 8636,
      "ISH": 8637,
      "Ġjudged": 8638,
      "Ġexecuted": 8639,
      "business": 8640,
      "sex": 8641,
      "Ġdefect": 8642,
      "aneous": 8643,
      "ĠAz": 8644,
      "England": 8645,
      "RA": 8646,
      "igne": 8647,
      "ĠDun": 8648,
      "Ġmostly": 8649,
      "Ġinternal": 8650,
      "Ġprovide": 8651,
      "Ġeighteen": 8652,
      "shaped": 8653,
      "Ġneglect": 8654,
      "Ġreb": 8655,
      "ollen": 8656,
      "Ġpersec": 8657,
      "Ġconspicuous": 8658,
      "Ġparas": 8659,
      "Ġcombined": 8660,
      "steps": 8661,
      "andal": 8662,
      "olen": 8663,
      "Ġthereby": 8664,
      "Ġpermission": 8665,
      "Ġviii": 8666,
      "Ġdoubtful": 8667,
      "Ġverses": 8668,
      "Ġwha": 8669,
      "ester": 8670,
      "Ġgig": 8671,
      "ĠĠĠĠĠĠĠĠĠĠĠĠĠĠĠĠĠĠĠ": 8672,
      "Ġsteady": 8673,
      "Ġresolution": 8674,
      "Ġexhausted": 8675,
      "Ġast": 8676,
      "Ġheed": 8677,
      "cester": 8678,
      "scar": 8679,
      "Ġclothing": 8680,
      "encies": 8681,
      "025": 8682,
      "La": 8683,
      "PER": 8684,
      "rust": 8685,
      "Ġ43": 8686,
      "chard": 8687,
      "Ġselect": 8688,
      "ĠLab": 8689,
      "Ġboots": 8690,
      "Ġ77": 8691,
      "Ġruined": 8692,
      "Ġhatred": 8693,
      "ustrious": 8694,
      "99": 8695,
      "hill": 8696,
      "Ġ41": 8697,
      "Ġbells": 8698,
      "bacco": 8699,
      "Ġtab": 8700,
      "Ġmix": 8701,
      "Ġdense": 8702,
      "igar": 8703,
      "short": 8704,
      "Ġinterview": 8705,
      "Ġcontinent": 8706,
      "cannot": 8707,
      "broken": 8708,
      "Ġfinish": 8709,
      "Ġcollege": 8710,
      "Ġrailroad": 8711,
      "ographical": 8712,
      "Ġpositive": 8713,
      "Ġoak": 8714,
      "Ġupward": 8715,
      "Ġsending": 8716,
      "Ġpronounced": 8717,
      "habited": 8718,
      "towards": 8719,
      "spect": 8720,
      "separ": 8721,
      "iano": 8722,
      "ĠWere": 8723,
      "Ġslew": 8724,
      "Ġgrandfather": 8725,
      "Ġprejud": 8726,
      "Ġgrapes": 8727,
      "Ġelabor": 8728,
      "Ġaffirm": 8729,
      "Ġstroke": 8730,
      "LAND": 8731,
      "bbed": 8732,
      "Ġcub": 8733,
      "igration": 8734,
      "prot": 8735,
      "Ġincreasing": 8736,
      "speak": 8737,
      "lad": 8738,
      "oting": 8739,
      "venant": 8740,
      "kerchief": 8741,
      "Ġmurmured": 8742,
      "Ġtour": 8743,
      "ĠJapan": 8744,
      "Ġconquer": 8745,
      "Ġarrow": 8746,
      "acted": 8747,
      "Ġearl": 8748,
      "Ġembr": 8749,
      "Ġinsisted": 8750,
      "Old": 8751,
      "dish": 8752,
      "mid": 8753,
      "inf": 8754,
      "owl": 8755,
      "Ġarise": 8756,
      "Ġstrife": 8757,
      "ĠMod": 8758,
      "Ġappet": 8759,
      "Ġexamine": 8760,
      "Des": 8761,
      "Ġpossibility": 8762,
      "Ġlimit": 8763,
      "ĠGive": 8764,
      "Ġuniverse": 8765,
      "ĠChild": 8766,
      "Ġdeeper": 8767,
      "ĠHead": 8768,
      "Ġlively": 8769,
      "Ġhopeless": 8770,
      "Ġqueer": 8771,
      "bb": 8772,
      "gun": 8773,
      "Ġtid": 8774,
      "conven": 8775,
      "often": 8776,
      "Ġillumin": 8777,
      "stud": 8778,
      "ĠTru": 8779,
      "Ġstair": 8780,
      "ĠRue": 8781,
      "Ġblows": 8782,
      "Ġhumour": 8783,
      "Ġassume": 8784,
      "nae": 8785,
      "Ġpatron": 8786,
      "Ġproceeding": 8787,
      "62": 8788,
      "rag": 8789,
      "Ġexhibit": 8790,
      "Ġsheet": 8791,
      "Ġmarvell": 8792,
      "Ed": 8793,
      "ĠIll": 8794,
      "Ġcanal": 8795,
      "everal": 8796,
      "Ġvanished": 8797,
      "doubt": 8798,
      "ĠEli": 8799,
      "box": 8800,
      "ASS": 8801,
      "Ġfortunate": 8802,
      "Ġinheritance": 8803,
      "ĠLo": 8804,
      "ĠRh": 8805,
      "Ġgrain": 8806,
      "Ġrelieved": 8807,
      "Ġdragged": 8808,
      "Ġprevented": 8809,
      "corn": 8810,
      "giving": 8811,
      "irk": 8812,
      "Ġcoward": 8813,
      "Even": 8814,
      "third": 8815,
      "olis": 8816,
      "Ġsolitary": 8817,
      "ĠAdam": 8818,
      "ĠChristianity": 8819,
      "Ġsurrounding": 8820,
      "Ġcomprehend": 8821,
      "ZoÃ¶l": 8822,
      "Mor": 8823,
      "eff": 8824,
      "Ġastr": 8825,
      "Ġinev": 8826,
      "Ġwashed": 8827,
      "ĠSIG": 8828,
      "Ġacres": 8829,
      "Ġbalance": 8830,
      "Ġweapon": 8831,
      "Ġgloomy": 8832,
      "Ġlend": 8833,
      "Ġarrive": 8834,
      "Ġcrept": 8835,
      "Ġpluck": 8836,
      "ĠInf": 8837,
      "Ġchapel": 8838,
      "Ġclaims": 8839,
      "Ġmixture": 8840,
      "Ġdetect": 8841,
      "Ġprophets": 8842,
      "vet": 8843,
      "ĠAfrican": 8844,
      "Ġvengeance": 8845,
      "gia": 8846,
      "umns": 8847,
      "akened": 8848,
      "Ġaged": 8849,
      "Ġwherever": 8850,
      "Ġeloqu": 8851,
      "Ġsixteen": 8852,
      "ĠGar": 8853,
      "Ġportions": 8854,
      "Ġsuggestion": 8855,
      "ĠRussia": 8856,
      "Ġmonument": 8857,
      "ĠÂ´": 8858,
      "daughter": 8859,
      "perial": 8860,
      "Ġenv": 8861,
      "Ġchron": 8862,
      "Ġbrook": 8863,
      "bene": 8864,
      "run": 8865,
      "ĠAlthough": 8866,
      "Ġdepartment": 8867,
      "ĠNeither": 8868,
      "Ġcongregation": 8869,
      "KING": 8870,
      "bishop": 8871,
      "during": 8872,
      "seven": 8873,
      "ĠCare": 8874,
      "Ġsubmar": 8875,
      "_.\"": 8876,
      "Ġprovince": 8877,
      "Ġmagist": 8878,
      "isms": 8879,
      "Ġhelpless": 8880,
      "hension": 8881,
      "Ġinquiry": 8882,
      "received": 8883,
      "Ġwhither": 8884,
      "Ġexquisite": 8885,
      "Anne": 8886,
      "poor": 8887,
      "Ġtones": 8888,
      "ano": 8889,
      "ĠInt": 8890,
      "ĠSus": 8891,
      "Ġindicate": 8892,
      "Ġcryst": 8893,
      "Ġinvestig": 8894,
      "coh": 8895,
      "adise": 8896,
      "Ġacting": 8897,
      "Ġcrossing": 8898,
      "Ġnav": 8899,
      "Ġcommence": 8900,
      "188": 8901,
      "ĠSac": 8902,
      "iege": 8903,
      "OTA": 8904,
      "Ġattracted": 8905,
      "Ġbeaten": 8906,
      "ĠSolomon": 8907,
      "Ġgrateful": 8908,
      "ithe": 8909,
      "throw": 8910,
      "manner": 8911,
      "Ġprovisions": 8912,
      "willing": 8913,
      "Ġcombat": 8914,
      "Among": 8915,
      "ĠPha": 8916,
      "Ġsunshine": 8917,
      "Ġinjury": 8918,
      "squ": 8919,
      "Ġattain": 8920,
      "ĠBurn": 8921,
      "antine": 8922,
      "gging": 8923,
      "Ġadmirable": 8924,
      "ĠEnglishman": 8925,
      "Ġtouching": 8926,
      "Ġsuspected": 8927,
      "Ġparallel": 8928,
      "Ġreasonable": 8929,
      "ĠPeel": 8930,
      "TS": 8931,
      "bi": 8932,
      "jour": 8933,
      "Ġcf": 8934,
      "Ġclimate": 8935,
      "Ġswords": 8936,
      "apping": 8937,
      "026": 8938,
      "otions": 8939,
      "Ġgang": 8940,
      "ĠMem": 8941,
      "Ġagent": 8942,
      "Ġcanoe": 8943,
      "Ġprofess": 8944,
      "ĠGrant": 8945,
      "Ġimperfect": 8946,
      "Ġwandering": 8947,
      "aturday": 8948,
      "fellow": 8949,
      "joice": 8950,
      "jean": 8951,
      "esc": 8952,
      "ĊĠĠĠĠĠĠĠĠĠĠĠĠĠĠ": 8953,
      "Ġcleared": 8954,
      "mighty": 8955,
      "ĠPut": 8956,
      "umbled": 8957,
      "Ġjumped": 8958,
      "Ġimages": 8959,
      "Ġgracious": 8960,
      "Ġsummit": 8961,
      "Ġperish": 8962,
      "Ġscenery": 8963,
      "azz": 8964,
      "Ġassure": 8965,
      "Ġheathen": 8966,
      "Ġpicturesque": 8967,
      "ka": 8968,
      "inv": 8969,
      "Ġhut": 8970,
      "ĠIOTA": 8971,
      "dead": 8972,
      "sche": 8973,
      "Ġslip": 8974,
      "\"_": 8975,
      "drew": 8976,
      "onia": 8977,
      "irts": 8978,
      "onday": 8979,
      "understand": 8980,
      "OLD": 8981,
      "barrass": 8982,
      "Ġtraining": 8983,
      "Ġmillion": 8984,
      "```": 8985,
      "Ġafforded": 8986,
      "Ġmoderate": 8987,
      "Ġbreeze": 8988,
      "iner": 8989,
      "ĠRock": 8990,
      "Ġjump": 8991,
      "Ġyourselves": 8992,
      "dev": 8993,
      "ĠClare": 8994,
      "Ġmaterials": 8995,
      "Ġwritings": 8996,
      "det": 8997,
      "ĠMissouri": 8998,
      "Ġelev": 8999,
      "Ġstewpan": 9000,
      "Ġdaring": 9001,
      "pton": 9002,
      "Ġflock": 9003,
      "Ġdesigned": 9004,
      "Ġtriump": 9005,
      "ĠEgyptian": 9006,
      "cow": 9007,
      "rell": 9008,
      "Ġard": 9009,
      "Ġpainting": 9010,
      "Bec": 9011,
      "Ġpowder": 9012,
      "Ġrus": 9013,
      "anger": 9014,
      "Ġbasin": 9015,
      ",âĢĶ": 9016,
      "Ġowe": 9017,
      "tery": 9018,
      "ĠLincoln": 9019,
      "ĠOffic": 9020,
      "Ġsculpt": 9021,
      "Ġlaying": 9022,
      "Ġhideous": 9023,
      "asy": 9024,
      "Ġshone": 9025,
      "Ġreflection": 9026,
      "Ġlocked": 9027,
      "Ġinit": 9028,
      "ĠCON": 9029,
      "ĠAtl": 9030,
      "Ġhardy": 9031,
      "Ġfairy": 9032,
      "although": 9033,
      "NOT": 9034,
      "UB": 9035,
      "_]": 9036,
      "mine": 9037,
      "Ġstarting": 9038,
      "Ġparticulars": 9039,
      "Ġslightest": 9040,
      "ĠArgent": 9041,
      "Ġbeds": 9042,
      "Ġ1899": 9043,
      "deter": 9044,
      "Ġsite": 9045,
      "Ġbishop": 9046,
      "onic": 9047,
      "ĠCatherine": 9048,
      "Ġrhy": 9049,
      "Ġslavery": 9050,
      "Ġdevotion": 9051,
      "IRST": 9052,
      "Great": 9053,
      "fight": 9054,
      "Ġhed": 9055,
      "Ġanalog": 9056,
      ".,âĢĻ": 9057,
      "Ġprud": 9058,
      "lear": 9059,
      "ĠPL": 9060,
      "ĠAtt": 9061,
      "continued": 9062,
      "Ġobedience": 9063,
      "free": 9064,
      "till": 9065,
      "wering": 9066,
      "urious": 9067,
      "places": 9068,
      "bye": 9069,
      "Ġintermediate": 9070,
      "Ġcommercial": 9071,
      "Ġanchor": 9072,
      "aired": 9073,
      "leness": 9074,
      "Ġate": 9075,
      "Ġdesires": 9076,
      "Ġraising": 9077,
      "Ġconviction": 9078,
      "Ġsymbol": 9079,
      "Ġcharity": 9080,
      "graph": 9081,
      "Ġcells": 9082,
      "ĠGovernor": 9083,
      "ĠSamuel": 9084,
      "More": 9085,
      "Take": 9086,
      "War": 9087,
      "Ġcure": 9088,
      "enter": 9089,
      "ilton": 9090,
      "herself": 9091,
      "ĠPass": 9092,
      "Ġvaried": 9093,
      "Ġpurchase": 9094,
      "Ġtub": 9095,
      "rily": 9096,
      "means": 9097,
      "Ġfaire": 9098,
      "57": 9099,
      "Ã¼": 9100,
      "Ġdivers": 9101,
      "riff": 9102,
      "Ġbushes": 9103,
      "justice": 9104,
      "ifies": 9105,
      "ĠBul": 9106,
      "ĠGrey": 9107,
      "Ġclam": 9108,
      "Ġcommander": 9109,
      "51": 9110,
      "mort": 9111,
      "ĠWILL": 9112,
      "Ġvulgar": 9113,
      "anting": 9114,
      "Ġadorn": 9115,
      "deep": 9116,
      "Ġattent": 9117,
      "ĠEdition": 9118,
      "Ġdisplayed": 9119,
      "circumst": 9120,
      "Ġtowers": 9121,
      "Ġoutward": 9122,
      "Ġcontempor": 9123,
      "uer": 9124,
      "Ġsway": 9125,
      "Ġfetch": 9126,
      "ĠMah": 9127,
      "need": 9128,
      "ogs": 9129,
      "works": 9130,
      "ĠCounty": 9131,
      "Ġtravelling": 9132,
      "Ġmant": 9133,
      "oso": 9134,
      "Ġquart": 9135,
      "Ġresour": 9136,
      "Ġslay": 9137,
      "Ġarmies": 9138,
      "Ġspecific": 9139,
      "Ġstreams": 9140,
      "everything": 9141,
      "Ġpear": 9142,
      "Ġseeds": 9143,
      "ĠLight": 9144,
      "Ġoccupation": 9145,
      "chance": 9146,
      "OST": 9147,
      "vag": 9148,
      "Ġlightning": 9149,
      "gold": 9150,
      "erted": 9151,
      "Ġdried": 9152,
      "ector": 9153,
      "ĠTroy": 9154,
      "ictions": 9155,
      "ertainly": 9156,
      "Ġintelligent": 9157,
      "Having": 9158,
      "ĠCross": 9159,
      "Ġvillain": 9160,
      "90": 9161,
      "fold": 9162,
      "ĠWall": 9163,
      "Ġkai": 9164,
      "ĠMarilla": 9165,
      "family": 9166,
      "Ġdecision": 9167,
      "Ġmuscles": 9168,
      "knew": 9169,
      "inch": 9170,
      "Ġplains": 9171,
      "Ġflatter": 9172,
      "Ġfourteen": 9173,
      "Ġfuneral": 9174,
      "riages": 9175,
      "Ġorgans": 9176,
      "Ġtraces": 9177,
      "ibr": 9178,
      "Ġmotive": 9179,
      "ships": 9180,
      "Ġlic": 9181,
      "ĠMuseum": 9182,
      "Ġselection": 9183,
      "Ġabstr": 9184,
      "augh": 9185,
      "Ġconsist": 9186,
      "ĠĠĠĠĠĠĠĠĠĠĠĠĠĠĠĠĠĠĠĠĠĠĠĠĠĠĠĠĠĠĠĠĠĠĠ": 9187,
      "Ġconsidering": 9188,
      "ICRON": 9189,
      "Ġstudent": 9190,
      "Chapter": 9191,
      "TE": 9192,
      "mund": 9193,
      "Ġinduced": 9194,
      "Ġconject": 9195,
      "Ġrepublic": 9196,
      "retary": 9197,
      "prison": 9198,
      "ĠOMICRON": 9199,
      "ÏĢ": 9200,
      "atum": 9201,
      "ĠPac": 9202,
      "ATH": 9203,
      "sufficient": 9204,
      "Ġgam": 9205,
      "Ġweep": 9206,
      "ĠBeth": 9207,
      "Ġseal": 9208,
      "Ġvivid": 9209,
      "Ġbreadth": 9210,
      "joining": 9211,
      "ĠPortug": 9212,
      "whel": 9213,
      "Ġmap": 9214,
      "Ġvolumes": 9215,
      "Ġhunger": 9216,
      "utive": 9217,
      "Ġattained": 9218,
      "Ġblock": 9219,
      ".'\"": 9220,
      "grad": 9221,
      "Ġsung": 9222,
      "Ġvap": 9223,
      "Ġvener": 9224,
      "super": 9225,
      "scape": 9226,
      "Ġswiftly": 9227,
      "ĠGent": 9228,
      "Ġadding": 9229,
      "ĠWithout": 9230,
      "Ne": 9231,
      "says": 9232,
      "ouched": 9233,
      "ĠDiana": 9234,
      "Ġcourts": 9235,
      "Ġminor": 9236,
      "Ġfiring": 9237,
      "Ġreflected": 9238,
      "Ġexhibited": 9239,
      "Ġdiver": 9240,
      "Ġninet": 9241,
      "ĠBed": 9242,
      "Ġnois": 9243,
      "ĠAthens": 9244,
      "Ġsounded": 9245,
      "itality": 9246,
      "Ġdirty": 9247,
      "Ġnotwithstanding": 9248,
      "ĠHor": 9249,
      "ĠAssy": 9250,
      "ĠProtestant": 9251,
      "PL": 9252,
      "ĠBath": 9253,
      "olland": 9254,
      "Ġpole": 9255,
      "deal": 9256,
      "Ġincred": 9257,
      "brance": 9258,
      "Though": 9259,
      "Ġgarments": 9260,
      "Ġneglected": 9261,
      "Ġthreatened": 9262,
      "lic": 9263,
      "ni": 9264,
      "pey": 9265,
      "ials": 9266,
      "Ġhappens": 9267,
      "proceed": 9268,
      "Ġvow": 9269,
      "Ġartistic": 9270,
      "ĠBeing": 9271,
      "Ġsatisfactory": 9272,
      "century": 9273,
      "Ġjuicy": 9274,
      "bod": 9275,
      "nut": 9276,
      "Ġmax": 9277,
      "ĠEle": 9278,
      "Ġsomehow": 9279,
      "ĠVery": 9280,
      "Ġmarvel": 9281,
      "ĠConstitution": 9282,
      "stitute": 9283,
      "Which": 9284,
      "Ġ{~": 9285,
      "Ġcloser": 9286,
      "Ġroar": 9287,
      "inson": 9288,
      "Ġpersuaded": 9289,
      "Ġeconom": 9290,
      "53": 9291,
      "AIN": 9292,
      "Ġther": 9293,
      "Ġbunch": 9294,
      "arly": 9295,
      "Ġtransport": 9296,
      "Ġproductive": 9297,
      "Ġliquid": 9298,
      "78": 9299,
      "onze": 9300,
      "ĠCart": 9301,
      "Ġattempts": 9302,
      "Ġapartment": 9303,
      "ĠDep": 9304,
      "Ġample": 9305,
      "Ġimpressed": 9306,
      "Ġwondering": 9307,
      "Ġprayed": 9308,
      "Ġfeeble": 9309,
      "lost": 9310,
      "thew": 9311,
      "Ġdismiss": 9312,
      "Ġprevailed": 9313,
      "reckles": 9314,
      "Ġnodded": 9315,
      "98": 9316,
      "ĠTre": 9317,
      "Ġplot": 9318,
      "Ġdaylight": 9319,
      "Ġwont": 9320,
      "Ġfasc": 9321,
      "Ġmanage": 9322,
      "neighb": 9323,
      "ĠEarth": 9324,
      "Ġresemblance": 9325,
      "ĠTR": 9326,
      "Ġinterfe": 9327,
      "Ġnarrative": 9328,
      "Ġrepeat": 9329,
      "Ġshores": 9330,
      "Ġmessenger": 9331,
      "Ġpink": 9332,
      "ĠMun": 9333,
      "ĠPot": 9334,
      "Ġwheels": 9335,
      "ĠFe": 9336,
      "began": 9337,
      "Ġperf": 9338,
      "shot": 9339,
      "Ġlegal": 9340,
      "ĠWild": 9341,
      "Ġexert": 9342,
      "Ġmans": 9343,
      "avour": 9344,
      "Ġjudges": 9345,
      "Ġfrost": 9346,
      "Ġcraw": 9347,
      "ĠTchaikovsky": 9348,
      "Ġlinen": 9349,
      "Book": 9350,
      "PH": 9351,
      "tt": 9352,
      "ym": 9353,
      "Ġbud": 9354,
      "Ġpile": 9355,
      "ĠTown": 9356,
      "ĠBre": 9357,
      "begin": 9358,
      "Ġpreparation": 9359,
      "ĠApost": 9360,
      "OME": 9361,
      "ĠWherefore": 9362,
      "Ġcathedral": 9363,
      "Many": 9364,
      "ĠSim": 9365,
      "ĠĠĠĠĠĠĠĠĠĠĠĠĠĠĠĠĠĠĠĠĠĠĠĠĠĠĠĠĠĠĠĠĠ": 9366,
      "Ġapparatus": 9367,
      "leton": 9368,
      "Ġsphere": 9369,
      "wealth": 9370,
[...]
