{
  "version": "1.0",
  "truncation": null,
  "padding": null,
  "added_tokens": [
    {
      "id": 0,
      "content": "<unk>",
      "single_word": false,
      "lstrip": false,
      "rstrip": false,
      "normalized": false,
      "special": true
    }
  ],
  "normalizer": null,
  "pre_tokenizer": {
    "type": "ByteLevel",
    "add_prefix_space": false,
    "trim_offsets": true,
    "use_regex": true
  },
  "post_processor": null,
  "decoder": {
    "type": "ByteLevel",
    "add_prefix_space": true,
    "trim_offsets": true,
    "use_regex": true
  },
  "model": {
    "type": "BPE",
    "dropout": null,
    "unk_token": "<unk>",
    "continuing_subword_prefix": null,
    "end_of_word_suffix": null,
    "fuse_unk": false,
    "byte_fallback": false,
    "ignore_merges": false,
    "vocab": {
      "<unk>": 0,
      "!": 1,
      "\"": 2,
      "#": 3,
      "$": 4,
      "%": 5,
      "&": 6,
      "'": 7,
      "(": 8,
      ")": 9,
      "*": 10,
      "+": 11,
      ",": 12,
      "-": 13,
      ".": 14,
      "/": 15,
      "0": 16,
      "1": 17,
      "2": 18,
      "3": 19,
      "4": 20,
      "5": 21,
      "6": 22,
      "7": 23,
      "8": 24,
      "9": 25,
      ":": 26,
      ";": 27,
      "<": 28,
      "=": 29,
      ">": 30,
      "?": 31,
      "@": 32,
      "A": 33,
      "B": 34,
      "C": 35,
      "D": 36,
      "E": 37,
      "F": 38,
      "G": 39,
      "H": 40,
      "I": 41,
      "J": 42,
      "K": 43,
      "L": 44,
      "M": 45,
      "N": 46,
      "O": 47,
      "P": 48,
      "Q": 49,
      "R": 50,
      "S": 51,
      "T": 52,
      "U": 53,
      "V": 54,
      "W": 55,
      "X": 56,
      "Y": 57,
      "Z": 58,
      "[": 59,
      "\\": 60,
      "]": 61,
      "^": 62,
      "_": 63,
      "`": 64,
      "a": 65,
      "b": 66,
      "c": 67,
      "d": 68,
      "e": 69,
      "f": 70,
      "g": 71,
      "h": 72,
      "i": 73,
      "j": 74,
      "k": 75,
      "l": 76,
      "m": 77,
      "n": 78,
      "o": 79,
      "p": 80,
      "q": 81,
      "r": 82,
      "s": 83,
      "t": 84,
      "u": 85,
      "v": 86,
      "w": 87,
      "x": 88,
      "y": 89,
      "z": 90,
      "{": 91,
      "|": 92,
      "}": 93,
      "~": 94,
      "¡": 95,
      "¢": 96,
      "£": 97,
      "¤": 98,
      "¥": 99,
      "¦": 100,
      "§": 101,
      "¨": 102,
      "©": 103,
      "ª": 104,
      "«": 105,
      "®": 106,
      "¯": 107,
      "°": 108,
      "±": 109,
      "²": 110,
      "³": 111,
      "´": 112,
      "µ": 113,
      "¶": 114,
      "·": 115,
      "¹": 116,
      "º": 117,
      "»": 118,
      "¼": 119,
      "½": 120,
      "¾": 121,
      "¿": 122,
      "Â": 123,
      "Ã": 124,
      "Ä": 125,
      "Å": 126,
      "Ê": 127,
      "Ì": 128,
      "á": 129,
      "â": 130,
      "ā": 131,
      "Ă": 132,
      "ć": 133,
      "Ĉ": 134,
      "ĉ": 135,
      "Ċ": 136,
      "ċ": 137,
      "ē": 138,
      "Ĝ": 139,
      "Ġ": 140,
      "Ģ": 141,
      "ģ": 142,
      "Ĥ": 143,
      "ĥ": 144,
      "Ħ": 145,
      "Ĩ": 146,
      "ĩ": 147,
      "Ī": 148,
      "ī": 149,
      "Į": 150,
      "į": 151,
      "İ": 152,
      "ı": 153,
      "ĳ": 154,
      "Ĵ": 155,
      "ĵ": 156,
      "Ķ": 157,
      "ĸ": 158,
      "Ĺ": 159,
      "ĺ": 160,
      "Ļ": 161,
      "Ľ": 162,
      "ľ": 163,
      "Ŀ": 164,
      "ł": 165,
      "Ń": 166,
      "Ġt": 167,
      "he": 168,
      "Ġa": 169,
      "in": 170,
      "Ġthe": 171,
      "ĠĠ": 172,
      "Ġo": 173,
      "Ġw": 174,
      "Ġs": 175,
      "re": 176,
      "nd": 177,
      "er": 178,
      "ha": 179,
      "Ġb": 180,
      "ou": 181,
      "is": 182,
      "it": 183,
      "ed": 184,
      "Ġm": 185,
      "on": 186,
      "Ġof": 187,
      "Ġf": 188,
      "en": 189,
      "Ġand": 190,
      "Ġc": 191,
      "or": 192,
      "es": 193,
      "Ġto": 194,
      "ing": 195,
      "ll": 196,
      "ĠĠĠĠ": 197,
      "ar": 198,
      "Ġp": 199,
      "Ġd": 200,
      "an": 201,
      "Ġin": 202,
      "at": 203,
      "Ġh": 204,
      "as": 205,
      "Ġl": 206,
      "Ġn": 207,
      "Ġhe": 208,
      "om": 209,
      "Ġha": 210,
      "hat": 211,
      "le": 212,
      "Ġbe": 213,
      "ĠI": 214,
      "ic": 215,
      "Ġg": 216,
      "ot": 217,
      "ow": 218,
      "st": 219,
      "ut": 220,
      "Ġth": 221,
      "ve": 222,
      "se": 223,
      "Ġe": 224,
      "im": 225,
      "ld": 226,
      "id": 227,
      "ent": 228,
      "Ġthat": 229,
      "gh": 230,
      "ly": 231,
      "ion": 232,
      "ce": 233,
      "al": 234,
      "Ġy": 235,
      "Ġu": 236,
      "ĠT": 237,
      "ir": 238,
      "ay": 239,
      "Ġwas": 240,
      "et": 241,
      "ith": 242,
      "Ġre": 243,
      "Ġit": 244,
      "Ġwh": 245,
      "ver": 246,
      "Ġon": 247,
      "ur": 248,
      "ĠA": 249,
      "Ġfor": 250,
      "Ġhis": 251,
      "Ġwith": 252,
      "ad": 253,
      "Ġas": 254,
      "Ġwe": 255,
      "ro": 256,
      "Ġyou": 257,
      "ght": 258,
      "her": 259,
      "ri": 260,
      "Ġis": 261,
      "ac": 262,
      "ĠĠĠĠĠĠĠĠ": 263,
      "am": 264,
      "Ġst": 265,
      "ĠS": 266,
      "ĊĠ": 267,
      "Ġnot": 268,
      "Ġan": 269,
      "ter": 270,
      "and": 271,
      "ill": 272,
      "od": 273,
      "ain": 274,
      "--": 275,
      "th": 276,
      "Ġhad": 277,
      "ould": 278,
      "if": 279,
      "ec": 280,
      "ke": 281,
      "ĠH": 282,
      "Ġat": 283,
      "ĠM": 284,
      "il": 285,
      "ĊĠĠ": 286,
      "ich": 287,
      "ch": 288,
      "ore": 289,
      "ĠThe": 290,
      "Ġme": 291,
      "Ġhim": 292,
      "ess": 293,
      "Ġher": 294,
      "'s": 295,
      "ĊĠĠĠ": 296,
      "us": 297,
      "red": 298,
      "rom": 299,
      "ĠB": 300,
      "ĠC": 301,
      "Ġse": 302,
      "to": 303,
      "Ġby": 304,
      "the": 305,
      "all": 306,
      "ra": 307,
      "Ġwhich": 308,
      "Ġmy": 309,
      "Ġsa": 310,
      "ge": 311,
      "Ġsu": 312,
      "Ġso": 313,
      "ul": 314,
      "ome": 315,
      "ĊĊ": 316,
      "Ġk": 317,
      "Ġhave": 318,
      "ight": 319,
      "Ġall": 320,
      "ĠW": 321,
      "Ġthey": 322,
      "pp": 323,
      "Ġde": 324,
      "est": 325,
      "Ġor": 326,
      "Ġbut": 327,
      "Ġup": 328,
      "Ġfrom": 329,
      "qu": 330,
      "Ġ\"": 331,
      "ation": 332,
      "ĠL": 333,
      "Ġthis": 334,
      "Ġv": 335,
      "res": 336,
      "Ġcon": 337,
      "Ġwhe": 338,
      "ous": 339,
      "em": 340,
      "ab": 341,
      "nt": 342,
      "ard": 343,
      "Ġr": 344,
      "ol": 345,
      "Ġsh": 346,
      "Ġshe": 347,
      "Ġwere": 348,
      "Ġthem": 349,
      "ant": 350,
      "ĠP": 351,
      "Ġman": 352,
      "our": 353,
      "el": 354,
      "ĠG": 355,
      "ers": 356,
      "ust": 357,
      "ame": 358,
      "os": 359,
      "um": 360,
      "Ġne": 361,
      "ong": 362,
      "ist": 363,
      "Ġgo": 364,
      "Ġsp": 365,
      "Ġtheir": 366,
      "art": 367,
      "Ġdo": 368,
      "Ġex": 369,
      "Ġare": 370,
      ".\"": 371,
      "Ġwho": 372,
      "ast": 373,
      "ok": 374,
      "ĠF": 375,
      "ind": 376,
      "op": 377,
      "ie": 378,
      "un": 379,
      "Ġone": 380,
      "ig": 381,
      "ĠAnd": 382,
      "Ġlo": 383,
      "Ġal": 384,
      "ĠO": 385,
      "ound": 386,
      "Ġsaid": 387,
      "ord": 388,
      "sel": 389,
      "out": 390,
      "Ġno": 391,
      "very": 392,
      "ell": 393,
      "ive": 394,
      "Ġsha": 395,
      "Ġun": 396,
      "ĊĠĠĠĠĠĠĠĠ": 397,
      "iv": 398,
      "Ġthere": 399,
      "ak": 400,
      "ect": 401,
      "ate": 402,
      "ear": 403,
      "ct": 404,
      "han": 405,
      "The": 406,
      "Ġcom": 407,
      "ĠE": 408,
      "one": 409,
      "pt": 410,
      "ĠN": 411,
      "ity": 412,
      "own": 413,
      "reat": 414,
      "Ġab": 415,
      "ough": 416,
      "Ġwill": 417,
      "Ġout": 418,
      "ĠD": 419,
      "Ġkn": 420,
      "Ġwould": 421,
      ",\"": 422,
      "ry": 423,
      "ure": 424,
      "ort": 425,
      "ĊĠĠĠĠĠĠĠĠĠĠ": 426,
      "Ġpro": 427,
      "Ġwhen": 428,
      "Ġpl": 429,
      "ies": 430,
      "ĠJ": 431,
      "ine": 432,
      "au": 433,
      "ven": 434,
      "ther": 435,
      "itt": 436,
      "ĠHe": 437,
      "ose": 438,
      "ake": 439,
      "Ġ1": 440,
      "Ġle": 441,
      "Ġbeen": 442,
      "ide": 443,
      "ost": 444,
      "ace": 445,
      "ag": 446,
      "hed": 447,
      "Ġj": 448,
      "ass": 449,
      "Ġar": 450,
      "self": 451,
      "of": 452,
      "ep": 453,
      "fore": 454,
      "Ġag": 455,
      "ack": 456,
      "ĠR": 457,
      "end": 458,
      "Ġyour": 459,
      "are": 460,
      "Ġli": 461,
      "ime": 462,
      "Ġwor": 463,
      "ond": 464,
      "Ġupon": 465,
      "ck": 466,
      "hi": 467,
      "Ġif": 468,
      "Ġam": 469,
      "Ġmore": 470,
      "Ġinto": 471,
      "Ġshall": 472,
      "ish": 473,
      "ud": 474,
      "Ġtr": 475,
      "ood": 476,
      "Ġthou": 477,
      "Ġaf": 478,
      "Ġus": 479,
      "ĊĠĠĠĠ": 480,
      "ment": 481,
      "Ġbr": 482,
      "ings": 483,
      "ance": 484,
      "other": 485,
      "pl": 486,
      "urn": 487,
      "ade": 488,
      "Ġ(": 489,
      "ice": 490,
      "Ġwhat": 491,
      "Ġqu": 492,
      "Ġother": 493,
      "cc": 494,
      "we": 495,
      "Ġsome": 496,
      "way": 497,
      "ence": 498,
      "able": 499,
      "Ġtw": 500,
      "'t": 501,
      "Ġcan": 502,
      "Ġany": 503,
      "Ġro": 504,
      "ite": 505,
      "per": 506,
      "Ġcould": 507,
      "Ġfe": 508,
      "Ġthan": 509,
      "Ġday": 510,
      "ble": 511,
      "Ġpr": 512,
      "Ġen": 513,
      "Ġour": 514,
      "ue": 515,
      "Ġbl": 516,
      "Ġcl": 517,
      "ount": 518,
      "av": 519,
      "ree": 520,
      "Ġtime": 521,
      "ire": 522,
      "be": 523,
      "Ġsay": 524,
      "Ġgreat": 525,
      "ne": 526,
      "wn": 527,
      "Ġdid": 528,
      "00": 529,
      "ious": 530,
      "ather": 531,
      "ans": 532,
      "Ġgr": 533,
      "Ġnow": 534,
      "Ġagain": 535,
      "ĠTh": 536,
      "Ġsee": 537,
      "Ġ_": 538,
      "Ġdis": 539,
      "ng": 540,
      "ittle": 541,
      "age": 542,
      "Ġvery": 543,
      "Ġthen": 544,
      "Ġover": 545,
      "Ġhand": 546,
      "hing": 547,
      "Ġim": 548,
      "Ġad": 549,
      "Ġlike": 550,
      "ap": 551,
      "old": 552,
      "ĠIt": 553,
      "Ġ'": 554,
      "ĠĠĠĠĠĠĠĠĠĠĠĠĠĠĠĠ": 555,
      "ally": 556,
      "ife": 557,
      "te": 558,
      "Ġknow": 559,
      "ĠBut": 560,
      "Ġfl": 561,
      "ick": 562,
      "nder": 563,
      "Ġper": 564,
      "ath": 565,
      "Ġpe": 566,
      "ied": 567,
      "ress": 568,
      "ness": 569,
      "Ġhas": 570,
      "ink": 571,
      "Ġshould": 572,
      "uch": 573,
      "ber": 574,
      "?\"": 575,
      "Ġabout": 576,
      "ved": 577,
      "ions": 578,
      "bl": 579,
      "oll": 580,
      "Ġoff": 581,
      "ff": 582,
      "Ġmade": 583,
      "Ġlittle": 584,
      "Ġapp": 585,
      "Ġbefore": 586,
      "Ġgood": 587,
      "Ġits": 588,
      "ated": 589,
      "Ġthr": 590,
      "ful": 591,
      "orn": 592,
      "Ġbo": 593,
      "ward": 594,
      "Ġafter": 595,
      "irst": 596,
      "Ġdown": 597,
      "ull": 598,
      "âĢ": 599,
      "so": 600,
      "ER": 601,
      "ĠK": 602,
      "Ġmen": 603,
      ".,": 604,
      "Ġcame": 605,
      "ach": 606,
      "ru": 607,
      "Ġmay": 608,
      "act": 609,
      "Ġthese": 610,
      "Ġtwo": 611,
      "Ġonly": 612,
      "Ġlook": 613,
      "ise": 614,
      "ary": 615,
      "ile": 616,
      "ons": 617,
      "tain": 618,
      "ave": 619,
      "ĊĊĠ": 620,
      "ark": 621,
      "ci": 622,
      "ign": 623,
      "ty": 624,
      "Ġpart": 625,
      "for": 626,
      "Ġpre": 627,
      "Ġpo": 628,
      "Ġ2": 629,
      "ren": 630,
      "ĠY": 631,
      "Ġwhere": 632,
      "Ġlong": 633,
      "right": 634,
      "Ġdes": 635,
      "ted": 636,
      "hen": 637,
      "ove": 638,
      "Ġcha": 639,
      "Ġhow": 640,
      "Ġcome": 641,
      "ĠGod": 642,
      "Ġrem": 643,
      "ang": 644,
      "Ġsuch": 645,
      "Ġmust": 646,
      "ouse": 647,
      "ople": 648,
      "Ġsc": 649,
      "Ġway": 650,
      "Ġold": 651,
      "Ġmuch": 652,
      "Ġfirst": 653,
      "oth": 654,
      "Ġbec": 655,
      "Ġunto": 656,
      "Ġch": 657,
      "Ġunder": 658,
      "man": 659,
      "ft": 660,
      "Ġevery": 661,
      "cl": 662,
      "Ġown": 663,
      "Ġmight": 664,
      "Ġear": 665,
      "OR": 666,
      "ered": 667,
      "!\"": 668,
      "ĠIn": 669,
      "Ġeven": 670,
      "iz": 671,
      "Ġpass": 672,
      "ps": 673,
      "01": 674,
      "Ġwell": 675,
      "ia": 676,
      "'d": 677,
      "ian": 678,
      "ause": 679,
      "Ġgl": 680,
      "Ġbet": 681,
      "Ġnever": 682,
      "ors": 683,
      "Ġsm": 684,
      "Ġcomp": 685,
      "Ġpeople": 686,
      "oss": 687,
      "that": 688,
      "Ġthose": 689,
      "fe": 690,
      "Ġthy": 691,
      "Ġey": 692,
      "ĊĊĠĠĠĠ": 693,
      "Ġthrough": 694,
      "Ġres": 695,
      "hes": 696,
      "ady": 697,
      "Ġmany": 698,
      "ked": 699,
      "Ġcall": 700,
      "Ġcomm": 701,
      "ears": 702,
      "ater": 703,
      "Ġsl": 704,
      "air": 705,
      "ĠMr": 706,
      "ves": 707,
      "Ġacc": 708,
      "led": 709,
      "ried": 710,
      "Ġmost": 711,
      "ory": 712,
      "anc": 713,
      "Ġlet": 714,
      "Ġwent": 715,
      "pe": 716,
      "Ġlife": 717,
      "ought": 718,
      "Ġi": 719,
      "Ġbeing": 720,
      "ving": 721,
      "aw": 722,
      "Ġstr": 723,
      "ily": 724,
      "Ġmake": 725,
      "not": 726,
      "Ġback": 727,
      "Ġcont": 728,
      "ĠV": 729,
      "Ġking": 730,
      "Ġhimself": 731,
      "Ġwr": 732,
      "Ġbeg": 733,
      "ens": 734,
      "ĠShe": 735,
      "iss": 736,
      "ew": 737,
      "Ġra": 738,
      "Ġhere": 739,
      "de": 740,
      "mer": 741,
      "wh": 742,
      "Ġword": 743,
      "Ġbel": 744,
      "Ġ3": 745,
      "Ġthought": 746,
      "Ġseem": 747,
      "ever": 748,
      "igh": 749,
      "Ġcons": 750,
      "ult": 751,
      "row": 752,
      "Ġthink": 753,
      "og": 754,
      "eth": 755,
      "Ġaway": 756,
      "ither": 757,
      "Ġfound": 758,
      "oy": 759,
      "ations": 760,
      "int": 761,
      "Ġob": 762,
      "Ġwork": 763,
      "ĠCh": 764,
      "Ġhead": 765,
      "hild": 766,
      "),": 767,
      "Ġser": 768,
      "Ġhouse": 769,
      "Ġimp": 770,
      "ase": 771,
      "Ġtoo": 772,
      "less": 773,
      "ower": 774,
      "Ġthee": 775,
      "Ġpres": 776,
      "ared": 777,
      "his": 778,
      "Ġent": 779,
      "Ġke": 780,
      "ened": 781,
      "Ġalso": 782,
      "ict": 783,
      "les": 784,
      "And": 785,
      "Ġ[": 786,
      "ition": 787,
      "Ġturn": 788,
      "Ġsame": 789,
      "med": 790,
      "Ġchild": 791,
      "riend": 792,
      "Ġatt": 793,
      "Ġjust": 794,
      "here": 795,
      "ĠFor": 796,
      "li": 797,
      "ild": 798,
      "ince": 799,
      "ĠSt": 800,
      "pect": 801,
      "He": 802,
      "ock": 803,
      "with": 804,
      "Ġplace": 805,
      "Ġheart": 806,
      "ollow": 807,
      "Ġend": 808,
      "Ġye": 809,
      "Ġlast": 810,
      "Ġyet": 811,
      "ex": 812,
      "Ġtake": 813,
      "lf": 814,
      "get": 815,
      "ple": 816,
      "ged": 817,
      "Ġwithout": 818,
      "up": 819,
      "omet": 820,
      "aid": 821,
      "Ġrep": 822,
      "ished": 823,
      "Ġop": 824,
      "Ġsw": 825,
      "ĠTo": 826,
      "land": 827,
      "ret": 828,
      "ject": 829,
      "und": 830,
      "Ġ4": 831,
      "ial": 832,
      "Ġwar": 833,
      "ener": 834,
      "Ġeyes": 835,
      "Ġret": 836,
      "ix": 837,
      "atter": 838,
      "ible": 839,
      "Ġput": 840,
      "Ġever": 841,
      "..": 842,
      "Ġwom": 843,
      "Ġco": 844,
      "Ġspe": 845,
      "Ġstill": 846,
      "me": 847,
      "Ġright": 848,
      "ail": 849,
      "Ġthings": 850,
      "Ġagainst": 851,
      "Ġfar": 852,
      "02": 853,
      "ced": 854,
      "Ġhar": 855,
      "ORD": 856,
      "Ġ--": 857,
      "AL": 858,
      "Ġsaw": 859,
      "ms": 860,
      "Ġfriend": 861,
      "Ġwhile": 862,
      "Ġnight": 863,
      "Ġset": 864,
      "Ġcar": 865,
      "TER": 866,
      "ody": 867,
      "Ġget": 868,
      "Ġlove": 869,
      "It": 870,
      "Ġcount": 871,
      "ss": 872,
      "ents": 873,
      "hy": 874,
      "aught": 875,
      "ction": 876,
      "ertain": 877,
      "Ġdist": 878,
      "Ġbre": 879,
      "ĠThey": 880,
      "Ġname": 881,
      "was": 882,
      "con": 883,
      "ently": 884,
      "Ġtook": 885,
      "ks": 886,
      "ip": 887,
      "RE": 888,
      "imes": 889,
      "ĠThere": 890,
      "aking": 891,
      "ning": 892,
      "ical": 893,
      "Ġnew": 894,
      "Ġnor": 895,
      "IN": 896,
      "Ġfather": 897,
      "'ll": 898,
      "Ġland": 899,
      "Ġlight": 900,
      "ĠĠĠĠĠĠ": 901,
      "Ġgive": 902,
      ".'": 903,
      "ĠLORD": 904,
      "Ġmar": 905,
      "----": 906,
      "ĠAn": 907,
      "ON": 908,
      "Ġanother": 909,
      "_,": 910,
      "Ġcour": 911,
      "Ġleft": 912,
      "its": 913,
      "Ġnat": 914,
      "com": 915,
      "Ġthree": 916,
      "Ġsec": 917,
      "ĠU": 918,
      "Ġface": 919,
      "Ġyoung": 920,
      "ĠThis": 921,
      "ĠThen": 922,
      "Ġfollow": 923,
      "Ġinst": 924,
      "ale": 925,
      "Ġworld": 926,
      "but": 927,
      "ched": 928,
      "Ġtell": 929,
      "Ġem": 930,
      "ĠAs": 931,
      "Ġthough": 932,
      "ĠWe": 933,
      "den": 934,
      "Ġsub": 935,
      "Ġyears": 936,
      "su": 937,
      "ner": 938,
      "Ġonce": 939,
      "rist": 940,
      "Ġfind": 941,
      "Ġrel": 942,
      "Ġson": 943,
      "ars": 944,
      "ways": 945,
      "Ġamong": 946,
      "rew": 947,
      "Ġac": 948,
      "ived": 949,
      "ah": 950,
      "aut": 951,
      "HE": 952,
      "vers": 953,
      "But": 954,
      "Ġsupp": 955,
      "du": 956,
      "Ġfo": 957,
      "ited": 958,
      "Ġev": 959,
      "Ġnothing": 960,
      "Ġcalled": 961,
      "Ġpers": 962,
      "Ġchar": 963,
      "alk": 964,
      "Ġple": 965,
      "Ġ5": 966,
      "ual": 967,
      "rest": 968,
      "Ġint": 969,
      "Ġkind": 970,
      "thing": 971,
      "att": 972,
      "selves": 973,
      "Ġgiv": 974,
      "Ġfell": 975,
      "Ġside": 976,
      "Ġdec": 977,
      "Ġwhom": 978,
      "ĠIs": 979,
      "ins": 980,
      "har": 981,
      "ates": 982,
      "ows": 983,
      "ĠThat": 984,
      "ts": 985,
      "my": 986,
      "Ġheard": 987,
      "Ġsomet": 988,
      "der": 989,
      "uth": 990,
      ".]": 991,
      "most": 992,
      "Ġrest": 993,
      "ook": 994,
      "ween": 995,
      "ures": 996,
      "pr": 997,
      "Ġmind": 998,
      "Ġtri": 999,
      "ined": 1000,
      "ised": 1001,
      "Ġeach": 1002,
      "Ġbecause": 1003,
      "Ġchan": 1004,
      "aster": 1005,
      "cept": 1006,
      "Ġcr": 1007,
      "Ġstre": 1008,
      "Ġwant": 1009,
      "ief": 1010,
      "apt": 1011,
      "ET": 1012,
      "ier": 1013,
      "Ġhands": 1014,
      "Ġreturn": 1015,
      "Ġpur": 1016,
      "ĠSo": 1017,
      "Ġdif": 1018,
      "Ġdone": 1019,
      "ting": 1020,
      "Ġthing": 1021,
      "._": 1022,
      "ob": 1023,
      "ired": 1024,
      "Ġnear": 1025,
      "pped": 1026,
      "ope": 1027,
      "Ġdeath": 1028,
      "Ġrec": 1029,
      "Ġhapp": 1030,
      "Ġsou": 1031,
      "Ġexp": 1032,
      "Ġboth": 1033,
      "sh": 1034,
      "Ġreg": 1035,
      "osed": 1036,
      "Ġseen": 1037,
      "ĠIf": 1038,
      "br": 1039,
      "Ġsur": 1040,
      "ĠYou": 1041,
      "Ġgu": 1042,
      "Ġ6": 1043,
      "by": 1044,
      "Ġans": 1045,
      "vent": 1046,
      "EN": 1047,
      "Ġposs": 1048,
      "gether": 1049,
      "ph": 1050,
      "ten": 1051,
      "Ġmon": 1052,
      "vel": 1053,
      "AN": 1054,
      "Ġ.": 1055,
      "Ġgot": 1056,
      "aken": 1057,
      "Ġhome": 1058,
      "Ġsoon": 1059,
      "men": 1060,
      "Ġfew": 1061,
      "fect": 1062,
      "Ġind": 1063,
      "ĠWhen": 1064,
      "Ġtold": 1065,
      "ces": 1066,
      "ser": 1067,
      "fl": 1068,
      "gg": 1069,
      "ield": 1070,
      "ular": 1071,
      "Ġlooked": 1072,
      "ĠChrist": 1073,
      ",'": 1074,
      "Ġdays": 1075,
      "ĊĊĊ": 1076,
      "Ġbu": 1077,
      "ross": 1078,
      "ung": 1079,
      "oice": 1080,
      "iness": 1081,
      "Ġcur": 1082,
      "Ġbeh": 1083,
      "ird": 1084,
      "Ġalways": 1085,
      "Ġsent": 1086,
      "ute": 1087,
      "Ġmo": 1088,
      "Ġwater": 1089,
      "Ġbetween": 1090,
      "Ġri": 1091,
      "over": 1092,
      "Ġfr": 1093,
      "AR": 1094,
      "Ġ(?": 1095,
      "ĠWhat": 1096,
      "Ġhum": 1097,
      "Ġlar": 1098,
      "ering": 1099,
      "ank": 1100,
      "Ġocc": 1101,
      "ont": 1102,
      "which": 1103,
      "unt": 1104,
      "Ġgener": 1105,
      "any": 1106,
      "Ġwoman": 1107,
      "Ġsat": 1108,
      "ason": 1109,
      "ĠMar": 1110,
      "Ġearth": 1111,
      "irl": 1112,
      "Ġstand": 1113,
      "ters": 1114,
      "Ġmin": 1115,
      "ating": 1116,
      "Ġwords": 1117,
      "az": 1118,
      "Ġmom": 1119,
      "ĠLord": 1120,
      "In": 1121,
      "Ġgave": 1122,
      "cri": 1123,
      "Ġdon": 1124,
      "Ġhaving": 1125,
      "Ġpower": 1126,
      "Ġdisc": 1127,
      "oud": 1128,
      "elt": 1129,
      "Ġboy": 1130,
      "Ġasked": 1131,
      "ĠWh": 1132,
      "Ġ18": 1133,
      "Ġhear": 1134,
      "Ġact": 1135,
      "ully": 1136,
      "Ġwhole": 1137,
      "You": 1138,
      "Ġtoward": 1139,
      "Ġsil": 1140,
      "Ġfore": 1141,
      "ĊĠĠĠĠĠ": 1142,
      "ee": 1143,
      "ained": 1144,
      "Ġtre": 1145,
      "ĠKing": 1146,
      "Ġcle": 1147,
      "Ġbelie": 1148,
      "als": 1149,
      "Ġconf": 1150,
      "Ġcertain": 1151,
      "Ġter": 1152,
      "ments": 1153,
      "Ġwind": 1154,
      "Ġseemed": 1155,
      "app": 1156,
      "Ġunt": 1157,
      "Ġcountry": 1158,
      "Ġchildren": 1159,
      "Ġhalf": 1160,
      "ities": 1161,
      "Ġart": 1162,
      "ene": 1163,
      "Ġdep": 1164,
      "Ġbrought": 1165,
      "Ġinc": 1166,
      "ants": 1167,
      "Ġhigh": 1168,
      "Ġkeep": 1169,
      "ĠJo": 1170,
      "Ġhour": 1171,
      "Ġdoor": 1172,
      "Ġfam": 1173,
      "atch": 1174,
      "Ġbro": 1175,
      "aven": 1176,
      "II": 1177,
      "xt": 1178,
      "Ġadd": 1179,
      "Ġfeel": 1180,
      "fter": 1181,
      "had": 1182,
      "Ġbetter": 1183,
      "rent": 1184,
      "Ġ(?),": 1185,
      "Ġdr": 1186,
      "Ġbest": 1187,
      "Ġ7": 1188,
      "Ġhor": 1189,
      "Ġmother": 1190,
      "Ġlaw": 1191,
      "Ġste": 1192,
      "ned": 1193,
      "Ġdra": 1194,
      "ĊĊĊĊ": 1195,
      "Ġgoing": 1196,
      "iet": 1197,
      "ling": 1198,
      "Ġinter": 1199,
      "gr": 1200,
      "ange": 1201,
      "owed": 1202,
      "Ġhath": 1203,
      "Ġdel": 1204,
      "ĠBr": 1205,
      "Ġ|": 1206,
      "ĠHis": 1207,
      "Ġsmall": 1208,
      "ALL": 1209,
      "oun": 1210,
      "day": 1211,
      "Ġknew": 1212,
      "undred": 1213,
      "Ġserv": 1214,
      "Ġfa": 1215,
      "Ġhon": 1216,
      "Ġext": 1217,
      "oc": 1218,
      "Ġlay": 1219,
      "ub": 1220,
      "Ġfall": 1221,
      "you": 1222,
      "Ġroom": 1223,
      "mon": 1224,
      "Ġtra": 1225,
      "ians": 1226,
      "ES": 1227,
      "Ġsk": 1228,
      "Ġread": 1229,
      "Ġmoment": 1230,
      "erc": 1231,
      "Ġdead": 1232,
      "orning": 1233,
      "amp": 1234,
      "Ġnum": 1235,
      "Ġpleas": 1236,
      "Ġsays": 1237,
      "ubl": 1238,
      "ĠEng": 1239,
      "ius": 1240,
      "Ġpresent": 1241,
      "Ġbegan": 1242,
      "ĠâĢ": 1243,
      "Ġturned": 1244,
      "Ġgra": 1245,
      "Ġpri": 1246,
      "ey": 1247,
      "Ġcare": 1248,
      "Ġless": 1249,
      "oke": 1250,
      "Ġspeak": 1251,
      "ense": 1252,
      "Ġwa": 1253,
      "Ġsle": 1254,
      "ison": 1255,
      "ĠAr": 1256,
      "Ġhel": 1257,
      "Ġthus": 1258,
      "ĠAt": 1259,
      "ains": 1260,
      "now": 1261,
      "Ġstood": 1262,
      "Ġfour": 1263,
      "ives": 1264,
      "Ġadv": 1265,
      "Ġins": 1266,
      "Ġround": 1267,
      "Ġsun": 1268,
      "Ġuntil": 1269,
      "US": 1270,
      "ceed": 1271,
      "ib": 1272,
      "Ġref": 1273,
      "Ġhard": 1274,
      "Ġwhose": 1275,
      "Ġsuff": 1276,
      "ets": 1277,
      "Ġel": 1278,
      "Ġche": 1279,
      "Ġfire": 1280,
      "What": 1281,
      "Ġcity": 1282,
      "Ġtogether": 1283,
      "Ġmyself": 1284,
      "aces": 1285,
      "Ġass": 1286,
      "Ġmatter": 1287,
      "irit": 1288,
      "Ġquite": 1289,
      "Ġdou": 1290,
      "Ġsoul": 1291,
      "Ġopen": 1292,
      "REE": 1293,
      "read": 1294,
      "Ġcond": 1295,
      "ĊĊĠĠĠĠĠĠĠĠ": 1296,
      "Ġenough": 1297,
      "Ġfull": 1298,
      "ude": 1299,
      "ately": 1300,
      "Ġbody": 1301,
      "Ġfeet": 1302,
      "ETTER": 1303,
      "Ġgiven": 1304,
      "Ġprop": 1305,
      "Ġgirl": 1306,
      "Ġdark": 1307,
      "Ġnec": 1308,
      "Ġes": 1309,
      "Ġbeaut": 1310,
      "ĠLETTER": 1311,
      "him": 1312,
      "uring": 1313,
      "03": 1314,
      "ane": 1315,
      "Ġvis": 1316,
      "Ġcannot": 1317,
      "pro": 1318,
      "ury": 1319,
      "{~": 1320,
      "~}": 1321,
      "Ġeff": 1322,
      "ably": 1323,
      "Ġair": 1324,
      "stand": 1325,
      "Ġrece": 1326,
      "entle": 1327,
      "Ġhundred": 1328,
      "Ġpoor": 1329,
      "ĠBe": 1330,
      "Ġwhite": 1331,
      "urch": 1332,
      "âĢĻ": 1333,
      "Ġsign": 1334,
      "Ġneed": 1335,
      "ĠSM": 1336,
      "Ġtill": 1337,
      "oney": 1338,
      "aint": 1339,
      "ines": 1340,
      "GREE": 1341,
      "ern": 1342,
      "GREEK": 1343,
      "Ġlarge": 1344,
      "ĠSMALL": 1345,
      "Ġbrother": 1346,
      "ides": 1347,
      "Ġmorning": 1348,
      "Ġsince": 1349,
      "Ġthemselves": 1350,
      "Ġfear": 1351,
      "Ġsomething": 1352,
      "Ġvoice": 1353,
      "ger": 1354,
      "fic": 1355,
      "ĠĠĠ": 1356,
      "ĠOn": 1357,
      "ention": 1358,
      "Ġwife": 1359,
      "Ġcourse": 1360,
      "hip": 1361,
      "ousand": 1362,
      "Ġtaken": 1363,
      "Ġtrue": 1364,
      "Ġdoes": 1365,
      "Ġhast": 1366,
      "used": 1367,
      "aced": 1368,
      "Ġfact": 1369,
      "ĠAl": 1370,
      "terest": 1371,
      "outh": 1372,
      "Ġform": 1373,
      "bed": 1374,
      "ĠNo": 1375,
      ",--": 1376,
      "Ġperson": 1377,
      "CH": 1378,
      "Ġill": 1379,
      "Ġpoint": 1380,
      "Ġrather": 1381,
      "fort": 1382,
      "lect": 1383,
      "ached": 1384,
      "Ġsing": 1385,
      "We": 1386,
      "Ġalmost": 1387,
      "Ġgold": 1388,
      "ister": 1389,
      "Ġwond": 1390,
      "Ġfair": 1391,
      "ided": 1392,
      "bt": 1393,
      "Ġsure": 1394,
      "Ġhold": 1395,
      "Ġsea": 1396,
      "Ġused": 1397,
      "eter": 1398,
      "aughter": 1399,
      "Ġothers": 1400,
      "ages": 1401,
      "illed": 1402,
      "Ġtem": 1403,
      "uc": 1404,
      "Ġcommand": 1405,
      "Ġte": 1406,
      "Ġplay": 1407,
      "ider": 1408,
      "fully": 1409,
      "well": 1410,
      "they": 1411,
      "ific": 1412,
      "uck": 1413,
      "Ġmean": 1414,
      "19": 1415,
      "Ġaw": 1416,
      "haps": 1417,
      "Ġnext": 1418,
      "Ġswe": 1419,
      "Ġii": 1420,
      "Ġtherefore": 1421,
      "Ġbus": 1422,
      "Ġabove": 1423,
      "ĠPr": 1424,
      "hn": 1425,
      "There": 1426,
      "ressed": 1427,
      "Ġjud": 1428,
      "Ġuse": 1429,
      "ĠWith": 1430,
      "Ġsim": 1431,
      "ott": 1432,
      "gin": 1433,
      "ĠX": 1434,
      "She": 1435,
      "Ġgone": 1436,
      "ured": 1437,
      "Ġcent": 1438,
      "Ġbook": 1439,
      "irc": 1440,
      "Ġbring": 1441,
      "Ġblood": 1442,
      "cha": 1443,
      "ĠNow": 1444,
      "akes": 1445,
      "ĠOf": 1446,
      "Ġdire": 1447,
      "ek": 1448,
      "Ġfelt": 1449,
      "Ġground": 1450,
      "cho": 1451,
      "ery": 1452,
      "ĠMy": 1453,
      "Ġwithin": 1454,
      "Ġfriends": 1455,
      "That": 1456,
      "Ġblack": 1457,
      "Ġmet": 1458,
      "ĠNor": 1459,
      "Ġstrong": 1460,
      "Ġopp": 1461,
      "hil": 1462,
      "Ġcontin": 1463,
      "Ġbur": 1464,
      "ration": 1465,
      "bit": 1466,
      "no": 1467,
      "ĠHow": 1468,
      "ream": 1469,
      "Ġhelp": 1470,
      "lish": 1471,
      "enty": 1472,
      "form": 1473,
      "Ġsir": 1474,
      "Ġspec": 1475,
      "ording": 1476,
      "ilt": 1477,
      "ually": 1478,
      "ended": 1479,
      "Ġyear": 1480,
      "Ġtimes": 1481,
      "iles": 1482,
      "Ġthousand": 1483,
      "Ġlive": 1484,
      "Ġforth": 1485,
      "ying": 1486,
      "ĠMrs": 1487,
      "~}{~": 1488,
      "ized": 1489,
      "Ġrepl": 1490,
      "Ġrun": 1491,
      "Ġalong": 1492,
      "ote": 1493,
      "Ġhowever": 1494,
      "anger": 1495,
      "ash": 1496,
      "Ġgentle": 1497,
      "ric": 1498,
      "ug": 1499,
      "ken": 1500,
      "ards": 1501,
      "wer": 1502,
      "ĠQ": 1503,
      "To": 1504,
      "attle": 1505,
      "wor": 1506,
      "Ġpassed": 1507,
      "Ġdev": 1508,
      "dom": 1509,
      "lt": 1510,
      "overed": 1511,
      "ready": 1512,
      "Ġdear": 1513,
      "ident": 1514,
      "Ġlord": 1515,
      "orrow": 1516,
      "Ġprom": 1517,
      "ĠOF": 1518,
      "iving": 1519,
      "Ġclose": 1520,
      "ublic": 1521,
      "Ġgre": 1522,
      "she": 1523,
      "them": 1524,
      "par": 1525,
      "str": 1526,
      "iew": 1527,
      "bs": 1528,
      "ution": 1529,
      "ites": 1530,
      "aim": 1531,
      "Ġsecond": 1532,
      "Ġinde": 1533,
      "Ġcol": 1534,
      "Ġinterest": 1535,
      "Ġsaying": 1536,
      "dden": 1537,
      "there": 1538,
      "Ġcried": 1539,
      "Ġprin": 1540,
      "Ġwall": 1541,
      "Ġreason": 1542,
      "Ġshow": 1543,
      "Ġdiffe": 1544,
      "Ġmis": 1545,
      "cess": 1546,
      "Ġadm": 1547,
      "Ġmid": 1548,
      "Ġsound": 1549,
      "Ġfin": 1550,
      "Ġalone": 1551,
      "Ġreal": 1552,
      "Ġinv": 1553,
      "Ġdeep": 1554,
      "oor": 1555,
      "cap": 1556,
      "Ġquest": 1557,
      "Ġbelieve": 1558,
      "from": 1559,
      "ĠSp": 1560,
      "iting": 1561,
      "Ġmoney": 1562,
      "Ġknown": 1563,
      "10": 1564,
      "As": 1565,
      "iful": 1566,
      "Ġtown": 1567,
      "ev": 1568,
      "Ġoften": 1569,
      "Ġwood": 1570,
      "Then": 1571,
      "Ġbehind": 1572,
      "king": 1573,
      "where": 1574,
      "Ġhope": 1575,
      "wered": 1576,
      "Ġleave": 1577,
      "ĠTHE": 1578,
      "Ġcor": 1579,
      "Ġmine": 1580,
      "This": 1581,
      "ience": 1582,
      "Ġmount": 1583,
      "TH": 1584,
      "rael": 1585,
      "ĠĠĠĠĠĠĠĠĠĠĠĠĠĠĠĠĠĠĠĠĠĠĠĠĠĠĠĠĠĠĠĠ": 1586,
      "sp": 1587,
      "Ġho": 1588,
      "osition": 1589,
      "Ġheaven": 1590,
      "Ġbes": 1591,
      "Th": 1592,
      "Ġappear": 1593,
      "eng": 1594,
      "Ġbar": 1595,
      "ĠAll": 1596,
      "--\"": 1597,
      ".)": 1598,
      "No": 1599,
      "have": 1600,
      "AP": 1601,
      "Ġsudden": 1602,
      "mb": 1603,
      "ural": 1604,
      "Ġsix": 1605,
      "Ġorder": 1606,
      "Ġbed": 1607,
      "ley": 1608,
      "Ġ8": 1609,
      "Ġherself": 1610,
      "were": 1611,
      "18": 1612,
      "Ġpray": 1613,
      "ances": 1614,
      "Ġmeet": 1615,
      "ism": 1616,
      "une": 1617,
      "IS": 1618,
      "'m": 1619,
      "use": 1620,
      "though": 1621,
      "Ġsum": 1622,
      "like": 1623,
      "Ġhuman": 1624,
      "Ġgod": 1625,
      "Ġten": 1626,
      "ĠMiss": 1627,
      "Ġ9": 1628,
      "Ġsy": 1629,
      "Ġsight": 1630,
      "Ġshort": 1631,
      "Ġdiv": 1632,
      "Ġmeans": 1633,
      "Ġfur": 1634,
      "ax": 1635,
      "Ġwild": 1636,
      "Ġide": 1637,
      "Ġvar": 1638,
      "Ġred": 1639,
      "their": 1640,
      "Ġspirit": 1641,
      "ls": 1642,
      "11": 1643,
      "veral": 1644,
      "let": 1645,
      "Ġanything": 1646,
      "ames": 1647,
      "eared": 1648,
      "hile": 1649,
      "Ġnature": 1650,
      "ient": 1651,
      "Ġest": 1652,
      "ats": 1653,
      "ĠIsrael": 1654,
      "Ġlear": 1655,
      "Ġremem": 1656,
      "aves": 1657,
      "Ġanswered": 1658,
      "Ġlady": 1659,
      "ĠHer": 1660,
      "tr": 1661,
      "Ġdest": 1662,
      "Ġcase": 1663,
      "co": 1664,
      "Ġeither": 1665,
      "ative": 1666,
      "'ve": 1667,
      "what": 1668,
      "Ġreplied": 1669,
      "Ġcut": 1670,
      "ĠSir": 1671,
      "Ġord": 1672,
      "âĢĿ": 1673,
      "ature": 1674,
      "Ġcast": 1675,
      "Ġdro": 1676,
      "Ġindeed": 1677,
      "13": 1678,
      "14": 1679,
      "12": 1680,
      "Ġ*": 1681,
      "iled": 1682,
      "itted": 1683,
      "When": 1684,
      "ING": 1685,
      "ĠâĢľ": 1686,
      "Ġlost": 1687,
      "Ġfaith": 1688,
      "head": 1689,
      "hall": 1690,
      "Ġmanner": 1691,
      "Ġlau": 1692,
      "tern": 1693,
      "Ġarm": 1694,
      "IC": 1695,
      "rence": 1696,
      "ones": 1697,
      "ring": 1698,
      "Ġdoubt": 1699,
      "Ġtalk": 1700,
      "ĠJohn": 1701,
      "ĠOne": 1702,
      "Ġnumber": 1703,
      "Ġcirc": 1704,
      "ham": 1705,
      "Ġobser": 1706,
      "Ġmus": 1707,
      "this": 1708,
      "ĠCl": 1709,
      "Ġbear": 1710,
      "ility": 1711,
      "ney": 1712,
      "Ġtruth": 1713,
      "arted": 1714,
      "Ġce": 1715,
      "Ġsubject": 1716,
      "Ġstru": 1717,
      "Ġcommon": 1718,
      "Ġarms": 1719,
      "ges": 1720,
      "Ġhorse": 1721,
      "Ġdef": 1722,
      "rying": 1723,
      "Ġmaster": 1724,
      "ĊĊĠĠĠ": 1725,
      "ety": 1726,
      "Ġcoming": 1727,
      "band": 1728,
      "Ġmod": 1729,
      "ho": 1730,
      "ĠUn": 1731,
      "Ġfree": 1732,
      "Ġwhy": 1733,
      "04": 1734,
      "Ġpret": 1735,
      "Ġenem": 1736,
      "They": 1737,
      "ĊĊĠĠĠĠĠĠĠĠĠ": 1738,
      "Ġstate": 1739,
      "Ġlead": 1740,
      "Ġitself": 1741,
      "Ġleast": 1742,
      "Ġseveral": 1743,
      "Ġfoot": 1744,
      "body": 1745,
      "cer": 1746,
      "Ġalready": 1747,
      "Ġeas": 1748,
      "alth": 1749,
      "Ġtrans": 1750,
      "Ġdri": 1751,
      "Ġkept": 1752,
      "empt": 1753,
      "ught": 1754,
      "Ġpast": 1755,
      "gy": 1756,
      "rie": 1757,
      "io": 1758,
      "ump": 1759,
      "Ġed": 1760,
      "Ġnecess": 1761,
      "Ġcharac": 1762,
      "meric": 1763,
      "arch": 1764,
      "che": 1765,
      "Ġlow": 1766,
      "ches": 1767,
      "part": 1768,
      "vern": 1769,
      "Ġheld": 1770,
      "ĠAN": 1771,
      "Ġpossess": 1772,
      "Ġwish": 1773,
      "Ġexc": 1774,
      "For": 1775,
      "Ġexpl": 1776,
      "cript": 1777,
      "Ġfive": 1778,
      "Ġrequ": 1779,
      "cy": 1780,
      "ĠĠĠĠĠ": 1781,
      "Ġabs": 1782,
      "tered": 1783,
      "ued": 1784,
      "Ġelse": 1785,
      "Ġeye": 1786,
      "Ġpeace": 1787,
      "ices": 1788,
      "ĠFr": 1789,
      "Ġaff": 1790,
      "Ġpain": 1791,
      "Ġsleep": 1792,
      "Ġchief": 1793,
      "ination": 1794,
      "Ġneither": 1795,
      "Ġclear": 1796,
      "Ġchurch": 1797,
      "son": 1798,
      "Ġnone": 1799,
      "Ġprodu": 1800,
      "Well": 1801,
      "af": 1802,
      "oura": 1803,
      "Ġcreat": 1804,
      "ccess": 1805,
      "Ġaccording": 1806,
      "Ġ&": 1807,
      "Ġprov": 1808,
      "Ġaccount": 1809,
      "ots": 1810,
      "alked": 1811,
      "Ġbecome": 1812,
      "itude": 1813,
      "Ġwit": 1814,
      "Ġprof": 1815,
      "under": 1816,
      "Ġwomen": 1817,
      "iously": 1818,
      "Ġconst": 1819,
      "Ġbecame": 1820,
      "rem": 1821,
      "!'": 1822,
      "Ġru": 1823,
      "ma": 1824,
      "Ġcause": 1825,
      "Ġhus": 1826,
      "IL": 1827,
      "side": 1828,
      "Ġfort": 1829,
      "Ġmark": 1830,
      "Ġstrange": 1831,
      "resent": 1832,
      "Ġview": 1833,
      "Ġperfect": 1834,
      "Ġequ": 1835,
      "Ġaround": 1836,
      "Yes": 1837,
      "?'": 1838,
      "Ġca": 1839,
      "Ġir": 1840,
      "ĠInd": 1841,
      "ean": 1842,
      "Ġcap": 1843,
      "Ġwalk": 1844,
      "Ġsort": 1845,
      "hold": 1846,
      "Ġsold": 1847,
      "ĠRe": 1848,
      "Oh": 1849,
      "irt": 1850,
      "Ġdaughter": 1851,
      "owing": 1852,
      "bled": 1853,
      "Ġstri": 1854,
      "Ġinf": 1855,
      "icked": 1856,
      "asion": 1857,
      "Ġwonder": 1858,
      "Ġreturned": 1859,
      "Ġobject": 1860,
      "Ġsweet": 1861,
      "Ġappro": 1862,
      "Ġlooking": 1863,
      "ĠZ": 1864,
      "ĠSee": 1865,
      "ustration": 1866,
      "Ġconsider": 1867,
      "wards": 1868,
      "So": 1869,
      "Ġhur": 1870,
      "cient": 1871,
      "Ġsin": 1872,
      "sc": 1873,
      "owers": 1874,
      "ased": 1875,
      "Ġbegin": 1876,
      "Ġunderstand": 1877,
      "oin": 1878,
      "Ġeffect": 1879,
      "Ġpar": 1880,
      "16": 1881,
      "Ġquick": 1882,
      "iter": 1883,
      "orm": 1884,
      "If": 1885,
      "els": 1886,
      "15": 1887,
      "Ġtrou": 1888,
      "Ġfine": 1889,
      "who": 1890,
      "An": 1891,
      "ality": 1892,
      "ists": 1893,
      "aving": 1894,
      "OL": 1895,
      "Ġsto": 1896,
      "Ġut": 1897,
      "....": 1898,
      "Ġwhether": 1899,
      "ĠBy": 1900,
      "Ġfight": 1901,
      "20": 1902,
      "Ġmonth": 1903,
      "Ġmag": 1904,
      "ald": 1905,
      "ift": 1906,
      "Ġfav": 1907,
      "Ġriver": 1908,
      "arent": 1909,
      "ĠOr": 1910,
      "itten": 1911,
      "gs": 1912,
      "ster": 1913,
      "ĠDe": 1914,
      "Ill": 1915,
      "night": 1916,
      "Ġperhaps": 1917,
      "ising": 1918,
      "would": 1919,
      "raw": 1920,
      "ement": 1921,
      "Ġtowards": 1922,
      "Ġroad": 1923,
      "Ġauth": 1924,
      "Ġhair": 1925,
      "Ġrespect": 1926,
      "Ġfamily": 1927,
      "ging": 1928,
      "23": 1929,
      "pose": 1930,
      "Ġquestion": 1931,
      "ony": 1932,
      "Ġtwenty": 1933,
      "Ġeat": 1934,
      "Ġexpect": 1935,
      "ified": 1936,
      "Ġpublic": 1937,
      "Ġsit": 1938,
      "Ġpol": 1939,
      "Ġdie": 1940,
      "Ġfre": 1941,
      "Ġval": 1942,
      "dle": 1943,
      "Ġfield": 1944,
      "ize": 1945,
      "Ġevil": 1946,
      "ĠAmeric": 1947,
      "Ġran": 1948,
      "Ġsons": 1949,
      "24": 1950,
      "My": 1951,
      "itting": 1952,
      "Ġshalt": 1953,
      "will": 1954,
      "cend": 1955,
      "Ġeng": 1956,
      "uss": 1957,
      "aul": 1958,
      "medi": 1959,
      "ract": 1960,
      "ĠLet": 1961,
      "Ġproper": 1962,
      "Illustration": 1963,
      "Ġworth": 1964,
      "come": 1965,
      "Ġlaid": 1966,
      "Ġvill": 1967,
      "Ġunc": 1968,
      "Ġable": 1969,
      "ert": 1970,
      "ĠEnglish": 1971,
      "Ġfig": 1972,
      "Ġhill": 1973,
      "Ġsword": 1974,
      "Ġexam": 1975,
      "ĠGr": 1976,
      "Ġtou": 1977,
      "Ġduring": 1978,
      "Ġbattle": 1979,
      "Ġsac": 1980,
      "Ġcapt": 1981,
      "ze": 1982,
      "Ġcold": 1983,
      "Ġmaking": 1984,
      "Ġdifferent": 1985,
      "Ġjoy": 1986,
      "Ġhusband": 1987,
      "Ġele": 1988,
      "ush": 1989,
      "idence": 1990,
      "Ġgeneral": 1991,
      "ior": 1992,
      "Ġcharacter": 1993,
      "Ġanswer": 1994,
      "Ġpat": 1995,
      "gu": 1996,
      "Âł": 1997,
      "Ġstay": 1998,
      "then": 1999,
      "bo": 2000,
      "ĠAnne": 2001,
      "THE": 2002,
      "roy": 2003,
      "ead": 2004,
      "que": 2005,
      "ED": 2006,
      "26": 2007,
      "Al": 2008,
      "Ġmouth": 2009,
      "Ġbreat": 2010,
      "Ġready": 2011,
      "Ġpal": 2012,
      "tained": 2013,
      "Ġseems": 2014,
      "Ġbene": 2015,
      "dis": 2016,
      "ĠWhere": 2017,
      "ror": 2018,
      "Ġfif": 2019,
      "Ġbreak": 2020,
      "ann": 2021,
      "ament": 2022,
      "avy": 2023,
      "Ġbeautiful": 2024,
      "ially": 2025,
      "ĠAb": 2026,
      "Ġglad": 2027,
      "pper": 2028,
      "Ġ17": 2029,
      "AT": 2030,
      "uff": 2031,
      "pre": 2032,
      "Ġstep": 2033,
      "At": 2034,
      "LE": 2035,
      "utes": 2036,
      "Ġbig": 2037,
      "Ġdirect": 2038,
      "--------": 2039,
      "Ġreceived": 2040,
      "ounded": 2041,
      "17": 2042,
      "Ġdream": 2043,
      "RO": 2044,
      "Ġescap": 2045,
      "Ġpay": 2046,
      "ression": 2047,
      "Ġtable": 2048,
      "iah": 2049,
      "Ġfollowed": 2050,
      "antly": 2051,
      "ĠPro": 2052,
      "isf": 2053,
      "Ġbad": 2054,
      "Ġevening": 2055,
      "Ġmerc": 2056,
      "Ġvol": 2057,
      "mp": 2058,
      "Ġpa": 2059,
      "ĠPar": 2060,
      "Ġremark": 2061,
      "Ġori": 2062,
      "Ġsuccess": 2063,
      "Ġport": 2064,
      "Ġarri": 2065,
      "Ġcarried": 2066,
      "light": 2067,
      "Ġmot": 2068,
      "Ġask": 2069,
      "Ġfast": 2070,
      "chool": 2071,
      "ĠNot": 2072,
      "reg": 2073,
      "Ġexper": 2074,
      "Ġletter": 2075,
      "ours": 2076,
      "ĠĠĠĠĠĠĠĠĠĠĠĠĠĠĠĠĠĠĠĠĠĠĠĠ": 2077,
      "iment": 2078,
      "Ġwon": 2079,
      "iff": 2080,
      "val": 2081,
      "Ġrose": 2082,
      "Ġbusiness": 2083,
      "Ġloc": 2084,
      "Ġstreng": 2085,
      "Ġslow": 2086,
      "inter": 2087,
      "ĠAm": 2088,
      "cious": 2089,
      "Ġmist": 2090,
      "Ġlonger": 2091,
      "Ġdecl": 2092,
      "iar": 2093,
      "rel": 2094,
      "ledge": 2095,
      "oses": 2096,
      "Ġprison": 2097,
      "ries": 2098,
      "yond": 2099,
      "Ġbuild": 2100,
      "ĠWho": 2101,
      "iol": 2102,
      "Ġbird": 2103,
      "Ġpartic": 2104,
      "aj": 2105,
      "oman": 2106,
      "Ġve": 2107,
      "Ġdiffic": 2108,
      "Ġlad": 2109,
      "Ġforg": 2110,
      "How": 2111,
      "Ġanim": 2112,
      "Ġmere": 2113,
      "Ġled": 2114,
      "Ġexcept": 2115,
      "Ġcross": 2116,
      "Ġlist": 2117,
      "Ġprob": 2118,
      "ustom": 2119,
      "On": 2120,
      "Ġdisp": 2121,
      "inct": 2122,
      "Ġsal": 2123,
      "Ġbit": 2124,
      "Ġmur": 2125,
      "ounds": 2126,
      "Ġtree": 2127,
      "ĠWhy": 2128,
      "Ġ16": 2129,
      "ues": 2130,
      "Ġstud": 2131,
      "Ġwatch": 2132,
      "Ġreally": 2133,
      "Ġauthor": 2134,
      "Ġearly": 2135,
      "wo": 2136,
      "APTER": 2137,
      "Ġdem": 2138,
      "Ġsol": 2139,
      "mber": 2140,
      "Ġsometimes": 2141,
      "Ġbehold": 2142,
      "EL": 2143,
      "ĠĠĠĠĠĠĠ": 2144,
      "Ġsend": 2145,
      "do": 2146,
      "Now": 2147,
      "Ġimport": 2148,
      "ĠNew": 2149,
      "Ġcorn": 2150,
      "iver": 2151,
      "ĠEngland": 2152,
      "Ġscar": 2153,
      "Ġcal": 2154,
      "off": 2155,
      "Ã©": 2156,
      "Ġrelig": 2157,
      "rs": 2158,
      "room": 2159,
      "airs": 2160,
      "Ġpriest": 2161,
      "_.": 2162,
      "Ġexist": 2163,
      "Ġfollowing": 2164,
      "Ġpossible": 2165,
      "Ġacross": 2166,
      "Ġlab": 2167,
      "ron": 2168,
      "claim": 2169,
      "Ġbra": 2170,
      "hand": 2171,
      ":--": 2172,
      "Ġdraw": 2173,
      "ondon": 2174,
      "Ġdrink": 2175,
      "when": 2176,
      "ĠThese": 2177,
      "Ġwat": 2178,
      "vol": 2179,
      "riage": 2180,
      "ton": 2181,
      "Ġcourt": 2182,
      "Ġidea": 2183,
      "how": 2184,
      "ĠCom": 2185,
      "ighb": 2186,
      "Ġmove": 2187,
      "Ġfellow": 2188,
      "ingly": 2189,
      "Ġplain": 2190,
      "Ġ19": 2191,
      "Ġmiles": 2192,
      "yl": 2193,
      "Ġquiet": 2194,
      "bec": 2195,
      "house": 2196,
      "Ġliving": 2197,
      "Ġgovern": 2198,
      "Ġcoll": 2199,
      "ĠDo": 2200,
      "Ġorigin": 2201,
      "Ġspoke": 2202,
      "Ġhappy": 2203,
      "Ġfool": 2204,
      "OU": 2205,
      "iers": 2206,
      "lo": 2207,
      "ĠHar": 2208,
      "Ġremain": 2209,
      "ection": 2210,
      "Ġhist": 2211,
      "Ġage": 2212,
      "ĠHere": 2213,
      "Ġmad": 2214,
      "Ġregard": 2215,
      "'re": 2216,
      "irm": 2217,
      "ĠEx": 2218,
      "imp": 2219,
      "ĠSc": 2220,
      "Ġcomple": 2221,
      "ength": 2222,
      "go": 2223,
      "ples": 2224,
      "Ġreached": 2225,
      "arden": 2226,
      "upon": 2227,
      "uct": 2228,
      "Ġappeared": 2229,
      "look": 2230,
      "Ġdied": 2231,
      "Ġgreen": 2232,
      "22": 2233,
      "Ġrock": 2234,
      "Ġchange": 2235,
      "Ġstory": 2236,
      "Ġlang": 2237,
      "Ġformer": 2238,
      "iece": 2239,
      "Ġforce": 2240,
      "min": 2241,
      "itions": 2242,
      "rupt": 2243,
      "more": 2244,
      "ky": 2245,
      "Ġbeyond": 2246,
      "enn": 2247,
      "ĠWill": 2248,
      "Ġsqu": 2249,
      "Ġshad": 2250,
      "Ġsense": 2251,
      "oe": 2252,
      "ously": 2253,
      "Ġquar": 2254,
      "Ġstra": 2255,
      "Ġdeal": 2256,
      "Ġburn": 2257,
      "000": 2258,
      "bes": 2259,
      "rench": 2260,
      "gan": 2261,
      "Ġbless": 2262,
      "Ġpi": 2263,
      "Ġdanger": 2264,
      "ĠLe": 2265,
      "Ġpretty": 2266,
      "Ġdidn": 2267,
      "Ġpict": 2268,
      "Ġet": 2269,
      "Ġ15": 2270,
      "Ġhours": 2271,
      "Ġcomes": 2272,
      "some": 2273,
      "Ġentered": 2274,
      "Why": 2275,
      "osp": 2276,
      "Ġcoun": 2277,
      "ST": 2278,
      "amed": 2279,
      "ĠFrom": 2280,
      "Ġbright": 2281,
      "yr": 2282,
      "ĠBl": 2283,
      "Ġaccom": 2284,
      "Ġcry": 2285,
      "Ġsecret": 2286,
      "Ġtend": 2287,
      "Ġsn": 2288,
      "asp": 2289,
      "Ġsurpr": 2290,
      "Ġoccasion": 2291,
      "Ġeight": 2292,
      "iod": 2293,
      "Ġought": 2294,
      "Ġship": 2295,
      "oint": 2296,
      "ship": 2297,
      "eor": 2298,
      "Ġsuper": 2299,
      "Ġnatural": 2300,
      "Ġpurpose": 2301,
      "athe": 2302,
      "Ġlived": 2303,
      "iant": 2304,
      "ĠJes": 2305,
      "Ġimag": 2306,
      "Ġtop": 2307,
      "sequ": 2308,
      "Ġstrength": 2309,
      "Ġremember": 2310,
      "aring": 2311,
      "Ġtribe": 2312,
      "kn": 2313,
      "Ġ14": 2314,
      "Ġlie": 2315,
      "Ġsave": 2316,
      "ils": 2317,
      "ĠAND": 2318,
      "after": 2319,
      "asure": 2320,
      "Ġtrees": 2321,
      "Ġsuddenly": 2322,
      "ases": 2323,
      "Ġline": 2324,
      "Ġyouth": 2325,
      "ics": 2326,
      "Ġlate": 2327,
      "Ġdoct": 2328,
      "Ġdesp": 2329,
      "âĢĶ": 2330,
      "iam": 2331,
      "ume": 2332,
      "Ġfront": 2333,
      "joy": 2334,
      "Ġstone": 2335,
      "Ġsad": 2336,
      "idge": 2337,
      "ĠEl": 2338,
      "Ġlater": 2339,
      "ored": 2340,
      "ĠCon": 2341,
      "bert": 2342,
      "Ġopened": 2343,
      "hood": 2344,
      "Ġhung": 2345,
      "Ġlength": 2346,
      "Ġoffic": 2347,
      "Ġhot": 2348,
      "Ġrich": 2349,
      "rible": 2350,
      "alley": 2351,
      "ech": 2352,
      "ĠPhil": 2353,
      "Ġdelight": 2354,
      "rough": 2355,
      "Ġwritten": 2356,
      "urg": 2357,
      "Ġnearly": 2358,
      "Ġtaking": 2359,
      "pec": 2360,
      "ires": 2361,
      "Ġcre": 2362,
      "aff": 2363,
      "usion": 2364,
      "Ġfurther": 2365,
      "ĠBar": 2366,
      "Ġwrong": 2367,
      "uke": 2368,
      "olog": 2369,
      "ushed": 2370,
      "Ġnoble": 2371,
      "Ġacqu": 2372,
      "Ġhop": 2373,
      "ening": 2374,
      "Ġaffect": 2375,
      "sem": 2376,
      "Ġsoft": 2377,
      "oved": 2378,
      "Ġmain": 2379,
      "Ġforward": 2380,
      "inion": 2381,
      "flu": 2382,
      "ask": 2383,
      "IA": 2384,
      "Ġclot": 2385,
      "Ġsister": 2386,
      "Ġsus": 2387,
      "aged": 2388,
      "rief": 2389,
      "raid": 2390,
      "Ġentire": 2391,
      "With": 2392,
      "Ġfle": 2393,
      "been": 2394,
      "ĠLondon": 2395,
      "ays": 2396,
      "Ġant": 2397,
      "ouses": 2398,
      "Ġ13": 2399,
      "Ġhat": 2400,
      "Ġdut": 2401,
      "Ġthine": 2402,
      "ike": 2403,
      "ission": 2404,
      "erry": 2405,
      "Ġproceed": 2406,
      "wise": 2407,
      "ĠAfter": 2408,
      "Ġprinci": 2409,
      "Ġden": 2410,
      "05": 2411,
      "vell": 2412,
      "Ġself": 2413,
      "Ġvisit": 2414,
      "Ġneighb": 2415,
      "inary": 2416,
      "ik": 2417,
      "ium": 2418,
      "Ġcomfort": 2419,
      "Ġfail": 2420,
      "cell": 2421,
      "ogn": 2422,
      "ected": 2423,
      "Ġarmy": 2424,
      ").": 2425,
      "Ġplaced": 2426,
      "ĠNep": 2427,
      "ĠCar": 2428,
      "Ġboys": 2429,
      "hel": 2430,
      "bling": 2431,
      "Ġsoci": 2432,
      "fer": 2433,
      "iding": 2434,
      "Ġsatisf": 2435,
      "esh": 2436,
      "ĠSe": 2437,
      "cent": 2438,
      "Ġimmedi": 2439,
      "Ġmakes": 2440,
      "Ġschool": 2441,
      "ien": 2442,
      "can": 2443,
      "Ġperiod": 2444,
      "Ġprot": 2445,
      "Ġpract": 2446,
      "Ġadded": 2447,
      "gl": 2448,
      "IT": 2449,
      "Ġdesire": 2450,
      "eds": 2451,
      "Ġjour": 2452,
      "Ġwis": 2453,
      "Ġmention": 2454,
      "Ġarr": 2455,
      "Ġthir": 2456,
      "resh": 2457,
      "25": 2458,
      "cons": 2459,
      "count": 2460,
      "Ġconcer": 2461,
      "Ġcompany": 2462,
      "Ġbound": 2463,
      "Ġdet": 2464,
      "ĠChristian": 2465,
      "Ġgods": 2466,
      "Ġver": 2467,
      "Ġconce": 2468,
      "Ġhonour": 2469,
      "CHAPTER": 2470,
      "time": 2471,
      "Ġeverything": 2472,
      "Ġparticular": 2473,
      "IO": 2474,
      "could": 2475,
      "Ġblue": 2476,
      "Ġbeast": 2477,
      "ager": 2478,
      "Ġhig": 2479,
      "Ġque": 2480,
      "21": 2481,
      "Ġcontinued": 2482,
      "vere": 2483,
      "set": 2484,
      "ested": 2485,
      "Ġlaugh": 2486,
      "Ġnecessary": 2487,
      "eness": 2488,
      "Ġancient": 2489,
      "iling": 2490,
      "pan": 2491,
      "Ġdistance": 2492,
      "acy": 2493,
      "Ġgrand": 2494,
      "Ġplan": 2495,
      "Ġbelong": 2496,
      "Of": 2497,
      "Ġtried": 2498,
      "Ġvict": 2499,
      "ĠTom": 2500,
      "Ġpriv": 2501,
      "ler": 2502,
      "Ġgreater": 2503,
      "Ġsuppose": 2504,
      "teen": 2505,
      "Ġmighty": 2506,
      "gment": 2507,
      "ises": 2508,
      "Ġmaid": 2509,
      "orses": 2510,
      "mn": 2511,
      "Ġwindow": 2512,
      "Ġmed": 2513,
      "Ġdeg": 2514,
      "Ġnation": 2515,
      "aded": 2516,
      "cont": 2517,
      "ining": 2518,
      "Ġcrow": 2519,
      "ĠThou": 2520,
      "Ġwide": 2521,
      "Ġda": 2522,
      "ixed": 2523,
      "Ġer": 2524,
      "erv": 2525,
      "anced": 2526,
      "Ġseven": 2527,
      "Ġhost": 2528,
      "Ġholy": 2529,
      "Ġlatter": 2530,
      "Ġago": 2531,
      "Ġincl": 2532,
      "Ġtrust": 2533,
      "oured": 2534,
      "Ġmor": 2535,
      "ellow": 2536,
      "Ġplaces": 2537,
      "aled": 2538,
      "Ġgrow": 2539,
      "Ġservice": 2540,
      "Ġthird": 2541,
      "Ġchance": 2542,
      "Ġheavy": 2543,
      "Ġstart": 2544,
      "face": 2545,
      "urs": 2546,
      "Ġgentleman": 2547,
      "Ġkill": 2548,
      "pass": 2549,
      "ĠJesus": 2550,
      "Ġdrew": 2551,
      "ĠDav": 2552,
      "Ġprep": 2553,
      "Ġbott": 2554,
      "Ġinn": 2555,
      "Ġpleasure": 2556,
      "rif": 2557,
      "ĠMan": 2558,
      "Ġkingdom": 2559,
      "Ġwanted": 2560,
      "IG": 2561,
      "ral": 2562,
      "Ġspr": 2563,
      "just": 2564,
      ".--": 2565,
      "Ġpra": 2566,
      "aching": 2567,
      "27": 2568,
      "Ġdoing": 2569,
      "Ġfly": 2570,
      "Ġfru": 2571,
      "ivid": 2572,
      "ov": 2573,
      "pping": 2574,
      "Ġmusic": 2575,
      "sec": 2576,
      "Ġsett": 2577,
      "Ġincre": 2578,
      "Ġbroken": 2579,
      "bel": 2580,
      "eterm": 2581,
      "about": 2582,
      "Ġsaith": 2583,
      "Ġknowledge": 2584,
      "Ġfilled": 2585,
      "Ġenemy": 2586,
      "Ġalthough": 2587,
      "oot": 2588,
      "OM": 2589,
      "rodu": 2590,
      "Ġrepresent": 2591,
      "road": 2592,
      "ivers": 2593,
      "Ġremained": 2594,
      "Ġsingle": 2595,
      "into": 2596,
      "Ġgrave": 2597,
      "All": 2598,
      "Ġwalked": 2599,
      "ĠJud": 2600,
      "DW": 2601,
      "OT": 2602,
      "Ġgrace": 2603,
      "ĠFrench": 2604,
      "Ġcircum": 2605,
      "great": 2606,
      "ips": 2607,
      "long": 2608,
      "ossible": 2609,
      "Ġscarce": 2610,
      "des": 2611,
      "nor": 2612,
      "Ġcru": 2613,
      "Ġsick": 2614,
      "again": 2615,
      "Ġclass": 2616,
      "Ġattempt": 2617,
      "ĠYet": 2618,
      "Ġnar": 2619,
      "Ġpen": 2620,
      "Ġang": 2621,
      "Ġfeeling": 2622,
      "ument": 2623,
      "Ġcompan": 2624,
      "formed": 2625,
      "Not": 2626,
      "isted": 2627,
      "ĠSome": 2628,
      "Ġlim": 2629,
      "Ġthick": 2630,
      "ĠGeor": 2631,
      "Ġav": 2632,
      "Ġwicked": 2633,
      "gel": 2634,
      "Ġmoon": 2635,
      "Ġstraight": 2636,
      "Ġiii": 2637,
      "001": 2638,
      "Ġbeauty": 2639,
      "Ġlangu": 2640,
      "Ġtry": 2641,
      "Ġtreat": 2642,
      "Ġborn": 2643,
      "Ġafraid": 2644,
      "place": 2645,
      "Ġparty": 2646,
      "Ġresol": 2647,
      "Ġnorth": 2648,
      "ically": 2649,
      "Ġpun": 2650,
      "ĠEd": 2651,
      "ĠPl": 2652,
      "Ġla": 2653,
      "Ġlips": 2654,
      "AM": 2655,
      "Ġpost": 2656,
      "Ġmem": 2657,
      "ĠDavid": 2658,
      "bar": 2659,
      "Ġtrouble": 2660,
      "Ġcertainly": 2661,
      "ĠGer": 2662,
      "002": 2663,
      "bles": 2664,
      "uge": 2665,
      "ancy": 2666,
      "Ġconv": 2667,
      "St": 2668,
      "Ġdisapp": 2669,
      "Ġstanding": 2670,
      "Ġresult": 2671,
      "Ġfut": 2672,
      "comm": 2673,
      "ator": 2674,
      "ploy": 2675,
      "ĠThus": 2676,
      "Ġbread": 2677,
      "arm": 2678,
      "hant": 2679,
      "Ġparts": 2680,
      "claimed": 2681,
      "Ġinqu": 2682,
      "ision": 2683,
      "osing": 2684,
      "oken": 2685,
      "Ġobl": 2686,
      "Ġminutes": 2687,
      "ĠNephi": 2688,
      "race": 2689,
      "Ġvarious": 2690,
      "gypt": 2691,
      "kes": 2692,
      "ĠMad": 2693,
      "Ġwise": 2694,
      "Ġbelow": 2695,
      "Ġhappened": 2696,
      "Ġenjoy": 2697,
      "said": 2698,
      "ribut": 2699,
      "ching": 2700,
      "ital": 2701,
      "Ġenter": 2702,
      "Ġoccup": 2703,
      "enth": 2704,
      "Ġstruck": 2705,
      "ourage": 2706,
      "Ġvirt": 2707,
      "Ġdress": 2708,
      "ishment": 2709,
      "Ġ10": 2710,
      "ext": 2711,
      "ĠQu": 2712,
      "Ġjourney": 2713,
      "Ġdwell": 2714,
      "Ġposition": 2715,
      "ops": 2716,
      "Ġfal": 2717,
      "pri": 2718,
      "Ġtong": 2719,
      "ĊĊĠĠ": 2720,
      "ĠPrince": 2721,
      "ina": 2722,
      "Ġdestroy": 2723,
      "Ġpaper": 2724,
      "Ġsong": 2725,
      "ĠAnt": 2726,
      "III": 2727,
      "Ġviol": 2728,
      "003": 2729,
      "Ġbeside": 2730,
      "orted": 2731,
      "nce": 2732,
      "hys": 2733,
      "Ġstreet": 2734,
      "Ġmass": 2735,
      "umb": 2736,
      "Ġbreath": 2737,
      "ĠChar": 2738,
      "ĠQue": 2739,
      "Ġthoughts": 2740,
      "should": 2741,
      "Ġsilver": 2742,
      "Ġweak": 2743,
      "ĠEn": 2744,
      "pid": 2745,
      "Ġcamp": 2746,
      "IR": 2747,
      "ply": 2748,
      "Ġfing": 2749,
      "iced": 2750,
      "Ġflesh": 2751,
      "aptain": 2752,
      "stood": 2753,
      "Ġforest": 2754,
      "sm": 2755,
      "Ġwine": 2756,
      "Ġsens": 2757,
      "Ġleg": 2758,
      "Ġoffer": 2759,
      "ayed": 2760,
      "isp": 2761,
      "ĠJer": 2762,
      "Ġgarden": 2763,
      "Ġworks": 2764,
      "Ġann": 2765,
      "ĠCol": 2766,
      "before": 2767,
      "ĠAd": 2768,
      "Ġsafe": 2769,
      "Is": 2770,
      "than": 2771,
      "uous": 2772,
      "Ġweek": 2773,
      "Ġcontr": 2774,
      "Ġpresence": 2775,
      "rid": 2776,
      "Ġyourself": 2777,
      "na": 2778,
      "ories": 2779,
      "Ġloved": 2780,
      "ork": 2781,
      "Ġreign": 2782,
      "ively": 2783,
      "Ġcloud": 2784,
      "cience": 2785,
      "mit": 2786,
      "Ġmeant": 2787,
      "Ġwarm": 2788,
      "ĠMay": 2789,
      "rill": 2790,
      "Ġraised": 2791,
      "Ġglory": 2792,
      "Ġenc": 2793,
      "40": 2794,
      "Ġslight": 2795,
      "Ġprobably": 2796,
      "rit": 2797,
      "inc": 2798,
      "Ġhang": 2799,
      "Ġattention": 2800,
      "Ġappearance": 2801,
      "Ġvillage": 2802,
      "irth": 2803,
      "stem": 2804,
      "ION": 2805,
      "ĠWell": 2806,
      "Ġshar": 2807,
      "Ġbeginning": 2808,
      "Ġhistory": 2809,
      "Ġsole": 2810,
      "Ġglass": 2811,
      "Ġgar": 2812,
      "ĠCan": 2813,
      "Ġban": 2814,
      "cle": 2815,
      "Ġservant": 2816,
      "Ġhorses": 2817,
      "ĠCha": 2818,
      "Ġslowly": 2819,
      "retched": 2820,
      "Ġcaught": 2821,
      "unity": 2822,
      "Ġgrew": 2823,
      "acle": 2824,
      "pecially": 2825,
      "Ġtears": 2826,
      "Ġgovernment": 2827,
      "Do": 2828,
      "Ġconn": 2829,
      "eous": 2830,
      "004": 2831,
      "Ġsilence": 2832,
      "Ġpop": 2833,
      "bered": 2834,
      "AS": 2835,
      "Ġfat": 2836,
      "ointed": 2837,
      "Ġbeneath": 2838,
      "XX": 2839,
      "Ġbow": 2840,
      "known": 2841,
      "together": 2842,
      "atic": 2843,
      "gar": 2844,
      "Ġdog": 2845,
      "Ġaccept": 2846,
      "ĠEgypt": 2847,
      "Ġfood": 2848,
      "Ġmil": 2849,
      "ference": 2850,
      "28": 2851,
      "ruct": 2852,
      "Ġoper": 2853,
      "elve": 2854,
      "ĠParis": 2855,
      "uted": 2856,
      "ords": 2857,
      "Ġmoved": 2858,
      "Ġutter": 2859,
      "ander": 2860,
      "Ġsorrow": 2861,
      "Ġiron": 2862,
      "has": 2863,
      "ĠDr": 2864,
      "tis": 2865,
      "Ġ25": 2866,
      "Ġtrem": 2867,
      "ded": 2868,
      "ding": 2869,
      "Ġspecies": 2870,
      "Ġprev": 2871,
      "eal": 2872,
      "Ġinflu": 2873,
      "iqu": 2874,
      "Ġheat": 2875,
      "Ġgall": 2876,
      "ĠFl": 2877,
      "Ġfigure": 2878,
      "Ġlif": 2879,
      "inner": 2880,
      "Ġcustom": 2881,
      "ivil": 2882,
      "little": 2883,
      "ĠSh": 2884,
      "ruction": 2885,
      "Ġbooks": 2886,
      "Ġpit": 2887,
      "Ġdread": 2888,
      "Ġwait": 2889,
      "Ġestab": 2890,
      "olly": 2891,
      "iety": 2892,
      "Ġfamil": 2893,
      "zan": 2894,
      "ghed": 2895,
      "thren": 2896,
      "hard": 2897,
      "Ġhardly": 2898,
      "Ġguard": 2899,
      "29": 2900,
      "Ġpiece": 2901,
      "Ġanx": 2902,
      "alled": 2903,
      "Ġforgot": 2904,
      "Ġseeing": 2905,
      "Ġsugg": 2906,
      "Ġvain": 2907,
      "ĠQueen": 2908,
      "uly": 2909,
      "oon": 2910,
      "ades": 2911,
      "Ġstopped": 2912,
      "rect": 2913,
      "Ġopinion": 2914,
      "Ġgen": 2915,
      "Ġdeterm": 2916,
      "Ġsuffic": 2917,
      "ITH": 2918,
      "Ġconcl": 2919,
      "Ġprophe": 2920,
      "ĠWhich": 2921,
      "Ġpath": 2922,
      "Ġshut": 2923,
      "zz": 2924,
      "Ġnames": 2925,
      "Ġund": 2926,
      "Ġrace": 2927,
      "Ġescape": 2928,
      "aked": 2929,
      "Ġimmediately": 2930,
      "Ġexact": 2931,
      "Ġeasy": 2932,
      "Ġcarry": 2933,
      "Ġknows": 2934,
      "ĠFather": 2935,
      "Ġshore": 2936,
      "ĠNe": 2937,
      "Ġwalls": 2938,
      "yal": 2939,
      "ify": 2940,
      "rop": 2941,
      "hor": 2942,
      "Ġgate": 2943,
      "005": 2944,
      "Ġspot": 2945,
      "007": 2946,
      "Ġsummer": 2947,
      "Ġfuture": 2948,
      "Ġspring": 2949,
      "Ġsav": 2950,
      "oom": 2951,
      "Ġsouth": 2952,
      "Ġmult": 2953,
      "Ġcovered": 2954,
      "car": 2955,
      "cceed": 2956,
      "ague": 2957,
      "ences": 2958,
      "Ġsepar": 2959,
      "Ġseek": 2960,
      "Ġrepe": 2961,
      "Ġquickly": 2962,
      "ii": 2963,
      "ys": 2964,
      "Ġconvers": 2965,
      "Ġintell": 2966,
      "umed": 2967,
      "Ġspoken": 2968,
      "idered": 2969,
      "44": 2970,
      "ĠTar": 2971,
      "Ġcompl": 2972,
      "Ġfloor": 2973,
      "Ġconduct": 2974,
      "Ġmarried": 2975,
      "Ġemploy": 2976,
      "006": 2977,
      "Ġwrite": 2978,
      "Ġkings": 2979,
      "bb": 2980,
      "gress": 2981,
      "ending": 2982,
      "Ġdirection": 2983,
      "Ġknight": 2984,
      "ishing": 2985,
      "ĠRome": 2986,
      "Ġroll": 2987,
      "Ġnations": 2988,
      "Ġshout": 2989,
      "Ġdeli": 2990,
      "ca": 2991,
      "eces": 2992,
      "UR": 2993,
      "kin": 2994,
      "Ġlives": 2995,
      "ales": 2996,
      "Ġstat": 2997,
      "Be": 2998,
      "Ġstream": 2999,
      "Ġdifficult": 3000,
      "UT": 3001,
      "happ": 3002,
      "Ġminute": 3003,
      "Ġbod": 3004,
      "ĠFrance": 3005,
      "gain": 3006,
      "ashion": 3007,
      "eks": 3008,
      "Ġsake": 3009,
      "Ġrecogn": 3010,
      "Ġbuilt": 3011,
      "Ġisland": 3012,
      "His": 3013,
      "every": 3014,
      "Ar": 3015,
      "Ġserve": 3016,
      "bor": 3017,
      "vation": 3018,
      "zen": 3019,
      "AD": 3020,
      "habit": 3021,
      "acher": 3022,
      "Ġdim": 3023,
      "Ġdemand": 3024,
      "Ġpoet": 3025,
      "Ġdescend": 3026,
      "velop": 3027,
      "Ġfresh": 3028,
      "your": 3029,
      "dy": 3030,
      "Ġ<": 3031,
      "ĠPer": 3032,
      "ĠStates": 3033,
      "bet": 3034,
      "Ġap": 3035,
      "Ġpersons": 3036,
      "mbers": 3037,
      "Ġmonths": 3038,
      "Ġ`": 3039,
      "Ġneck": 3040,
      "Ġcircumst": 3041,
      "ĠCH": 3042,
      "ĠGeorge": 3043,
      "Ġmill": 3044,
      "ĠCal": 3045,
      "pic": 3046,
      "Ġhid": 3047,
      "ems": 3048,
      "Ġhouses": 3049,
      "elled": 3050,
      "Ġast": 3051,
      "Ġpull": 3052,
      "orts": 3053,
      "bey": 3054,
      "ming": 3055,
      "Ġcra": 3056,
      "ĠLa": 3057,
      "Ġthinking": 3058,
      "Ġfro": 3059,
      "Ġpursu": 3060,
      "Ġliber": 3061,
      "ceived": 3062,
      "Ġinstead": 3063,
      "Ġduty": 3064,
      "Ġplease": 3065,
      "ables": 3066,
      "Ġenemies": 3067,
      "Ġfalse": 3068,
      "Mr": 3069,
      "Ġcomplete": 3070,
      "After": 3071,
      "Ġmess": 3072,
      "new": 3073,
      "Ġnews": 3074,
      "Ġstarted": 3075,
      "ĠGo": 3076,
      "Ġreceive": 3077,
      "pon": 3078,
      "asc": 3079,
      "urope": 3080,
      "Ġfurn": 3081,
      "see": 3082,
      "Ġspeed": 3083,
      "olute": 3084,
      "008": 3085,
      "009": 3086,
      "Ġcentury": 3087,
      "itable": 3088,
      "ĠCome": 3089,
      "Ġdescri": 3090,
      "Ġgaz": 3091,
      "Ġoccur": 3092,
      "IUS": 3093,
      "Ġbold": 3094,
      "fast": 3095,
      "Ġboat": 3096,
      "Ġdarkness": 3097,
      "Ġchair": 3098,
      "ented": 3099,
      "Ġwitness": 3100,
      "Ġbare": 3101,
      "Ġgreatest": 3102,
      "Ġears": 3103,
      "ĠMary": 3104,
      "even": 3105,
      "Ġyes": 3106,
      "ĠLady": 3107,
      "Ġdeser": 3108,
      "Ġgetting": 3109,
      "alem": 3110,
      "Ch": 3111,
      "Ġring": 3112,
      "Ġcharge": 3113,
      "Ġcrown": 3114,
      "Ġdepart": 3115,
      "Ġpp": 3116,
      "Ġkiss": 3117,
      "while": 3118,
      "ĠCa": 3119,
      "Ġjudgment": 3120,
      "reet": 3121,
      "ilar": 3122,
      "kind": 3123,
      "42": 3124,
      "Ġlocation": 3125,
      "Ġid": 3126,
      "Ġign": 3127,
      "arer": 3128,
      "Ġafterwards": 3129,
      "iction": 3130,
      "Ġhall": 3131,
      "OW": 3132,
      "Ġheads": 3133,
      "Ġappl": 3134,
      "ĠEar": 3135,
      "Ġfrequ": 3136,
      "host": 3137,
      "antage": 3138,
      "uded": 3139,
      "Ġlearned": 3140,
      "Ġdom": 3141,
      "Ġves": 3142,
      "ency": 3143,
      "One": 3144,
      "taining": 3145,
      "cr": 3146,
      "Ġpure": 3147,
      "athered": 3148,
      "Ġsystem": 3149,
      "ĠIN": 3150,
      "ulty": 3151,
      "Ġbreast": 3152,
      "itation": 3153,
      "ibly": 3154,
      "anted": 3155,
      "Ġbell": 3156,
      "ipp": 3157,
      "Ġfright": 3158,
      "Ġinstant": 3159,
      "istance": 3160,
      "Ġbrethren": 3161,
      "Ġsky": 3162,
      "Ġfit": 3163,
      "Ġfier": 3164,
      "ulation": 3165,
      "Ġthereof": 3166,
      "Ġfruit": 3167,
      "30": 3168,
      "Ġnote": 3169,
      "Ġbox": 3170,
      "By": 3171,
      "Ġmort": 3172,
      "Ġforget": 3173,
      "ĠEm": 3174,
      "Ġfun": 3175,
      "alt": 3176,
      "Ġreach": 3177,
      "ĠMex": 3178,
      "50": 3179,
      "bre": 3180,
      "Ġwinter": 3181,
      "ĠGree": 3182,
      "Ġspread": 3183,
      ".âĢĿ": 3184,
      "Ġobserved": 3185,
      "Ġcomb": 3186,
      "Ġservants": 3187,
      "stit": 3188,
      "Ġkilled": 3189,
      "Ġsmile": 3190,
      "Ġmagn": 3191,
      "Ġmountain": 3192,
      "ford": 3193,
      "yn": 3194,
      "ividual": 3195,
      "Ġcondition": 3196,
      "oul": 3197,
      "Ġformed": 3198,
      "usalem": 3199,
      "Ġrapid": 3200,
      "ĠOh": 3201,
      "ĠĊĠ": 3202,
      "Ġhearts": 3203,
      "sha": 3204,
      "Ġvan": 3205,
      "ENT": 3206,
      "Ġrul": 3207,
      "only": 3208,
      "Ġchanged": 3209,
      "hu": 3210,
      "Ġbeat": 3211,
      "Ġgoes": 3212,
      "Ġbelieved": 3213,
      "Ġetc": 3214,
      "oes": 3215,
      "Ġsitting": 3216,
      "lend": 3217,
      "Ġespecially": 3218,
      "abb": 3219,
      "Ġbroke": 3220,
      "reme": 3221,
      "lected": 3222,
      "Ġball": 3223,
      "might": 3224,
      "oly": 3225,
      "ye": 3226,
      "irits": 3227,
      "noon": 3228,
      "leep": 3229,
      "Ġways": 3230,
      "Ġexpress": 3231,
      "Ġeast": 3232,
      "Ġvessel": 3233,
      "ourse": 3234,
      "icate": 3235,
      "Ġrise": 3236,
      "Ġlanguage": 3237,
      "Ġpaid": 3238,
      "Ġscene": 3239,
      "010": 3240,
      "Ġrain": 3241,
      "Ġprince": 3242,
      "Ġbroad": 3243,
      "Ġfifty": 3244,
      "eg": 3245,
      "ĠYe": 3246,
      "Ġsimple": 3247,
      "Ġdesign": 3248,
      "Ġhide": 3249,
      "down": 3250,
      "ĠThor": 3251,
      "Ġmiddle": 3252,
      "Ġarrived": 3253,
      "Ġcorner": 3254,
      "ĠHen": 3255,
      "Ġtongue": 3256,
      "ae": 3257,
      "hern": 3258,
      "ĠBrit": 3259,
      "ĠPaul": 3260,
      "011": 3261,
      "Ġsucceed": 3262,
      "ession": 3263,
      "ĊĠĠĠĠĠĠĠĠĠ": 3264,
      "Ġcou": 3265,
      "Ġcost": 3266,
      "ival": 3267,
      "Ġwear": 3268,
      "essor": 3269,
      "Ġimm": 3270,
      "43": 3271,
      "Ġshowed": 3272,
      "Ġexclaimed": 3273,
      "ĠTr": 3274,
      "rees": 3275,
      "Ġhonest": 3276,
      "Ġoutside": 3277,
      "Ġsoldiers": 3278,
      "ste": 3279,
      "Ġdoth": 3280,
      "amb": 3281,
      "unk": 3282,
      "Ġpros": 3283,
      "ĠDan": 3284,
      "Ġproud": 3285,
      "Mar": 3286,
      "eless": 3287,
      "Ġterrible": 3288,
      "Ġband": 3289,
      "Ġshame": 3290,
      "Ġlaughed": 3291,
      "RI": 3292,
      "Ġletters": 3293,
      "Ġlearn": 3294,
      "sed": 3295,
      "Ġcities": 3296,
      "ternal": 3297,
      "Ġtwelve": 3298,
      "âĢľ": 3299,
      "Ġthirty": 3300,
      "Ġflowers": 3301,
      "itiz": 3302,
      "Ġx": 3303,
      "illa": 3304,
      "nat": 3305,
      "Ġ29": 3306,
      "oo": 3307,
      "06": 3308,
      "Ġcho": 3309,
      "Ġtast": 3310,
      "ests": 3311,
      "shall": 3312,
      "aterial": 3313,
      "iring": 3314,
      "Ġpalace": 3315,
      "Here": 3316,
      "ĠMor": 3317,
      "Ġmel": 3318,
      "Let": 3319,
      "ĠJew": 3320,
      "through": 3321,
      "Ġwhatever": 3322,
      "Ġgrass": 3323,
      "Ġaction": 3324,
      "Ġdam": 3325,
      "rep": 3326,
      "ĠSha": 3327,
      "Ġprove": 3328,
      "Ġsupposed": 3329,
      "ped": 3330,
      "Ġlower": 3331,
      "reck": 3332,
      "Ġdiscovered": 3333,
      "oted": 3334,
      "Ġconsequ": 3335,
      "ners": 3336,
      "Ġmut": 3337,
      "mar": 3338,
      "people": 3339,
      "osite": 3340,
      "Alma": 3341,
      "ARD": 3342,
      "ĠCaptain": 3343,
      "ois": 3344,
      "Ġtemper": 3345,
      "Where": 3346,
      "Ġgiving": 3347,
      "ĊĊĠĠĠĠĠĠĠĠĠĠĠĠĠĠĠĠ": 3348,
      "never": 3349,
      "ĠNorth": 3350,
      "Ġeasily": 3351,
      "ĠAmerican": 3352,
      "made": 3353,
      "Ġloud": 3354,
      "Ġcover": 3355,
      "work": 3356,
      "father": 3357,
      "icated": 3358,
      "Ġ26": 3359,
      "Ġemb": 3360,
      "From": 3361,
      "Ġpec": 3362,
      "otion": 3363,
      "itive": 3364,
      "ĠGl": 3365,
      "ĠEurope": 3366,
      "may": 3367,
      "Ġdrawn": 3368,
      "Ġsuffer": 3369,
      "Ġusual": 3370,
      "itary": 3371,
      "Ġtrain": 3372,
      "ĠMoses": 3373,
      "orry": 3374,
      "Ġtender": 3375,
      ".[": 3376,
      "these": 3377,
      "Ġimpossible": 3378,
      "chan": 3379,
      "Ġmidst": 3380,
      "Ġrevol": 3381,
      "Ġrule": 3382,
      "33": 3383,
      "worth": 3384,
      "ĠWas": 3385,
      "Ġshown": 3386,
      "Ġleaves": 3387,
      "Ġmiss": 3388,
      "ication": 3389,
      "osop": 3390,
      "Ġmarriage": 3391,
      "ĠGerman": 3392,
      "Ġpassing": 3393,
      "Ġbrave": 3394,
      "Ġtest": 3395,
      "Ġentirely": 3396,
      "omes": 3397,
      "pal": 3398,
      "Ġspace": 3399,
      "ĠRom": 3400,
      "AC": 3401,
      "Ġsteps": 3402,
      "hest": 3403,
      "Ġfortune": 3404,
      "Ġhealth": 3405,
      "Ġvalley": 3406,
      "07": 3407,
      "``": 3408,
      "Ġeld": 3409,
      "ĠKING": 3410,
      "emed": 3411,
      "action": 3412,
      "Ġspake": 3413,
      "Ġblind": 3414,
      "Ġnarrow": 3415,
      "IV": 3416,
      "Ġoffered": 3417,
      "Ġdry": 3418,
      "himself": 3419,
      "Ġgenerally": 3420,
      "urd": 3421,
      "uliar": 3422,
      "ERS": 3423,
      "Ġsilent": 3424,
      "012": 3425,
      "Ġjudge": 3426,
      "Ġclothes": 3427,
      "Ġod": 3428,
      "Ġdinner": 3429,
      "Ġboard": 3430,
      "ocks": 3431,
      "good": 3432,
      "Ġfirm": 3433,
      "reed": 3434,
      "Ġfill": 3435,
      "Ġcruel": 3436,
      "ĠJerusalem": 3437,
      "Ġleaving": 3438,
      "Ġiv": 3439,
      "wood": 3440,
      "Ġclosed": 3441,
      "pers": 3442,
      "Ġfra": 3443,
      "Ġtot": 3444,
      "Ġattack": 3445,
      "ification": 3446,
      "Ġscarcely": 3447,
      "Ġpleased": 3448,
      "Ġgirls": 3449,
      "Ġimportant": 3450,
      "oid": 3451,
      "Ġcivil": 3452,
      "Ġhy": 3453,
      "Ġreve": 3454,
      "Ġ27": 3455,
      "Ġcommanded": 3456,
      "Ġtouch": 3457,
      "don": 3458,
      "Ġsides": 3459,
      "Ġcat": 3460,
      "Ġcouldn": 3461,
      "Ġgrou": 3462,
      "ĠTherefore": 3463,
      "Ġpieces": 3464,
      "Ġsevent": 3465,
      "chief": 3466,
      "013": 3467,
      "Ġloss": 3468,
      "back": 3469,
      "ĠPe": 3470,
      "Ġbitter": 3471,
      "law": 3472,
      "Ġequal": 3473,
      "Ġpleasant": 3474,
      "ĊĊĠĠĠĠĠĠĠĠĠĠĠĠĠĠ": 3475,
      "Ġpassion": 3476,
      "TA": 3477,
      "Ġ+": 3478,
      "Ġwrote": 3479,
      "morrow": 3480,
      "sy": 3481,
      "erous": 3482,
      "Ġlies": 3483,
      "Ġworse": 3484,
      "Ġyellow": 3485,
      "uses": 3486,
      "know": 3487,
      "Ġoffice": 3488,
      "ails": 3489,
      "Ġfol": 3490,
      "Ġcreature": 3491,
      "Ġstir": 3492,
      "ulf": 3493,
      "Ġspeaking": 3494,
      "Ġfallen": 3495,
      "Ġwished": 3496,
      "aman": 3497,
      "Ġnotice": 3498,
      "ĠEven": 3499,
      "Ġpicture": 3500,
      "Ġturning": 3501,
      "cher": 3502,
      "Ġmotion": 3503,
      "ny": 3504,
      "Ġspeech": 3505,
      "Ġgolden": 3506,
      "Ġbank": 3507,
      "Ġexcell": 3508,
      "ĠTheir": 3509,
      "ĠGu": 3510,
      "ĠOur": 3511,
      "Ġsitu": 3512,
      "ux": 3513,
      "?;": 3514,
      "iny": 3515,
      "Ġpress": 3516,
      "aying": 3517,
      "ĠChurch": 3518,
      "Ġhence": 3519,
      "014": 3520,
      "Ġclean": 3521,
      "Ġbirds": 3522,
      "Ġweight": 3523,
      "Ġ12": 3524,
      "Ġlines": 3525,
      "uns": 3526,
      "ĠEvery": 3527,
      "Ġcheer": 3528,
      "Ġinfluence": 3529,
      "inite": 3530,
      "Ġsnow": 3531,
      "Ġmerely": 3532,
      "Ġgro": 3533,
      "Ġapart": 3534,
      "ingu": 3535,
      "ĠSam": 3536,
      "Ġheight": 3537,
      "omen": 3538,
      "thought": 3539,
      "ivered": 3540,
      "Ġphys": 3541,
      "rose": 3542,
      "Ġcaused": 3543,
      "eping": 3544,
      "cing": 3545,
      "pet": 3546,
      "Ġcand": 3547,
      "Ġrunning": 3548,
      "Ġdoctor": 3549,
      "ĠJack": 3550,
      "ĠJim": 3551,
      "EC": 3552,
      "imate": 3553,
      "Ġroyal": 3554,
      "Ġpromise": 3555,
      "Ġdivine": 3556,
      "eed": 3557,
      "Ġfled": 3558,
      "Ġfavour": 3559,
      "Ġsharp": 3560,
      "Ġtro": 3561,
      "Ġtall": 3562,
      "Ġsurr": 3563,
      "Ġstro": 3564,
      "ĠPeter": 3565,
      "Ġbottom": 3566,
      "mes": 3567,
      "ero": 3568,
      "Ġprocess": 3569,
      "Ġclaim": 3570,
      "Ġwaiting": 3571,
      "pter": 3572,
      "ethod": 3573,
      "Ġtone": 3574,
      "Ġstop": 3575,
      "Ġmer": 3576,
      "Ġrid": 3577,
      "Ġwaters": 3578,
      "ĠBab": 3579,
      "015": 3580,
      "Ġstranger": 3581,
      "Ġyield": 3582,
      "ĠMexic": 3583,
      "orious": 3584,
      "Ġjustice": 3585,
      "Ġfault": 3586,
      "Ġlaws": 3587,
      "God": 3588,
      "Ġsought": 3589,
      "clock": 3590,
      "Ġthank": 3591,
      "Ġ28": 3592,
      "oned": 3593,
      "Ġrighteous": 3594,
      "Ġph": 3595,
      "Ġdue": 3596,
      "Ġhunt": 3597,
      "Ġkne": 3598,
      "Ġsomewhat": 3599,
      "Ġprevent": 3600,
      "Ġearn": 3601,
      "Ġones": 3602,
      "Ġexpected": 3603,
      "inted": 3604,
      "acing": 3605,
      "lex": 3606,
      "Ġproduced": 3607,
      "Ġconqu": 3608,
      "eneral": 3609,
      "ĠYork": 3610,
      "inal": 3611,
      "Ġthrew": 3612,
      "...": 3613,
      "Ġhabit": 3614,
      "Ġindividual": 3615,
      "Ġreligion": 3616,
      "Ġoffering": 3617,
      "Ġexperience": 3618,
      "Ġprepared": 3619,
      "Ġgathered": 3620,
      "ĠMag": 3621,
      "ĠWITH": 3622,
      "tar": 3623,
      "Ġinhabit": 3624,
      "Who": 3625,
      "Ġhonor": 3626,
      "Ġshadow": 3627,
      "Ġoblig": 3628,
      "Ġauthority": 3629,
      "Ġforms": 3630,
      "ille": 3631,
      "Ġblow": 3632,
      "Ġguess": 3633,
      "two": 3634,
      "Ġmir": 3635,
      "cil": 3636,
      "first": 3637,
      "wed": 3638,
      "reen": 3639,
      "Ġwarri": 3640,
      "wr": 3641,
      "Ġelect": 3642,
      "Ġdoll": 3643,
      "pond": 3644,
      "Ġwel": 3645,
      "ĠJe": 3646,
      "Ġlying": 3647,
      "oined": 3648,
      "Ġstar": 3649,
      "Ġconsidered": 3650,
      "41": 3651,
      "Ġallowed": 3652,
      "Ġslain": 3653,
      "Ġlot": 3654,
      "Ġsearch": 3655,
      "Ġsail": 3656,
      "ĠTH": 3657,
      "cription": 3658,
      "Ġreligious": 3659,
      "Ġreply": 3660,
      "Ġpreser": 3661,
      "Ġsociety": 3662,
      "Ġpock": 3663,
      "sl": 3664,
      "Ġbab": 3665,
      "Ġopport": 3666,
      "Ġalive": 3667,
      "AND": 3668,
      "por": 3669,
      "erable": 3670,
      "illy": 3671,
      "ĠHeaven": 3672,
      "ĠAmerica": 3673,
      "Or": 3674,
      "Ġmach": 3675,
      "Ġexec": 3676,
      "PH": 3677,
      "much": 3678,
      "ĠVal": 3679,
      "Ġworthy": 3680,
      "Ġexistence": 3681,
      "Ġsand": 3682,
      "Ġstrugg": 3683,
      "Ġabsolute": 3684,
      "Ġmercy": 3685,
      "Ġspirits": 3686,
      "ĠTarzan": 3687,
      "AU": 3688,
      "Ġeager": 3689,
      "Ġur": 3690,
      "Ġdistinct": 3691,
      "Ġlooks": 3692,
      "ashed": 3693,
      "Ġbuilding": 3694,
      "ourn": 3695,
      "held": 3696,
      "idently": 3697,
      "Ġwouldn": 3698,
      "ĠOl": 3699,
      "ool": 3700,
      "Ġgives": 3701,
      "Ġdevil": 3702,
      "pected": 3703,
      "36": 3704,
      "09": 3705,
      "Ġcourage": 3706,
      "Ġhither": 3707,
      "tering": 3708,
      "Ġwonderful": 3709,
      "pes": 3710,
      "Ġpale": 3711,
      "Ġcrowd": 3712,
      "esty": 3713,
      "Ġexpression": 3714,
      "bers": 3715,
      "rey": 3716,
      "Ġourselves": 3717,
      "Ġorgan": 3718,
      "Ġspent": 3719,
      "istic": 3720,
      "Ġbond": 3721,
      "Ġexample": 3722,
      "Ġsimilar": 3723,
      "umber": 3724,
      "Ġempt": 3725,
      "Ġbirth": 3726,
      "Ġstage": 3727,
      "ĠBehold": 3728,
      "Ġunless": 3729,
      "016": 3730,
      "Ġattend": 3731,
      "Ġfixed": 3732,
      "ĠSouth": 3733,
      "Ġforeign": 3734,
      "Ġlose": 3735,
      "Ġnoise": 3736,
      "isters": 3737,
      "Ġpeculiar": 3738,
      "esar": 3739,
      "Ġarg": 3740,
      "Ġfathers": 3741,
      "45": 3742,
      "Ġafternoon": 3743,
      "Ġ36": 3744,
      "did": 3745,
      "mitted": 3746,
      "Ġliter": 3747,
      "icks": 3748,
      "Ġhappiness": 3749,
      "rat": 3750,
      "Ġtit": 3751,
      "asse": 3752,
      "Ġpassage": 3753,
      "aries": 3754,
      "Ġapparent": 3755,
      "Ġcab": 3756,
      "sect": 3757,
      "Ġrej": 3758,
      "ogra": 3759,
      "Ġdegree": 3760,
      "Ġdust": 3761,
      "Ġsplend": 3762,
      "Ġintrodu": 3763,
      "Ġpride": 3764,
      "aus": 3765,
      "Ġwealth": 3766,
      "Ġ(_": 3767,
      "Ġtor": 3768,
      "Ġreck": 3769,
      "ĠCor": 3770,
      "Ġdevelop": 3771,
      "Ġattract": 3772,
      "ancing": 3773,
      "Ġships": 3774,
      "Ġshook": 3775,
      "Ġcurious": 3776,
      "Ġhigher": 3777,
      "bly": 3778,
      "lar": 3779,
      "Ġbid": 3780,
      "ett": 3781,
      "Ġappears": 3782,
      "Ġwisdom": 3783,
      "Ġphil": 3784,
      "Ġmeaning": 3785,
      "ipped": 3786,
      "vey": 3787,
      "Ġbodies": 3788,
      "Ġanimal": 3789,
      "Ġsurprise": 3790,
      "Ġmaterial": 3791,
      "Ġseat": 3792,
      "comp": 3793,
      "acious": 3794,
      "Ġconcerning": 3795,
      "ieve": 3796,
      "Ġforty": 3797,
      "Ġladies": 3798,
      "Ġfem": 3799,
      "ĠYour": 3800,
      "ishop": 3801,
      "Ġspecial": 3802,
      "Ġignor": 3803,
      "bid": 3804,
      "37": 3805,
      "Ah": 3806,
      "fall": 3807,
      "ias": 3808,
      "such": 3809,
      "umn": 3810,
      "ailed": 3811,
      "Ġamount": 3812,
      "Ġfashion": 3813,
      "Ġshoulder": 3814,
      "Ġextreme": 3815,
      "without": 3816,
      "Ġparent": 3817,
      "Ġsurface": 3818,
      "Ġsimply": 3819,
      "sky": 3820,
      "Ġmeat": 3821,
      "Ġaston": 3822,
      "somet": 3823,
      "Ġ11": 3824,
      "Ġburied": 3825,
      "iently": 3826,
      "ato": 3827,
      "Ġmembers": 3828,
      "ulated": 3829,
      "Ġexceed": 3830,
      "Ġnative": 3831,
      "Ġdecided": 3832,
      "Ġtemple": 3833,
      "Ġfate": 3834,
      "35": 3835,
      "46": 3836,
      "Ġaud": 3837,
      "Ġlikely": 3838,
      "Ġopposite": 3839,
      "aly": 3840,
      "Ġwest": 3841,
      "antic": 3842,
      "Ġmountains": 3843,
      "ĠJudah": 3844,
      "Ġprivate": 3845,
      "Ġsolemn": 3846,
      "ker": 3847,
      "shi": 3848,
      "isc": 3849,
      "Ġconsiderable": 3850,
      "Ġstreets": 3851,
      "Ġcurrent": 3852,
      "rifice": 3853,
      "being": 3854,
      "Ġadvantage": 3855,
      "ember": 3856,
      "Ġordered": 3857,
      "gged": 3858,
      "Ġfaces": 3859,
      "_\"": 3860,
      "isto": 3861,
      "Ġbull": 3862,
      "ĠPres": 3863,
      "Ġlegs": 3864,
      "Ġperfectly": 3865,
      "Ġvent": 3866,
      "Ġvalue": 3867,
      "Obs": 3868,
      "Ġnamed": 3869,
      "fortun": 3870,
      "Ġedge": 3871,
      "Ġblessed": 3872,
      "child": 3873,
      "Ġangry": 3874,
      "ox": 3875,
      "ros": 3876,
      "Ġunderstood": 3877,
      "ators": 3878,
      "Ġshot": 3879,
      "last": 3880,
      "found": 3881,
      "Ġpossession": 3882,
      "ĠMart": 3883,
      "Ġsuit": 3884,
      "018": 3885,
      "Ġuncle": 3886,
      "Ġdetermined": 3887,
      "Ġcases": 3888,
      "Ġhills": 3889,
      "attered": 3890,
      "Ġimpro": 3891,
      "OP": 3892,
      "char": 3893,
      "Ġvast": 3894,
      "Ġpity": 3895,
      "38": 3896,
      "Ġwand": 3897,
      "31": 3898,
      "ĠâĢĺ": 3899,
      "Ġdropped": 3900,
      "Ġmarry": 3901,
      "Ġdare": 3902,
      "ĠBec": 3903,
      "formation": 3904,
      "those": 3905,
      "ĠHad": 3906,
      "tw": 3907,
      "Ġtrying": 3908,
      "Ġallow": 3909,
      "Ġspite": 3910,
      "Ġperform": 3911,
      "Come": 3912,
      "take": 3913,
      "hem": 3914,
      "Ġhuge": 3915,
      "ĠGood": 3916,
      "order": 3917,
      "iration": 3918,
      "Ġfaint": 3919,
      "onder": 3920,
      "Ġ20": 3921,
      "Ġanimals": 3922,
      "Ġgrief": 3923,
      "Ġtravel": 3924,
      "Ġbore": 3925,
      "ĊĠĠĠĠĠĠĠĠĠĠĠĠĠĠĠĠ": 3926,
      "anch": 3927,
      "Ġfeast": 3928,
      "Ġwatched": 3929,
      "Ġmemory": 3930,
      "Ġpolit": 3931,
      "Ġconversation": 3932,
      "acc": 3933,
      "UC": 3934,
      "lor": 3935,
      "theless": 3936,
      "Ġpromised": 3937,
      "friend": 3938,
      "sw": 3939,
      "Ġworship": 3940,
      "ĠHenry": 3941,
      "ĠSuch": 3942,
      "anged": 3943,
      "ĠCount": 3944,
      "Ġstudy": 3945,
      "Ġextra": 3946,
      "Ġpraise": 3947,
      "Ġneighbour": 3948,
      "ios": 3949,
      "asons": 3950,
      "peror": 3951,
      "Ġgather": 3952,
      "Ġstones": 3953,
      "Ġtalking": 3954,
      "Ġhero": 3955,
      "Ġsty": 3956,
      "Ġanger": 3957,
      "och": 3958,
      "Ġthrone": 3959,
      "Ġmoral": 3960,
      "Ġwriting": 3961,
      "Ġfavor": 3962,
      "Ġdifficulty": 3963,
      "Ġoriginal": 3964,
      "yri": 3965,
      "Ġlands": 3966,
      "Ġaside": 3967,
      "estion": 3968,
      "Ġbrown": 3969,
      "32": 3970,
      "ĠRoman": 3971,
      "Ġdistant": 3972,
      "Ġcircumstances": 3973,
      "Ġharm": 3974,
      "Ġ45": 3975,
      "Ġtravell": 3976,
      "hal": 3977,
      "Ġhate": 3978,
      "Ġris": 3979,
      "Ġconc": 3980,
      "ĠSpirit": 3981,
      "ĠHim": 3982,
      "Ġspect": 3983,
      "Ġlock": 3984,
      "Ġroof": 3985,
      "ĠMore": 3986,
      "Ġtaught": 3987,
      "rer": 3988,
      "ainted": 3989,
      "Ġfeather": 3990,
      "Ġfinally": 3991,
      "Ġvirtue": 3992,
      "Tis": 3993,
      "gent": 3994,
      "arest": 3995,
      "Ġlest": 3996,
      "Ġlod": 3997,
      "ocked": 3998,
      "Ġappre": 3999,
      "Ġcalm": 4000,
      "ardon": 4001,
      "oked": 4002,
      "Ġrode": 4003,
      "GE": 4004,
      "Ġaid": 4005,
      "Ġthin": 4006,
      "Ġdeliver": 4007,
      "angers": 4008,
      "Ġcommun": 4009,
      "ounced": 4010,
      "Ġpresently": 4011,
      "Ġlean": 4012,
      "rance": 4013,
      "apers": 4014,
      "urned": 4015,
      "Ġyea": 4016,
      "Ġcaptain": 4017,
      "Ġqueen": 4018,
      "Ġmaj": 4019,
      "ception": 4020,
      "ĠSon": 4021,
      "Ġneg": 4022,
      "Ġdeclared": 4023,
      "019": 4024,
      "iest": 4025,
      "tains": 4026,
      "ibility": 4027,
      "fact": 4028,
      "half": 4029,
      "Ġresem": 4030,
      "017": 4031,
      "ĠJean": 4032,
      "ram": 4033,
      "Ġble": 4034,
      "Ġflight": 4035,
      "anches": 4036,
      "rated": 4037,
      "Ġwings": 4038,
      "--\"_": 4039,
      "Ġproof": 4040,
      "Ġpriests": 4041,
      "._,": 4042,
      "Ġfinished": 4043,
      "looking": 4044,
      "ID": 4045,
      "ceive": 4046,
      "itch": 4047,
      "ĠWhile": 4048,
      "34": 4049,
      "Ġfish": 4050,
      "ĠMaster": 4051,
      "eb": 4052,
      "Ġlifted": 4053,
      "Ġexactly": 4054,
      "Ġphilosop": 4055,
      "Ġder": 4056,
      ",âĢĿ": 4057,
      "occ": 4058,
      "ĠYes": 4059,
      "Ġswift": 4060,
      "standing": 4061,
      "iments": 4062,
      "Ġdu": 4063,
      "Ġmeasure": 4064,
      "ĠGreat": 4065,
      "Ġcop": 4066,
      "water": 4067,
      "Ġmeeting": 4068,
      "field": 4069,
      "eav": 4070,
      "inn": 4071,
      "Ġsan": 4072,
      "aints": 4073,
      "Ġ188": 4074,
      "Ġconfess": 4075,
      "Ġsufficient": 4076,
      "ĠMon": 4077,
      "osen": 4078,
      "Ġcred": 4079,
      "Ġshape": 4080,
      "Ġinstance": 4081,
      "Ġagree": 4082,
      "Ġleap": 4083,
      "abbath": 4084,
      "rec": 4085,
      "Ġ&?;": 4086,
      "aughters": 4087,
      "Wh": 4088,
      "Ġegg": 4089,
      "ĠAL": 4090,
      "Ġtom": 4091,
      "Ġinj": 4092,
      "Ġforced": 4093,
      "Ġsurely": 4094,
      "Ġhurt": 4095,
      "Ġcounsel": 4096,
      "Ġmodern": 4097,
      "Ġpack": 4098,
      "Ġthro": 4099,
      "Ġliberty": 4100,
      "port": 4101,
      "Ġsaved": 4102,
      "47": 4103,
      "certain": 4104,
      "Ġseed": 4105,
      "Ġrepeated": 4106,
      "Ġfierce": 4107,
      "Ġcitiz": 4108,
      "Ġgreatly": 4109,
      "Ġspo": 4110,
      "Ġpersu": 4111,
      "rate": 4112,
      "sur": 4113,
      "ĠHall": 4114,
      "came": 4115,
      "ĠHel": 4116,
      "Ġchamber": 4117,
      "ĠState": 4118,
      "Ġwid": 4119,
      "Ġsize": 4120,
      "atures": 4121,
      "ĠCaesar": 4122,
      "tic": 4123,
      "uments": 4124,
      "Ġinteresting": 4125,
      "ĠSax": 4126,
      "ĊĠĠĠĠĠĠ": 4127,
      "ĠII": 4128,
      "acob": 4129,
      "ĠEnter": 4130,
      "Ġgame": 4131,
      "_--\"_": 4132,
      "hum": 4133,
      "war": 4134,
      "met": 4135,
      "ading": 4136,
      "ĠRo": 4137,
      "Ġburst": 4138,
      "rific": 4139,
      "Ġproved": 4140,
      "ĠĠĠĠĠĠĠĠĠĠĠĠĠĠĠĠĠĠĠĠĠĠĠĠĠĠĠĠĠĠĠĠĠĠĠĠĠĠĠĠ": 4141,
      "bu": 4142,
      "ĠWest": 4143,
      "quis": 4144,
      "Ġshoulders": 4145,
      "Ġrecord": 4146,
      "Ġexerc": 4147,
      "Ġfreed": 4148,
      "Ġstore": 4149,
      "uls": 4150,
      "Ġaffection": 4151,
      "Ġwin": 4152,
      "Ġartic": 4153,
      "Ġusually": 4154,
      "Ġopportunity": 4155,
      "five": 4156,
      "hus": 4157,
      "Ġobtained": 4158,
      "Ġsorry": 4159,
      "Ġportion": 4160,
      "Ġtaste": 4161,
      "Ġ=": 4162,
      "ergy": 4163,
      "Ġdistingu": 4164,
      "Her": 4165,
      "Ġworking": 4166,
      "020": 4167,
      "Ġbesides": 4168,
      "because": 4169,
      "took": 4170,
      "ulous": 4171,
      "Ġemp": 4172,
      "Ġmentioned": 4173,
      "Ġrequired": 4174,
      "Ġcolor": 4175,
      "En": 4176,
      "ait": 4177,
      "Ġnine": 4178,
      "rows": 4179,
      "!--": 4180,
      "AB": 4181,
      "mother": 4182,
      "Ġunf": 4183,
      "peak": 4184,
      "Ġaccompl": 4185,
      "dist": 4186,
      "Ġain": 4187,
      "nec": 4188,
      "Ġclim": 4189,
      "Ġengaged": 4190,
      "Ġupper": 4191,
      "ĠMo": 4192,
      "sue": 4193,
      "umin": 4194,
      "Ġadvent": 4195,
      "Ġforgotten": 4196,
      "ĠIndian": 4197,
      "born": 4198,
      "fessor": 4199,
      "Ġwaited": 4200,
      "ylon": 4201,
      "Ġfought": 4202,
      "Ġthreat": 4203,
      "IST": 4204,
      "Ġtalked": 4205,
      "021": 4206,
      "Ġcatch": 4207,
      "Ġpot": 4208,
      "Ġcell": 4209,
      "Ġrough": 4210,
      "Ġcow": 4211,
      "OD": 4212,
      "ixt": 4213,
      "022": 4214,
      "Ġconstit": 4215,
      "pher": 4216,
      "uit": 4217,
      "Ġplant": 4218,
      "Ġdesired": 4219,
      "inst": 4220,
      "Ġsell": 4221,
      "earing": 4222,
      "Ġdifference": 4223,
      "Ġamongst": 4224,
      "Ġstock": 4225,
      "aunt": 4226,
      "Ġsacred": 4227,
      "Ġfingers": 4228,
      "ourt": 4229,
      "ĠHam": 4230,
      "arther": 4231,
      "ĠVer": 4232,
      "Ġgrad": 4233,
      "soci": 4234,
      "Ġwalking": 4235,
      "think": 4236,
      "Ġseized": 4237,
      ",)": 4238,
      "jud": 4239,
      "Ġbent": 4240,
      "Ġcoat": 4241,
      "Ġpopular": 4242,
      "against": 4243,
      "gra": 4244,
      "lished": 4245,
      "Ġfancy": 4246,
      "Ġpair": 4247,
      "Ġcoast": 4248,
      "Ġfamous": 4249,
      "Ġwoods": 4250,
      "Ġfond": 4251,
      "ĠMaj": 4252,
      "KE": 4253,
      "itor": 4254,
      "Ġpill": 4255,
      "Ġarose": 4256,
      "Ġgain": 4257,
      "irgin": 4258,
      "ANT": 4259,
      "ieur": 4260,
      "Ġaffairs": 4261,
      "Ġbapt": 4262,
      "Ġknowing": 4263,
      "rine": 4264,
      "arily": 4265,
      "Ġterror": 4266,
      "must": 4267,
      "Ġty": 4268,
      "Ġpersonal": 4269,
      "ĠWilliam": 4270,
      "Ġthrown": 4271,
      "osom": 4272,
      "ĠDuke": 4273,
      "Ġfamiliar": 4274,
      "Ġwelcome": 4275,
      "four": 4276,
      "Ġdoors": 4277,
      "Ġprogress": 4278,
      "Ġplayed": 4279,
      "Ġearnest": 4280,
      "Ġempty": 4281,
      "Ġcastle": 4282,
      "uce": 4283,
      "Ġtired": 4284,
      "epend": 4285,
      "**": 4286,
      "Ġpowers": 4287,
      "lebr": 4288,
      "Ġtakes": 4289,
      "incess": 4290,
      "itated": 4291,
      "Ġpet": 4292,
      "Ġmyst": 4293,
      "ization": 4294,
      "ĠDon": 4295,
      "Ġsacrifice": 4296,
      "erness": 4297,
      "Ġopening": 4298,
      "ds": 4299,
      "Ġgrat": 4300,
      "Ġconscious": 4301,
      "Ġrail": 4302,
      "ology": 4303,
      "Ġproject": 4304,
      "ĠJoe": 4305,
      "away": 4306,
      "Ġsavage": 4307,
      "Ġarch": 4308,
      "39": 4309,
      "Ġrare": 4310,
      "ari": 4311,
      "Ġrising": 4312,
      "Ġproperty": 4313,
      "Ġexcellent": 4314,
      "Ġfet": 4315,
      "Ġcontent": 4316,
      "Ġholding": 4317,
      "ths": 4318,
      "Ġtouched": 4319,
      "Ġess": 4320,
      "Ġpubl": 4321,
      "book": 4322,
      "ĠOld": 4323,
      "ica": 4324,
      "ilst": 4325,
      "Ġdism": 4326,
      "hens": 4327,
      "ims": 4328,
      "Ġsymp": 4329,
      "ĊĊĠĠĠĠĠĠĠĠĠĠĠĠĠĠĠĠĠĠĠĠĠĠĠĠ": 4330,
      "Ġsouls": 4331,
      "Ġquarter": 4332,
      "Ġbelief": 4333,
      "del": 4334,
      "Ġrob": 4335,
      "Ġinnoc": 4336,
      "oh": 4337,
      "enance": 4338,
      "ĠUnited": 4339,
      "Ġstorm": 4340,
      "Ġsheep": 4341,
      "overn": 4342,
      "IM": 4343,
      "Ġweap": 4344,
      "These": 4345,
      "Ġstands": 4346,
      "Ġride": 4347,
      "48": 4348,
      "Ġgloom": 4349,
      "Ġsubst": 4350,
      "ground": 4351,
      "ule": 4352,
      "Ġstars": 4353,
      "Ġpowerful": 4354,
      "Ġdrawing": 4355,
      "ĠHoly": 4356,
      "Ġyours": 4357,
      "EM": 4358,
      "Ġwed": 4359,
      "inging": 4360,
      "Ġere": 4361,
      "urb": 4362,
      "Ġdelivered": 4363,
      "gen": 4364,
      "\"'": 4365,
      "ols": 4366,
      "ĠFair": 4367,
      "urse": 4368,
      "using": 4369,
      "ĠCr": 4370,
      "three": 4371,
      "Ġworked": 4372,
      "onel": 4373,
      "Ġcarefully": 4374,
      "lin": 4375,
      "ĠRuss": 4376,
      "Ġsmoke": 4377,
      "Ġhearing": 4378,
      "wind": 4379,
      "Ġobey": 4380,
      "ĠCo": 4381,
      "Ġmatters": 4382,
      "Ġgrown": 4383,
      "urally": 4384,
      "ĠMa": 4385,
      "Ġsupport": 4386,
      "RON": 4387,
      "dec": 4388,
      "board": 4389,
      "CE": 4390,
      "Ġmethod": 4391,
      "Ġordinary": 4392,
      "heart": 4393,
      "orough": 4394,
      "many": 4395,
      "nothing": 4396,
      "lection": 4397,
      "Ġnose": 4398,
      "urely": 4399,
      "ĠBlack": 4400,
      "Good": 4401,
      "ams": 4402,
      "ĠStreet": 4403,
      "UM": 4404,
      "Ġsuffered": 4405,
      "Ġremains": 4406,
      "Ġwrit": 4407,
      "Ġprayer": 4408,
      "........": 4409,
      "Ġteeth": 4410,
      "Ġtruly": 4411,
      "Ġintellig": 4412,
      "seen": 4413,
      "ode": 4414,
      "Ġflower": 4415,
      "Ġaut": 4416,
      "aming": 4417,
      "Ġunknown": 4418,
      "serv": 4419,
      "itc": 4420,
      "Ġsquare": 4421,
      "Ġinhabitants": 4422,
      "Ġlack": 4423,
      "things": 4424,
      "Ġwore": 4425,
      "Ġcontrary": 4426,
      "Ġshield": 4427,
      "Ġremembered": 4428,
      "mas": 4429,
      "cles": 4430,
      "Ġwhisp": 4431,
      "Ex": 4432,
      "omas": 4433,
      "Ġremoved": 4434,
      "INE": 4435,
      "vert": 4436,
      "SIL": 4437,
      "enes": 4438,
      "Ġcup": 4439,
      "ĠWar": 4440,
      "unn": 4441,
      "Ġthrow": 4442,
      "ĠSol": 4443,
      "ĠThy": 4444,
      "Ġinstr": 4445,
      "Ġaltar": 4446,
      "Ġenv": 4447,
      "Ġslave": 4448,
      "Ġbill": 4449,
      "umph": 4450,
      "Ġsurprised": 4451,
      "Ġpocket": 4452,
      "Ġpossessed": 4453,
      "pret": 4454,
      "ctor": 4455,
      "Ġeduc": 4456,
      "Ġmurm": 4457,
      "Ġsaf": 4458,
      "oles": 4459,
      "aker": 4460,
      "oseph": 4461,
      "Ġtwice": 4462,
      ".=": 4463,
      "49": 4464,
      "Ġdiscover": 4465,
      "Ġreven": 4466,
      "Ġasleep": 4467,
      "Ġsettled": 4468,
      "Ġeternal": 4469,
      "Ġglance": 4470,
      "ational": 4471,
      "Ġthroughout": 4472,
      "bro": 4473,
      "ez": 4474,
      "Ġnice": 4475,
      "ĠMat": 4476,
      "ĠJust": 4477,
      "Ġrepro": 4478,
      "Ġbuy": 4479,
      "Ġgentlemen": 4480,
      "Ġdign": 4481,
      "ĠXX": 4482,
      "Ġrend": 4483,
      "olf": 4484,
      "Ġterms": 4485,
      "Ġinher": 4486,
      "tte": 4487,
      "ĠAh": 4488,
      "Ġthence": 4489,
      "Ġfellows": 4490,
      "Ġentertain": 4491,
      "Ġpictures": 4492,
      "Ġwilt": 4493,
      "ĠAlex": 4494,
      ".\"[": 4495,
      "dif": 4496,
      "Ġtum": 4497,
      "023": 4498,
      "Ġhighest": 4499,
      "verse": 4500,
      "Ġshows": 4501,
      "suff": 4502,
      "aches": 4503,
      "uscript": 4504,
      "elia": 4505,
      "Ġearli": 4506,
      "duced": 4507,
      "Ġpoints": 4508,
      "vis": 4509,
      "Ġendeav": 4510,
      "Ġstyle": 4511,
      "Ġfully": 4512,
      "arewell": 4513,
      "65": 4514,
      "usted": 4515,
      "Ġdisci": 4516,
      "exp": 4517,
      "Ġevidence": 4518,
      "Ġdriven": 4519,
      "72": 4520,
      "eral": 4521,
      "Ġluck": 4522,
      "Ġprepar": 4523,
      "Ġinsect": 4524,
      "ĠAre": 4525,
      "Ġaltogether": 4526,
      "Ġbrief": 4527,
      "ushing": 4528,
      "Ġshare": 4529,
      "Ġpresented": 4530,
      "Ġbrothers": 4531,
      "ĠSu": 4532,
      "Ġwilling": 4533,
      "ĠHave": 4534,
      "empl": 4535,
      "Ġkeeping": 4536,
      "ESS": 4537,
      "Don": 4538,
      "ahu": 4539,
      "Ġbreakfast": 4540,
      "ikov": 4541,
      "Ġstation": 4542,
      "Ġcapital": 4543,
      "Ġfields": 4544,
      "Ġbeasts": 4545,
      "ĠOlaf": 4546,
      "Ġfeelings": 4547,
      "Ġcolour": 4548,
      "follow": 4549,
      "Ã¶": 4550,
      "enger": 4551,
      "ends": 4552,
      "Ġbranches": 4553,
      "Ġevent": 4554,
      "ivity": 4555,
      "Ġdouble": 4556,
      "Ġmanif": 4557,
      "Ġdressed": 4558,
      "Ġdaughters": 4559,
      "oming": 4560,
      "ĠThan": 4561,
      "amps": 4562,
      "ĠPet": 4563,
      "keep": 4564,
      "Ġmeas": 4565,
      "Ġbosom": 4566,
      "orne": 4567,
      "Ġghost": 4568,
      "rig": 4569,
      "ba": 4570,
      "Ġisn": 4571,
      "LA": 4572,
      "Ġtrade": 4573,
      "Ġescaped": 4574,
      "sub": 4575,
      "Ġweather": 4576,
      "Ġoccupied": 4577,
      "Ġburnt": 4578,
      "ĠNever": 4579,
      "Ġsigns": 4580,
      "ĠSabbath": 4581,
      "Ġdiscuss": 4582,
      "omin": 4583,
      "gon": 4584,
      "Ġmal": 4585,
      "mense": 4586,
      "Ġestablish": 4587,
      "Ġanxious": 4588,
      "Ġmoving": 4589,
      "olt": 4590,
      "Ġimper": 4591,
      "Ġfil": 4592,
      "ads": 4593,
      "Ġchosen": 4594,
      "life": 4595,
      "mark": 4596,
      "ĠMarius": 4597,
      "ole": 4598,
      "ĠAy": 4599,
      "Ġlovely": 4600,
      "supp": 4601,
      "Ġintended": 4602,
      "Ġsoldier": 4603,
      "wing": 4604,
      "Ġfarther": 4605,
      "enced": 4606,
      "acles": 4607,
      "ĠJane": 4608,
      "Ġfaithful": 4609,
      "eas": 4610,
      "mission": 4611,
      "Ã¦": 4612,
      "aval": 4613,
      "Ġtribes": 4614,
      "Ġserved": 4615,
      "Ġdrive": 4616,
      "Ġeffort": 4617,
      "Ġvictory": 4618,
      "aith": 4619,
      "Ġseason": 4620,
      "Ġcool": 4621,
      "Ġquestions": 4622,
      "rict": 4623,
      "roll": 4624,
      "Ġdaily": 4625,
      "pit": 4626,
      "Ġtale": 4627,
      "hether": 4628,
      "Ġbegun": 4629,
      "ĠHigh": 4630,
      "Ġawful": 4631,
      "icted": 4632,
      "ĠCap": 4633,
      "woman": 4634,
      "Ġprec": 4635,
      "Ġinside": 4636,
      "ault": 4637,
      "nes": 4638,
      "Ġlion": 4639,
      "ĠShall": 4640,
      "Ġfinding": 4641,
      "Ġskin": 4642,
      "happy": 4643,
      "ĠBabylon": 4644,
      "imon": 4645,
      "Ġwhis": 4646,
      "ĠAp": 4647,
      "Ġnoticed": 4648,
      "ĠMic": 4649,
      "Ġfalling": 4650,
      "Ġsprang": 4651,
      "udden": 4652,
      "Ġsteam": 4653,
      "Ġcompanion": 4654,
      "ĠLou": 4655,
      "Ġvo": 4656,
      "chaikov": 4657,
      "another": 4658,
      "ĠBen": 4659,
      "Ġproceeded": 4660,
      "Ġweeks": 4661,
      "ĠHouse": 4662,
      "Ġexplained": 4663,
      "Ġwound": 4664,
      "Ġamb": 4665,
      "Ġminister": 4666,
      "chaikovsky": 4667,
      "Ġtal": 4668,
      "Ġpointed": 4669,
      "Ġhappen": 4670,
      "66": 4671,
      "Ġremarkable": 4672,
      "Ġknees": 4673,
      "ooth": 4674,
      "Ġrev": 4675,
      "Ġjoin": 4676,
      "Ġjoined": 4677,
      "Ġconditions": 4678,
      "Ġhaste": 4679,
      "Ġpounds": 4680,
      "Ġdozen": 4681,
      "aud": 4682,
      "----------------": 4683,
      "iance": 4684,
      "Ġpor": 4685,
      "Ġhes": 4686,
      "Ġappointed": 4687,
      "Ġburning": 4688,
      "ĠSte": 4689,
      "unning": 4690,
      "Ġamid": 4691,
      "ĠSund": 4692,
      "Ġbridge": 4693,
      "Ġadop": 4694,
      "themselves": 4695,
      "Ġorders": 4696,
      "Ġcreatures": 4697,
      "Ġmarked": 4698,
      "ĠThough": 4699,
      "Ġserious": 4700,
      "ability": 4701,
      "ĠDid": 4702,
      "ĠUpon": 4703,
      "Ġmultitude": 4704,
      "Ġbal": 4705,
      "Ġdiss": 4706,
      "Ġceased": 4707,
      "lie": 4708,
      "iforn": 4709,
      "Ġprecious": 4710,
      "Ġnumerous": 4711,
      "asant": 4712,
      "Ġteach": 4713,
      "Ġexplain": 4714,
      "Ġsituation": 4715,
      "Cha": 4716,
      "Ġinvent": 4717,
      "ĠIndians": 4718,
      "Ġmovement": 4719,
      "itchen": 4720,
      "vest": 4721,
      "Ġevidently": 4722,
      "la": 4723,
      "Ġtrad": 4724,
      "Ġprim": 4725,
      "Ġevents": 4726,
      "Ġfrequently": 4727,
      "Ġflat": 4728,
      "Ġanti": 4729,
      "Br": 4730,
      "Mrs": 4731,
      "ICE": 4732,
      "Ġsigh": 4733,
      "elling": 4734,
      "Ġlarger": 4735,
      "Ġsucceeded": 4736,
      "OS": 4737,
      "called": 4738,
      "Ġwounded": 4739,
      "Ġbase": 4740,
      "ishes": 4741,
      "Ġlabor": 4742,
      "Ġwasn": 4743,
      "Ġgray": 4744,
      "Ġadvanced": 4745,
      "Ġleading": 4746,
      "Ġerr": 4747,
      "ĠAss": 4748,
      "ĠDes": 4749,
      "hib": 4750,
      "ferent": 4751,
      "orous": 4752,
      "mind": 4753,
      "gels": 4754,
      "Ġrank": 4755,
      "Ġdivided": 4756,
      "Ġsatisfied": 4757,
      "08": 4758,
      "ĠFOR": 4759,
      "ĠOR": 4760,
      "Ġmistress": 4761,
      "Ġmurder": 4762,
      "Ġsour": 4763,
      "terday": 4764,
      "Ġcott": 4765,
      "Ġsuspic": 4766,
      "Ġhorn": 4767,
      "ILL": 4768,
      "ĠSat": 4769,
      "key": 4770,
      "Ġamaz": 4771,
      "Ġfarm": 4772,
      "024": 4773,
      "Ġofficers": 4774,
      "pent": 4775,
      "ĠMal": 4776,
      "ĠTO": 4777,
      "ĠWel": 4778,
      "Ġwhence": 4779,
      "ĠBrown": 4780,
      "ĠBefore": 4781,
      "Ġdirectly": 4782,
      "ealous": 4783,
      "lly": 4784,
      "ordinary": 4785,
      "Ġregular": 4786,
      "pres": 4787,
      "astic": 4788,
      "Ġrage": 4789,
      "iquity": 4790,
      "uary": 4791,
      "Ġoccurred": 4792,
      "Ġsafety": 4793,
      "enge": 4794,
      "far": 4795,
      "Ġconfidence": 4796,
      "Ġreward": 4797,
      "Ġrub": 4798,
      "Ġdespair": 4799,
      "Ġ...": 4800,
      "Ġgrowing": 4801,
      "Ġchap": 4802,
      "Ġhandsome": 4803,
      "ĠCaliforn": 4804,
      "same": 4805,
      "Ġnearer": 4806,
      "Ġtempt": 4807,
      "Ġgates": 4808,
      "Ġexped": 4809,
      "Ġprovided": 4810,
      "Ġfoolish": 4811,
      "Ġcelebr": 4812,
      "Ġtitle": 4813,
      "power": 4814,
      "Ġtheory": 4815,
      "Ġcondem": 4816,
      "Ġta": 4817,
      "ĠMer": 4818,
      "Ġoath": 4819,
      "add": 4820,
      "Ġspear": 4821,
      "hire": 4822,
      "Ġproport": 4823,
      "Ġresolved": 4824,
      "fle": 4825,
      "went": 4826,
      "ula": 4827,
      "Ġotherwise": 4828,
      "Ġsmiled": 4829,
      "Your": 4830,
      "Ġsore": 4831,
      "Ġprisoner": 4832,
      "Ġrapidly": 4833,
      "Ġox": 4834,
      "ĠHal": 4835,
      "Ġmyster": 4836,
      "ai": 4837,
      "ĊĠĠĠĠĠĠĠĠĠĠĠĠĠĠĠĠĠĠĠĠĠĠĠĠ": 4838,
      "Ġreport": 4839,
      "Ġwrath": 4840,
      "still": 4841,
      "Ġnecessity": 4842,
      "Ġcabin": 4843,
      "course": 4844,
      "iana": 4845,
      "ĠJoseph": 4846,
      "Ġprefer": 4847,
      "Ġcentre": 4848,
      "Ġwhispered": 4849,
      "remon": 4850,
      "Ġhollow": 4851,
      "utation": 4852,
      "uries": 4853,
      "Ġsupper": 4854,
      "stone": 4855,
      "rol": 4856,
      "Ġsevere": 4857,
      "ĠEarl": 4858,
      "overnment": 4859,
      "ĠTake": 4860,
      "Ġaddress": 4861,
      "Ġobliged": 4862,
      "Ġcult": 4863,
      "Ġangel": 4864,
      "ĠJacob": 4865,
      "FF": 4866,
      "Ġmerry": 4867,
      "ĠLy": 4868,
      "Ġwindows": 4869,
      "country": 4870,
      "ĠCharles": 4871,
      "cean": 4872,
      "Ġlevel": 4873,
      "Ġ35": 4874,
      "Ġneeds": 4875,
      "IX": 4876,
      "inent": 4877,
      "ician": 4878,
      "Ġthither": 4879,
      "ĠCent": 4880,
      "seless": 4881,
      "Ġdescribed": 4882,
      "Ġsplendid": 4883,
      "cur": 4884,
      "flict": 4885,
      "Ġrate": 4886,
      "ids": 4887,
      "ĠSw": 4888,
      "Ġdestroyed": 4889,
      "izing": 4890,
      "rupted": 4891,
      "respond": 4892,
      "onsieur": 4893,
      "Ġcarriage": 4894,
      "Ġchoose": 4895,
      "Ġgroup": 4896,
      "bing": 4897,
      "fit": 4898,
      "ĠFig": 4899,
      "Ġloose": 4900,
      "Some": 4901,
      "got": 4902,
      "lot": 4903,
      "Ġhell": 4904,
      "Ġfigures": 4905,
      "ris": 4906,
      "Ġagreed": 4907,
      "Ġfemale": 4908,
      "igned": 4909,
      "Ġcrossed": 4910,
      "Ġunivers": 4911,
      "Ġcrit": 4912,
      "Ġsanct": 4913,
      "iel": 4914,
      "ese": 4915,
      "Ġ[_": 4916,
      "ĠRomans": 4917,
      "91": 4918,
      "Ġdi": 4919,
      "Ġpos": 4920,
      "ala": 4921,
      "ĠPRO": 4922,
      "asped": 4923,
      "raham": 4924,
      "Ġworst": 4925,
      "Ġdrop": 4926,
      "Ġheap": 4927,
      "Ġabroad": 4928,
      "Ġfacts": 4929,
      "Ġwatching": 4930,
      "Ġbas": 4931,
      "Ġfulf": 4932,
      "Ġdull": 4933,
      "Ġideas": 4934,
      "ĊĠĠĠĠĠĠĠĠĠĠĠ": 4935,
      "Ġminds": 4936,
      "ĠSm": 4937,
      "oking": 4938,
      "ĠâĢĶ": 4939,
      "Ġcreated": 4940,
      "Ġarrange": 4941,
      "ĠCraw": 4942,
      "conf": 4943,
      "Ġtu": 4944,
      "unch": 4945,
      "ĠRed": 4946,
      "Ġthanks": 4947,
      "Ġrefused": 4948,
      "Ġbearing": 4949,
      "Ġdrove": 4950,
      "Ġpunishment": 4951,
      "Ġfreedom": 4952,
      "ilty": 4953,
      "Ġreading": 4954,
      "Ġlistened": 4955,
      "een": 4956,
      "owned": 4957,
      "izab": 4958,
      "bell": 4959,
      "Ġtail": 4960,
      "Ġdying": 4961,
      "Ġnaked": 4962,
      "Ġdeparted": 4963,
      "Ã¶l": 4964,
      "bus": 4965,
      "ĠSaint": 4966,
      "ĠLike": 4967,
      "Ġchoice": 4968,
      "Ġwilderness": 4969,
      "Ġcompanions": 4970,
      "Nor": 4971,
      "ĠSig": 4972,
      "Ġthrust": 4973,
      "aws": 4974,
      "Ġraise": 4975,
      "ĊĠĠĠĠĠĠĠ": 4976,
      "Ġfifteen": 4977,
      "nal": 4978,
      "Ġcalling": 4979,
      "Ġtent": 4980,
      "Ġtask": 4981,
      "agon": 4982,
      "sell": 4983,
      "col": 4984,
      "ĠIm": 4985,
      "Ġweary": 4986,
      "Ġwheel": 4987,
      "going": 4988,
      "ere": 4989,
      "Ġvers": 4990,
      "Ġgri": 4991,
      "Ġquietly": 4992,
      "MA": 4993,
      "uten": 4994,
      "Ġadvice": 4995,
      "Ġacquaint": 4996,
      "aved": 4997,
      "bted": 4998,
      "Ġtim": 4999,
      "Ġlisten": 5000,
      "panied": 5001,
      "nora": 5002,
      "ĠBritish": 5003,
      "eunt": 5004,
      "Ġsen": 5005,
      "Ġbag": 5006,
      "Ġbeheld": 5007,
      "ĠPerc": 5008,
      "Zo": 5009,
      "Ġmile": 5010,
      "Ġdogs": 5011,
      "Ġincrease": 5012,
      "Ġimagine": 5013,
      "Ġpage": 5014,
      "acity": 5015,
      "equ": 5016,
      "udes": 5017,
      "ĠPrincess": 5018,
      "ĠJos": 5019,
      "phe": 5020,
      "Ġended": 5021,
      "Ġsuppl": 5022,
      "Ġhopes": 5023,
      "ege": 5024,
      "udd": 5025,
      "rant": 5026,
      "ousin": 5027,
      "Ġimage": 5028,
      "Ġestablished": 5029,
      "Ġbones": 5030,
      "Ġflo": 5031,
      "Ġimportance": 5032,
      "Ġconnected": 5033,
      "Ġpardon": 5034,
      "ĠAlice": 5035,
      "Ġpick": 5036,
      "hon": 5037,
      "ĠSoci": 5038,
      "ugust": 5039,
      "Ġregarded": 5040,
      "Ġflew": 5041,
      "IP": 5042,
      "rection": 5043,
      "esides": 5044,
      "ĠAthen": 5045,
      "ountain": 5046,
      "Ġscorn": 5047,
      "Ġcro": 5048,
      "tle": 5049,
      "icious": 5050,
      "Ġslept": 5051,
      "ZoÃ¶l": 5052,
      "Ġfollows": 5053,
      "Ġrefer": 5054,
      "Ġparticularly": 5055,
      "Ġdisg": 5056,
      "burg": 5057,
      "Ġyards": 5058,
      "ĠJurg": 5059,
      "ĠThomas": 5060,
      "Ġcompass": 5061,
      "ĠTwo": 5062,
      "Ġimmense": 5063,
      "Ġfinger": 5064,
      "Ġbrill": 5065,
      "Ġknife": 5066,
      "Ġfeathers": 5067,
      "ichard": 5068,
      "ensive": 5069,
      "Ġputting": 5070,
      "asing": 5071,
      "Ġgay": 5072,
      "ĠMother": 5073,
      "ĠDor": 5074,
      "Ġ47": 5075,
      "ungle": 5076,
      "ares": 5077,
      "ĠWould": 5078,
      "ĠAngel": 5079,
      "hamed": 5080,
      "Ġskill": 5081,
      "ses": 5082,
      "Ġliked": 5083,
      "uding": 5084,
      "Ġguide": 5085,
      "Ġequally": 5086,
      "yer": 5087,
      "acon": 5088,
      "025": 5089,
      "Ġhurried": 5090,
      "Ġpractice": 5091,
      "ĊĊĊĠ": 5092,
      "Pr": 5093,
      "Ġcompar": 5094,
      "De": 5095,
      "boy": 5096,
      "Ġcountenance": 5097,
      "Ġprincipal": 5098,
      "Eng": 5099,
      "VI": 5100,
      "Ġpu": 5101,
      "UE": 5102,
      "interest": 5103,
      "Ġlake": 5104,
      "adv": 5105,
      "Ġstick": 5106,
      "Ġaware": 5107,
      "Ġspiritual": 5108,
      "utions": 5109,
      "Ġthorough": 5110,
      "ĠSil": 5111,
      "Ġkindness": 5112,
      "Ġclouds": 5113,
      "Ġforces": 5114,
      "ĠRev": 5115,
      "Ġcarrying": 5116,
      "yard": 5117,
      "Ġmat": 5118,
      "ĠNature": 5119,
      "Ġincreased": 5120,
      "something": 5121,
      "AY": 5122,
      "Sir": 5123,
      "Un": 5124,
      "Ġadvance": 5125,
      "greg": 5126,
      "ĠDen": 5127,
      "Ġdispl": 5128,
      "Ġparents": 5129,
      "eff": 5130,
      "requ": 5131,
      "atus": 5132,
      "athy": 5133,
      "64": 5134,
      "Ġack": 5135,
      "Ġpin": 5136,
      "Ġdollars": 5137,
      "Ġdiam": 5138,
      "Ġextent": 5139,
      "Ġprinces": 5140,
      "Will": 5141,
      "ĠWor": 5142,
      "Ġdestruction": 5143,
      "Ġsins": 5144,
      "Ġafford": 5145,
      "necess": 5146,
      "Ġing": 5147,
      "retch": 5148,
      "ourable": 5149,
      "Ġvoices": 5150,
      "jean": 5151,
      "ĠMany": 5152,
      "Ġnobody": 5153,
      "Ġfortun": 5154,
      "urity": 5155,
      "Ġarmed": 5156,
      "ĠPom": 5157,
      "Ġwholly": 5158,
      "ĠFirst": 5159,
      "Ġremarked": 5160,
      "ĠMadame": 5161,
      "Ġmale": 5162,
      "estic": 5163,
      "teenth": 5164,
      "ĠSpan": 5165,
      "Ġclosely": 5166,
      "ĠSunday": 5167,
      "Ġstead": 5168,
      "Ġnumbers": 5169,
      "ĠProfessor": 5170,
      "UL": 5171,
      "Ġbrain": 5172,
      "Ġprice": 5173,
      "Ġtelling": 5174,
      "Ġpainted": 5175,
      "Ġsettle": 5176,
      "Ġape": 5177,
      "Ġgift": 5178,
      "ĠHol": 5179,
      "Ġentrance": 5180,
      "arn": 5181,
      "ulate": 5182,
      "Ġdangerous": 5183,
      "bur": 5184,
      "ental": 5185,
      "Ġshop": 5186,
      "ĠGil": 5187,
      "Ġ38": 5188,
      "ĠJews": 5189,
      "emon": 5190,
      "Ġmanuscript": 5191,
      "oms": 5192,
      "ĠIII": 5193,
      "Ġassem": 5194,
      "Ġorn": 5195,
      "Ġquant": 5196,
      "Ġbetr": 5197,
      "Ġacknow": 5198,
      "oser": 5199,
      "Ġjump": 5200,
      "Ġworn": 5201,
      "Ġbusy": 5202,
      "iation": 5203,
      "Ġgle": 5204,
      "Ġ39": 5205,
      "Ġretreat": 5206,
      "Ġheavens": 5207,
      "Ġmachine": 5208,
      "atory": 5209,
      "eps": 5210,
      "Ġinsp": 5211,
      "Ġemployed": 5212,
      "Ġterm": 5213,
      "Ġmilk": 5214,
      "Per": 5215,
      "026": 5216,
      "say": 5217,
      "Ġthunder": 5218,
      "Ġ37": 5219,
      "Ġoil": 5220,
      "Ġpred": 5221,
      "Ġ57": 5222,
      "poss": 5223,
      "Ġfeed": 5224,
      "Ġfold": 5225,
      "Ġmortal": 5226,
      "Ġassu": 5227,
      "Ġascend": 5228,
      "umes": 5229,
      "isting": 5230,
      "Ġvolume": 5231,
      ");": 5232,
      "Ġease": 5233,
      "rier": 5234,
      "Ġofficer": 5235,
      "IAN": 5236,
      "Ġsooner": 5237,
      "Christ": 5238,
      "izabeth": 5239,
      "inci": 5240,
      "Ġric": 5241,
      "Ġjealous": 5242,
      "ĠRep": 5243,
      "Ġcorrect": 5244,
      "Ġsuperior": 5245,
      "Ġsuggested": 5246,
      "Ġhidden": 5247,
      "Ġpulled": 5248,
      "Ġkitchen": 5249,
      "Ġshel": 5250,
      "pany": 5251,
      "Ġben": 5252,
      "too": 5253,
      "Ġrelations": 5254,
      "Ġrepresented": 5255,
      "bon": 5256,
      "lands": 5257,
      "Ġmarch": 5258,
      "Ġdate": 5259,
      "ĠIr": 5260,
      "Ġaband": 5261,
      "Ġabsence": 5262,
      "Ġsubjects": 5263,
      "Cl": 5264,
      "give": 5265,
      "Ġcave": 5266,
      "Ġconscience": 5267,
      "See": 5268,
      "ounding": 5269,
      "world": 5270,
      "welt": 5271,
      "Ġillust": 5272,
      "make": 5273,
      "isher": 5274,
      "ĠMarilla": 5275,
      "ĠLook": 5276,
      "hend": 5277,
      "uddenly": 5278,
      ".;": 5279,
      "inced": 5280,
      "armed": 5281,
      "ĠBY": 5282,
      "Ġfeared": 5283,
      "Ġpreced": 5284,
      "Ġvision": 5285,
      "Ġsinging": 5286,
      "Ġdesper": 5287,
      "Ġcouple": 5288,
      "Ġcattle": 5289,
      "Ġ24": 5290,
      "inese": 5291,
      "Ġhoped": 5292,
      "Ġdawn": 5293,
      "Jo": 5294,
      "sing": 5295,
      "Ġages": 5296,
      "Ġapparently": 5297,
      "Ġlust": 5298,
      "thy": 5299,
      "Ġexcl": 5300,
      "Con": 5301,
      "Ġfac": 5302,
      "Ġdance": 5303,
      "ĠIS": 5304,
      "ĠSer": 5305,
      "cond": 5306,
      "Ġdish": 5307,
      "Ġuns": 5308,
      "==": 5309,
      "Ġbranch": 5310,
      "ĠSaxon": 5311,
      "fr": 5312,
      "ĠST": 5313,
      "Ġvig": 5314,
      "ĠJames": 5315,
      "Ġnaturally": 5316,
      "Ġruin": 5317,
      "',": 5318,
      "ĠLuc": 5319,
      "orthern": 5320,
      "Ġaddition": 5321,
      "Ġneeded": 5322,
      "Ġ21": 5323,
      "Ġrepent": 5324,
      "Ġhighly": 5325,
      "Ġtrack": 5326,
      "Ġexpressed": 5327,
      "Ġsuffering": 5328,
      "Ġlabour": 5329,
      "Ġwaste": 5330,
      "ĠFred": 5331,
      "Ġshade": 5332,
      "Ġrelief": 5333,
      "chant": 5334,
      "uel": 5335,
      "Ġcf": 5336,
      "ĠTchaikovsky": 5337,
      "pey": 5338,
      "Ġwrought": 5339,
      "Ġmiserable": 5340,
      "Ġfighting": 5341,
      "Ġsolid": 5342,
      "60": 5343,
      "aron": 5344,
      "Ġ48": 5345,
      "dra": 5346,
      "heard": 5347,
      "Ġbath": 5348,
      "Ġwhilst": 5349,
      "Ġseated": 5350,
      "Ġrushed": 5351,
      "Ġ187": 5352,
      "ĠHowever": 5353,
      "Ġinquired": 5354,
      "Ġpurcha": 5355,
      "Ġindust": 5356,
      "Ġformerly": 5357,
      "Ġdreadful": 5358,
      "gments": 5359,
      "van": 5360,
      "Ġsang": 5361,
      "hab": 5362,
      "ashing": 5363,
      "Ġwretched": 5364,
      "Ġborne": 5365,
      "Ġgun": 5366,
      "Ġ-": 5367,
      "eling": 5368,
      "erk": 5369,
      "Ġgained": 5370,
      "aling": 5371,
      "Ġlaughing": 5372,
      "Ġtur": 5373,
      "Ġwing": 5374,
      "Ġnod": 5375,
      "among": 5376,
      "Ġstretched": 5377,
      "Ġregion": 5378,
      "reckles": 5379,
      "Ġcitizens": 5380,
      "ĠAgain": 5381,
      "ĠOM": 5382,
      "ĠRog": 5383,
      "Ġends": 5384,
      "fam": 5385,
      "inking": 5386,
      "Ġinstruct": 5387,
      "Ġcircle": 5388,
      "Ġsalt": 5389,
      "Ġfriendly": 5390,
      "Thou": 5391,
      "Ġactually": 5392,
      "Ġmerchant": 5393,
      "estern": 5394,
      "foot": 5395,
      "Ġangels": 5396,
      "osette": 5397,
      "Ġkindly": 5398,
      "Did": 5399,
      "master": 5400,
      "inity": 5401,
      "atl": 5402,
      "ĠBel": 5403,
      "between": 5404,
      "iosity": 5405,
      "oring": 5406,
      "ancho": 5407,
      "ĠSar": 5408,
      "Ġsovere": 5409,
      "Ġinherit": 5410,
      "Ã¨": 5411,
      "Ġemer": 5412,
      "Ġbutter": 5413,
      "elle": 5414,
      "ĠAbraham": 5415,
      "Am": 5416,
      "ĠPat": 5417,
      "Ġevident": 5418,
      "Ġobjects": 5419,
      "Ġunderstanding": 5420,
      "Ġfailed": 5421,
      "Ġtowns": 5422,
      "Ġelectric": 5423,
      "inder": 5424,
      "Ġstrike": 5425,
      "Ġrocks": 5426,
      "Ġrighteousness": 5427,
      "Ġhole": 5428,
      "bury": 5429,
      "mosp": 5430,
      "berg": 5431,
      "Ġprey": 5432,
      "Ġcredit": 5433,
      "cast": 5434,
      "Ġbought": 5435,
      "Ġlamp": 5436,
      "Ġshr": 5437,
      "ustomed": 5438,
      "Ġprosper": 5439,
      "stairs": 5440,
      "Ġobtain": 5441,
      "Ġhorror": 5442,
      "Ġmagnific": 5443,
      "Ġdeed": 5444,
      "Ġbecomes": 5445,
      "rous": 5446,
      ";\"": 5447,
      "Ġax": 5448,
      "ĠSy": 5449,
      "Ġapproached": 5450,
      "ancholy": 5451,
      "UN": 5452,
      "Ġrender": 5453,
      "looked": 5454,
      "Ġmanners": 5455,
      "wild": 5456,
      "ential": 5457,
      "aylor": 5458,
      "andy": 5459,
      "ĠFort": 5460,
      "fulness": 5461,
      "Ġ22": 5462,
      "Ġvisible": 5463,
      "ĠValjean": 5464,
      "line": 5465,
      "zy": 5466,
      "itz": 5467,
      "Ġgently": 5468,
      "Ġintellect": 5469,
      "rain": 5470,
      "ago": 5471,
      "Ġobst": 5472,
      "Ġdemanded": 5473,
      "Ġquality": 5474,
      "ĠThose": 5475,
      "Ġtriumph": 5476,
      "ĠArt": 5477,
      "Ġimpl": 5478,
      "Ġregret": 5479,
      "Ġsacrific": 5480,
      "Ġprinciple": 5481,
      "Ġ{": 5482,
      "ifts": 5483,
      "Ġenorm": 5484,
      "Ġframe": 5485,
      "Ġsingular": 5486,
      "Ġproduce": 5487,
      "Ġflying": 5488,
      "icy": 5489,
      "Ġcomposed": 5490,
      "alities": 5491,
      "ĠMars": 5492,
      "Ġsupply": 5493,
      "overy": 5494,
      "itement": 5495,
      "Ġnin": 5496,
      "Ġbride": 5497,
      "Ġlikewise": 5498,
      "Ġclearly": 5499,
      "Ġcountries": 5500,
      "?--": 5501,
      "Have": 5502,
      "ĠGeneral": 5503,
      "Ġrequest": 5504,
      "rison": 5505,
      "Ġsocial": 5506,
      "Ġarranged": 5507,
      "opp": 5508,
      "Ġbade": 5509,
      "Ġpron": 5510,
      "Ġinterv": 5511,
      "stitution": 5512,
      "ĠMin": 5513,
      "ieved": 5514,
      "aret": 5515,
      "Ġmonarch": 5516,
      "ĠMarch": 5517,
      "olution": 5518,
      "Ġthyself": 5519,
      "Ġdwelt": 5520,
      "Ġep": 5521,
      "urrection": 5522,
      "Ġapproach": 5523,
      "Ġwarriors": 5524,
      "Ġthroat": 5525,
      "Ġashamed": 5526,
      "umm": 5527,
      "Ġscience": 5528,
      "ĠBer": 5529,
      "Ġobsc": 5530,
      "ospel": 5531,
      "Ġfamilies": 5532,
      "children": 5533,
      "tow": 5534,
      "ldom": 5535,
      "Ġfee": 5536,
      "Ġaccident": 5537,
      "ĠMe": 5538,
      "027": 5539,
      "Ġadmit": 5540,
      "oqu": 5541,
      "Ġpour": 5542,
      "Ġfriendship": 5543,
      "ns": 5544,
      "always": 5545,
      "rab": 5546,
      "Ġrad": 5547,
      "ĠAnn": 5548,
      "ĠOnly": 5549,
      "Ġgenius": 5550,
      "pur": 5551,
      "Ġeverybody": 5552,
      "Ġcrime": 5553,
      "Ġmoments": 5554,
      "Ġmisery": 5555,
      "Ġrequire": 5556,
      "natural": 5557,
      "olved": 5558,
      "Ġbeloved": 5559,
      "Ġkey": 5560,
      "Ġassured": 5561,
      "Ind": 5562,
      "Are": 5563,
      "Ġheav": 5564,
      "ĠCam": 5565,
      "Ġglorious": 5566,
      "ĠAunt": 5567,
      "Ġconsent": 5568,
      "Ġthousands": 5569,
      "ĠĠĠĠĠĠĠĠĠĠĠĠĠĠĠĠĠĠĠĠĠĠĠĠĠĠĠĠĠĠĠĠĠĠĠĠĠĠĠĠĠĠĠĠĠĠĠĠ": 5570,
      "Ab": 5571,
      "door": 5572,
      "ĠNay": 5573,
      "Ġhungry": 5574,
      "(_": 5575,
      "Ġtyr": 5576,
      "ĠArch": 5577,
      "Ġsubstance": 5578,
      "irty": 5579,
      "Ġ189": 5580,
      "Ġming": 5581,
      "Ġlone": 5582,
      "ĠMont": 5583,
      "Ġinformation": 5584,
      "Ġinstantly": 5585,
      "ĠHarry": 5586,
      "tra": 5587,
      "Ġsecure": 5588,
      "Ġarrival": 5589,
      "spr": 5590,
      "Ġfer": 5591,
      "oped": 5592,
      "SS": 5593,
      "ĠMen": 5594,
      "Ġchur": 5595,
      "Ġsmooth": 5596,
      "Pro": 5597,
      "isl": 5598,
      "Ġtells": 5599,
      "ĠScript": 5600,
      "Ġplate": 5601,
      "ĠRichard": 5602,
      "Ġkeen": 5603,
      "eyes": 5604,
      "engers": 5605,
      "Ġprincess": 5606,
      "bow": 5607,
      "name": 5608,
      "irect": 5609,
      "young": 5610,
      "dep": 5611,
      "ĠRue": 5612,
      "also": 5613,
      "ada": 5614,
      "expected": 5615,
      "Thus": 5616,
      "pons": 5617,
      "Ġnovel": 5618,
      "Ġflour": 5619,
      "ighed": 5620,
      "Ġexplan": 5621,
      "Ġdoctrine": 5622,
      "Ġdisappeared": 5623,
      "ĠSomet": 5624,
      "agn": 5625,
      "ĠGreek": 5626,
      "Ġclo": 5627,
      "inks": 5628,
      "Ġprophet": 5629,
      "ules": 5630,
      "Ġceremon": 5631,
      "Ġinnocent": 5632,
      "Ġtrial": 5633,
      "Ġwants": 5634,
      "Ġteacher": 5635,
      "Ġdeeds": 5636,
      "Ġplants": 5637,
      "Ġdistrict": 5638,
      "Ġlights": 5639,
      "Ġfairly": 5640,
      "Ġstruggle": 5641,
      "Ġproportion": 5642,
      "put": 5643,
      "taken": 5644,
      "ref": 5645,
      "Ġplenty": 5646,
      "Ġcrim": 5647,
      "Ġinches": 5648,
      "Ġsounds": 5649,
      "ĠExeunt": 5650,
      "Ġov": 5651,
      "Ġchest": 5652,
      "Ġtea": 5653,
      "Ġtower": 5654,
      "Ġslew": 5655,
      "Ġvisited": 5656,
      "ICH": 5657,
      "mod": 5658,
      "Ġahead": 5659,
      "inions": 5660,
      "atives": 5661,
      "Ġreasons": 5662,
      "58": 5663,
      "Can": 5664,
      "Go": 5665,
      "ata": 5666,
      "ands": 5667,
      "ENE": 5668,
      "ograph": 5669,
      "Gr": 5670,
      "Ġfed": 5671,
      "Ġprisoners": 5672,
      "Ġgradually": 5673,
      "LD": 5674,
      "Ġaccompanied": 5675,
      "Ġsurrounded": 5676,
      "years": 5677,
      "Ġshining": 5678,
      "unto": 5679,
      "Ġjungle": 5680,
      "contin": 5681,
      "Ġice": 5682,
      "Ġduke": 5683,
      "Ġforbid": 5684,
      "Ġrooms": 5685,
      "Ġcloth": 5686,
      "Ġswall": 5687,
      "case": 5688,
      "Ġma": 5689,
      "Ġpan": 5690,
      "Ġabund": 5691,
      "Ġpossibly": 5692,
      "cribed": 5693,
      "ounce": 5694,
      "ributed": 5695,
      "Ġutterly": 5696,
      "Ġeverywhere": 5697,
      "Ġinstit": 5698,
      "yet": 5699,
      "ĠTell": 5700,
      "itate": 5701,
      "Ġstuff": 5702,
      "Ġloving": 5703,
      "Ġflood": 5704,
      "Ġswear": 5705,
      "Ġkinds": 5706,
      "Ġstepped": 5707,
      "Ġcommitted": 5708,
      "Ġcorrespond": 5709,
      "Ġwives": 5710,
      "Ġnest": 5711,
      "Anne": 5712,
      "Ġconsequence": 5713,
      "Ġerect": 5714,
      "others": 5715,
      "Ġnational": 5716,
      "Ġjew": 5717,
      "disc": 5718,
      "ique": 5719,
      "present": 5720,
      "atched": 5721,
      "imony": 5722,
      "Ġbaby": 5723,
      "ĠBecause": 5724,
      "Ġdeeply": 5725,
      "enny": 5726,
      "LY": 5727,
      "Ġsisters": 5728,
      "Ġpartly": 5729,
      "Ġinstinct": 5730,
      "Ġeggs": 5731,
      "RY": 5732,
      "echan": 5733,
      "Ġfeatures": 5734,
      "Ġplaying": 5735,
      "Ġobserve": 5736,
      "Ġapplied": 5737,
      "LO": 5738,
      "emp": 5739,
      "forth": 5740,
      "Ġmagic": 5741,
      "ĠEdward": 5742,
      "Miss": 5743,
      "sal": 5744,
      "Ġimmort": 5745,
      "Ġaim": 5746,
      "peare": 5747,
      "Ġdig": 5748,
      "Ġaspect": 5749,
      "rived": 5750,
      "Ġstern": 5751,
      "NE": 5752,
      "Ġwaves": 5753,
      "having": 5754,
      "ĠTe": 5755,
      "Ġseries": 5756,
      "Ġadmitted": 5757,
      "Ġdreams": 5758,
      "ĠLouis": 5759,
      "Ġcongreg": 5760,
      "Ġcareful": 5761,
      "Ġyesterday": 5762,
      "ette": 5763,
      "Ġdelicate": 5764,
      "Ġinterested": 5765,
      "ointment": 5766,
      "arse": 5767,
      "ĠWil": 5768,
      "Ġspare": 5769,
      "Ġobed": 5770,
      "ĠWherefore": 5771,
      "Ġprospect": 5772,
      "ensity": 5773,
      "Ġhumble": 5774,
      "Ġfourth": 5775,
      "dess": 5776,
      "enc": 5777,
      "ĠSk": 5778,
      "Ġ23": 5779,
      ",[": 5780,
      "Ġfury": 5781,
      "ĠLove": 5782,
      "iven": 5783,
      "Ġimpression": 5784,
      "Ġendure": 5785,
      "PSIL": 5786,
      "anim": 5787,
      "Ġalarm": 5788,
      "aks": 5789,
      "PSILON": 5790,
      "omon": 5791,
      "ĠTw": 5792,
      "Ġindepend": 5793,
      "Ġshouted": 5794,
      "Enter": 5795,
      "Ġantiq": 5796,
      "Ġscream": 5797,
      "Ġmistake": 5798,
      "Ġacquaintance": 5799,
      "Ġcrying": 5800,
      "urning": 5801,
      "Ġrope": 5802,
      "ĠLaur": 5803,
      "Ġabsolutely": 5804,
      "fortunate": 5805,
      "aper": 5806,
      "ĠĠĠĠĠĠĠĠĠĠĠĠĠĠ": 5807,
      "Ġsoil": 5808,
      "Ġspark": 5809,
      "ĠCrawley": 5810,
      "bour": 5811,
      "Ġexcited": 5812,
      "OUR": 5813,
      "VII": 5814,
      "Ġrear": 5815,
      "ĠCast": 5816,
      "OND": 5817,
      "Ġaccepted": 5818,
      "Ġreckon": 5819,
      "King": 5820,
      "Ġbeard": 5821,
      "Ġcontinue": 5822,
      "ĠJurgis": 5823,
      "Ġrom": 5824,
      "Ġpup": 5825,
      "Ġhaven": 5826,
      "agger": 5827,
      "Ġwet": 5828,
      "ouch": 5829,
      "Ġdeck": 5830,
      "Ġmessage": 5831,
      "BER": 5832,
      "ban": 5833,
      "Ġbend": 5834,
      "Ġlighted": 5835,
      "Than": 5836,
      "Ġdil": 5837,
      "Ġblame": 5838,
      "oyal": 5839,
      "Ġignorant": 5840,
      "ĠWelsh": 5841,
      "Ġcher": 5842,
      "Ġpressed": 5843,
      "ĠColl": 5844,
      "ocr": 5845,
      "Ġmatch": 5846,
      "Ġcousin": 5847,
      "Ġexha": 5848,
      "Ġdepend": 5849,
      "reason": 5850,
      "oused": 5851,
      "Ġanybody": 5852,
      "Ġflame": 5853,
      "Ġreader": 5854,
      "hind": 5855,
      "ĠTaylor": 5856,
      "othy": 5857,
      "Ġcontempt": 5858,
      "Ġrelation": 5859,
      "Ġguilty": 5860,
      "While": 5861,
      "lan": 5862,
      "erve": 5863,
      "ĠMAR": 5864,
      "ĠCle": 5865,
      "Ġsex": 5866,
      "ĠPers": 5867,
      "Ġdise": 5868,
      "ĠElnora": 5869,
      "Ġvessels": 5870,
      "\"--": 5871,
      "Ġlit": 5872,
      "alls": 5873,
      "028": 5874,
      "Ġaudience": 5875,
      "low": 5876,
      "wers": 5877,
      "otted": 5878,
      "Ġassoci": 5879,
      "ĠBo": 5880,
      "Ġrude": 5881,
      "Ġliqu": 5882,
      "Ġscattered": 5883,
      "ĠHarald": 5884,
      "ĠScot": 5885,
      "Ġcaut": 5886,
      "stock": 5887,
      "ĠTur": 5888,
      "ĊĊĊĠĠĠ": 5889,
      "ĠWood": 5890,
      "Ġdesol": 5891,
      "ORK": 5892,
      "ĠChinese": 5893,
      "comfort": 5894,
      "Ġengage": 5895,
      "once": 5896,
      "Ġfame": 5897,
      "Ġhol": 5898,
      "Ġreturning": 5899,
      "Ġbringing": 5900,
      "Ġmarket": 5901,
      "Ġexperien": 5902,
      "Ġplainly": 5903,
      "Ġprotect": 5904,
      "Ġoft": 5905,
      "Ġdece": 5906,
      "cip": 5907,
      "Ġshowing": 5908,
      "Ġconstant": 5909,
      "lla": 5910,
      "icity": 5911,
      "Ġleaf": 5912,
      "Ġdefend": 5913,
      "Ġexercise": 5914,
      "Ġshadows": 5915,
      "Ġcompletely": 5916,
      "AG": 5917,
      "VIII": 5918,
      "Ġocean": 5919,
      "orse": 5920,
      "lder": 5921,
      "lying": 5922,
      "Ġlog": 5923,
      "Ġtreasure": 5924,
      "kespeare": 5925,
      "Ġwoe": 5926,
      "Ġhosp": 5927,
      "upid": 5928,
      "Ġpreserved": 5929,
      "Ġdistinguished": 5930,
      "ĠIV": 5931,
      "ĠOut": 5932,
      "Ġfrightened": 5933,
      "Ġident": 5934,
      "Ġlift": 5935,
      "ĠTill": 5936,
      "Ġentreat": 5937,
      "Ġdescended": 5938,
      "Mos": 5939,
      "Our": 5940,
      "sil": 5941,
      "sued": 5942,
      "Ġgrey": 5943,
      "apan": 5944,
      "Ġslaves": 5945,
      "Ġtransl": 5946,
      "Ġargument": 5947,
      "Ġdignity": 5948,
      "_)": 5949,
      "sk": 5950,
      "urbed": 5951,
      "oping": 5952,
      "Ġdesert": 5953,
      "ĠPri": 5954,
      "Ġfleet": 5955,
      "KING": 5956,
      "sign": 5957,
      "tri": 5958,
      "ĠSav": 5959,
      "ĠHu": 5960,
      "Ġunable": 5961,
      "Ġtrump": 5962,
      "Ġ30": 5963,
      "ĠStr": 5964,
      "Ġlords": 5965,
      "Ġz": 5966,
      "geon": 5967,
      "Ġrelated": 5968,
      "May": 5969,
      "Ġcard": 5970,
      "Ġcord": 5971,
      "illing": 5972,
      "Ġconvey": 5973,
      "Ġsetting": 5974,
      "inally": 5975,
      "edy": 5976,
      "Ġcontained": 5977,
      "outhern": 5978,
      "Ġunhappy": 5979,
      "ĠJan": 5980,
      "blem": 5981,
      "brought": 5982,
      "Ġimpat": 5983,
      "gener": 5984,
      "irable": 5985,
      "appear": 5986,
      "Ġstriking": 5987,
      "ĠPerhaps": 5988,
      "Ġsailed": 5989,
      "ĠOs": 5990,
      "Ġearl": 5991,
      "Ġcalls": 5992,
      "draw": 5993,
      "asions": 5994,
      "Ġdoom": 5995,
      "white": 5996,
      "Ġfinal": 5997,
      "ATH": 5998,
      "Ġhaunt": 5999,
      "Ġlover": 6000,
      "Ġgreet": 6001,
      "Ġmetal": 6002,
      "ĠPhilip": 6003,
      "isions": 6004,
      "atisf": 6005,
      "Ġ\"_": 6006,
      "venant": 6007,
      "soever": 6008,
      "Ġasser": 6009,
      "ĠHaving": 6010,
      "Ġperpet": 6011,
      "Ġpatience": 6012,
      "Ġdeny": 6013,
      "Ġelder": 6014,
      "Ġassistance": 6015,
      "Just": 6016,
      "Qu": 6017,
      "eenth": 6018,
      "Ġpurp": 6019,
      "Ġlament": 6020,
      "Ġresc": 6021,
      "Ġattached": 6022,
      "iable": 6023,
      "zin": 6024,
      "Ġcliff": 6025,
      "Ġgrim": 6026,
      "Ġperceived": 6027,
      "ĊĊĠĠĠĠĠĠ": 6028,
      "lessly": 6029,
      "Ġtroubled": 6030,
      "SE": 6031,
      "crow": 6032,
      "circ": 6033,
      "mo": 6034,
      "acqu": 6035,
      "ills": 6036,
      "Ġvine": 6037,
      "Ġworshi": 6038,
      "Ġpapers": 6039,
      "uts": 6040,
      "pless": 6041,
      "mosphere": 6042,
      "ĠRob": 6043,
      "ccording": 6044,
      "Ġwherein": 6045,
      "Ġcuriosity": 6046,
      "Ġdelay": 6047,
      "Ġlearning": 6048,
      "becca": 6049,
      "tree": 6050,
      "Ġtab": 6051,
      "Ġpil": 6052,
      "ailing": 6053,
      "Ġyounger": 6054,
      "Ġvariety": 6055,
      "UKE": 6056,
      "ĠThea": 6057,
      "ĊĊĠĠĠĠĠ": 6058,
      "Ġsalvation": 6059,
      "passed": 6060,
      "ĠLittle": 6061,
      "Ġrust": 6062,
      "umpt": 6063,
      "Ġintention": 6064,
      "Ġindign": 6065,
      "Ġavoid": 6066,
      "Ġmelancholy": 6067,
      "Ġdared": 6068,
      "thur": 6069,
      "Ġgrate": 6070,
      "ĠSaul": 6071,
      "Ġpoison": 6072,
      "Ġproposed": 6073,
      "Ġmidnight": 6074,
      "va": 6075,
      "ums": 6076,
      "ville": 6077,
      "Ġstates": 6078,
      "top": 6079,
      "Ġwondered": 6080,
      "Ġuseful": 6081,
      "ĠEast": 6082,
      "Ġgoods": 6083,
      "Ġcalc": 6084,
      "Ġmanifest": 6085,
      "Le": 6086,
      "ifying": 6087,
      "Ġstrict": 6088,
      "Ġtreated": 6089,
      "Ġinstrument": 6090,
      "ĠMus": 6091,
      "Ġcauses": 6092,
      "ĠCorn": 6093,
      "Ġshed": 6094,
      "Ġsteel": 6095,
      "Ġhelped": 6096,
      "Ġmounted": 6097,
      "Ġduties": 6098,
      "ores": 6099,
      "Ġforever": 6100,
      "Ġpaused": 6101,
      "TE": 6102,
      "maid": 6103,
      "erved": 6104,
      "Ġouter": 6105,
      "common": 6106,
      "Ġexchan": 6107,
      "Ġinfinite": 6108,
      "ĠElizabeth": 6109,
      "Ġmilitary": 6110,
      "Ġpublished": 6111,
      "Ġenormous": 6112,
      "dr": 6113,
      "point": 6114,
      "vi": 6115,
      "Ġtight": 6116,
      "ĠEmperor": 6117,
      "ena": 6118,
      "Ġbon": 6119,
      "Ġburned": 6120,
      "ĠPresident": 6121,
      "Ġextraordinary": 6122,
      "ĠAssyri": 6123,
      "hundred": 6124,
      "ĠGive": 6125,
      "inding": 6126,
      "Ġyourselves": 6127,
      "Ġseparate": 6128,
      "Ġpursued": 6129,
      "osal": 6130,
      "Ġimagination": 6131,
      "Ġmaiden": 6132,
      "Ġodd": 6133,
      "ĠCather": 6134,
      "quar": 6135,
      "Ġjest": 6136,
      "Ġcompelled": 6137,
      "Ġmission": 6138,
      "Ġstories": 6139,
      "Ġcrack": 6140,
      "Ġcheeks": 6141,
      "Ġburden": 6142,
      "Ġprofound": 6143,
      "Ġcart": 6144,
      "Ġgiant": 6145,
      "ĠSince": 6146,
      "Ġsees": 6147,
      "Ġfever": 6148,
      "Ġenthus": 6149,
      "withstanding": 6150,
      "Ġcurse": 6151,
      "fric": 6152,
      "Ġfoul": 6153,
      "Ġhal": 6154,
      "amin": 6155,
      "ĠMed": 6156,
      "ĠCOM": 6157,
      "Ġ49": 6158,
      "Ġwars": 6159,
      "Ġhanging": 6160,
      "Ġaunt": 6161,
      "Ġcaval": 6162,
      "Ġsmiling": 6163,
      "Ġbloody": 6164,
      "ĠPompey": 6165,
      "uable": 6166,
      "Ġinformed": 6167,
      "Ġham": 6168,
      "Ġflag": 6169,
      "sent": 6170,
      "lease": 6171,
      "ĠAugust": 6172,
      "agle": 6173,
      "Ġtroops": 6174,
      "\",": 6175,
      "mom": 6176,
      "ĠPort": 6177,
      "early": 6178,
      "ension": 6179,
      "Ġthinks": 6180,
      "Ġnights": 6181,
      "Ġinfer": 6182,
      "52": 6183,
      "IES": 6184,
      "Ġshell": 6185,
      "ĠOX": 6186,
      "Ġacts": 6187,
      "Ġsatisfaction": 6188,
      "Ġcongregation": 6189,
      "stre": 6190,
      "ĠSIG": 6191,
      "love": 6192,
      "Ġrot": 6193,
      "Ġflung": 6194,
      "Ġapost": 6195,
      "ĠAaron": 6196,
      "Ġdeb": 6197,
      "Ġwhisper": 6198,
      "stra": 6199,
      "olic": 6200,
      "Ġassist": 6201,
      "Ġwooden": 6202,
      "Ġacquainted": 6203,
      "Ġrolled": 6204,
      "Ġdeparture": 6205,
      "ĠALPH": 6206,
      "shine": 6207,
      "Ġdrunk": 6208,
      "cest": 6209,
      "Ġcub": 6210,
      "AST": 6211,
      "tell": 6212,
      "xed": 6213,
      "ĠALPHA": 6214,
      "fire": 6215,
      "Ġtear": 6216,
      "Ġmart": 6217,
      "ogue": 6218,
      "Ġhousehold": 6219,
      "Ġsteep": 6220,
      "Ġefforts": 6221,
      "ĠXXX": 6222,
      "Ġviolent": 6223,
      "ĠSolomon": 6224,
      "Ġeducation": 6225,
      "inction": 6226,
      "seemed": 6227,
      "029": 6228,
      "Never": 6229,
      "inces": 6230,
      "Ġbegged": 6231,
      "Ġexcitement": 6232,
      "Ġbrilliant": 6233,
      "Every": 6234,
      "Ġnon": 6235,
      "Ġren": 6236,
      "elf": 6237,
      "Ġperformed": 6238,
      "Ġstrangers": 6239,
      "Ġindif": 6240,
      "ĠDeath": 6241,
      "Ġlaughter": 6242,
      "told": 6243,
      "Ġtherein": 6244,
      "ĠWhite": 6245,
      "Ġhorrible": 6246,
      "Ġpier": 6247,
      "ummer": 6248,
      "Ġexcess": 6249,
      "Ġintent": 6250,
      "Ġaddressed": 6251,
      "Ġmystery": 6252,
      "turned": 6253,
      "Ġcries": 6254,
      "ilities": 6255,
      "Ġseldom": 6256,
      "beaut": 6257,
      "Ġclever": 6258,
      "Ġconfusion": 6259,
      "ĠExit": 6260,
      "Ġbelonged": 6261,
      "gentine": 6262,
      "oration": 6263,
      "ĠIts": 6264,
      "icken": 6265,
      "Ġexceedingly": 6266,
      "Ġpolitical": 6267,
      "Ġquantity": 6268,
      "Ġspend": 6269,
      "Ġcharacters": 6270,
      "Ġdelighted": 6271,
      "ĠLev": 6272,
      "Ġviolence": 6273,
      "Lord": 6274,
      "Very": 6275,
      "Ġtar": 6276,
      "Ġcrew": 6277,
      "Ġpoured": 6278,
      "atin": 6279,
      "Ġasking": 6280,
      "thr": 6281,
      "Ġdost": 6282,
      "Ġbrow": 6283,
      "Ġ59": 6284,
      "Ġtrail": 6285,
      "mans": 6286,
      "iture": 6287,
      "ĠLong": 6288,
      "ĠVen": 6289,
      "ials": 6290,
      "Ġsleeping": 6291,
      "Ġded": 6292,
      "omer": 6293,
      "amm": 6294,
      "Ġdefe": 6295,
      "Ġconvent": 6296,
      "Ġfoe": 6297,
      "ĠGrand": 6298,
      "Re": 6299,
      "uv": 6300,
      "Ġmild": 6301,
      "essed": 6302,
      "ĠWal": 6303,
      "Ġbrass": 6304,
      "Ġscri": 6305,
      "Yet": 6306,
      "Ġshoot": 6307,
      "Ġproduct": 6308,
      "ĠYea": 6309,
      "Ġhab": 6310,
      "ĠLXX": 6311,
      "ĠItaly": 6312,
      "ĠItal": 6313,
      "Ġdescription": 6314,
      "Ġconnection": 6315,
      "ĠSociety": 6316,
      "Ġchurches": 6317,
      "+----": 6318,
      "home": 6319,
      "non": 6320,
      "Ġmud": 6321,
      "ĠMeg": 6322,
      "ĠBeth": 6323,
      "Ġ58": 6324,
      "Ġhistor": 6325,
      "Ġlonely": 6326,
      "Ġ$": 6327,
      "ulations": 6328,
      "Ġmanage": 6329,
      "Ġbecoming": 6330,
      "ĠRobert": 6331,
      "riot": 6332,
      "Ġcomr": 6333,
      "Ġtrick": 6334,
      "Ġinterior": 6335,
      "ĠAmong": 6336,
      "Ġrendered": 6337,
      "leg": 6338,
      "fee": 6339,
      "Ġdoesn": 6340,
      "Ġwash": 6341,
      "Ġalike": 6342,
      "Ġenergy": 6343,
      "force": 6344,
      "ogg": 6345,
      "Ġdistress": 6346,
      "ĠBet": 6347,
      "Ġshake": 6348,
      "ĠStill": 6349,
      "ĠChristmas": 6350,
      "Ġprayers": 6351,
      "dest": 6352,
      "Ġgifts": 6353,
      "Ġrout": 6354,
      "Ġblank": 6355,
      "Ġhotel": 6356,
      "Ġwishes": 6357,
      "Ġintroduced": 6358,
      "fell": 6359,
      "tion": 6360,
      "Ġtied": 6361,
      "Ġmourn": 6362,
      "Ġloves": 6363,
      "weet": 6364,
      "Ġfears": 6365,
      "Ġchain": 6366,
      "Ġstrain": 6367,
      "Ġwarrior": 6368,
      "table": 6369,
      "Ġwarn": 6370,
      "Ġprinciples": 6371,
      "Ġsufficiently": 6372,
      "Ġextremely": 6373,
      "Chapter": 6374,
      "bin": 6375,
      "aments": 6376,
      "Ġpermitted": 6377,
      "Ġrefuse": 6378,
      "Ġstayed": 6379,
      "asket": 6380,
      "Ġhadn": 6381,
      "Ġsche": 6382,
      "icular": 6383,
      "ĠPal": 6384,
      "ĠEr": 6385,
      "ĠEach": 6386,
      "ĊĊĠĠĠĠĠĠĠĠĠĠĠĠĠĠĠĠĠĠĠ": 6387,
      "Ġsympathy": 6388,
      "care": 6389,
      "oz": 6390,
      "Ġcounter": 6391,
      "mph": 6392,
      "ĠAz": 6393,
      "Ġgrant": 6394,
      "ĠThree": 6395,
      "Ġcheck": 6396,
      "ĠProv": 6397,
      "Ġdevelopment": 6398,
      "Mosiah": 6399,
      "fty": 6400,
      "Ġinner": 6401,
      "Ġforehead": 6402,
      "_\";": 6403,
      "gone": 6404,
      "ulse": 6405,
      "Ġshoes": 6406,
      "Ġrights": 6407,
      "ĠCarl": 6408,
      "Ġfatal": 6409,
      "large": 6410,
      "bi": 6411,
      "both": 6412,
      "Ġbowed": 6413,
      "Ġpicked": 6414,
      "Ġchose": 6415,
      "closed": 6416,
      "Mor": 6417,
      "ĠAg": 6418,
      "chol": 6419,
      "question": 6420,
      "Ġ46": 6421,
      "Ġrecoll": 6422,
      "Ġfearful": 6423,
      "Look": 6424,
      "TON": 6425,
      "Ġpatient": 6426,
      "Ġpipe": 6427,
      "Ġsoftly": 6428,
      "Ġconvinced": 6429,
      "Ġsovereign": 6430,
      "Ġmeal": 6431,
      "Ġvague": 6432,
      "ĠPha": 6433,
      "Ġattended": 6434,
      "Ġ68": 6435,
      "Ġsentence": 6436,
      "grim": 6437,
      "Ġkissed": 6438,
      "Ġnerv": 6439,
      "left": 6440,
      "urance": 6441,
      "oso": 6442,
      "Ġtrembling": 6443,
      "Ġpoetry": 6444,
      "Ġearlier": 6445,
      "Ġfanc": 6446,
      "ĠHence": 6447,
      "Ġprepare": 6448,
      "ĠSec": 6449,
      "ĠCity": 6450,
      "reek": 6451,
      "Ġweapons": 6452,
      "Ġnurse": 6453,
      "ĠSal": 6454,
      "ĠDE": 6455,
      "Ġaccustomed": 6456,
      "expl": 6457,
      "Ġadmiration": 6458,
      "trans": 6459,
      "Ġprophets": 6460,
      "ĠCHAPTER": 6461,
      "ĠOXIA": 6462,
      "inate": 6463,
      "stead": 6464,
      "usual": 6465,
      "ĠBible": 6466,
      "ĠDiana": 6467,
      "Ġglo": 6468,
      "mean": 6469,
      "Ġexcuse": 6470,
      "Ġapproaching": 6471,
      "ĠNothing": 6472,
      "Sh": 6473,
      "dro": 6474,
      "pen": 6475,
      "ĠBesides": 6476,
      "days": 6477,
      "Ġcheek": 6478,
      "fortune": 6479,
      "Ġcontinually": 6480,
      "ĠSpain": 6481,
      "Ġrevenge": 6482,
      "John": 6483,
      ".),": 6484,
      "erate": 6485,
      "Ġmankind": 6486,
      "rences": 6487,
      "Ġsixty": 6488,
      "Ġwave": 6489,
      "hael": 6490,
      "Ġpow": 6491,
      "ĠAc": 6492,
      "Ġ67": 6493,
      "OTA": 6494,
      "human": 6495,
      "six": 6496,
      "Ġnotes": 6497,
      "atively": 6498,
      "Ġinquir": 6499,
      "Ġrejo": 6500,
      "Ġuniversal": 6501,
      "Hist": 6502,
      "jah": 6503,
      "Ġheed": 6504,
      "thou": 6505,
      "Ġwhenever": 6506,
      "appeared": 6507,
      "Ġaffair": 6508,
      "ĠJimmy": 6509,
      "ais": 6510,
      "Ġsmote": 6511,
      "Ġdram": 6512,
      "Ġspeaks": 6513,
      "SC": 6514,
      "Tr": 6515,
      "eem": 6516,
      "Ġpause": 6517,
      "Ġstraw": 6518,
      "Ġsauce": 6519,
      "Ġspl": 6520,
      "ĠDem": 6521,
      "Ġamuse": 6522,
      "Ġsilk": 6523,
      "therefore": 6524,
      "Ġexplanation": 6525,
      "net": 6526,
      "saw": 6527,
      "Ġsack": 6528,
      "arr": 6529,
      "ĠMac": 6530,
      "Ġshepher": 6531,
      "until": 6532,
      "Ġperish": 6533,
      "Ġslay": 6534,
      "Ġaccord": 6535,
      "amped": 6536,
      "ĠArthur": 6537,
      "pril": 6538,
      "ĠIrish": 6539,
      "59": 6540,
      "PE": 6541,
      "Ġwra": 6542,
      "black": 6543,
      "ĠAny": 6544,
      "Ġcapable": 6545,
      "Ġconsideration": 6546,
      "Ġmood": 6547,
      "ĠIOTA": 6548,
      "irs": 6549,
      "Ġweep": 6550,
      "Ġrow": 6551,
      "Ġblaz": 6552,
      "glass": 6553,
      "iot": 6554,
      "Ġhit": 6555,
      "Ġentering": 6556,
      "duce": 6557,
      "Ġdeclare": 6558,
      "Ġseventh": 6559,
      "wa": 6560,
      "Ġrecon": 6561,
      "oft": 6562,
      "ĠVirgin": 6563,
      "Ġdoubtless": 6564,
      "Ġaven": 6565,
      "Ġsusp": 6566,
      "Ġmysterious": 6567,
      "Ġmagnificent": 6568,
      "_),": 6569,
      "hearted": 6570,
      "osure": 6571,
      "Ġbrook": 6572,
      "Ġbarbar": 6573,
      "ĠUncle": 6574,
      "Ġlux": 6575,
      "ĠĠĠĠĠĠĠĠĠ": 6576,
      "ĠIsa": 6577,
      "Ġsentiment": 6578,
      "Ġseparated": 6579,
      "Ġtype": 6580,
      "ht": 6581,
      "iber": 6582,
      "Ġvel": 6583,
      "Ġbark": 6584,
      "Ġecho": 6585,
      "abor": 6586,
      "Ġolder": 6587,
      "Ġmarched": 6588,
      "Ġforgive": 6589,
      "ĠVI": 6590,
      "ĠOnce": 6591,
      "Ġreality": 6592,
      "Ġcorrupt": 6593,
      "guer": 6594,
      "Ġtort": 6595,
      "Ġmechan": 6596,
      "Ġgrie": 6597,
      "Ġchiefly": 6598,
      "Ġresults": 6599,
      "Ġcandle": 6600,
      "Ġthoroughly": 6601,
      "hur": 6602,
      "otes": 6603,
      "acter": 6604,
      "earth": 6605,
      "ĠMarg": 6606,
      "Ġconstantly": 6607,
      "borne": 6608,
      "HT": 6609,
      "phy": 6610,
      "worthy": 6611,
      "Ġempire": 6612,
      "gly": 6613,
      "ĠDoctor": 6614,
      "Ġphysical": 6615,
      "ĠCentral": 6616,
      "Ġfarewell": 6617,
      "Ġstout": 6618,
      "Ġdiscovery": 6619,
      "Ġactual": 6620,
      "ĠColonel": 6621,
      "Ġadventure": 6622,
      "cor": 6623,
      "vo": 6624,
      "Ġsaints": 6625,
      "Ġcometh": 6626,
      "Ġturns": 6627,
      "CT": 6628,
      "Com": 6629,
      "Ġwire": 6630,
      "enough": 6631,
      "Ġremind": 6632,
      "Ġhumanity": 6633,
      "Ġobserv": 6634,
      "Ġprofession": 6635,
      "hands": 6636,
      "Ġcelebrated": 6637,
      "wick": 6638,
      "ĠMos": 6639,
      "Ġrum": 6640,
      "Ġsport": 6641,
      "_;": 6642,
      "ugg": 6643,
      "||": 6644,
      "Ġtext": 6645,
      "Ġlap": 6646,
      "Ġvoy": 6647,
      "Ġgeneration": 6648,
      "Ġreflect": 6649,
      "ĠNorway": 6650,
      "Ġinterests": 6651,
      "Tom": 6652,
      "bird": 6653,
      "Ġgas": 6654,
      "ĠRiver": 6655,
      "bridge": 6656,
      "Ġuttered": 6657,
      "Ġrecognized": 6658,
      "better": 6659,
      "Ġaccomplished": 6660,
      "arms": 6661,
      "verted": 6662,
      "Ġstared": 6663,
      "Ġimpress": 6664,
      "Ġbreed": 6665,
      "Ġpurple": 6666,
      "Ġhideous": 6667,
      "Ġtheat": 6668,
      "utter": 6669,
      "ĠAfric": 6670,
      "Ġstiff": 6671,
      "ĠLife": 6672,
      "Ġconsul": 6673,
      "Ġcovenant": 6674,
      "Ġcomfortable": 6675,
      "Which": 6676,
      "Ġbeings": 6677,
      "stri": 6678,
      "ĠTroy": 6679,
      "Ġproc": 6680,
      "Ġstruct": 6681,
      "Ġbuildings": 6682,
      "Ġremaining": 6683,
      "Ġconcerned": 6684,
      "Ġprevious": 6685,
      "person": 6686,
      "ĠRussian": 6687,
      "dig": 6688,
      "Ġmember": 6689,
      "Ġdrinking": 6690,
      "orter": 6691,
      "Ġchanges": 6692,
      "each": 6693,
      "oubt": 6694,
      "Ġdevoted": 6695,
      "Ġswords": 6696,
      "Ġelement": 6697,
      "ĠHolmes": 6698,
      "Ne": 6699,
      "Ġnigh": 6700,
      "Ġhated": 6701,
      "ints": 6702,
      "anny": 6703,
      "Sha": 6704,
      "mis": 6705,
      "Ġflow": 6706,
      "IRST": 6707,
      "necessary": 6708,
      "Ġiniquity": 6709,
      "Ġdemon": 6710,
      "Ġvac": 6711,
      "ĠFreckles": 6712,
      "Ġswept": 6713,
      "racted": 6714,
      "ĠVeron": 6715,
      "da": 6716,
      "Ġbul": 6717,
      "Ġplans": 6718,
      "Ġtele": 6719,
      "Ġeaten": 6720,
      "lest": 6721,
      "rors": 6722,
      "Ġvon": 6723,
      "Ġboast": 6724,
      "appro": 6725,
      "Ġbottle": 6726,
      "Ġgazed": 6727,
      "Hel": 6728,
      "Ġthirst": 6729,
      "Ġhers": 6730,
      "Ġjudged": 6731,
      "iverse": 6732,
      "RA": 6733,
      "Ġfetch": 6734,
      "MER": 6735,
      "ora": 6736,
      "ority": 6737,
      "Ġpluck": 6738,
      "Ġconclusion": 6739,
      "RIB": 6740,
      "ĠLaw": 6741,
      "ieties": 6742,
      "Ġadmin": 6743,
      "Ġconcluded": 6744,
      "hua": 6745,
      "unnar": 6746,
      "guerite": 6747,
      "CES": 6748,
      "IB": 6749,
      "liness": 6750,
      "mist": 6751,
      "Ġwhist": 6752,
      "ĠCosette": 6753,
      "Ġpertaining": 6754,
      "Ġemotion": 6755,
      "Ġhurry": 6756,
      "horse": 6757,
      "Ġtables": 6758,
      "Ġsank": 6759,
      "Ġinch": 6760,
      "almost": 6761,
      "Ġwhither": 6762,
      "Ġissue": 6763,
      "perhaps": 6764,
      "astern": 6765,
      "031": 6766,
      "Ġengine": 6767,
      "ROM": 6768,
      "Ġdisciples": 6769,
      "ĠOther": 6770,
      "Ġslipped": 6771,
      "whom": 6772,
      "Ġoccasionally": 6773,
      "Ġinclined": 6774,
      "Ġpig": 6775,
      "Ġrenew": 6776,
      "ella": 6777,
      "ĠNahu": 6778,
      "Ġactions": 6779,
      "030": 6780,
      "Ġuncons": 6781,
      "consider": 6782,
      "Ġsource": 6783,
      "Ġcunning": 6784,
      "ĠEs": 6785,
      "Ġdrank": 6786,
      "51": 6787,
      "gest": 6788,
      "houses": 6789,
      "ache": 6790,
      "Ġillumin": 6791,
      "Ġdirected": 6792,
      "Ġwidow": 6793,
      "ĠAlexander": 6794,
      "ef": 6795,
      "Ġcam": 6796,
      "Ġconven": 6797,
      "arded": 6798,
      "Ġawake": 6799,
      "Ġmock": 6800,
      "respect": 6801,
      "Ġparties": 6802,
      "Ġscenes": 6803,
      "Ġqueer": 6804,
      "done": 6805,
      "Ġge": 6806,
      "ĠBoy": 6807,
      "Ġours": 6808,
      "Ġgoodness": 6809,
      "ĠWere": 6810,
      "Ġreadily": 6811,
      "Ġcolumn": 6812,
      "\";": 6813,
      "Ġknee": 6814,
      "Ġcharm": 6815,
      "Ġrested": 6816,
      "Ġfreely": 6817,
      "Ġgaze": 6818,
      "Ġcopy": 6819,
      "hered": 6820,
      "Ġfolly": 6821,
      "athed": 6822,
      "Ġnoon": 6823,
      "Ġrespons": 6824,
      "Ġbuck": 6825,
      "gram": 6826,
      "ĠArgentine": 6827,
      "Ġcollect": 6828,
      "UD": 6829,
      "aned": 6830,
      "Ġatmosphere": 6831,
      "ĠCL": 6832,
      "ĊĠĠĠĠĠĠĠĠĠĠĠĠĠ": 6833,
      "Ġarrest": 6834,
      "Ġwriter": 6835,
      "Ġsorts": 6836,
      "Ġutmost": 6837,
      "Ġinheritance": 6838,
      "lock": 6839,
      "ĠAR": 6840,
      "Ġcompre": 6841,
      "Ġtax": 6842,
      "Ġshock": 6843,
      "Ġwinds": 6844,
      "however": 6845,
      "ĠHy": 6846,
      "Ġglanced": 6847,
      "Ġacid": 6848,
      "Ġsongs": 6849,
      "dark": 6850,
      "Ġoh": 6851,
      "iron": 6852,
      "Ġmead": 6853,
      "Ġrush": 6854,
      "Ġearthly": 6855,
      "ĠMexico": 6856,
      "Ġphr": 6857,
      "GA": 6858,
      "Ġstairs": 6859,
      "bear": 6860,
      "bably": 6861,
      "since": 6862,
      "yes": 6863,
      "Ġpushed": 6864,
      "Ġaloud": 6865,
      "ĠIndia": 6866,
      "Ġfrequent": 6867,
      "Ġcultiv": 6868,
      "ĠSpanish": 6869,
      "fig": 6870,
      "Ġsed": 6871,
      "Ġplun": 6872,
      "death": 6873,
      "Ġsmaller": 6874,
      "Ġlocal": 6875,
      "mat": 6876,
      "Ġze": 6877,
      "Ġthread": 6878,
      "iform": 6879,
      "Ġgranted": 6880,
      "ĠThrough": 6881,
      "Ġstronger": 6882,
      "Ġleader": 6883,
      "Ġfolks": 6884,
      "Ġarticle": 6885,
      "57": 6886,
      "Such": 6887,
      "mid": 6888,
      "Ġcoach": 6889,
      "ernacle": 6890,
      "command": 6891,
      "matter": 6892,
      "Ġmour": 6893,
      "Ġcharged": 6894,
      "hoe": 6895,
      "Ġmarks": 6896,
      "ĠRebecca": 6897,
      "Ġcreation": 6898,
      "Ġlimbs": 6899,
      "Ġsuggest": 6900,
      "stein": 6901,
      "Ġvi": 6902,
      "ĠFIRST": 6903,
      "Ġliterature": 6904,
      "Ġsmell": 6905,
      "TAIN": 6906,
      "eve": 6907,
      "Ġextended": 6908,
      "Ġappreci": 6909,
      "moment": 6910,
      "Ġresumed": 6911,
      "Ġinterrupted": 6912,
      "girl": 6913,
      "ĠGal": 6914,
      "Ġanyone": 6915,
      "ICK": 6916,
      "Ġhosts": 6917,
      "lay": 6918,
      "Ġbears": 6919,
      "Ġnearest": 6920,
      "myself": 6921,
      "ĠJul": 6922,
      "high": 6923,
      "Ġappeal": 6924,
      "Ġprompt": 6925,
      "cape": 6926,
      "Ġcease": 6927,
      "Ġdegrees": 6928,
      "Ġintelligence": 6929,
      "rels": 6930,
      "icip": 6931,
      "utch": 6932,
      "rog": 6933,
      "--'": 6934,
      "ĠBath": 6935,
      "ĠCourt": 6936,
      "Ġholds": 6937,
      "cientific": 6938,
      "ĠEli": 6939,
      "Ġquarters": 6940,
      "Ġdamsel": 6941,
      "56": 6942,
      "pot": 6943,
      "ĠDar": 6944,
      "Ġclasses": 6945,
      "Ġanxiety": 6946,
      "hast": 6947,
      "icles": 6948,
      "thousand": 6949,
      "Ġunion": 6950,
      "agg": 6951,
      "Ġsomewhere": 6952,
      "Ġprobable": 6953,
      "ĠSIGMA": 6954,
      "coll": 6955,
      "stru": 6956,
      "ĠMonsieur": 6957,
      "Ġsurv": 6958,
      "Ġawa": 6959,
      "Ġcenturies": 6960,
      "Ġeffects": 6961,
      "Ġenjoyed": 6962,
      "Ġconcern": 6963,
      "Bec": 6964,
      "Ġtiny": 6965,
      "Ġaffl": 6966,
      "Ġblows": 6967,
      "Ġgracious": 6968,
      "Ġbreaking": 6969,
      "ĠAnother": 6970,
      "prise": 6971,
      "Ġsuccessful": 6972,
      "Ġadopted": 6973,
      "ĠSigurd": 6974,
      "Ġancest": 6975,
      "Ġvenge": 6976,
      "Ġindul": 6977,
      "small": 6978,
      "ta": 6979,
      "zed": 6980,
      "lets": 6981,
      "ecs": 6982,
      "ila": 6983,
      "Ġjudges": 6984,
      "Ġinvest": 6985,
      "lers": 6986,
      "mus": 6987,
      "hers": 6988,
      "Ġrang": 6989,
      "Ġremove": 6990,
      "coming": 6991,
      "rified": 6992,
      "ĠShakespeare": 6993,
      "RAN": 6994,
      "jal": 6995,
      "pi": 6996,
      "vious": 6997,
      "Ġlin": 6998,
      "Ġlately": 6999,
      "ĠBoth": 7000,
      "onds": 7001,
      "Ġafterward": 7002,
      "Ġdeserted": 7003,
      "Ġhunting": 7004,
      "Ġparted": 7005,
      "strong": 7006,
      "Ġrealized": 7007,
      "Ġsymb": 7008,
      "Ġbanks": 7009,
      "making": 7010,
      "inger": 7011,
      "Ġfounded": 7012,
      "Ġtroubles": 7013,
      "twenty": 7014,
      "Ġhabits": 7015,
      "Ġfid": 7016,
      "Ġgard": 7017,
      "ĠTess": 7018,
      "ĠRem": 7019,
      "Ġquarrel": 7020,
      "Ġopera": 7021,
      "ĠMajesty": 7022,
      "spe": 7023,
      "words": 7024,
      "ĠMc": 7025,
      "quet": 7026,
      "Ġcompared": 7027,
      "Ġprize": 7028,
      "Ġvaluable": 7029,
      "Ġbelonging": 7030,
      "Ġprivile": 7031,
      "Ġfurnished": 7032,
      "cal": 7033,
      "cto": 7034,
      "account": 7035,
      "ĠBO": 7036,
      "prom": 7037,
      "sight": 7038,
      "var": 7039,
      "Ġfix": 7040,
      "alks": 7041,
      "ĠGOD": 7042,
      "success": 7043,
      "ounter": 7044,
      "Before": 7045,
      "ological": 7046,
      "Ġprotection": 7047,
      "Ġdesperate": 7048,
      "Ġclay": 7049,
      "Ġtemp": 7050,
      "Ġconcealed": 7051,
      "Ġtotem": 7052,
      "ĠGilbert": 7053,
      "live": 7054,
      "riar": 7055,
      "nds": 7056,
      "Ġactive": 7057,
      "ĠComm": 7058,
      "Ġcraft": 7059,
      "amanites": 7060,
      "creat": 7061,
      "ran": 7062,
      "Ġbatt": 7063,
      "Ġrent": 7064,
      "whose": 7065,
      "ICRON": 7066,
      "ĠOMICRON": 7067,
      "Phil": 7068,
      "div": 7069,
      "ester": 7070,
      "ĠTl": 7071,
      "Ġcontaining": 7072,
      "ĠRoyal": 7073,
      "Ġinvited": 7074,
      "Ġmasters": 7075,
      "Ġviews": 7076,
      "Ġshelter": 7077,
      "olk": 7078,
      "Ġperil": 7079,
      "Ġappar": 7080,
      "Ġtreas": 7081,
      "Ġspecim": 7082,
      "UEEN": 7083,
      "round": 7084,
      "Ġdebt": 7085,
      "ĠNell": 7086,
      "Ġdeadly": 7087,
      "Ġsunshine": 7088,
      "Ġexpedition": 7089,
      "Ġtoss": 7090,
      "---": 7091,
      "Ġunfortunate": 7092,
      "Ġgrasp": 7093,
      "Ġnevertheless": 7094,
      "Ġcontempl": 7095,
      "Ġaffected": 7096,
      "Ġmedic": 7097,
      "Ġreigned": 7098,
      "Me": 7099,
      "morning": 7100,
      "Ġcards": 7101,
      "Ġugly": 7102,
      "ulus": 7103,
      "Ġfairy": 7104,
      "Ġsummon": 7105,
      "coat": 7106,
      "Ġflee": 7107,
      "OWN": 7108,
      "Ġconsciousness": 7109,
      "ĠBrowning": 7110,
      "iated": 7111,
      "oni": 7112,
      "ayton": 7113,
      "Ġroot": 7114,
      "Ġovercome": 7115,
      "cial": 7116,
      "Ġfalls": 7117,
      "Ġtrace": 7118,
      "Ġimmediate": 7119,
      "Ġislands": 7120,
      "Ġastonished": 7121,
      "po": 7122,
      "ĠJune": 7123,
      "close": 7124,
      "Ġhoriz": 7125,
      "Ġidle": 7126,
      "Ġwedding": 7127,
      "Ġtorn": 7128,
      "Ġchat": 7129,
      "ĠBE": 7130,
      "Ġsust": 7131,
      "Ġdisturb": 7132,
      "Ġslightly": 7133,
      "Ġgarments": 7134,
      "RIBUT": 7135,
      "Ġbay": 7136,
      "ĠSH": 7137,
      "ĠMount": 7138,
      "Ġneat": 7139,
      "enses": 7140,
      "annie": 7141,
      "61": 7142,
      "First": 7143,
      "nard": 7144,
      "Ġuseless": 7145,
      "abs": 7146,
      "Ġrestored": 7147,
      "Ġdischar": 7148,
      "Ġ78": 7149,
      "Ġinfant": 7150,
      "Ġexception": 7151,
      "taking": 7152,
      "ufact": 7153,
      "brary": 7154,
      "Ġabsurd": 7155,
      "Ġprofit": 7156,
      "Ġweakness": 7157,
      "mighty": 7158,
      "enter": 7159,
      "Ġrange": 7160,
      "why": 7161,
      "ĠUnion": 7162,
      "Ġderived": 7163,
      "ĠAust": 7164,
      "ĊĊĊĊĊ": 7165,
      "Ġhanded": 7166,
      "Ġdiff": 7167,
      "Ġ79": 7168,
      "Bot": 7169,
      "LOU": 7170,
      "Ġale": 7171,
      "isible": 7172,
      "Ġmental": 7173,
      "Ġpant": 7174,
      "rive": 7175,
      "ĠGreen": 7176,
      "soon": 7177,
      "Ġmischief": 7178,
      "god": 7179,
      "lim": 7180,
      "mount": 7181,
      "Ġperceive": 7182,
      "Ġblessing": 7183,
      "Ġrisk": 7184,
      "ĠMark": 7185,
      "Ġseas": 7186,
      "Ġknock": 7187,
      "Ġclub": 7188,
      "blance": 7189,
      "Ġcook": 7190,
      "Ġpressure": 7191,
      "ĠMoreover": 7192,
      "ĠItalian": 7193,
      "Ġspell": 7194,
      "Ġleis": 7195,
      "offee": 7196,
      "Ġwitch": 7197,
      "Ġtomb": 7198,
      "ĠCOP": 7199,
      "ĠNat": 7200,
      "Ġgenerous": 7201,
      "Ġproperly": 7202,
      "kerchief": 7203,
      "Ġspoil": 7204,
      "Perhaps": 7205,
      "ini": 7206,
      "Ġyonder": 7207,
      "ĠMost": 7208,
      "Another": 7209,
      "Ġfastened": 7210,
      "Ġmingled": 7211,
      "Car": 7212,
      "Mat": 7213,
      "Sp": 7214,
      "uma": 7215,
      "Ġsubs": 7216,
      "Ġconceal": 7217,
      "Ġerror": 7218,
      "Ġcoward": 7219,
      "cel": 7220,
      "Ġupward": 7221,
      "ĠPh": 7222,
      "Ġdisposition": 7223,
      "Ġheathen": 7224,
      "Ġgallant": 7225,
      "hibit": 7226,
      "Ġdidst": 7227,
      "comple": 7228,
      "anything": 7229,
      "Ġsimpl": 7230,
      "Ġhitherto": 7231,
      "Mad": 7232,
      "Pres": 7233,
      "hist": 7234,
      "ERV": 7235,
      "Ġretired": 7236,
      "032": 7237,
      "Ġstrongly": 7238,
      "Ġpolice": 7239,
      "ĠDorothy": 7240,
      "lord": 7241,
      "Ġstated": 7242,
      "Ġdescent": 7243,
      "ĠNeither": 7244,
      "Man": 7245,
      "ras": 7246,
      "win": 7247,
      "Ãł": 7248,
      "ĠCons": 7249,
      "Ġvillain": 7250,
      "Ġdisposed": 7251,
      "Ġcouncil": 7252,
      "ĠGreeks": 7253,
      "real": 7254,
      "Ġmorrow": 7255,
      "omy": 7256,
      "Ġgor": 7257,
      "idents": 7258,
      "Ġrevel": 7259,
      "ĠBill": 7260,
      "Ġbrid": 7261,
      "Ġresurrection": 7262,
      "ONT": 7263,
      "Ġhastily": 7264,
      "Ġsafely": 7265,
      "ĠEarth": 7266,
      "Ġfolk": 7267,
      "Ġcheerful": 7268,
      "Ġconquer": 7269,
      "Ġpurposes": 7270,
      "eries": 7271,
      "arts": 7272,
      "Ġoccasions": 7273,
      "Ġhatred": 7274,
      "IGHT": 7275,
      "ĠCalifornian": 7276,
      "Ġassembled": 7277,
      "list": 7278,
      "ecture": 7279,
      "Ġdecor": 7280,
      "Ġlegisl": 7281,
      "Ġvanished": 7282,
      "ĠVeronica": 7283,
      "ja": 7284,
      "orders": 7285,
      "compl": 7286,
      "Ġarmies": 7287,
      "Out": 7288,
      "fin": 7289,
      "eman": 7290,
      "ĠDick": 7291,
      "Ġadj": 7292,
      "Ġhastened": 7293,
      "Ġgrowth": 7294,
      "Ġignorance": 7295,
      "Ġpaint": 7296,
      "Ġdancing": 7297,
      "ĠTer": 7298,
      "ĠĠĠĠĠĠĠĠĠĠĠ": 7299,
      "Ġmanaged": 7300,
      "Ġlofty": 7301,
      "headed": 7302,
      "Ġgroups": 7303,
      "Ġwept": 7304,
      "68": 7305,
      "aur": 7306,
      "Ġtid": 7307,
      "Ġwounds": 7308,
      "Ġborrow": 7309,
      "open": 7310,
      "Ġattitude": 7311,
      "Ġwarning": 7312,
      "Ġgenerations": 7313,
      "Ġcrept": 7314,
      "Ġmillions": 7315,
      "ISTRIBUT": 7316,
      "Ġsuspicion": 7317,
      "54": 7318,
      "town": 7319,
      "Ġmixed": 7320,
      "Ġnorthern": 7321,
      "Ġstupid": 7322,
      "Ġrejoice": 7323,
      "nel": 7324,
      "Ġriding": 7325,
      "Ġwrites": 7326,
      "Ġcenter": 7327,
      "Ġbenefit": 7328,
      "break": 7329,
      "CESTER": 7330,
      "rather": 7331,
      "steps": 7332,
      "Ġstor": 7333,
      "rah": 7334,
      "Ġupright": 7335,
      "umbled": 7336,
      "ĊĠĠĠĠĠĠĠĠĠĠĠĠĠĠĠĠĠĠĠĠĠĠĠĠĠĠĠĠĠĠĠĠ": 7337,
      "Ġfoundation": 7338,
      "~},": 7339,
      "Ġperformance": 7340,
      "past": 7341,
      "times": 7342,
      "orable": 7343,
      "Ġpains": 7344,
      "Ġartist": 7345,
      "Ġmusical": 7346,
      "OUN": 7347,
      "Ġmaintain": 7348,
      "Ġwandering": 7349,
      "ĠPercival": 7350,
      "pir": 7351,
      "Ġpace": 7352,
      "stant": 7353,
      "Ġcharming": 7354,
      "mbly": 7355,
      "lasting": 7356,
      "Ġcottage": 7357,
      "ĠRogero": 7358,
      "LOUCESTER": 7359,
      "El": 7360,
      "MAN": 7361,
      "post": 7362,
      "Ġuneas": 7363,
      "Ġtestimony": 7364,
      "keeper": 7365,
      "Ġriches": 7366,
      "Ġhoney": 7367,
      "Ġnet": 7368,
      "Ġgown": 7369,
      "ĠHaw": 7370,
      "ĠBishop": 7371,
      "Ġurged": 7372,
      "Ġtide": 7373,
      "Ġoak": 7374,
      "Ġunited": 7375,
      "ĠRE": 7376,
      "Ġcommer": 7377,
      "Ġguests": 7378,
      "Ġexperiment": 7379,
      "Ġdetails": 7380,
      "Ġpursuit": 7381,
      "nant": 7382,
      "ana": 7383,
      "Ġreputation": 7384,
      "Ġrivers": 7385,
      "Ġprecise": 7386,
      "IZ": 7387,
      "rait": 7388,
      "ĠGhost": 7389,
      "dev": 7390,
      "ĠClare": 7391,
      "whole": 7392,
      "Ġexamined": 7393,
      "Ġgloomy": 7394,
      "Bl": 7395,
      "Ġfain": 7396,
      "Ġunexpected": 7397,
      "ĠUnder": 7398,
      "Ġrecovered": 7399,
      "Ġsenses": 7400,
      "iii": 7401,
      "Ġastonishment": 7402,
      "icable": 7403,
      "ĠMass": 7404,
      "exper": 7405,
      "utenant": 7406,
      "Ġtabernacle": 7407,
      "Ad": 7408,
      "Ġbree": 7409,
      "ithe": 7410,
      "akon": 7411,
      "Ġlistening": 7412,
      "Ġdomestic": 7413,
      "Ġcorp": 7414,
      "Ġprayed": 7415,
      "53": 7416,
      "Ye": 7417,
      "eration": 7418,
      "ĠIll": 7419,
      "ĠBa": 7420,
      "ulating": 7421,
      "Ġelements": 7422,
      "Ġexisted": 7423,
      "uine": 7424,
      "Ġyard": 7425,
      "ifted": 7426,
      "Ġfinds": 7427,
      "Ġgoddess": 7428,
      "inth": 7429,
      "utus": 7430,
      "Ġvic": 7431,
      "evil": 7432,
      "Ġestate": 7433,
      "Ġmode": 7434,
      "Ġsway": 7435,
      "Ġreduced": 7436,
      "illes": 7437,
      "raoh": 7438,
      "Ġeleven": 7439,
      "Ġornament": 7440,
      "rass": 7441,
      "sim": 7442,
      "Ġreject": 7443,
      "Ġate": 7444,
      "Ġpuzz": 7445,
      "62": 7446,
      "ĠHard": 7447,
      "Ġfarmer": 7448,
      "Ġwaist": 7449,
      "ĠShould": 7450,
      "ĠSometimes": 7451,
      "rical": 7452,
      "gentle": 7453,
      "Ġpages": 7454,
      "ĠChe": 7455,
      "cius": 7456,
      "Ġuncertain": 7457,
      "Ġmadam": 7458,
      "Pros": 7459,
      "anqu": 7460,
      "icing": 7461,
      "Ġextrem": 7462,
      "Ġsignal": 7463,
      "ĠĠĠĠĠĠĠĠĠĠĠĠĠ": 7464,
      "ĠGent": 7465,
      "Ġmarble": 7466,
      "brance": 7467,
      "Ġlawyer": 7468,
      "Ġrefuge": 7469,
      "prov": 7470,
      "build": 7471,
      "Ġobedience": 7472,
      "Ġvengeance": 7473,
      "bic": 7474,
      "eck": 7475,
      "Ġshew": 7476,
      "erson": 7477,
      "blood": 7478,
      "Ġchamp": 7479,
      "Ġstrife": 7480,
      "Ġstructure": 7481,
      "orus": 7482,
      "iche": 7483,
      "ĠBapt": 7484,
      "ieu": 7485,
      "Ġsomebody": 7486,
      "ĠLeon": 7487,
      "Ġpreserve": 7488,
      "ico": 7489,
      "ĠSan": 7490,
      "Ġnoted": 7491,
      "aining": 7492,
      "Ġalter": 7493,
      "Ġanywhere": 7494,
      "Ġfollowers": 7495,
      "Ġrig": 7496,
      "Ġcircumstance": 7497,
      "Ġbeha": 7498,
      "Ġopinions": 7499,
      "Ġcontrast": 7500,
      "Ġleaped": 7501,
      "rust": 7502,
      "edge": 7503,
      "Ġguns": 7504,
      "ĠĠĠĠĠĠĠĠĠĠ": 7505,
      "ĠLake": 7506,
      "ĠDel": 7507,
      "Ġdepos": 7508,
      "Ġcompleted": 7509,
      "Ġrevolution": 7510,
      "Mis": 7511,
      "Mon": 7512,
      "Ġlamps": 7513,
      "quite": 7514,
      "ĠOz": 7515,
      "ĠRICH": 7516,
      "Ġmarvel": 7517,
      "ilton": 7518,
      "Ġbaptism": 7519,
      "wife": 7520,
      "ĠGen": 7521,
      "ĊĠĠĠĠĠĠĠĠĠĠĠĠĠĠĠ": 7522,
      "Ġoutward": 7523,
      "udent": 7524,
      "oths": 7525,
      "Ġchim": 7526,
      "Ġbese": 7527,
      "mediately": 7528,
      "Ġarticles": 7529,
      "Ġmurmured": 7530,
      "city": 7531,
      "wit": 7532,
      "Ġschol": 7533,
      "icient": 7534,
      "Ġeating": 7535,
      "thor": 7536,
      "Ġcompet": 7537,
      "Ġdragged": 7538,
      "Ġinvisible": 7539,
      "Ġheavenly": 7540,
      "relig": 7541,
      "Ġattempted": 7542,
      "Ġcritic": 7543,
      "ĠSmith": 7544,
      "best": 7545,
      "Ġoun": 7546,
      "Ġdar": 7547,
      "Ġhun": 7548,
      "Ġgent": 7549,
      "cember": 7550,
      "ĠMess": 7551,
      "according": 7552,
      "Ġphilosophy": 7553,
      "55": 7554,
      "Ġtha": 7555,
      "Ġapt": 7556,
      "Ġrede": 7557,
      "ĠSand": 7558,
      "Ġshone": 7559,
      "ĠFar": 7560,
      "Ġnewsp": 7561,
      "Ġhelpless": 7562,
      "ĠXL": 7563,
      "Ġremarks": 7564,
      "Ġpractical": 7565,
      "bal": 7566,
      "ĠMid": 7567,
      "Ġharmon": 7568,
      "Ġdefence": 7569,
      "Ġwickedness": 7570,
      "Ġrevealed": 7571,
      "CI": 7572,
      "Ġlat": 7573,
      "ĠApp": 7574,
      "Ġtempor": 7575,
      "Ġcustoms": 7576,
      "Ġstatement": 7577,
      "Ġexecution": 7578,
      "spring": 7579,
      "Their": 7580,
      "Ġdepths": 7581,
      "ĠGrant": 7582,
      "Ġweeping": 7583,
      "ĠHill": 7584,
      "ĠLand": 7585,
      "Ġexhib": 7586,
      "obser": 7587,
      "Nothing": 7588,
      "ĠAntony": 7589,
      "ĠAdam": 7590,
      "vy": 7591,
      "word": 7592,
      "ĠArab": 7593,
      "angled": 7594,
      "Ġprinted": 7595,
      "APTAIN": 7596,
      "ĠNahua": 7597,
      "dered": 7598,
      "Ġlan": 7599,
      "ouring": 7600,
      "Ġnatives": 7601,
      "brother": 7602,
      "Ġfrank": 7603,
      "ĠBrad": 7604,
      "Ġpian": 7605,
      "Ġrays": 7606,
      "concer": 7607,
      "Ġassumed": 7608,
      "ĠIndeed": 7609,
      "Ġresolution": 7610,
      "Ġreproach": 7611,
      "Ġzeal": 7612,
      ".âĢĻ": 7613,
      "onia": 7614,
      "Ġboats": 7615,
      "Ġresistance": 7616,
      "Ġmonster": 7617,
      "Ġventure": 7618,
      "Ġgratitude": 7619,
      "Ġessential": 7620,
      "Ġtradition": 7621,
      "wall": 7622,
      "itl": 7623,
      "Ġgets": 7624,
      "Ġexposed": 7625,
      "Ġtransp": 7626,
      "ELL": 7627,
      "Ġimagined": 7628,
      "ritory": 7629,
      "Ġneighbourhood": 7630,
      "eight": 7631,
      "whe": 7632,
      "era": 7633,
      "Ġkins": 7634,
      "ĠEle": 7635,
      "Ġcommenced": 7636,
      "Ġbegins": 7637,
      "ĠSea": 7638,
      "Ġfavourite": 7639,
      "find": 7640,
      "gate": 7641,
      "verty": 7642,
      "herself": 7643,
      "Ġnotion": 7644,
      "ĠMil": 7645,
      "ĠCong": 7646,
      "thew": 7647,
      "Ġshaft": 7648,
      "ĠJa": 7649,
      "Ġark": 7650,
      "Ġclam": 7651,
      "apa": 7652,
      "Ġremote": 7653,
      "URT": 7654,
      "Ġnervous": 7655,
      "Ġstair": 7656,
      "Ġstaring": 7657,
      "Two": 7658,
      "Ġdew": 7659,
      "Ġarise": 7660,
      "resses": 7661,
      "bler": 7662,
      "Ġscale": 7663,
      "Ġabsor": 7664,
      "ĠFranc": 7665,
      "Ġcombat": 7666,
      "Ġconstitution": 7667,
      "RIN": 7668,
      "ĠAch": 7669,
      "ĠApril": 7670,
      "Ġboots": 7671,
      "ĠKnight": 7672,
      "Ġpoverty": 7673,
      "ĠNorman": 7674,
      "Ġhunger": 7675,
      "Ġeagerly": 7676,
      "lost": 7677,
      "Ġgospel": 7678,
      "immer": 7679,
      "verage": 7680,
      "Ġflock": 7681,
      "Ġopposed": 7682,
      "ATION": 7683,
      "UCH": 7684,
      "Ġreference": 7685,
      "ĠNU": 7686,
      "ĠJuly": 7687,
      "Ġjob": 7688,
      "Ġguest": 7689,
      "033": 7690,
      "Ġmistaken": 7691,
      "ĠTy": 7692,
      "Ġsupre": 7693,
      "plied": 7694,
      "Ġroar": 7695,
      "Ġrules": 7696,
      "ĠMexican": 7697,
      "Ġacknowled": 7698,
      "Se": 7699,
      "pop": 7700,
      "Ġthief": 7701,
      "Ġcontains": 7702,
      "ĠUt": 7703,
      "spec": 7704,
      "Ġstroke": 7705,
      "Ġinsects": 7706,
      "67": 7707,
      "mir": 7708,
      "rers": 7709,
      "rily": 7710,
      "rious": 7711,
      "ĠPark": 7712,
      "iveness": 7713,
      "Ġregiment": 7714,
      "Ġofferings": 7715,
      "Ġlocked": 7716,
      "Ġpersuaded": 7717,
      "ĠMajor": 7718,
      "URE": 7719,
      "Ġstol": 7720,
      "Ġsugar": 7721,
      "Ġrhy": 7722,
      "ĠEmp": 7723,
      "Ġimages": 7724,
      "ĠKe": 7725,
      "Ġintense": 7726,
      "Ġdirections": 7727,
      "Ġimprove": 7728,
      "ĠPharaoh": 7729,
      "Ġsupreme": 7730,
      "69": 7731,
      "pol": 7732,
      "ĠAmy": 7733,
      "ĠGrey": 7734,
      "Ġarrow": 7735,
      "Ġslip": 7736,
      "ASS": 7737,
      "ĠGermany": 7738,
      "character": 7739,
      "Har": 7740,
      "leness": 7741,
      "aps": 7742,
      "Ġwherefore": 7743,
      "ouraged": 7744,
      "agree": 7745,
      "Ġincident": 7746,
      "Ġdeliber": 7747,
      "Art": 7748,
      "Ġseventy": 7749,
      "ECT": 7750,
      "Ġarrangement": 7751,
      "cut": 7752,
      "wering": 7753,
      "ourge": 7754,
      "ĊĠĠĠĠĠĠĠĠĠĠĠĠĠĠ": 7755,
      "hiPros": 7756,
      "pled": 7757,
      "Ġwondering": 7758,
      "ĠMargaret": 7759,
      "Ġvoyage": 7760,
      "isk": 7761,
      "Ġfest": 7762,
      "Ġfires": 7763,
      "abled": 7764,
      "ĠPER": 7765,
      "istent": 7766,
      "perfect": 7767,
      "ALICE": 7768,
      "Ġlightning": 7769,
      "Ġinterpret": 7770,
      "Ġshortly": 7771,
      "box": 7772,
      "friends": 7773,
      "OG": 7774,
      "ĠOver": 7775,
      "Ġcommandments": 7776,
      "Ġvolunt": 7777,
      "Ġannounced": 7778,
      "kins": 7779,
      "piece": 7780,
      "Ġclerk": 7781,
      "Ġdesires": 7782,
      "Ġpasses": 7783,
      "Ġagreeable": 7784,
      "fav": 7785,
      "iate": 7786,
      "earl": 7787,
      "former": 7788,
      "note": 7789,
      "Ġwandered": 7790,
      "ĠScripture": 7791,
      "trees": 7792,
      "Ġwont": 7793,
      "idering": 7794,
      "Ġrecomm": 7795,
      "throw": 7796,
      "emple": 7797,
      "ĠEll": 7798,
      "Ġdrops": 7799,
      "Ġdisease": 7800,
      "VE": 7801,
      "Ġborder": 7802,
      "Ġdivers": 7803,
      "ĠTest": 7804,
      "ĠBook": 7805,
      "ĠWH": 7806,
      "ĠDun": 7807,
      "Ġarts": 7808,
      "Ġseeking": 7809,
      "Ġdisgu": 7810,
      "Ġ31": 7811,
      "Ġlanded": 7812,
      "quisite": 7813,
      "ctober": 7814,
      "Americ": 7815,
      "raft": 7816,
      "ĠLamanites": 7817,
      "ĠGunnar": 7818,
      "Ġpermit": 7819,
      "Ġemperor": 7820,
      "Ġguilt": 7821,
      "Ġobservation": 7822,
      "Ġdwelling": 7823,
      "Ġwriters": 7824,
      "Ġadminist": 7825,
      "phant": 7826,
      "riel": 7827,
      "eches": 7828,
      "Ġaltern": 7829,
      "ĊĠĠĠĠĠĠĠĠĠĠĠĠĠĠĠĠĠĠĠĠĠĠĠĠĠĠĠĠĠĠĠĠĠĠĠĠĠĠĠĠ": 7830,
      "ĠDuring": 7831,
      "urns": 7832,
      "Ġtrip": 7833,
      "boat": 7834,
      "Ġbasket": 7835,
      "itan": 7836,
      "igation": 7837,
      "ĠEPSILON": 7838,
      "Ġappe": 7839,
      "Ġattent": 7840,
      "Ġconfined": 7841,
      "sheba": 7842,
      "Ġmovements": 7843,
      "Take": 7844,
      "whether": 7845,
      "itudes": 7846,
      "Ġvest": 7847,
      "udder": 7848,
      "Ġsworn": 7849,
      "Ġ69": 7850,
      "Ġopposition": 7851,
      "Ġroads": 7852,
      "Ġdifficulties": 7853,
      "ĠEuropean": 7854,
      "ĠMagn": 7855,
      "Ġcondemned": 7856,
      "PER": 7857,
      "ieth": 7858,
      "ara": 7859,
      "iddy": 7860,
      "ĠBell": 7861,
      "ĠAndrew": 7862,
      "ptember": 7863,
      "Ġsounded": 7864,
      "Ġdriving": 7865,
      "Ġcrowded": 7866,
      "ĠCatherine": 7867,
      "OST": 7868,
      "Ġcir": 7869,
      "ĠChan": 7870,
      "ĠGovernment": 7871,
      "Ġplat": 7872,
      "Ġcommandment": 7873,
      "ĠWithout": 7874,
      "Ġbeaten": 7875,
      "change": 7876,
      "nation": 7877,
      "uk": 7878,
      "vity": 7879,
      "Ġhut": 7880,
      "Ġheels": 7881,
      "ĠHor": 7882,
      "Ġclock": 7883,
      "feet": 7884,
      "within": 7885,
      "akened": 7886,
      "ĠJon": 7887,
      "Ġsomehow": 7888,
      "Ġadvers": 7889,
      "import": 7890,
      "Ġfirmly": 7891,
      "ĠCastle": 7892,
      "mond": 7893,
      "Ġwake": 7894,
      "Ġcents": 7895,
      "ĠTime": 7896,
      "Ġashes": 7897,
      "ĠGrace": 7898,
      "Ġscore": 7899,
      "Ġpopulation": 7900,
      "Ġdescribe": 7901,
      "Ġridic": 7902,
      "ixture": 7903,
      "orig": 7904,
      "ante": 7905,
      "Ġqualities": 7906,
      "Ġthrowing": 7907,
      "ĠWhose": 7908,
      "ucer": 7909,
      "Ġengra": 7910,
      "ĠPeople": 7911,
      "Ġfert": 7912,
      "Ġhind": 7913,
      "Ġowner": 7914,
      "ensions": 7915,
      "super": 7916,
      "Ġweapon": 7917,
      "Ġbishop": 7918,
      "ĠARE": 7919,
      "Ġruns": 7920,
      "willing": 7921,
      "ĠBaron": 7922,
      "```": 7923,
      "Ġbalance": 7924,
      "Ġtoler": 7925,
      "alling": 7926,
      "ĠPol": 7927,
      "aph": 7928,
      "full": 7929,
      "fashion": 7930,
      "sac": 7931,
      "Ġles": 7932,
      "ĠON": 7933,
      "Ġarrows": 7934,
      "ollen": 7935,
      "Ġrecover": 7936,
      "Ġelsewhere": 7937,
      "Ġsuspect": 7938,
      "ribute": 7939,
      "Ġdesolate": 7940,
      "ORT": 7941,
      "Ġcontrol": 7942,
      "._--": 7943,
      "Ġsteady": 7944,
      "Ġhundreds": 7945,
      "ĠPhilist": 7946,
      "cow": 7947,
      "fur": 7948,
      "west": 7949,
      "Ġpound": 7950,
      "sembly": 7951,
      "ĠEN": 7952,
      "Ġdisturbed": 7953,
      "Ġrecent": 7954,
      "Ġassure": 7955,
      "ĠAbout": 7956,
      "Ġvictim": 7957,
      "ĠBritain": 7958,
      "Ġenvy": 7959,
      "gave": 7960,
      "given": 7961,
      "ouble": 7962,
      "Ġwhirl": 7963,
      "Ġbrings": 7964,
      "Ġchin": 7965,
      "ART": 7966,
      "ĠRICHARD": 7967,
      "Ġbone": 7968,
      "Ġfors": 7969,
      "ĠHakon": 7970,
      "ĠCat": 7971,
      "Ġeloqu": 7972,
      "Ġveget": 7973,
      "Ġdelightful": 7974,
      "Ġswiftly": 7975,
      "Again": 7976,
      "rates": 7977,
      "Ġhaz": 7978,
      "iday": 7979,
      "ilight": 7980,
      "Ġscrew": 7981,
      "Ġcareer": 7982,
      "Ġreflected": 7983,
      "cheon": 7984,
      "Ġconstruct": 7985,
      "iasm": 7986,
      "Ġunclean": 7987,
      "ĠSEC": 7988,
      "Ġconflict": 7989,
      "Ġscra": 7990,
      "Ġclothing": 7991,
      "ĠChristianity": 7992,
      "Ġindividuals": 7993,
      "Ġped": 7994,
      "ĠSen": 7995,
      "Ġbloom": 7996,
      "Ġexpense": 7997,
      "Ġlaying": 7998,
      "Ã©nard": 7999,
      "Ġdimin": 8000,
      "represent": 8001,
      "Ġgrateful": 8002,
      "uously": 8003,
      "indeed": 8004,
      "Ġgreatness": 8005,
      "Ġembr": 8006,
      "ĠChristians": 8007,
      "Ġleaned": 8008,
      "Ġdisgrace": 8009,
      "Ġscheme": 8010,
      "Ġcraw": 8011,
      "orial": 8012,
      "ĠAng": 8013,
      "ĠHell": 8014,
      "orer": 8015,
      "ĠWoman": 8016,
      "ĠPo": 8017,
      "ĠFour": 8018,
      "Ġpursue": 8019,
      "believe": 8020,
      "Ġdeveloped": 8021,
      "Ġhomes": 8022,
      "amation": 8023,
      "Ġmerit": 8024,
      "Ġmeasures": 8025,
      "_]": 8026,
      "Ġfitted": 8027,
      "Ġcas": 8028,
      "Ġheark": 8029,
      "Ġbeating": 8030,
      "ĠHon": 8031,
      "ĠLatin": 8032,
      "agues": 8033,
      "Ġcopper": 8034,
      "ĠIsland": 8035,
      "Ġcolours": 8036,
      "uf": 8037,
      "ĠAccording": 8038,
      "END": 8039,
      "Ġmate": 8040,
      "Ġthrong": 8041,
      "def": 8042,
      "Ġpropri": 8043,
      "Ġmeantime": 8044,
      "Ġlinen": 8045,
      "Was": 8046,
      "oubted": 8047,
      "Ġcock": 8048,
      "Ġdur": 8049,
      "Ġga": 8050,
      "ioned": 8051,
      "ulch": 8052,
      "Ġintim": 8053,
      "Because": 8054,
      "hour": 8055,
      "position": 8056,
      "inations": 8057,
      "sters": 8058,
      "ĠTIM": 8059,
      "ĠĠĠĠĠĠĠĠĠĠĠĠ": 8060,
      "ĠSqu": 8061,
      "Ġunlike": 8062,
      "Ġabrupt": 8063,
      "Ġmoreover": 8064,
      "Ġdepth": 8065,
      "LECT": 8066,
      "Ġgenus": 8067,
      "Fr": 8068,
      "Ġvarieties": 8069,
      "Ġtotal": 8070,
      "Ġnodded": 8071,
      "GH": 8072,
      "mal": 8073,
      "Ġ}": 8074,
      "asked": 8075,
      "Ġprint": 8076,
      "Ġclergy": 8077,
      "asy": 8078,
      "ĠAS": 8079,
      "achel": 8080,
      "ĠMade": 8081,
      "usions": 8082,
      "Ġunjust": 8083,
      "began": 8084,
      "angu": 8085,
      "Ġpresents": 8086,
      "Ġdivision": 8087,
      "Ġtouching": 8088,
      "Ġmotor": 8089,
      "Ġsensible": 8090,
      "osoever": 8091,
      "ĠIsaac": 8092,
      "Sc": 8093,
      "poor": 8094,
      "Ġach": 8095,
      "Ġgest": 8096,
      "ifully": 8097,
      "ĠPut": 8098,
      "Ġgrows": 8099,
      "class": 8100,
      "dead": 8101,
      "Ġruined": 8102,
      "Ġfifth": 8103,
      "bbed": 8104,
      "iary": 8105,
      "itled": 8106,
      "Ġhed": 8107,
      "Ġheir": 8108,
      "ancs": 8109,
      "ogs": 8110,
      "Ġabsent": 8111,
      "Ġsolitary": 8112,
      "Ġeldest": 8113,
      "Ġapartment": 8114,
      "uation": 8115,
      "Ġwi": 8116,
      "Ġbeach": 8117,
      "ĠFogg": 8118,
      "Ġlend": 8119,
      "endous": 8120,
      "âĢĺ": 8121,
      "actory": 8122,
      "Ġresist": 8123,
      "strous": 8124,
      "Ġvaliant": 8125,
      "Ġcomplex": 8126,
      "awn": 8127,
      "posed": 8128,
      "Ġow": 8129,
      "ĠHist": 8130,
      "Ġflatter": 8131,
      "Ġchapter": 8132,
      "Ġwarrant": 8133,
      "Ġharvest": 8134,
      "Ġincred": 8135,
      "regular": 8136,
      "Ġscarlet": 8137,
      "ipping": 8138,
      "knew": 8139,
      "ouched": 8140,
      "ĠCur": 8141,
      "Ġsheet": 8142,
      "Ġpersec": 8143,
      "Ġfoes": 8144,
      "Ġpointing": 8145,
      "Ġbushes": 8146,
      "occup": 8147,
      "Ġbaptized": 8148,
      "avery": 8149,
      "lau": 8150,
      "whel": 8151,
      "already": 8152,
      "ections": 8153,
      "forward": 8154,
      "Ġchall": 8155,
      "Ġreported": 8156,
      "Ġideal": 8157,
      "Ġoperation": 8158,
      "brew": 8159,
      "dem": 8160,
      "acia": 8161,
      "umble": 8162,
      "unken": 8163,
      "ovember": 8164,
      "Ġnamely": 8165,
      "Ġlightly": 8166,
      "Ġ{~": 8167,
      "otions": 8168,
      "Ġstuck": 8169,
      "Ġmanufact": 8170,
      "aketh": 8171,
      "Ġsket": 8172,
      "Ġmagist": 8173,
      "Ġcollected": 8174,
      "ĠColumb": 8175,
      "everything": 8176,
      "Ġvanity": 8177,
      "Par": 8178,
      "],": 8179,
      "fold": 8180,
      "speak": 8181,
      "heron": 8182,
      "ĊĊĊĠĠĠĠ": 8183,
      "Ġshru": 8184,
      "ĠEv": 8185,
      "ĠJapan": 8186,
      "ĠKnow": 8187,
      "Ġwhereas": 8188,
      "Ġcharity": 8189,
      "understand": 8190,
      "ursed": 8191
    },
    "merges": [
      [
        "Ġ",
        "t"
      ],
      [
        "h",
        "e"
      ],
      [
        "Ġ",
        "a"
      ],
      [
        "i",
        "n"
      ],
      [
        "Ġt",
        "he"
      ],
      [
        "Ġ",
        "Ġ"
      ],
      [
        "Ġ",
        "o"
      ],
      [
        "Ġ",
        "w"
      ],
      [
        "Ġ",
        "s"
      ],
      [
        "r",
        "e"
      ],
      [
        "n",
        "d"
      ],
      [
        "e",
        "r"
      ],
      [
        "h",
        "a"
      ],
      [
        "Ġ",
        "b"
      ],
      [
        "o",
        "u"
      ],
      [
        "i",
        "s"
      ],
      [
        "i",
        "t"
      ],
      [
        "e",
        "d"
      ],
      [
        "Ġ",
        "m"
      ],
      [
        "o",
        "n"
      ],
      [
        "Ġo",
        "f"
      ],
      [
        "Ġ",
        "f"
      ],
      [
        "e",
        "n"
      ],
      [
        "Ġa",
        "nd"
      ],
      [
        "Ġ",
        "c"
      ],
      [
        "o",
        "r"
      ],
      [
        "e",
        "s"
      ],
      [
        "Ġt",
        "o"
      ],
      [
        "in",
        "g"
      ],
      [
        "l",
        "l"
      ],
      [
        "ĠĠ",
        "ĠĠ"
      ],
      [
        "a",
        "r"
      ],
      [
        "Ġ",
        "p"
      ],
      [
        "Ġ",
        "d"
      ],
      [
        "a",
        "n"
      ],
      [
        "Ġ",
        "in"
      ],
      [
        "a",
        "t"
      ],
      [
        "Ġ",
        "h"
      ],
      [
        "a",
        "s"
      ],
      [
        "Ġ",
        "l"
      ],
      [
        "Ġ",
        "n"
      ],
      [
        "Ġ",
        "he"
      ],
      [
        "o",
        "m"
      ],
      [
        "Ġ",
        "ha"
      ],
      [
        "ha",
        "t"
      ],
      [
        "l",
        "e"
      ],
      [
        "Ġb",
        "e"
      ],
      [
        "Ġ",
        "I"
      ],
      [
        "i",
        "c"
      ],
      [
        "Ġ",
        "g"
      ],
      [
        "o",
        "t"
      ],
      [
        "o",
        "w"
      ],
      [
        "s",
        "t"
      ],
      [
        "u",
        "t"
      ],
      [
        "Ġt",
        "h"
      ],
      [
        "v",
        "e"
      ],
      [
        "s",
        "e"
      ],
      [
        "Ġ",
        "e"
      ],
      [
        "i",
        "m"
      ],
      [
        "l",
        "d"
      ],
      [
        "i",
        "d"
      ],
      [
        "en",
        "t"
      ],
      [
        "Ġt",
        "hat"
      ],
      [
        "g",
        "h"
      ],
      [
        "l",
        "y"
      ],
      [
        "i",
        "on"
      ],
      [
        "c",
        "e"
      ],
      [
        "a",
        "l"
      ],
      [
        "Ġ",
        "y"
      ],
      [
        "Ġ",
        "u"
      ],
      [
        "Ġ",
        "T"
      ],
      [
        "i",
        "r"
      ],
      [
        "a",
        "y"
      ],
      [
        "Ġw",
        "as"
      ],
      [
        "e",
        "t"
      ],
      [
        "it",
        "h"
      ],
      [
        "Ġ",
        "re"
      ],
      [
        "Ġ",
        "it"
      ],
      [
        "Ġw",
        "h"
      ],
      [
        "v",
        "er"
      ],
      [
        "Ġo",
        "n"
      ],
      [
        "u",
        "r"
      ],
      [
        "Ġ",
        "A"
      ],
      [
        "Ġf",
        "or"
      ],
      [
        "Ġh",
        "is"
      ],
      [
        "Ġw",
        "ith"
      ],
      [
        "a",
        "d"
      ],
      [
        "Ġa",
        "s"
      ],
      [
        "Ġw",
        "e"
      ],
      [
        "r",
        "o"
      ],
      [
        "Ġy",
        "ou"
      ],
      [
        "gh",
        "t"
      ],
      [
        "he",
        "r"
      ],
      [
        "r",
        "i"
      ],
      [
        "Ġ",
        "is"
      ],
      [
        "a",
        "c"
      ],
      [
        "ĠĠĠĠ",
        "ĠĠĠĠ"
      ],
      [
        "a",
        "m"
      ],
      [
        "Ġs",
        "t"
      ],
      [
        "Ġ",
        "S"
      ],
      [
        "Ċ",
        "Ġ"
      ],
      [
        "Ġn",
        "ot"
      ],
      [
        "Ġa",
        "n"
      ],
      [
        "t",
        "er"
      ],
      [
        "a",
        "nd"
      ],
      [
        "i",
        "ll"
      ],
      [
        "o",
        "d"
      ],
      [
        "a",
        "in"
      ],
      [
        "-",
        "-"
      ],
      [
        "t",
        "h"
      ],
      [
        "Ġha",
        "d"
      ],
      [
        "ou",
        "ld"
      ],
      [
        "i",
        "f"
      ],
      [
        "e",
        "c"
      ],
      [
        "k",
        "e"
      ],
      [
        "Ġ",
        "H"
      ],
      [
        "Ġa",
        "t"
      ],
      [
        "Ġ",
        "M"
      ],
      [
        "i",
        "l"
      ],
      [
        "Ċ",
        "ĠĠ"
      ],
      [
        "ic",
        "h"
      ],
      [
        "c",
        "h"
      ],
      [
        "o",
        "re"
      ],
      [
        "ĠT",
        "he"
      ],
      [
        "Ġm",
        "e"
      ],
      [
        "Ġh",
        "im"
      ],
      [
        "es",
        "s"
      ],
      [
        "Ġhe",
        "r"
      ],
      [
        "'",
        "s"
      ],
      [
        "ĊĠĠ",
        "Ġ"
      ],
      [
        "u",
        "s"
      ],
      [
        "re",
        "d"
      ],
      [
        "r",
        "om"
      ],
      [
        "Ġ",
        "B"
      ],
      [
        "Ġ",
        "C"
      ],
      [
        "Ġs",
        "e"
      ],
      [
        "t",
        "o"
      ],
      [
        "Ġb",
        "y"
      ],
      [
        "t",
        "he"
      ],
      [
        "a",
        "ll"
      ],
      [
        "r",
        "a"
      ],
      [
        "Ġwh",
        "ich"
      ],
      [
        "Ġm",
        "y"
      ],
      [
        "Ġs",
        "a"
      ],
      [
        "g",
        "e"
      ],
      [
        "Ġs",
        "u"
      ],
      [
        "Ġs",
        "o"
      ],
      [
        "u",
        "l"
      ],
      [
        "om",
        "e"
      ],
      [
        "Ċ",
        "Ċ"
      ],
      [
        "Ġ",
        "k"
      ],
      [
        "Ġha",
        "ve"
      ],
      [
        "i",
        "ght"
      ],
      [
        "Ġa",
        "ll"
      ],
      [
        "Ġ",
        "W"
      ],
      [
        "Ġthe",
        "y"
      ],
      [
        "p",
        "p"
      ],
      [
        "Ġd",
        "e"
      ],
      [
        "es",
        "t"
      ],
      [
        "Ġo",
        "r"
      ],
      [
        "Ġb",
        "ut"
      ],
      [
        "Ġu",
        "p"
      ],
      [
        "Ġf",
        "rom"
      ],
      [
        "q",
        "u"
      ],
      [
        "Ġ",
        "\""
      ],
      [
        "at",
        "ion"
      ],
      [
        "Ġ",
        "L"
      ],
      [
        "Ġth",
        "is"
      ],
      [
        "Ġ",
        "v"
      ],
      [
        "re",
        "s"
      ],
      [
        "Ġc",
        "on"
      ],
      [
        "Ġw",
        "he"
      ],
      [
        "ou",
        "s"
      ],
      [
        "e",
        "m"
      ],
      [
        "a",
        "b"
      ],
      [
        "n",
        "t"
      ],
      [
        "ar",
        "d"
      ],
      [
        "Ġ",
        "r"
      ],
      [
        "o",
        "l"
      ],
      [
        "Ġs",
        "h"
      ],
      [
        "Ġs",
        "he"
      ],
      [
        "Ġwe",
        "re"
      ],
      [
        "Ġthe",
        "m"
      ],
      [
        "an",
        "t"
      ],
      [
        "Ġ",
        "P"
      ],
      [
        "Ġm",
        "an"
      ],
      [
        "ou",
        "r"
      ],
      [
        "e",
        "l"
      ],
      [
        "Ġ",
        "G"
      ],
      [
        "er",
        "s"
      ],
      [
        "u",
        "st"
      ],
      [
        "am",
        "e"
      ],
      [
        "o",
        "s"
      ],
      [
        "u",
        "m"
      ],
      [
        "Ġn",
        "e"
      ],
      [
        "on",
        "g"
      ],
      [
        "is",
        "t"
      ],
      [
        "Ġg",
        "o"
      ],
      [
        "Ġs",
        "p"
      ],
      [
        "Ġthe",
        "ir"
      ],
      [
        "ar",
        "t"
      ],
      [
        "Ġd",
        "o"
      ],
      [
        "Ġe",
        "x"
      ],
      [
        "Ġa",
        "re"
      ],
      [
        ".",
        "\""
      ],
      [
        "Ġwh",
        "o"
      ],
      [
        "as",
        "t"
      ],
      [
        "o",
        "k"
      ],
      [
        "Ġ",
        "F"
      ],
      [
        "in",
        "d"
      ],
      [
        "o",
        "p"
      ],
      [
        "i",
        "e"
      ],
      [
        "u",
        "n"
      ],
      [
        "Ġon",
        "e"
      ],
      [
        "i",
        "g"
      ],
      [
        "ĠA",
        "nd"
      ],
      [
        "Ġl",
        "o"
      ],
      [
        "Ġa",
        "l"
      ],
      [
        "Ġ",
        "O"
      ],
      [
        "ou",
        "nd"
      ],
      [
        "Ġsa",
        "id"
      ],
      [
        "or",
        "d"
      ],
      [
        "se",
        "l"
      ],
      [
        "ou",
        "t"
      ],
      [
        "Ġn",
        "o"
      ],
      [
        "ver",
        "y"
      ],
      [
        "e",
        "ll"
      ],
      [
        "i",
        "ve"
      ],
      [
        "Ġs",
        "ha"
      ],
      [
        "Ġu",
        "n"
      ],
      [
        "Ċ",
        "ĠĠĠĠĠĠĠĠ"
      ],
      [
        "i",
        "v"
      ],
      [
        "Ġthe",
        "re"
      ],
      [
        "a",
        "k"
      ],
      [
        "ec",
        "t"
      ],
      [
        "at",
        "e"
      ],
      [
        "e",
        "ar"
      ],
      [
        "c",
        "t"
      ],
      [
        "ha",
        "n"
      ],
      [
        "T",
        "he"
      ],
      [
        "Ġc",
        "om"
      ],
      [
        "Ġ",
        "E"
      ],
      [
        "on",
        "e"
      ],
      [
        "p",
        "t"
      ],
      [
        "Ġ",
        "N"
      ],
      [
        "it",
        "y"
      ],
      [
        "ow",
        "n"
      ],
      [
        "re",
        "at"
      ],
      [
        "Ġa",
        "b"
      ],
      [
        "ou",
        "gh"
      ],
      [
        "Ġw",
        "ill"
      ],
      [
        "Ġo",
        "ut"
      ],
      [
        "Ġ",
        "D"
      ],
      [
        "Ġk",
        "n"
      ],
      [
        "Ġw",
        "ould"
      ],
      [
        ",",
        "\""
      ],
      [
        "r",
        "y"
      ],
      [
        "u",
        "re"
      ],
      [
        "or",
        "t"
      ],
      [
        "ĊĠĠĠĠĠĠĠĠ",
        "ĠĠ"
      ],
      [
        "Ġp",
        "ro"
      ],
      [
        "Ġwhe",
        "n"
      ],
      [
        "Ġp",
        "l"
      ],
      [
        "i",
        "es"
      ],
      [
        "Ġ",
        "J"
      ],
      [
        "in",
        "e"
      ],
      [
        "a",
        "u"
      ],
      [
        "v",
        "en"
      ],
      [
        "t",
        "her"
      ],
      [
        "it",
        "t"
      ],
      [
        "ĠH",
        "e"
      ],
      [
        "o",
        "se"
      ],
      [
        "a",
        "ke"
      ],
      [
        "Ġ",
        "1"
      ],
      [
        "Ġl",
        "e"
      ],
      [
        "Ġbe",
        "en"
      ],
      [
        "id",
        "e"
      ],
      [
        "o",
        "st"
      ],
      [
        "a",
        "ce"
      ],
      [
        "a",
        "g"
      ],
      [
        "he",
        "d"
      ],
      [
        "Ġ",
        "j"
      ],
      [
        "as",
        "s"
      ],
      [
        "Ġa",
        "r"
      ],
      [
        "sel",
        "f"
      ],
      [
        "o",
        "f"
      ],
      [
        "e",
        "p"
      ],
      [
        "f",
        "ore"
      ],
      [
        "Ġa",
        "g"
      ],
      [
        "ac",
        "k"
      ],
      [
        "Ġ",
        "R"
      ],
      [
        "e",
        "nd"
      ],
      [
        "Ġyou",
        "r"
      ],
      [
        "a",
        "re"
      ],
      [
        "Ġl",
        "i"
      ],
      [
        "im",
        "e"
      ],
      [
        "Ġw",
        "or"
      ],
      [
        "o",
        "nd"
      ],
      [
        "Ġup",
        "on"
      ],
      [
        "c",
        "k"
      ],
      [
        "h",
        "i"
      ],
      [
        "Ġ",
        "if"
      ],
      [
        "Ġa",
        "m"
      ],
      [
        "Ġm",
        "ore"
      ],
      [
        "Ġin",
        "to"
      ],
      [
        "Ġsha",
        "ll"
      ],
      [
        "is",
        "h"
      ],
      [
        "u",
        "d"
      ],
      [
        "Ġt",
        "r"
      ],
      [
        "o",
        "od"
      ],
      [
        "Ġth",
        "ou"
      ],
      [
        "Ġa",
        "f"
      ],
      [
        "Ġu",
        "s"
      ],
      [
        "Ċ",
        "ĠĠĠĠ"
      ],
      [
        "m",
        "ent"
      ],
      [
        "Ġb",
        "r"
      ],
      [
        "ing",
        "s"
      ],
      [
        "an",
        "ce"
      ],
      [
        "ot",
        "her"
      ],
      [
        "p",
        "l"
      ],
      [
        "ur",
        "n"
      ],
      [
        "ad",
        "e"
      ],
      [
        "Ġ",
        "("
      ],
      [
        "ic",
        "e"
      ],
      [
        "Ġw",
        "hat"
      ],
      [
        "Ġ",
        "qu"
      ],
      [
        "Ġo",
        "ther"
      ],
      [
        "c",
        "c"
      ],
      [
        "w",
        "e"
      ],
      [
        "Ġs",
        "ome"
      ],
      [
        "w",
        "ay"
      ],
      [
        "en",
        "ce"
      ],
      [
        "ab",
        "le"
      ],
      [
        "Ġt",
        "w"
      ],
      [
        "'",
        "t"
      ],
      [
        "Ġc",
        "an"
      ],
      [
        "Ġan",
        "y"
      ],
      [
        "Ġ",
        "ro"
      ],
      [
        "it",
        "e"
      ],
      [
        "p",
        "er"
      ],
      [
        "Ġc",
        "ould"
      ],
      [
        "Ġf",
        "e"
      ],
      [
        "Ġt",
        "han"
      ],
      [
        "Ġd",
        "ay"
      ],
      [
        "b",
        "le"
      ],
      [
        "Ġp",
        "r"
      ],
      [
        "Ġ",
        "en"
      ],
      [
        "Ġo",
        "ur"
      ],
      [
        "u",
        "e"
      ],
      [
        "Ġb",
        "l"
      ],
      [
        "Ġc",
        "l"
      ],
      [
        "ou",
        "nt"
      ],
      [
        "a",
        "v"
      ],
      [
        "re",
        "e"
      ],
      [
        "Ġt",
        "ime"
      ],
      [
        "i",
        "re"
      ],
      [
        "b",
        "e"
      ],
      [
        "Ġs",
        "ay"
      ],
      [
        "Ġg",
        "reat"
      ],
      [
        "n",
        "e"
      ],
      [
        "w",
        "n"
      ],
      [
        "Ġd",
        "id"
      ],
      [
        "0",
        "0"
      ],
      [
        "i",
        "ous"
      ],
      [
        "at",
        "her"
      ],
      [
        "an",
        "s"
      ],
      [
        "Ġg",
        "r"
      ],
      [
        "Ġn",
        "ow"
      ],
      [
        "Ġag",
        "ain"
      ],
      [
        "ĠT",
        "h"
      ],
      [
        "Ġse",
        "e"
      ],
      [
        "Ġ",
        "_"
      ],
      [
        "Ġd",
        "is"
      ],
      [
        "n",
        "g"
      ],
      [
        "itt",
        "le"
      ],
      [
        "a",
        "ge"
      ],
      [
        "Ġ",
        "very"
      ],
      [
        "Ġthe",
        "n"
      ],
      [
        "Ġo",
        "ver"
      ],
      [
        "Ġha",
        "nd"
      ],
      [
        "h",
        "ing"
      ],
      [
        "Ġ",
        "im"
      ],
      [
        "Ġa",
        "d"
      ],
      [
        "Ġli",
        "ke"
      ],
      [
        "a",
        "p"
      ],
      [
        "o",
        "ld"
      ],
      [
        "ĠI",
        "t"
      ],
      [
        "Ġ",
        "'"
      ],
      [
        "ĠĠĠĠĠĠĠĠ",
        "ĠĠĠĠĠĠĠĠ"
      ],
      [
        "all",
        "y"
      ],
      [
        "if",
        "e"
      ],
      [
        "t",
        "e"
      ],
      [
        "Ġkn",
        "ow"
      ],
      [
        "ĠB",
        "ut"
      ],
      [
        "Ġf",
        "l"
      ],
      [
        "ic",
        "k"
      ],
      [
        "nd",
        "er"
      ],
      [
        "Ġp",
        "er"
      ],
      [
        "at",
        "h"
      ],
      [
        "Ġp",
        "e"
      ],
      [
        "i",
        "ed"
      ],
      [
        "res",
        "s"
      ],
      [
        "n",
        "ess"
      ],
      [
        "Ġha",
        "s"
      ],
      [
        "in",
        "k"
      ],
      [
        "Ġsh",
        "ould"
      ],
      [
        "u",
        "ch"
      ],
      [
        "b",
        "er"
      ],
      [
        "?",
        "\""
      ],
      [
        "Ġab",
        "out"
      ],
      [
        "v",
        "ed"
      ],
      [
        "ion",
        "s"
      ],
      [
        "b",
        "l"
      ],
      [
        "o",
        "ll"
      ],
      [
        "Ġof",
        "f"
      ],
      [
        "f",
        "f"
      ],
      [
        "Ġm",
        "ade"
      ],
      [
        "Ġl",
        "ittle"
      ],
      [
        "Ġa",
        "pp"
      ],
      [
        "Ġbe",
        "fore"
      ],
      [
        "Ġgo",
        "od"
      ],
      [
        "Ġit",
        "s"
      ],
      [
        "at",
        "ed"
      ],
      [
        "Ġth",
        "r"
      ],
      [
        "f",
        "ul"
      ],
      [
        "or",
        "n"
      ],
      [
        "Ġb",
        "o"
      ],
      [
        "w",
        "ard"
      ],
      [
        "Ġaf",
        "ter"
      ],
      [
        "ir",
        "st"
      ],
      [
        "Ġd",
        "own"
      ],
      [
        "u",
        "ll"
      ],
      [
        "â",
        "Ģ"
      ],
      [
        "s",
        "o"
      ],
      [
        "E",
        "R"
      ],
      [
        "Ġ",
        "K"
      ],
      [
        "Ġm",
        "en"
      ],
      [
        ".",
        ","
      ],
      [
        "Ġc",
        "ame"
      ],
      [
        "ac",
        "h"
      ],
      [
        "r",
        "u"
      ],
      [
        "Ġm",
        "ay"
      ],
      [
        "ac",
        "t"
      ],
      [
        "Ġthe",
        "se"
      ],
      [
        "Ġtw",
        "o"
      ],
      [
        "Ġon",
        "ly"
      ],
      [
        "Ġlo",
        "ok"
      ],
      [
        "is",
        "e"
      ],
      [
        "ar",
        "y"
      ],
      [
        "i",
        "le"
      ],
      [
        "on",
        "s"
      ],
      [
        "t",
        "ain"
      ],
      [
        "a",
        "ve"
      ],
      [
        "Ċ",
        "ĊĠ"
      ],
      [
        "ar",
        "k"
      ],
      [
        "c",
        "i"
      ],
      [
        "ig",
        "n"
      ],
      [
        "t",
        "y"
      ],
      [
        "Ġp",
        "art"
      ],
      [
        "f",
        "or"
      ],
      [
        "Ġp",
        "re"
      ],
      [
        "Ġp",
        "o"
      ],
      [
        "Ġ",
        "2"
      ],
      [
        "re",
        "n"
      ],
      [
        "Ġ",
        "Y"
      ],
      [
        "Ġwhe",
        "re"
      ],
      [
        "Ġl",
        "ong"
      ],
      [
        "ri",
        "ght"
      ],
      [
        "Ġd",
        "es"
      ],
      [
        "t",
        "ed"
      ],
      [
        "he",
        "n"
      ],
      [
        "o",
        "ve"
      ],
      [
        "Ġc",
        "ha"
      ],
      [
        "Ġh",
        "ow"
      ],
      [
        "Ġc",
        "ome"
      ],
      [
        "ĠG",
        "od"
      ],
      [
        "Ġre",
        "m"
      ],
      [
        "an",
        "g"
      ],
      [
        "Ġsu",
        "ch"
      ],
      [
        "Ġm",
        "ust"
      ],
      [
        "ou",
        "se"
      ],
      [
        "op",
        "le"
      ],
      [
        "Ġs",
        "c"
      ],
      [
        "Ġw",
        "ay"
      ],
      [
        "Ġo",
        "ld"
      ],
      [
        "Ġm",
        "uch"
      ],
      [
        "Ġf",
        "irst"
      ],
      [
        "ot",
        "h"
      ],
      [
        "Ġbe",
        "c"
      ],
      [
        "Ġun",
        "to"
      ],
      [
        "Ġc",
        "h"
      ],
      [
        "Ġu",
        "nder"
      ],
      [
        "m",
        "an"
      ],
      [
        "f",
        "t"
      ],
      [
        "Ġe",
        "very"
      ],
      [
        "c",
        "l"
      ],
      [
        "Ġo",
        "wn"
      ],
      [
        "Ġm",
        "ight"
      ],
      [
        "Ġe",
        "ar"
      ],
      [
        "O",
        "R"
      ],
      [
        "e",
        "red"
      ],
      [
        "!",
        "\""
      ],
      [
        "ĠI",
        "n"
      ],
      [
        "Ġe",
        "ven"
      ],
      [
        "i",
        "z"
      ],
      [
        "Ġp",
        "ass"
      ],
      [
        "p",
        "s"
      ],
      [
        "0",
        "1"
      ],
      [
        "Ġwe",
        "ll"
      ],
      [
        "i",
        "a"
      ],
      [
        "'",
        "d"
      ],
      [
        "i",
        "an"
      ],
      [
        "au",
        "se"
      ],
      [
        "Ġg",
        "l"
      ],
      [
        "Ġbe",
        "t"
      ],
      [
        "Ġne",
        "ver"
      ],
      [
        "or",
        "s"
      ],
      [
        "Ġs",
        "m"
      ],
      [
        "Ġcom",
        "p"
      ],
      [
        "Ġpe",
        "ople"
      ],
      [
        "os",
        "s"
      ],
      [
        "t",
        "hat"
      ],
      [
        "Ġth",
        "ose"
      ],
      [
        "f",
        "e"
      ],
      [
        "Ġth",
        "y"
      ],
      [
        "Ġe",
        "y"
      ],
      [
        "ĊĊ",
        "ĠĠĠĠ"
      ],
      [
        "Ġthr",
        "ough"
      ],
      [
        "Ġre",
        "s"
      ],
      [
        "he",
        "s"
      ],
      [
        "ad",
        "y"
      ],
      [
        "Ġman",
        "y"
      ],
      [
        "k",
        "ed"
      ],
      [
        "Ġc",
        "all"
      ],
      [
        "Ġcom",
        "m"
      ],
      [
        "ear",
        "s"
      ],
      [
        "at",
        "er"
      ],
      [
        "Ġs",
        "l"
      ],
      [
        "a",
        "ir"
      ],
      [
        "ĠM",
        "r"
      ],
      [
        "v",
        "es"
      ],
      [
        "Ġa",
        "cc"
      ],
      [
        "l",
        "ed"
      ],
      [
        "ri",
        "ed"
      ],
      [
        "Ġm",
        "ost"
      ],
      [
        "or",
        "y"
      ],
      [
        "an",
        "c"
      ],
      [
        "Ġl",
        "et"
      ],
      [
        "Ġw",
        "ent"
      ],
      [
        "p",
        "e"
      ],
      [
        "Ġl",
        "ife"
      ],
      [
        "ou",
        "ght"
      ],
      [
        "Ġ",
        "i"
      ],
      [
        "Ġbe",
        "ing"
      ],
      [
        "v",
        "ing"
      ],
      [
        "a",
        "w"
      ],
      [
        "Ġst",
        "r"
      ],
      [
        "i",
        "ly"
      ],
      [
        "Ġm",
        "ake"
      ],
      [
        "n",
        "ot"
      ],
      [
        "Ġb",
        "ack"
      ],
      [
        "Ġcon",
        "t"
      ],
      [
        "Ġ",
        "V"
      ],
      [
        "Ġk",
        "ing"
      ],
      [
        "Ġhim",
        "self"
      ],
      [
        "Ġw",
        "r"
      ],
      [
        "Ġbe",
        "g"
      ],
      [
        "en",
        "s"
      ],
      [
        "ĠS",
        "he"
      ],
      [
        "is",
        "s"
      ],
      [
        "e",
        "w"
      ],
      [
        "Ġ",
        "ra"
      ],
      [
        "Ġhe",
        "re"
      ],
      [
        "d",
        "e"
      ],
      [
        "m",
        "er"
      ],
      [
        "w",
        "h"
      ],
      [
        "Ġw",
        "ord"
      ],
      [
        "Ġbe",
        "l"
      ],
      [
        "Ġ",
        "3"
      ],
      [
        "Ġthou",
        "ght"
      ],
      [
        "Ġse",
        "em"
      ],
      [
        "e",
        "ver"
      ],
      [
        "i",
        "gh"
      ],
      [
        "Ġcon",
        "s"
      ],
      [
        "ul",
        "t"
      ],
      [
        "r",
        "ow"
      ],
      [
        "Ġth",
        "ink"
      ],
      [
        "o",
        "g"
      ],
      [
        "et",
        "h"
      ],
      [
        "Ġa",
        "way"
      ],
      [
        "it",
        "her"
      ],
      [
        "Ġf",
        "ound"
      ],
      [
        "o",
        "y"
      ],
      [
        "ation",
        "s"
      ],
      [
        "in",
        "t"
      ],
      [
        "Ġo",
        "b"
      ],
      [
        "Ġwor",
        "k"
      ],
      [
        "ĠC",
        "h"
      ],
      [
        "Ġhe",
        "ad"
      ],
      [
        "hi",
        "ld"
      ],
      [
        ")",
        ","
      ],
      [
        "Ġs",
        "er"
      ],
      [
        "Ġh",
        "ouse"
      ],
      [
        "Ġim",
        "p"
      ],
      [
        "as",
        "e"
      ],
      [
        "Ġto",
        "o"
      ],
      [
        "l",
        "ess"
      ],
      [
        "ow",
[...]
