{
  "version": "1.0",
  "truncation": null,
  "padding": null,
  "added_tokens": [
    {
      "id": 0,
      "content": "<unk>",
      "single_word": false,
      "lstrip": false,
      "rstrip": false,
      "normalized": false,
      "special": true
    },
    {
      "id": 1,
      "content": "<pad>",
      "single_word": false,
      "lstrip": false,
      "rstrip": false,
      "normalized": false,
      "special": true
    },
    {
      "id": 2,
      "content": "<bos>",
      "single_word": false,
      "lstrip": false,
      "rstrip": false,
      "normalized": false,
      "special": true
    },
    {
      "id": 3,
      "content": "<eos>",
      "single_word": false,
      "lstrip": false,
      "rstrip": false,
      "normalized": false,
      "special": true
    }
  ],
  "normalizer": {
    "type": "NFKC"
  },
  "pre_tokenizer": {
    "type": "Sequence",
    "pretokenizers": [
      {
        "type": "Digits",
        "individual_digits": false
      },
      {
        "type": "ByteLevel",
        "add_prefix_space": false,
        "trim_offsets": true,
        "use_regex": true
      }
    ]
  },
  "post_processor": null,
  "decoder": {
    "type": "ByteLevel",
    "add_prefix_space": true,
    "trim_offsets": true,
    "use_regex": true
  },
  "model": {
    "type": "BPE",
    "dropout": null,
    "unk_token": "<unk>",
    "continuing_subword_prefix": null,
    "end_of_word_suffix": null,
    "fuse_unk": false,
    "byte_fallback": false,
    "ignore_merges": false,
    "vocab": {
      "<unk>": 0,
      "<pad>": 1,
      "<bos>": 2,
      "<eos>": 3,
      "!": 4,
      "\"": 5,
      "#": 6,
      "$": 7,
      "%": 8,
      "&": 9,
      "'": 10,
      "(": 11,
      ")": 12,
      "*": 13,
      "+": 14,
      ",": 15,
      "-": 16,
      ".": 17,
      "/": 18,
      "0": 19,
      "1": 20,
      "2": 21,
      "3": 22,
      "4": 23,
      "5": 24,
      "6": 25,
      "7": 26,
      "8": 27,
      "9": 28,
      ":": 29,
      ";": 30,
      "<": 31,
      "=": 32,
      ">": 33,
      "?": 34,
      "@": 35,
      "A": 36,
      "B": 37,
      "C": 38,
      "D": 39,
      "E": 40,
      "F": 41,
      "G": 42,
      "H": 43,
      "I": 44,
      "J": 45,
      "K": 46,
      "L": 47,
      "M": 48,
      "N": 49,
      "O": 50,
      "P": 51,
      "Q": 52,
      "R": 53,
      "S": 54,
      "T": 55,
      "U": 56,
      "V": 57,
      "W": 58,
      "X": 59,
      "Y": 60,
      "Z": 61,
      "[": 62,
      "\\": 63,
      "]": 64,
      "^": 65,
      "_": 66,
      "`": 67,
      "a": 68,
      "b": 69,
      "c": 70,
      "d": 71,
      "e": 72,
      "f": 73,
      "g": 74,
      "h": 75,
      "i": 76,
      "j": 77,
      "k": 78,
      "l": 79,
      "m": 80,
      "n": 81,
      "o": 82,
      "p": 83,
      "q": 84,
      "r": 85,
      "s": 86,
      "t": 87,
      "u": 88,
      "v": 89,
      "w": 90,
      "x": 91,
      "y": 92,
      "z": 93,
      "{": 94,
      "|": 95,
      "}": 96,
      "~": 97,
      "¡": 98,
      "¢": 99,
      "£": 100,
      "¤": 101,
      "¥": 102,
      "¦": 103,
      "§": 104,
      "¨": 105,
      "©": 106,
      "ª": 107,
      "«": 108,
      "¬": 109,
      "®": 110,
      "¯": 111,
      "°": 112,
      "±": 113,
      "²": 114,
      "³": 115,
      "´": 116,
      "µ": 117,
      "¶": 118,
      "·": 119,
      "¸": 120,
      "¹": 121,
      "º": 122,
      "»": 123,
      "¼": 124,
      "½": 125,
      "¾": 126,
      "¿": 127,
      "À": 128,
      "Á": 129,
      "Â": 130,
      "Ã": 131,
      "Ä": 132,
      "Å": 133,
      "Æ": 134,
      "Ç": 135,
      "È": 136,
      "É": 137,
      "Ê": 138,
      "Ë": 139,
      "Ì": 140,
      "Í": 141,
      "Î": 142,
      "Ï": 143,
      "Ð": 144,
      "Ñ": 145,
      "Ò": 146,
      "Ó": 147,
      "Ô": 148,
      "Õ": 149,
      "Ö": 150,
      "×": 151,
      "Ø": 152,
      "Ù": 153,
      "Ú": 154,
      "Û": 155,
      "Ü": 156,
      "Ý": 157,
      "Þ": 158,
      "ß": 159,
      "à": 160,
      "á": 161,
      "â": 162,
      "ã": 163,
      "ä": 164,
      "å": 165,
      "æ": 166,
      "ç": 167,
      "è": 168,
      "é": 169,
      "ê": 170,
      "ë": 171,
      "ì": 172,
      "í": 173,
      "î": 174,
      "ï": 175,
      "ð": 176,
      "ñ": 177,
      "ò": 178,
      "ó": 179,
      "ô": 180,
      "õ": 181,
      "ö": 182,
      "÷": 183,
      "ø": 184,
      "ù": 185,
      "ú": 186,
      "û": 187,
      "ü": 188,
      "ý": 189,
      "þ": 190,
      "ÿ": 191,
      "Ā": 192,
      "ā": 193,
      "Ă": 194,
      "ă": 195,
      "Ą": 196,
      "ą": 197,
      "Ć": 198,
      "ć": 199,
      "Ĉ": 200,
      "ĉ": 201,
      "Ċ": 202,
      "ċ": 203,
      "Č": 204,
      "č": 205,
      "Ď": 206,
      "ď": 207,
      "Đ": 208,
      "đ": 209,
      "Ē": 210,
      "ē": 211,
      "Ĕ": 212,
      "ĕ": 213,
      "Ė": 214,
      "ė": 215,
      "Ę": 216,
      "ę": 217,
      "Ě": 218,
      "ě": 219,
      "Ĝ": 220,
      "ĝ": 221,
      "Ğ": 222,
      "ğ": 223,
      "Ġ": 224,
      "ġ": 225,
      "Ģ": 226,
      "ģ": 227,
      "Ĥ": 228,
      "ĥ": 229,
      "Ħ": 230,
      "ħ": 231,
      "Ĩ": 232,
      "ĩ": 233,
      "Ī": 234,
      "ī": 235,
      "Ĭ": 236,
      "ĭ": 237,
      "Į": 238,
      "į": 239,
      "İ": 240,
      "ı": 241,
      "Ĳ": 242,
      "ĳ": 243,
      "Ĵ": 244,
      "ĵ": 245,
      "Ķ": 246,
      "ķ": 247,
      "ĸ": 248,
      "Ĺ": 249,
      "ĺ": 250,
      "Ļ": 251,
      "ļ": 252,
      "Ľ": 253,
      "ľ": 254,
      "Ŀ": 255,
      "ŀ": 256,
      "Ł": 257,
      "ł": 258,
      "Ń": 259,
      "Ġt": 260,
      "he": 261,
      "Ġa": 262,
      "in": 263,
      "Ġthe": 264,
      "Ġo": 265,
      "Ġw": 266,
      "re": 267,
      "Ġs": 268,
      "nd": 269,
      "er": 270,
      "ha": 271,
      "Ġb": 272,
      "is": 273,
      "Ġof": 274,
      "ou": 275,
      "it": 276,
      "on": 277,
      "ed": 278,
      "en": 279,
      "Ġf": 280,
      "Ġc": 281,
      "Ġm": 282,
      "Ġand": 283,
      "Ġto": 284,
      "es": 285,
      "or": 286,
      "Ġp": 287,
      "ing": 288,
      "Ġin": 289,
      "Ġd": 290,
      "ar": 291,
      "ll": 292,
      "at": 293,
      "an": 294,
      "as": 295,
      "Ġl": 296,
      "Ġh": 297,
      "Ġn": 298,
      "om": 299,
      "Ġhe": 300,
      "ic": 301,
      "Ġha": 302,
      "Ġbe": 303,
      "le": 304,
      "Ġg": 305,
      "Ġe": 306,
      "hat": 307,
      "ot": 308,
      "ĠI": 309,
      "ion": 310,
      "st": 311,
      "ut": 312,
      "ve": 313,
      "ow": 314,
      "ent": 315,
      "al": 316,
      "se": 317,
      "ly": 318,
      "im": 319,
      "Ġre": 320,
      "Ġth": 321,
      "ld": 322,
      "ce": 323,
      "id": 324,
      "Ġthat": 325,
      "Ġwas": 326,
      "Ġon": 327,
      "gh": 328,
      "Ġwh": 329,
      "ĠT": 330,
      "Ġit": 331,
      "ir": 332,
      "Ġu": 333,
      "Ġy": 334,
      "et": 335,
      "ver": 336,
      "ith": 337,
      "ur": 338,
      "Ġfor": 339,
      "ay": 340,
      "Ġas": 341,
      "Ġwith": 342,
      "ro": 343,
      "Ġhis": 344,
      "Ġis": 345,
      "ct": 346,
      "Ġwe": 347,
      "ad": 348,
      "ĠS": 349,
      "Ġst": 350,
      "--": 351,
      "ri": 352,
      "Ġyou": 353,
      "ĠA": 354,
      "ch": 355,
      "am": 356,
      "her": 357,
      "Ġan": 358,
      "ght": 359,
      "Ġnot": 360,
      "ra": 361,
      "ĠM": 362,
      "Ġat": 363,
      "ter": 364,
      "ĠC": 365,
      "Ġhad": 366,
      "ill": 367,
      "ĠH": 368,
      "if": 369,
      "ĠThe": 370,
      "oo": 371,
      "il": 372,
      "Ġse": 373,
      "ould": 374,
      "ain": 375,
      "Ġsu": 376,
      "ĠB": 377,
      "ich": 378,
      "Ġby": 379,
      "ke": 380,
      "Ġher": 381,
      "ess": 382,
      "Ġde": 383,
      "red": 384,
      "rom": 385,
      "Ġwhich": 386,
      "âĢ": 387,
      "ore": 388,
      "pe": 389,
      "ul": 390,
      "Ġcon": 391,
      "Ġme": 392,
      "all": 393,
      "ge": 394,
      "Ġ\"": 395,
      "ation": 396,
      "Ġhim": 397,
      "th": 398,
      "Ġor": 399,
      "Ġso": 400,
      "us": 401,
      "qu": 402,
      "Ġhave": 403,
      "ac": 404,
      "and": 405,
      "Ġfrom": 406,
      "ĠP": 407,
      "ĠW": 408,
      "est": 409,
      "'s": 410,
      "res": 411,
      "Ġex": 412,
      "Ġv": 413,
      "ome": 414,
      "Ġbut": 415,
      "Ġall": 416,
      "Ġsa": 417,
      "nt": 418,
      "ight": 419,
      "Ġne": 420,
      "ĠL": 421,
      "Ġthis": 422,
      "Ġk": 423,
      "ers": 424,
      "ol": 425,
      "ous": 426,
      "ant": 427,
      "ble": 428,
      "ist": 429,
      "pp": 430,
      "Ġwere": 431,
      "Ġsh": 432,
      "os": 433,
      "Ġshe": 434,
      "Ġare": 435,
      "Ġwhe": 436,
      "em": 437,
      "Ġthey": 438,
      "Ġup": 439,
      "Ġr": 440,
      "ĠG": 441,
      "Ġ_": 442,
      "Ġmy": 443,
      "um": 444,
      "ard": 445,
      "Ġwho": 446,
      "our": 447,
      "ust": 448,
      "ie": 449,
      ".\"": 450,
      "art": 451,
      "ĠF": 452,
      "ate": 453,
      "Ġman": 454,
      "Ġal": 455,
      "Ġcom": 456,
      "ig": 457,
      "Ġtheir": 458,
      "Ġone": 459,
      "Ġdo": 460,
      "ĠE": 461,
      "ong": 462,
      "ĠD": 463,
      "el": 464,
      "ast": 465,
      "Ġint": 466,
      "Ġthem": 467,
      "iv": 468,
      "very": 469,
      "ive": 470,
      "ame": 471,
      "Ġpro": 472,
      "ind": 473,
      "ound": 474,
      "pt": 475,
      "un": 476,
      "out": 477,
      "Ġno": 478,
      "ĠR": 479,
      "ort": 480,
      "Ġwor": 481,
      "ood": 482,
      "ity": 483,
      "han": 484,
      "lf": 485,
      "Ġle": 486,
      "Ġbeen": 487,
      ",\"": 488,
      "ak": 489,
      "od": 490,
      "ell": 491,
      "ĠN": 492,
      "Ġab": 493,
      "ies": 494,
      "ĠO": 495,
      "ost": 496,
      "Ġwould": 497,
      "Ġsaid": 498,
      "ough": 499,
      "Ġthere": 500,
      "ure": 501,
      "ther": 502,
      "reat": 503,
      "Ġpl": 504,
      "Ġkn": 505,
      "ry": 506,
      "The": 507,
      "op": 508,
      "Ġwill": 509,
      "ect": 510,
      "Ġout": 511,
      "own": 512,
      "ĠJ": 513,
      "itt": 514,
      "Ġar": 515,
      "one": 516,
      "ĠHe": 517,
      "ck": 518,
      "ff": 519,
      "Ġwhen": 520,
      "ish": 521,
      "ment": 522,
      "ine": 523,
      "hed": 524,
      "Ġun": 525,
      "ag": 526,
      "Ġj": 527,
      "cc": 528,
      "ide": 529,
      "Ġfe": 530,
      "Ġfa": 531,
      "ose": 532,
      "ond": 533,
      "Ġqu": 534,
      "au": 535,
      "ci": 536,
      "Ġsp": 537,
      "ook": 538,
      "Ġmore": 539,
      "ass": 540,
      "ence": 541,
      "Ġag": 542,
      "ance": 543,
      "ven": 544,
      "Ġli": 545,
      "Ġtim": 546,
      "Ġother": 547,
      "ake": 548,
      "self": 549,
      "able": 550,
      "per": 551,
      "Ġsome": 552,
      "ru": 553,
      "Ġgo": 554,
      "Ġcan": 555,
      "Ġany": 556,
      "ack": 557,
      "ice": 558,
      "Ġim": 559,
      "Ġhas": 560,
      "Ġif": 561,
      "Ġad": 562,
      "Ġinto": 563,
      "Ġen": 564,
      "pl": 565,
      "Ġtw": 566,
      "Ġus": 567,
      "end": 568,
      "Ġdis": 569,
      "Ġam": 570,
      "ab": 571,
      "Ġcl": 572,
      "ally": 573,
      "Ġ(": 574,
      "Ġro": 575,
      "ount": 576,
      "Ġthan": 577,
      "ord": 578,
      "are": 579,
      "ng": 580,
      "ud": 581,
      "Ġwhat": 582,
      "ĠIt": 583,
      "ade": 584,
      "Ġch": 585,
      "ire": 586,
      "Ġcould": 587,
      "ove": 588,
      "ite": 589,
      "ions": 590,
      "fter": 591,
      "fore": 592,
      "ary": 593,
      "urn": 594,
      "Ġyour": 595,
      "ree": 596,
      "Ġvery": 597,
      "Ġits": 598,
      "ars": 599,
      "ber": 600,
      "Ġtime": 601,
      "Ġsha": 602,
      "Ġour": 603,
      "ays": 604,
      "ep": 605,
      "wn": 606,
      "Ġgreat": 607,
      "ress": 608,
      "ans": 609,
      "Ġper": 610,
      "ated": 611,
      "age": 612,
      "Ġupon": 613,
      "Ġbr": 614,
      "âĢĻ": 615,
      "ings": 616,
      "nder": 617,
      "Ġpr": 618,
      "other": 619,
      "ace": 620,
      "ered": 621,
      "ought": 622,
      "Ġover": 623,
      "'t": 624,
      "Ġpart": 625,
      "ap": 626,
      "ile": 627,
      "Ġonly": 628,
      "oll": 629,
      "ere": 630,
      "ittle": 631,
      "ved": 632,
      "ious": 633,
      "Ġbl": 634,
      "Ġabout": 635,
      "Ġpre": 636,
      "âĢľ": 637,
      "Ġnow": 638,
      "Ġshould": 639,
      "Ġlike": 640,
      "Ġknow": 641,
      "Ġthen": 642,
      "ach": 643,
      "Ġgr": 644,
      "Ġtr": 645,
      "Ġagain": 646,
      "oy": 647,
      "Ġoff": 648,
      "ĠMr": 649,
      "ied": 650,
      "Ġfl": 651,
      "bl": 652,
      "Ġlittle": 653,
      "Ġafter": 654,
      "?\"": 655,
      "âĢĿ": 656,
      "Ġdid": 657,
      "tain": 658,
      "hing": 659,
      "ife": 660,
      "av": 661,
      "Ġhand": 662,
      "ick": 663,
      "Ġcha": 664,
      "Ġtoo": 665,
      "Ġsee": 666,
      "uch": 667,
      "ink": 668,
      "ĠAnd": 669,
      "ty": 670,
      "Ġtwo": 671,
      "Ġmade": 672,
      "Ġmay": 673,
      "cl": 674,
      "ather": 675,
      "Ġpo": 676,
      "Ġpe": 677,
      "ĠTh": 678,
      "Ġfir": 679,
      "ild": 680,
      "ull": 681,
      "Ġthr": 682,
      "Ġrem": 683,
      "Ġdes": 684,
      "----": 685,
      "ward": 686,
      "ue": 687,
      "ful": 688,
      "ĠSt": 689,
      "ne": 690,
      "ĠBut": 691,
      "Ġunder": 692,
      "Ġres": 693,
      "Ġye": 694,
      "Ġbefore": 695,
      "Ġthese": 696,
      "ness": 697,
      "ark": 698,
      "Ġri": 699,
      "Ġsuch": 700,
      "Ġlook": 701,
      "Ġhow": 702,
      "ign": 703,
      "int": 704,
      "ĠIn": 705,
      "Ġgood": 706,
      "Ġmust": 707,
      "Ġ'": 708,
      "ĠK": 709,
      "Ġlong": 710,
      "Ġcont": 711,
      "ip": 712,
      "ĠV": 713,
      "ise": 714,
      "Ġspe": 715,
      "we": 716,
      "Ġfirst": 717,
      "Ġcomp": 718,
      "18": 719,
      "Ġmuch": 720,
      "Ġwhere": 721,
      "_,": 722,
      "ian": 723,
      "Ġdown": 724,
      "Ġsc": 725,
      "Ġra": 726,
      "ĠY": 727,
      "Ġbet": 728,
      "Ġbec": 729,
      "ons": 730,
      "ER": 731,
      "Ġcomm": 732,
      "old": 733,
      "ran": 734,
      "Ġevery": 735,
      "oss": 736,
      "ath": 737,
      "og": 738,
      "ia": 739,
      "ces": 740,
      "ft": 741,
      "ory": 742,
      "Ġsm": 743,
      "ition": 744,
      "Ġ|": 745,
      "Ġmen": 746,
      "orn": 747,
      "iss": 748,
      "Ġacc": 749,
      "Ġimp": 750,
      "Ġcons": 751,
      "Ġob": 752,
      "Ġold": 753,
      "Ġind": 754,
      "Ġmost": 755,
      "iz": 756,
      "ater": 757,
      "Ġown": 758,
      "Ġwell": 759,
      "Ġeven": 760,
      "hen": 761,
      "Ġday": 762,
      "Ġatt": 763,
      "Ġaw": 764,
      "ew": 765,
      "._": 766,
      "ave": 767,
      "ced": 768,
      "ily": 769,
      "Ġsay": 770,
      "ady": 771,
      "ens": 772,
      "!\"": 773,
      "Ġwork": 774,
      "Ġnever": 775,
      "ction": 776,
      "hes": 777,
      "ations": 778,
      "man": 779,
      "Ġpres": 780,
      "Ġthose": 781,
      "ors": 782,
      "ult": 783,
      "so": 784,
      "ical": 785,
      "Ġgl": 786,
      "Ġpass": 787,
      "ict": 788,
      "Ġbeing": 789,
      "Ġthrough": 790,
      "ouse": 791,
      "ps": 792,
      "Ġway": 793,
      "Ġapp": 794,
      "ener": 795,
      "iff": 796,
      "ren": 797,
      "Ġwr": 798,
      "Ġap": 799,
      "led": 800,
      "Ġcame": 801,
      "Ġmight": 802,
      "Ġent": 803,
      "Ġhimself": 804,
      "ĠCh": 805,
      "ving": 806,
      "Ġthink": 807,
      "ract": 808,
      "Ġlife": 809,
      "Ġseem": 810,
      "land": 811,
      "ried": 812,
      "Ġmany": 813,
      "Ġform": 814,
      "oth": 815,
      "Ġbel": 816,
      "ever": 817,
      "Ġcome": 818,
      "Ġback": 819,
      "Ġfound": 820,
      "Ġcall": 821,
      "ves": 822,
      "Ġey": 823,
      "te": 824,
      "Ġser": 825,
      "Ġhere": 826,
      "Ġlet": 827,
      "ase": 828,
      "Ġshall": 829,
      "Ġsl": 830,
      "Ġthought": 831,
      "ĠâĢľ": 832,
      "Ġsame": 833,
      "Ġrep": 834,
      "ked": 835,
      "Ġmake": 836,
      "Ġdist": 837,
      "orm": 838,
      "Ġfri": 839,
      "ause": 840,
      "less": 841,
      "ject": 842,
      "Ġwithout": 843,
      "igh": 844,
      "les": 845,
      "..": 846,
      "pect": 847,
      "Ġjust": 848,
      "Ġear": 849,
      "aw": 850,
      "Ġsub": 851,
      "Ġcount": 852,
      "ents": 853,
      "atter": 854,
      "ĠShe": 855,
      "Ġbeg": 856,
      "ock": 857,
      "Ġop": 858,
      "ible": 859,
      "Ġem": 860,
      "the": 861,
      "ople": 862,
      "Ġlast": 863,
      "ix": 864,
      "ged": 865,
      "ished": 866,
      "Ġke": 867,
      "ared": 868,
      "ower": 869,
      "Ġrec": 870,
      "Ġword": 871,
      "Ġend": 872,
      "Ġret": 873,
      "Ġcar": 874,
      "ollow": 875,
      "ial": 876,
      "ang": 877,
      "Ġrel": 878,
      "Ġhead": 879,
      "ened": 880,
      "sel": 881,
      "omet": 882,
      "Ġplace": 883,
      "Ġstill": 884,
      "Ġinf": 885,
      "Ġsupp": 886,
      "Ġac": 887,
      "Ġpeople": 888,
      "ted": 889,
      "00": 890,
      "ertain": 891,
      "Ġwom": 892,
      "Ġwhile": 893,
      "Ġinst": 894,
      "Ġappe": 895,
      "Ġaway": 896,
      "Ġwent": 897,
      "Ġturn": 898,
      "Ġright": 899,
      "Ġdiff": 900,
      "Ġnat": 901,
      "Ġco": 902,
      "Ġget": 903,
      "Ġord": 904,
      "Ġalso": 905,
      "Ġhar": 906,
      "Ġfriend": 907,
      "Ġnew": 908,
      "ince": 909,
      "Ġtak": 910,
      "und": 911,
      "Ġsec": 912,
      "Ġcr": 913,
      "Ġtra": 914,
      "Ġfar": 915,
      "Ġtake": 916,
      "Ġfollow": 917,
      "ĠThey": 918,
      "Ġreg": 919,
      "ks": 920,
      "ently": 921,
      "Ġcour": 922,
      "ates": 923,
      "ined": 924,
      "Ġyoung": 925,
      "cess": 926,
      "ĠU": 927,
      "hy": 928,
      "Ġpers": 929,
      "ual": 930,
      "Ġarm": 931,
      "uth": 932,
      "ib": 933,
      "Ġ*": 934,
      "ple": 935,
      "ited": 936,
      "ss": 937,
      "Ġyears": 938,
      "Ġexp": 939,
      "Ġte": 940,
      "Ġchild": 941,
      "Ġset": 942,
      "ĠThis": 943,
      "not": 944,
      "Ġeyes": 945,
      "Ġhouse": 946,
      "Ġgiv": 947,
      ".,": 948,
      "Ġsur": 949,
      "du": 950,
      "mer": 951,
      "Ġthree": 952,
      "Ġbo": 953,
      "TER": 954,
      "ret": 955,
      "ĠEng": 956,
      "Ġposs": 957,
      "Ġthough": 958,
      "vers": 959,
      "Ġmar": 960,
      "Ġheart": 961,
      "Ġwar": 962,
      "Ġput": 963,
      "ont": 964,
      "cept": 965,
      "Ġyet": 966,
      "ope": 967,
      "Ġev": 968,
      "rib": 969,
      "Ġever": 970,
      "ither": 971,
      "It": 972,
      "li": 973,
      "Ġanother": 974,
      "oc": 975,
      "Ġagainst": 976,
      "Ġgra": 977,
      "Ġleft": 978,
      "Ġsomet": 979,
      "ular": 980,
      "ĠGod": 981,
      "Ġocc": 982,
      "Ġconf": 983,
      "Ġnight": 984,
      "ĠWe": 985,
      "Ġgener": 986,
      "ner": 987,
      "Ġass": 988,
      "Ġinc": 989,
      "Ġext": 990,
      "Ġonce": 991,
      "ween": 992,
      "Ġtell": 993,
      "Ġref": 994,
      "ool": 995,
      "Ġact": 996,
      "RE": 997,
      "Ġdisc": 998,
      "ĠThere": 999,
      "Ġfind": 1000,
      "Ġlight": 1001,
      "air": 1002,
      "ows": 1003,
      "ways": 1004,
      "Ġple": 1005,
      "ning": 1006,
      "Ġfew": 1007,
      "Ġlove": 1008,
      "get": 1009,
      "ins": 1010,
      "Ġnothing": 1011,
      "Ġwant": 1012,
      "Ġeach": 1013,
      "Ġunt": 1014,
      "Ġbetween": 1015,
      "Ġworld": 1016,
      "ph": 1017,
      "Ġpur": 1018,
      "AL": 1019,
      "Ġmind": 1020,
      "âĢĶ": 1021,
      "cy": 1022,
      "Ġlar": 1023,
      "Ġface": 1024,
      "Ġchan": 1025,
      "HE": 1026,
      "ived": 1027,
      "Ġnear": 1028,
      "Ġgive": 1029,
      "ody": 1030,
      "Ġ[": 1031,
      "rew": 1032,
      "17": 1033,
      "ures": 1034,
      "ail": 1035,
      "its": 1036,
      "sw": 1037,
      "ale": 1038,
      "ON": 1039,
      "ised": 1040,
      "har": 1041,
      "ier": 1042,
      "osed": 1043,
      "Ġkind": 1044,
      "gg": 1045,
      "ired": 1046,
      "Ġadv": 1047,
      "Ġsaw": 1048,
      "Ġtook": 1049,
      "aut": 1050,
      "Ġrest": 1051,
      "den": 1052,
      "erm": 1053,
      "ts": 1054,
      "ters": 1055,
      "Ġgu": 1056,
      "ffect": 1057,
      "Ġwater": 1058,
      "Ġfather": 1059,
      "Ġpu": 1060,
      "Ġadd": 1061,
      "ting": 1062,
      "Ġside": 1063,
      "Ġalways": 1064,
      "Ġreturn": 1065,
      "Ġhapp": 1066,
      "ec": 1067,
      "als": 1068,
      "Ġname": 1069,
      "Ġinter": 1070,
      "Ġread": 1071,
      "Ġcalled": 1072,
      "ĠAs": 1073,
      "Ġstre": 1074,
      "ief": 1075,
      "most": 1076,
      "Ġmom": 1077,
      "Ġthings": 1078,
      "xt": 1079,
      "thing": 1080,
      "Ġcountry": 1081,
      "rist": 1082,
      "oot": 1083,
      "Ġstr": 1084,
      "Ġcertain": 1085,
      "att": 1086,
      "ee": 1087,
      "Ġins": 1088,
      "apt": 1089,
      "aught": 1090,
      "Ġpresent": 1091,
      ".âĢĿ": 1092,
      "Ġwhole": 1093,
      "vel": 1094,
      "aking": 1095,
      "Ġsw": 1096,
      "Ġamong": 1097,
      "ross": 1098,
      "Ġsmall": 1099,
      "Ġmon": 1100,
      "Ġfeel": 1101,
      "ating": 1102,
      "Ġdon": 1103,
      "alk": 1104,
      "aid": 1105,
      "ton": 1106,
      "ĠYou": 1107,
      "iness": 1108,
      "Ġhands": 1109,
      "ention": 1110,
      "ten": 1111,
      "ched": 1112,
      "Ġbre": 1113,
      "here": 1114,
      "Ġnor": 1115,
      "ute": 1116,
      "selves": 1117,
      "Ġsoon": 1118,
      "Ġbu": 1119,
      "Ġfell": 1120,
      "ason": 1121,
      "Ġsent": 1122,
      "Ġmin": 1123,
      "Ġhome": 1124,
      "Ġboth": 1125,
      "Ġseen": 1126,
      "ense": 1127,
      "Ġhaving": 1128,
      "He": 1129,
      "Ġlo": 1130,
      "Ġansw": 1131,
      "Ġfam": 1132,
      "wards": 1133,
      "irl": 1134,
      "16": 1135,
      "Ġpoint": 1136,
      "uring": 1137,
      "ully": 1138,
      "ments": 1139,
      "ii": 1140,
      "Ġhalf": 1141,
      "Ġwhom": 1142,
      "Ġdra": 1143,
      "ĠHis": 1144,
      "Ġcle": 1145,
      "Ġcond": 1146,
      "Ġdone": 1147,
      "Ġcare": 1148,
      "up": 1149,
      "Ġhum": 1150,
      "ĠIf": 1151,
      "),": 1152,
      "15": 1153,
      "Ġland": 1154,
      "ities": 1155,
      "Ġnum": 1156,
      "Ġmoment": 1157,
      "oh": 1158,
      "Ġbecause": 1159,
      "Ġart": 1160,
      "eth": 1161,
      "Ġthing": 1162,
      "aster": 1163,
      "ĠBr": 1164,
      "Ġfact": 1165,
      "med": 1166,
      "Ġsat": 1167,
      "me": 1168,
      "Ġseemed": 1169,
      "ene": 1170,
      "ob": 1171,
      "ĠAt": 1172,
      "erest": 1173,
      "Ġlooked": 1174,
      "vern": 1175,
      "Ġhour": 1176,
      "Ġless": 1177,
      "Ġinv": 1178,
      ",--": 1179,
      "Ġtold": 1180,
      "row": 1181,
      "Ġdays": 1182,
      "Ġpower": 1183,
      "Ġroom": 1184,
      "nce": 1185,
      "Ġdel": 1186,
      "Ġhowever": 1187,
      "sh": 1188,
      "Ġheard": 1189,
      "10": 1190,
      "Ġbelie": 1191,
      "ern": 1192,
      "Ġboy": 1193,
      ".'": 1194,
      "Ġbetter": 1195,
      "outh": 1196,
      "Ġlarge": 1197,
      "ET": 1198,
      "act": 1199,
      "Ġdou": 1200,
      "pped": 1201,
      "ub": 1202,
      "Ġcur": 1203,
      "Ġwoman": 1204,
      "Ġuse": 1205,
      "Ġbest": 1206,
      "'ll": 1207,
      "Ġcourse": 1208,
      "Ġmatter": 1209,
      "Ġasked": 1210,
      "You": 1211,
      "But": 1212,
      "ĠMrs": 1213,
      "ĠAn": 1214,
      "Ġmother": 1215,
      "Ġsil": 1216,
      "Ġfore": 1217,
      "Ġwind": 1218,
      "ield": 1219,
      "Ġhard": 1220,
      "Ġche": 1221,
      "Ġgoing": 1222,
      "lish": 1223,
      "IN": 1224,
      "Ġstand": 1225,
      "ĠFor": 1226,
      "ately": 1227,
      "az": 1228,
      "_.": 1229,
      "ution": 1230,
      "iet": 1231,
      "Ġsuff": 1232,
      "Ġdef": 1233,
      "Ġpleas": 1234,
      "Ġgot": 1235,
      "amp": 1236,
      "Ġtru": 1237,
      "Ġtre": 1238,
      "12": 1239,
      "ably": 1240,
      "Ġste": 1241,
      "Ġinterest": 1242,
      "Ġhigh": 1243,
      "ey": 1244,
      "ger": 1245,
      "Ġperf": 1246,
      "Ġbro": 1247,
      "Ġrece": 1248,
      "Ġgirl": 1249,
      "Ġsim": 1250,
      "Ġremain": 1251,
      "ured": 1252,
      "Ġvis": 1253,
      "Ġsk": 1254,
      "Ġenough": 1255,
      "ĠChrist": 1256,
      "Ġknew": 1257,
      "elt": 1258,
      "Ġtaken": 1259,
      "ants": 1260,
      "ines": 1261,
      "ird": 1262,
      "Ġalmost": 1263,
      "ling": 1264,
      "ider": 1265,
      "Ġdet": 1266,
      "Ġfour": 1267,
      "ĠAr": 1268,
      "Ġel": 1269,
      "II": 1270,
      "ĠTo": 1271,
      "Ġgiven": 1272,
      "ians": 1273,
      "Ġes": 1274,
      "Ġdoes": 1275,
      "And": 1276,
      "owed": 1277,
      "ug": 1278,
      "ĠInd": 1279,
      "In": 1280,
      "--------": 1281,
      "Ġbeaut": 1282,
      "ĠWhen": 1283,
      "ison": 1284,
      "Ġquite": 1285,
      "ĠMar": 1286,
      "Ġcol": 1287,
      "osition": 1288,
      "ote": 1289,
      "Ġwords": 1290,
      "ceed": 1291,
      "Ġcontin": 1292,
      "Ġinde": 1293,
      "Ġdep": 1294,
      "19": 1295,
      ".--": 1296,
      "Ġadm": 1297,
      "Ġhor": 1298,
      "Ġwa": 1299,
      "Ġuntil": 1300,
      "Ġopen": 1301,
      "Ġsy": 1302,
      "Ġpubl": 1303,
      "Ġgave": 1304,
      "aring": 1305,
      "ĠLord": 1306,
      "oice": 1307,
      "Ġperson": 1308,
      "haps": 1309,
      "Ġmo": 1310,
      "Ġbrought": 1311,
      "Ġdire": 1312,
      ",âĢĿ": 1313,
      "Ġserv": 1314,
      "Ġsomething": 1315,
      "any": 1316,
      "urch": 1317,
      "Ġmorn": 1318,
      "Ġkeep": 1319,
      "Ġdeath": 1320,
      "Ġcent": 1321,
      "Th": 1322,
      "oun": 1323,
      "ury": 1324,
      "Ġmil": 1325,
      "Ġlaw": 1326,
      "Ġwhose": 1327,
      "ohn": 1328,
      "Ġdoor": 1329,
      "atch": 1330,
      "ĠThen": 1331,
      "Ġfr": 1332,
      "oud": 1333,
      "ific": 1334,
      "ives": 1335,
      "Ġquest": 1336,
      "Ġopp": 1337,
      "Ġprop": 1338,
      "Ġchar": 1339,
      "'d": 1340,
      "Ġdiffere": 1341,
      "arn": 1342,
      "men": 1343,
      "Ġdec": 1344,
      "unt": 1345,
      "gin": 1346,
      "ident": 1347,
      "Ġbus": 1348,
      "ser": 1349,
      "ĠSp": 1350,
      "Ġsince": 1351,
      "Ġele": 1352,
      "ĠAl": 1353,
      "Ġothers": 1354,
      "ages": 1355,
      "Ġpri": 1356,
      "Ġthemselves": 1357,
      "AN": 1358,
      "ets": 1359,
      "Ġhel": 1360,
      "Ġfull": 1361,
      "ually": 1362,
      "14": 1363,
      "ĠRe": 1364,
      "Ġmorning": 1365,
      "ĠPr": 1366,
      "Ġyear": 1367,
      "Ġround": 1368,
      "Ġneed": 1369,
      "AR": 1370,
      "Ġorder": 1371,
      "ches": 1372,
      "Ġed": 1373,
      "âĶ": 1374,
      "Ġplac": 1375,
      "Ġcor": 1376,
      "ĠSo": 1377,
      "ank": 1378,
      "undred": 1379,
      "ism": 1380,
      "13": 1381,
      "ided": 1382,
      "Ġwhite": 1383,
      "Ġcannot": 1384,
      "oney": 1385,
      "Ġcharact": 1386,
      "ery": 1387,
      "ued": 1388,
      "Ġbri": 1389,
      "ĠThat": 1390,
      "ides": 1391,
      "ung": 1392,
      "Ġfall": 1393,
      "Ġspir": 1394,
      "iew": 1395,
      "Ġfeet": 1396,
      "Ġhon": 1397,
      "Ġbook": 1398,
      "bt": 1399,
      "ering": 1400,
      "Ġconst": 1401,
      "irc": 1402,
      "ressed": 1403,
      "oul": 1404,
      "aim": 1405,
      "de": 1406,
      "Ġnecess": 1407,
      "Ġturned": 1408,
      "Ġprom": 1409,
      "ached": 1410,
      "Ġrather": 1411,
      "Ġmean": 1412,
      "ĠWhat": 1413,
      "Ġpol": 1414,
      "to": 1415,
      "Ġhundred": 1416,
      "Ġfin": 1417,
      "enty": 1418,
      "of": 1419,
      "ALL": 1420,
      "ĠJohn": 1421,
      "Ġpoor": 1422,
      "Ġill": 1423,
      "oke": 1424,
      "Ġest": 1425,
      "ken": 1426,
      "ĠMiss": 1427,
      "Ġnext": 1428,
      "Ġused": 1429,
      "ĠOn": 1430,
      "Ġsun": 1431,
      "fully": 1432,
      "gether": 1433,
      "Ġtogether": 1434,
      "Ġking": 1435,
      ",'": 1436,
      "Ġreal": 1437,
      "hil": 1438,
      "Ġcase": 1439,
      "ĠNo": 1440,
      "iting": 1441,
      "ative": 1442,
      "Ġdark": 1443,
      "used": 1444,
      "Ġsubject": 1445,
      "REE": 1446,
      "Ġtill": 1447,
      "Ġbegan": 1448,
      "Ġunderst": 1449,
      "ude": 1450,
      "Ġabove": 1451,
      "Ġide": 1452,
      "Ġfelt": 1453,
      "Ġaff": 1454,
      "ĠWh": 1455,
      "mon": 1456,
      "Ġfire": 1457,
      "Ġstrong": 1458,
      "ham": 1459,
      "ETTER": 1460,
      "Ġsure": 1461,
      "Ġgent": 1462,
      "EN": 1463,
      "ances": 1464,
      "empt": 1465,
      "ah": 1466,
      "Ġoften": 1467,
      "Ġthus": 1468,
      "ĠTHE": 1469,
      "Ġknown": 1470,
      "ĠEnglish": 1471,
      "Ġtrue": 1472,
      "day": 1473,
      "ient": 1474,
      "ash": 1475,
      "pr": 1476,
      "ĠUn": 1477,
      "ĠLETTER": 1478,
      "Ġmyself": 1479,
      "range": 1480,
      "ĠDe": 1481,
      "{~": 1482,
      "~}": 1483,
      "Ġmet": 1484,
      "Ġpain": 1485,
      "Ġconsider": 1486,
      "ister": 1487,
      "Ġsays": 1488,
      "ĠQ": 1489,
      "Ġplay": 1490,
      "Ġswe": 1491,
      "Ġexc": 1492,
      "ott": 1493,
      "Ġmem": 1494,
      "Ġvar": 1495,
      "cted": 1496,
      "Ġair": 1497,
      "br": 1498,
      "Ġtown": 1499,
      "Ġstood": 1500,
      "Ġvoice": 1501,
      "ĠKing": 1502,
      "OR": 1503,
      "GREE": 1504,
      "Ġcirc": 1505,
      "Ġwife": 1506,
      "Ġreason": 1507,
      "Ġsing": 1508,
      "GREEK": 1509,
      "Ġpassed": 1510,
      "Ġmod": 1511,
      "fort": 1512,
      "HA": 1513,
      "ĠSM": 1514,
      "Ġson": 1515,
      "Ġchildren": 1516,
      "ert": 1517,
      "imes": 1518,
      "Ġground": 1519,
      "Ġshort": 1520,
      "ĠNew": 1521,
      "Ġalong": 1522,
      "Ġsecond": 1523,
      "Ġprin": 1524,
      "Ġwond": 1525,
      "iled": 1526,
      "Ġlay": 1527,
      "Ġcharacter": 1528,
      "Ġtrans": 1529,
      "Ġhold": 1530,
      "Ġdr": 1531,
      "Ġoffic": 1532,
      "Ġmeans": 1533,
      "What": 1534,
      "Ġsix": 1535,
      "ĠSMALL": 1536,
      "Ġspeak": 1537,
      "Ġrun": 1538,
      "Ġpar": 1539,
      "err": 1540,
      "Ġeffect": 1541,
      ").": 1542,
      "Ġsle": 1543,
      "Ġprodu": 1544,
      "Ġsever": 1545,
      "ying": 1546,
      "ES": 1547,
      "uc": 1548,
      "ended": 1549,
      "ĠCom": 1550,
      "meric": 1551,
      "Ġsum": 1552,
      "ĠBe": 1553,
      "be": 1554,
      "Ġmoney": 1555,
      "Ġrepl": 1556,
      "Ġhope": 1557,
      "Ġbody": 1558,
      "read": 1559,
      "Ġduring": 1560,
      "rench": 1561,
      "Ġsign": 1562,
      "Ġhelp": 1563,
      "uss": 1564,
      "ĠIs": 1565,
      "ility": 1566,
      "Ġauth": 1567,
      "ges": 1568,
      "Ġherself": 1569,
      "Ġgentle": 1570,
      "ready": 1571,
      "Ġclose": 1572,
      "Ġdoubt": 1573,
      "ĠSir": 1574,
      "ized": 1575,
      "Ġtimes": 1576,
      "Ġabs": 1577,
      "Ġtri": 1578,
      "Ġprov": 1579,
      "pend": 1580,
      "Ġsucc": 1581,
      "cial": 1582,
      "Ġrequ": 1583,
      "Ġobser": 1584,
      "Ġwithin": 1585,
      "overed": 1586,
      "Ġprev": 1587,
      "illed": 1588,
      "owing": 1589,
      "Ġbelieve": 1590,
      "Ġsch": 1591,
      "ural": 1592,
      "ames": 1593,
      "Ġdear": 1594,
      "iter": 1595,
      "Ġbeh": 1596,
      "Ġexpl": 1597,
      "Ġanything": 1598,
      "Ġgeneral": 1599,
      "Ġfur": 1600,
      "Ġdiv": 1601,
      "Ġleast": 1602,
      "king": 1603,
      "Ġcap": 1604,
      "Ġquestion": 1605,
      "Ġobject": 1606,
      "Ġitself": 1607,
      "by": 1608,
      "Ġdev": 1609,
      "ime": 1610,
      "Ġappear": 1611,
      "Ġmeet": 1612,
      "ĠAmeric": 1613,
      "ousand": 1614,
      "Ġnumber": 1615,
      "uck": 1616,
      "dden": 1617,
      "use": 1618,
      "Ġlead": 1619,
      "Ġnature": 1620,
      "Ġgre": 1621,
      "Ġunc": 1622,
      "ards": 1623,
      "Ġseveral": 1624,
      ".]": 1625,
      "eng": 1626,
      "Ġequ": 1627,
      "ric": 1628,
      "Ġalready": 1629,
      "oint": 1630,
      "Ġalone": 1631,
      "Ġeas": 1632,
      "Ġperhaps": 1633,
      "Ġproper": 1634,
      "itted": 1635,
      "Ġblack": 1636,
      "ius": 1637,
      "Ġbra": 1638,
      "aj": 1639,
      "iful": 1640,
      "peri": 1641,
      "Ġmis": 1642,
      "Ġmer": 1643,
      "Ġimport": 1644,
      "ĠAll": 1645,
      "Ġindeed": 1646,
      "ĠSc": 1647,
      "Ġpat": 1648,
      "Ġstru": 1649,
      "ĠEngland": 1650,
      "Ġdeep": 1651,
      "ĠX": 1652,
      "Ġthousand": 1653,
      "Ġhear": 1654,
      "Ġcommon": 1655,
      "We": 1656,
      "son": 1657,
      "Ġsuccess": 1658,
      "ĠLe": 1659,
      "Ġtherefore": 1660,
      "Ġeither": 1661,
      "Ġdifferent": 1662,
      "Ġhuman": 1663,
      "ĠCl": 1664,
      "Ġpublic": 1665,
      "Ġaccount": 1666,
      "Ġearth": 1667,
      "Ġsudden": 1668,
      "ists": 1669,
      "20": 1670,
      "ety": 1671,
      "aint": 1672,
      "Ġlau": 1673,
      "Ġten": 1674,
      "Ġprof": 1675,
      "Ġheld": 1676,
      "tern": 1677,
      "No": 1678,
      "ature": 1679,
      "Ġbrother": 1680,
      "Ġwood": 1681,
      "Ġstart": 1682,
      "Ġdead": 1683,
      "aptain": 1684,
      "Ġcity": 1685,
      "Ġrespect": 1686,
      "Ġmount": 1687,
      "Ġgone": 1688,
      "Ġcommand": 1689,
      "Ġdesc": 1690,
      "Ġstate": 1691,
      "ĠFrench": 1692,
      "Ġpossess": 1693,
      "une": 1694,
      "Ġbur": 1695,
      "Ġhist": 1696,
      "Ġappro": 1697,
      "Ġauthor": 1698,
      "Ġsea": 1699,
      "cha": 1700,
      "Ġcried": 1701,
      "Ġspirit": 1702,
      "Ġwomen": 1703,
      "Ġthou": 1704,
      "Ġdri": 1705,
      "ination": 1706,
      "Ġir": 1707,
      "Ġconc": 1708,
      "Ġmanner": 1709,
      "gr": 1710,
      "Ġbed": 1711,
      "Ġpret": 1712,
      "ane": 1713,
      "Ġview": 1714,
      "Ġvol": 1715,
      "Ġleave": 1716,
      "Ġfort": 1717,
      "Ġletter": 1718,
      "iving": 1719,
      "Ġeng": 1720,
      "Ġbecame": 1721,
      "aven": 1722,
      "Ġfav": 1723,
      "ices": 1724,
      "Ġbar": 1725,
      "ĠCon": 1726,
      "Ġfre": 1727,
      "~}{~": 1728,
      "par": 1729,
      "io": 1730,
      "Ġfriends": 1731,
      "ĠOF": 1732,
      "ats": 1733,
      "Ġport": 1734,
      "Ġcomple": 1735,
      "Ġsoul": 1736,
      "bit": 1737,
      "Ġsn": 1738,
      "Ġremem": 1739,
      "Ġbecome": 1740,
      "ĠPar": 1741,
      "ax": 1742,
      "idence": 1743,
      "Ġstud": 1744,
      "iam": 1745,
      "Ġremark": 1746,
      "'m": 1747,
      "Ġthy": 1748,
      "ring": 1749,
      "ĠHow": 1750,
      "cul": 1751,
      "Ġval": 1752,
      "IT": 1753,
      "Ġsound": 1754,
      "Ġtalk": 1755,
      "Ġtem": 1756,
      "Ġdiffic": 1757,
      "ley": 1758,
      "There": 1759,
      "Ġstra": 1760,
      "ef": 1761,
      "asion": 1762,
      "Ġreplied": 1763,
      "ney": 1764,
      "Ġcut": 1765,
      "Ġca": 1766,
      "Ġpurp": 1767,
      "ĠWith": 1768,
      "ream": 1769,
      "Ġpartic": 1770,
      "Ġbring": 1771,
      "oon": 1772,
      "cious": 1773,
      "Ġclear": 1774,
      "ĠPro": 1775,
      "Ġpossible": 1776,
      "ĠBy": 1777,
      "vernment": 1778,
      "Ġfree": 1779,
      "Ġcoll": 1780,
      "Ġfair": 1781,
      "Ġfamily": 1782,
      "Ġexpect": 1783,
      "rance": 1784,
      "Ġexam": 1785,
      "25": 1786,
      "alth": 1787,
      "Yes": 1788,
      "Ġtruth": 1789,
      "that": 1790,
      "Ġdest": 1791,
      "Ġperfect": 1792,
      "Ġwhether": 1793,
      "aves": 1794,
      "Ġ.": 1795,
      "for": 1796,
      "ster": 1797,
      "ĠNor": 1798,
      "She": 1799,
      "Ġprob": 1800,
      "Ġmid": 1801,
      "ĠHer": 1802,
      "Ġarri": 1803,
      "Ġran": 1804,
      "over": 1805,
      "fe": 1806,
      "Ġred": 1807,
      "Oh": 1808,
      "aughter": 1809,
      "Ġfive": 1810,
      "Ġ=": 1811,
      "ented": 1812,
      "ording": 1813,
      "ught": 1814,
      "tained": 1815,
      "Ġjud": 1816,
      "ics": 1817,
      "Ġmus": 1818,
      "Ġlive": 1819,
      "Ġmark": 1820,
      "Ġdecl": 1821,
      "Ġanswered": 1822,
      "Ġunderstand": 1823,
      "Ġfear": 1824,
      "Ġbehind": 1825,
      "ĠWill": 1826,
      "Ġpast": 1827,
      "ising": 1828,
      "Ġexpress": 1829,
      "Ġdro": 1830,
      "IS": 1831,
      "Ġsold": 1832,
      "Ġlost": 1833,
      "Ġprinci": 1834,
      "akes": 1835,
      "ues": 1836,
      "Ġlady": 1837,
      "Ġwish": 1838,
      "Ġline": 1839,
      "ony": 1840,
      "oura": 1841,
      "Ġexcept": 1842,
      "rying": 1843,
      "Ġroad": 1844,
      "Ġwall": 1845,
      "ek": 1846,
      "Ġmaking": 1847,
      "Ġreceived": 1848,
      "lu": 1849,
      "rigin": 1850,
      "Ġfollowing": 1851,
      "Ġgold": 1852,
      "Ġut": 1853,
      "Ġtowards": 1854,
      "Ġmere": 1855,
      "ement": 1856,
      "Ġbusiness": 1857,
      "iously": 1858,
      "ality": 1859,
      "val": 1860,
      "olog": 1861,
      "Ġchief": 1862,
      "Ġhorse": 1863,
      "Ġregard": 1864,
      "Ġbes": 1865,
      "der": 1866,
      "Ġmonth": 1867,
      "Ġru": 1868,
      "ork": 1869,
      "bers": 1870,
      "though": 1871,
      "Ġet": 1872,
      "ission": 1873,
      "'ve": 1874,
      "ex": 1875,
      "Ġenem": 1876,
      "Ġkept": 1877,
      "Ġpa": 1878,
      "Ġaround": 1879,
      "ining": 1880,
      "Ġpract": 1881,
      "iar": 1882,
      "way": 1883,
      "Ġfine": 1884,
      "This": 1885,
      "mp": 1886,
      "Ġaccom": 1887,
      "Ġsort": 1888,
      "ĠSe": 1889,
      "âĢĺ": 1890,
      "enn": 1891,
      "Ġcoming": 1892,
      "Ġexcl": 1893,
      "Ġable": 1894,
      "Ġship": 1895,
      "Ġsit": 1896,
      "owers": 1897,
      "Ġfig": 1898,
      "Ġseems": 1899,
      "Ġtwenty": 1900,
      "arent": 1901,
      "wh": 1902,
      "sp": 1903,
      "oe": 1904,
      "lled": 1905,
      "attle": 1906,
      "Ã©": 1907,
      "Ġbeautiful": 1908,
      "Ġfoot": 1909,
      "itions": 1910,
      "Ġblood": 1911,
      "ript": 1912,
      "ased": 1913,
      "Ġleg": 1914,
      "Ġdisp": 1915,
      "Ġorigin": 1916,
      "Ġtrou": 1917,
      "ron": 1918,
      "ĠMy": 1919,
      "Ġlooking": 1920,
      "iment": 1921,
      "ole": 1922,
      "Ġanim": 1923,
      "que": 1924,
      "Ġlow": 1925,
      "Ġriver": 1926,
      "AT": 1927,
      "Ġhus": 1928,
      "Ġbegin": 1929,
      "ondon": 1930,
      "Ġcal": 1931,
      "Ġwhy": 1932,
      "ĠGer": 1933,
      "Ġelse": 1934,
      "Ġexist": 1935,
      "Ġearly": 1936,
      "Ġshow": 1937,
      "24": 1938,
      "ament": 1939,
      "ĠEd": 1940,
      "Ġreally": 1941,
      "isf": 1942,
      "gy": 1943,
      "band": 1944,
      "Ġreturned": 1945,
      "Ġnecessary": 1946,
      "orrow": 1947,
      "ones": 1948,
      "Ġsol": 1949,
      "Ġschool": 1950,
      "cing": 1951,
      "Ġstri": 1952,
      "Ġsight": 1953,
      "Ġtreat": 1954,
      "Ġlearn": 1955,
      "medi": 1956,
      "che": 1957,
      "30": 1958,
      "ained": 1959,
      "Ġconv": 1960,
      "Ġve": 1961,
      "Ġquick": 1962,
      "sequ": 1963,
      "Ġlist": 1964,
      "HAP": 1965,
      "ls": 1966,
      "Ġsir": 1967,
      "ize": 1968,
      "ots": 1969,
      "IL": 1970,
      "ilt": 1971,
      "Ġfollowed": 1972,
      "Ġdang": 1973,
      "Ġmove": 1974,
      "ĠCol": 1975,
      "Ġpie": 1976,
      "Ġresult": 1977,
      "Ġii": 1978,
      "Ġcross": 1979,
      "cient": 1980,
      "Ġevening": 1981,
      "Ġdem": 1982,
      "Ġoccasion": 1983,
      "Ġwonder": 1984,
      "ĠOne": 1985,
      "ship": 1986,
      "bs": 1987,
      "Ġarms": 1988,
      "Ġdut": 1989,
      "Ġrelig": 1990,
      "ĠChar": 1991,
      "Ġmain": 1992,
      "itude": 1993,
      "Ġcause": 1994,
      "Ġchurch": 1995,
      "Ġsal": 1996,
      "Ġlater": 1997,
      "Ġstory": 1998,
      "aving": 1999,
      "That": 2000,
      "ledge": 2001,
      "ection": 2002,
      "Ġfaith": 2003,
      "rs": 2004,
      "oor": 2005,
      "Ġdraw": 2006,
      "IC": 2007,
      "Ġcarried": 2008,
      "--\"": 2009,
      "Ġthee": 2010,
      "Ġacqu": 2011,
      "Ġi": 2012,
      "ustr": 2013,
      "Ġposition": 2014,
      "Ġ&": 2015,
      "Ġmiles": 2016,
      "ging": 2017,
      "Ġpay": 2018,
      "ases": 2019,
      "Ġworth": 2020,
      "Ġmag": 2021,
      "arch": 2022,
      "dle": 2023,
      "ĠGo": 2024,
      "Ġcold": 2025,
      "Ġlad": 2026,
      "Ġhur": 2027,
      "utes": 2028,
      "HAPTER": 2029,
      "Ġce": 2030,
      "Ġready": 2031,
      "Ġwild": 2032,
      "Ġprot": 2033,
      "ĠLondon": 2034,
      "oly": 2035,
      "ctor": 2036,
      "Well": 2037,
      "bed": 2038,
      "Ġfront": 2039,
      "Ġlab": 2040,
      "ĠGe": 2041,
      "ĠBrit": 2042,
      "23": 2043,
      "Ġsometimes": 2044,
      "11": 2045,
      "ounded": 2046,
      "els": 2047,
      "Ġeye": 2048,
      "Ġrepres": 2049,
      "Ġcast": 2050,
      "but": 2051,
      "Ġeff": 2052,
      "Ġbad": 2053,
      "Ġtable": 2054,
      "Ġfif": 2055,
      "Ġclass": 2056,
      "Ġmot": 2057,
      "Ġesc": 2058,
      "Ġsense": 2059,
      "Ġstep": 2060,
      "Ġbene": 2061,
      "ped": 2062,
      ".)": 2063,
      "eneral": 2064,
      "pper": 2065,
      "ops": 2066,
      "26": 2067,
      "ains": 2068,
      "ĠAd": 2069,
      "Ġentire": 2070,
      "Ġidea": 2071,
      "Ġforce": 2072,
      "antly": 2073,
      "inct": 2074,
      "inary": 2075,
      "Ġpict": 2076,
      "Ġtou": 2077,
      "Ġvill": 2078,
      "Ġterm": 2079,
      "ann": 2080,
      "Ġage": 2081,
      "Ġnearly": 2082,
      "Ġparticular": 2083,
      "ified": 2084,
      "ead": 2085,
      "arr": 2086,
      "ĠNow": 2087,
      "Ġparty": 2088,
      "Ġself": 2089,
      "iod": 2090,
      "Ġhusband": 2091,
      "Ġanswer": 2092,
      "Ġmist": 2093,
      "27": 2094,
      "Ġacross": 2095,
      "ĀĀ": 2096,
      "ries": 2097,
      "Ġleng": 2098,
      "Ġfurther": 2099,
      "ush": 2100,
      "itting": 2101,
      "Ġbit": 2102,
      "itten": 2103,
      "airs": 2104,
      "28": 2105,
      "mbl": 2106,
      "iver": 2107,
      "000": 2108,
      "ze": 2109,
      "Ġquiet": 2110,
      "body": 2111,
      "Ġpurpose": 2112,
      "ĠOf": 2113,
      "Ġstrange": 2114,
      "what": 2115,
      "Ġtend": 2116,
      "Ġann": 2117,
      "bert": 2118,
      "side": 2119,
      "well": 2120,
      "Ġimmedi": 2121,
      "Ġreached": 2122,
      "Ġter": 2123,
      "Ġeight": 2124,
      "Ġappeared": 2125,
      "Ġdirect": 2126,
      "Ġsett": 2127,
      "Ġsatisf": 2128,
      "Ġlatter": 2129,
      "Ġcontinued": 2130,
      "cially": 2131,
      "Ġaffect": 2132,
      "ples": 2133,
      "Ġheav": 2134,
      "Ġlonger": 2135,
      "ils": 2136,
      "Ġpeace": 2137,
      "Ġsqu": 2138,
      "riage": 2139,
      "Ġask": 2140,
      "Ġopin": 2141,
      "where": 2142,
      "ĠBl": 2143,
      "Ġbuild": 2144,
      "sc": 2145,
      "Ġdanger": 2146,
      "Ġmaster": 2147,
      "Ġhours": 2148,
      "Ġincl": 2149,
      "Ġpray": 2150,
      "Ġdeal": 2151,
      "Ġattempt": 2152,
      "Ġlength": 2153,
      "let": 2154,
      "Ġforth": 2155,
      "aimed": 2156,
      "co": 2157,
      "ume": 2158,
      "ences": 2159,
      "ĠDr": 2160,
      "alked": 2161,
      "Ġquar": 2162,
      "Ġscar": 2163,
      "iers": 2164,
      "uff": 2165,
      "vo": 2166,
      "Ġcircum": 2167,
      "ĠThese": 2168,
      "Ġsweet": 2169,
      "ploy": 2170,
      "gan": 2171,
      "ĠFran": 2172,
      "Ġinflu": 2173,
      "irt": 2174,
      "Ġrock": 2175,
      "ĠOr": 2176,
      "Ġsleep": 2177,
      "Ġformer": 2178,
      "âĶĢ": 2179,
      "Ġvisit": 2180,
      "Ġinform": 2181,
      "Ġimag": 2182,
      "Ġpriv": 2183,
      "Ġplaced": 2184,
      "Ġ(_": 2185,
      "Ġnatural": 2186,
      "Ġperiod": 2187,
      "29": 2188,
      "ĠAm": 2189,
      "Ġdeg": 2190,
      "uted": 2191,
      "room": 2192,
      "ND": 2193,
      ".[": 2194,
      "Ġhast": 2195,
      "Ġver": 2196,
      "Ġaccording": 2197,
      "Ġproceed": 2198,
      "ustom": 2199,
      "Ġought": 2200,
      "Ġhill": 2201,
      "Ġtaking": 2202,
      "oes": 2203,
      "Ġadded": 2204,
      "resh": 2205,
      "rodu": 2206,
      "Ġsac": 2207,
      "Ġsecret": 2208,
      "ape": 2209,
      "idge": 2210,
      "Ġhistory": 2211,
      "Ġspec": 2212,
      "If": 2213,
      "Ġfield": 2214,
      "Ġlate": 2215,
      "Ġmed": 2216,
      "Ġsurpr": 2217,
      "ĠGerman": 2218,
      "ina": 2219,
      "Ġwit": 2220,
      "ivers": 2221,
      "Ġforward": 2222,
      "Ġrev": 2223,
      "Ġpost": 2224,
      "Ġfellow": 2225,
      "Ġled": 2226,
      "ĠNot": 2227,
      "Ġwatch": 2228,
      "Ġrose": 2229,
      "ĠCar": 2230,
      "ours": 2231,
      "ously": 2232,
      "Ġbreak": 2233,
      "ald": 2234,
      "Ġbey": 2235,
      "Ġoccup": 2236,
      "Ġfac": 2237,
      "Ġforg": 2238,
      "erv": 2239,
      "Ġwin": 2240,
      "angu": 2241,
      "ested": 2242,
      "Ġslow": 2243,
      "Ġwon": 2244,
      "Ġmur": 2245,
      "Ġsend": 2246,
      "Ġla": 2247,
      "Ġbeyond": 2248,
      "ĠPl": 2249,
      "Ġincre": 2250,
      "Ġemploy": 2251,
      "As": 2252,
      "Ġglad": 2253,
      "Ġtro": 2254,
      "When": 2255,
      "Ġprep": 2256,
      "cell": 2257,
      "ms": 2258,
      "usion": 2259,
      "Ġprison": 2260,
      "ogn": 2261,
      "Then": 2262,
      "head": 2263,
      "Ġarmy": 2264,
      "Ġpop": 2265,
      "Ġfight": 2266,
      "ĠStates": 2267,
      "ĠFrance": 2268,
      "Ġdaughter": 2269,
      "Ġwalk": 2270,
      "Ġcorn": 2271,
      "Ġhair": 2272,
      "Ġstreng": 2273,
      "ision": 2274,
      "Ġfeeling": 2275,
      "Ġspoke": 2276,
      "Ġbig": 2277,
      "Ġlim": 2278,
      "ĠâĢĺ": 2279,
      "Ġhig": 2280,
      "Ġdeterm": 2281,
      "cend": 2282,
      "Ġexperi": 2283,
      "dom": 2284,
      "Ġeverything": 2285,
      "vere": 2286,
      "Ġdied": 2287,
      "Ġchange": 2288,
      "Ġknowledge": 2289,
      "Ġservice": 2290,
      "ency": 2291,
      "orge": 2292,
      "ital": 2293,
      "Ġgrand": 2294,
      "stem": 2295,
      "ening": 2296,
      "Ġbright": 2297,
      "Ġcreat": 2298,
      "Ġsugg": 2299,
      "aged": 2300,
      "iling": 2301,
      "ciety": 2302,
      "ically": 2303,
      "Ġprobably": 2304,
      "Ġsoft": 2305,
      "Ġmor": 2306,
      "Ġvi": 2307,
      "âĶĢâĶĢ": 2308,
      "Ġdream": 2309,
      "Ġemb": 2310,
      "Ġmention": 2311,
      "Ġsuddenly": 2312,
      "Ġhot": 2313,
      "Ġthir": 2314,
      "....": 2315,
      "Ġdesp": 2316,
      "Ġhappy": 2317,
      "At": 2318,
      "ivid": 2319,
      "Ġalthough": 2320,
      "Ġbelong": 2321,
      "Ġdelight": 2322,
      "like": 2323,
      "ium": 2324,
      "Ġdistance": 2325,
      "ected": 2326,
      "app": 2327,
      "ump": 2328,
      "ighb": 2329,
      "Ġcourt": 2330,
      "Ġpal": 2331,
      "Ġliving": 2332,
      "Ġobl": 2333,
      "Ġentered": 2334,
      "Ġlaid": 2335,
      "Ġdog": 2336,
      "Ġenemy": 2337,
      "âĶĤ": 2338,
      "Ġespe": 2339,
      "ĠRom": 2340,
      "'re": 2341,
      "Ġrepe": 2342,
      "Ġplain": 2343,
      "ĠPer": 2344,
      "Ġbreat": 2345,
      "Ġsaying": 2346,
      "uke": 2347,
      "Ġcamp": 2348,
      "Ġwritten": 2349,
      "Ġcircumst": 2350,
      "uct": 2351,
      "hys": 2352,
      "ĠZ": 2353,
      "ĠHar": 2354,
      "Ġjo": 2355,
      "Ġpretty": 2356,
      "hood": 2357,
      "Ġnation": 2358,
      "ises": 2359,
      "Ġintell": 2360,
      "Ġenc": 2361,
      "Ġbird": 2362,
      "Ġcomplete": 2363,
      "Ġsuffic": 2364,
      "Ġconn": 2365,
      "ounds": 2366,
      "Ġparts": 2367,
      "ories": 2368,
      "Ġcomes": 2369,
      "Ġda": 2370,
      "Ġjoy": 2371,
      "ires": 2372,
      "Ġsuppose": 2373,
      "owd": 2374,
      "CHAPTER": 2375,
      "Ġneighb": 2376,
      "ior": 2377,
      "Ġattack": 2378,
      "EL": 2379,
      "ray": 2380,
      "Ġremember": 2381,
      "ĠMad": 2382,
      "OU": 2383,
      "Ġgreater": 2384,
      "ĠAb": 2385,
      "Ġund": 2386,
      "Ġstay": 2387,
      "Ġoccur": 2388,
      "Ġattention": 2389,
      "ĠChristian": 2390,
      "ming": 2391,
      "rupt": 2392,
      "Ġx": 2393,
      "ask": 2394,
      "ĠAfter": 2395,
      "Ġwat": 2396,
      "my": 2397,
      "amed": 2398,
      "50": 2399,
      "Ġfast": 2400,
      "pid": 2401,
      "ox": 2402,
      "ixed": 2403,
      "Ġsens": 2404,
      "Ġcompan": 2405,
      "...": 2406,
      "Ġslight": 2407,
      "joy": 2408,
      "tered": 2409,
      "Ġcontr": 2410,
      "night": 2411,
      "ĠChurch": 2412,
      "Ġmeas": 2413,
      "na": 2414,
      "ift": 2415,
      "ler": 2416,
      "Ġsad": 2417,
      "mber": 2418,
      "ĠMay": 2419,
      "?âĢĿ": 2420,
      "Ġcompany": 2421,
      "Ġsystem": 2422,
      "ĠDo": 2423,
      "Ġcra": 2424,
      "Ġnone": 2425,
      "Ġimm": 2426,
      "They": 2427,
      "ĠEur": 2428,
      "Ġcommun": 2429,
      "ING": 2430,
      "Ġheaven": 2431,
      "Ġvarious": 2432,
      "Ġdifficult": 2433,
      "Ġpen": 2434,
      "ites": 2435,
      "erence": 2436,
      "rif": 2437,
      "Ġago": 2438,
      "Ġopened": 2439,
      "ests": 2440,
      "mb": 2441,
      "Ġneither": 2442,
      "Ġden": 2443,
      "ĠPhil": 2444,
      "Ġdescrib": 2445,
      "Ġestab": 2446,
      "Ġappl": 2447,
      "ĠFrom": 2448,
      "Ġaccept": 2449,
      "Ġpolit": 2450,
      "Ġboys": 2451,
      "Ġtoward": 2452,
      "==": 2453,
      "atic": 2454,
      "iding": 2455,
      "ience": 2456,
      "Ġbear": 2457,
      "Ġanx": 2458,
      "Ġmouth": 2459,
      "Ġlangu": 2460,
      "Ġty": 2461,
      "Ġdoing": 2462,
      "Ġimportant": 2463,
      "Ġtop": 2464,
      "Ġcertainly": 2465,
      "Ġrich": 2466,
      "ĠAmerican": 2467,
      "Ġjour": 2468,
      "Ġpaper": 2469,
      "Ġespecially": 2470,
      "ys": 2471,
      "OT": 2472,
      "Ġcompl": 2473,
      "My": 2474,
      "Ġsto": 2475,
      "orts": 2476,
      "aul": 2477,
      "ĠCha": 2478,
      "Ġpleasure": 2479,
      "Ġlaugh": 2480,
      "lect": 2481,
      "aching": 2482,
      "ĠEurope": 2483,
      "Ġaf": 2484,
      "ouses": 2485,
      "Ġconsequ": 2486,
      "THE": 2487,
      "ushed": 2488,
      "velop": 2489,
      "Ġpersons": 2490,
      "ingly": 2491,
      "kes": 2492,
      "Ġgentleman": 2493,
      "Ġconcl": 2494,
      "ĠBar": 2495,
      "rest": 2496,
      "hip": 2497,
      "Ġinqu": 2498,
      "Ġcoun": 2499,
      "Ġtrees": 2500,
      "Ġenjoy": 2501,
      "ively": 2502,
      "enth": 2503,
      "Ġtor": 2504,
      "teen": 2505,
      "reg": 2506,
      "reme": 2507,
      "Ġgenerally": 2508,
      "Ġconce": 2509,
      "orses": 2510,
      "Ġrecogn": 2511,
      "Ġant": 2512,
      "On": 2513,
      "ĠLet": 2514,
      "ager": 2515,
      "Ġopinion": 2516,
      "Ġplan": 2517,
      "Ġcomfort": 2518,
      "An": 2519,
      "ĠCaptain": 2520,
      "note": 2521,
      "eness": 2522,
      "Ġang": 2523,
      "Ġdepart": 2524,
      "Ġremained": 2525,
      "wise": 2526,
      "isted": 2527,
      "ĠHere": 2528,
      "ĠPet": 2529,
      "Ġdemand": 2530,
      "ĠWilliam": 2531,
      "Ġgovernment": 2532,
      "Ġgard": 2533,
      "ĠHen": 2534,
      "ĠGeneral": 2535,
      "Ġfan": 2536,
      "Ġduty": 2537,
      "Ġlived": 2538,
      "Ġmakes": 2539,
      "itary": 2540,
      "ille": 2541,
      "ma": 2542,
      "Ġfrequ": 2543,
      "ĠMan": 2544,
      "you": 2545,
      "ivil": 2546,
      "Ġscarce": 2547,
      "orted": 2548,
      "ral": 2549,
      "olution": 2550,
      "ĠNe": 2551,
      "inner": 2552,
      "Ġfut": 2553,
      "Ġaction": 2554,
      "Ġbattle": 2555,
      "To": 2556,
      "Ġ--": 2557,
      "LE": 2558,
      "bur": 2559,
      "Ġwindow": 2560,
      "ford": 2561,
      "ument": 2562,
      "cience": 2563,
      "Ġstrength": 2564,
      "ĠLady": 2565,
      "ĠCan": 2566,
      "Ġmine": 2567,
      "Ġminutes": 2568,
      "Ġgun": 2569,
      "ipp": 2570,
      "Ġgreen": 2571,
      "hern": 2572,
      "ĠFl": 2573,
      "Ġpoet": 2574,
      "Ġtried": 2575,
      "40": 2576,
      "osp": 2577,
      "Ġshad": 2578,
      "ĠAp": 2579,
      "Ġcondition": 2580,
      "Ġstat": 2581,
      "How": 2582,
      "Ġvict": 2583,
      "Ġappearance": 2584,
      "Ġmonths": 2585,
      "oses": 2586,
      "Ġheavy": 2587,
      "Ġboat": 2588,
      "Ġburn": 2589,
      "ator": 2590,
      "Ġdress": 2591,
      "ĠâĶĤ": 2592,
      "anced": 2593,
      "Ġtrust": 2594,
      "ĠAND": 2595,
      "Ġimmediately": 2596,
      "yl": 2597,
      "ned": 2598,
      "ply": 2599,
      "ĠBritish": 2600,
      "with": 2601,
      "athe": 2602,
      "ION": 2603,
      "Ġmass": 2604,
      "Ġimposs": 2605,
      "Ġweak": 2606,
      "Ġinfluence": 2607,
      "Ġyouth": 2608,
      "Ġast": 2609,
      "Ġwide": 2610,
      "OM": 2611,
      "Ġsuper": 2612,
      "Ġcrowd": 2613,
      "Ġinn": 2614,
      "Ġthick": 2615,
      "Ġplaces": 2616,
      "?'": 2617,
      "22": 2618,
      "Ġbelow": 2619,
      "acy": 2620,
      "Ġblue": 2621,
      "Ġdidn": 2622,
      "Ġdesire": 2623,
      "Ġsepar": 2624,
      "Ġhorses": 2625,
      "Why": 2626,
      "Ġsister": 2627,
      "Ġsingle": 2628,
      "ored": 2629,
      "Ġgrow": 2630,
      "Ġwanted": 2631,
      "Ġwrong": 2632,
      "Ġgen": 2633,
      "oved": 2634,
      "Ġnorth": 2635,
      ".=": 2636,
      "ike": 2637,
      "Ġbeauty": 2638,
      "gar": 2639,
      "su": 2640,
      "ĠYork": 2641,
      "Ġafterwards": 2642,
      "Ġviol": 2643,
      "ingu": 2644,
      "Ġstone": 2645,
      "rent": 2646,
      "isc": 2647,
      "Ġletters": 2648,
      "Ġtrouble": 2649,
      "Ġisland": 2650,
      "Ġhat": 2651,
      "ilar": 2652,
      "Ġconvers": 2653,
      "Ġoper": 2654,
      "Ġspo": 2655,
      "ĠSome": 2656,
      "Ġcru": 2657,
      "Ġexclaimed": 2658,
      "mn": 2659,
      "ĠSee": 2660,
      "lling": 2661,
      "idered": 2662,
      "ĠParis": 2663,
      "AS": 2664,
      "Ġgall": 2665,
      "Ġbound": 2666,
      "af": 2667,
      "Ġhardly": 2668,
      "ching": 2669,
      "Ġtrib": 2670,
      "Ġstanding": 2671,
      "Ġancient": 2672,
      "Ġfresh": 2673,
      "Ġweek": 2674,
      "Ġves": 2675,
      "ĠMary": 2676,
      "Ġsuc": 2677,
      "Ġoffice": 2678,
      "oose": 2679,
      "ĠQue": 2680,
      "ession": 2681,
      "gress": 2682,
      "iety": 2683,
      "Ġsucceed": 2684,
      "wo": 2685,
      "ĠGeorge": 2686,
      "aded": 2687,
      "Ġbroken": 2688,
      "Ġrapid": 2689,
      "ĠEl": 2690,
      "Ġformed": 2691,
      "Ġchance": 2692,
      "Ġsave": 2693,
      "----------------": 2694,
      "rand": 2695,
      "ĠEx": 2696,
      "ĠEm": 2697,
      "Ġlord": 2698,
      "eks": 2699,
      "olute": 2700,
      "Ġfurn": 2701,
      "con": 2702,
      "Ġthird": 2703,
      "33": 2704,
      "Ġmater": 2705,
      "itution": 2706,
      "Ġexact": 2707,
      "Ġcentury": 2708,
      "Ġpresence": 2709,
      "ĠQu": 2710,
      "Ġmad": 2711,
      "Ġbott": 2712,
      "spect": 2713,
      "Ġsitu": 2714,
      "Ġhop": 2715,
      "Ġalt": 2716,
      "Ġque": 2717,
      "186": 2718,
      "Ġyourself": 2719,
      "Ġcry": 2720,
      "Ġgod": 2721,
      "ĠRo": 2722,
      "erc": 2723,
      "Ġwarm": 2724,
      "onel": 2725,
      "ĠItal": 2726,
      "uous": 2727,
      "Ġfuture": 2728,
      "ĠPe": 2729,
      "Ġcost": 2730,
      "iced": 2731,
      "Ġlips": 2732,
      "AM": 2733,
      "yn": 2734,
      "Ġfood": 2735,
      "oted": 2736,
      "Ġfilled": 2737,
      "ĠDon": 2738,
      "ishing": 2739,
      "Ġwhis": 2740,
      "rible": 2741,
      "itation": 2742,
      "Ġimpossible": 2743,
      "Ġbooks": 2744,
      "Ġfamil": 2745,
      "Ġcontain": 2746,
      "Ġdie": 2747,
      "Ġperm": 2748,
      "Ġfle": 2749,
      "ĠWhy": 2750,
      "reek": 2751,
      "ĠOh": 2752,
      "Ġlie": 2753,
      "osop": 2754,
      "go": 2755,
      "por": 2756,
      "Ġgri": 2757,
      "Ġvessel": 2758,
      "Mr": 2759,
      "OL": 2760,
      "Ġdevelop": 2761,
      "ortun": 2762,
      "kn": 2763,
      "itable": 2764,
      "ourage": 2765,
      "Ġbeginning": 2766,
      "Ġhy": 2767,
      "Ġtree": 2768,
      "Ġlines": 2769,
      "Ġindivid": 2770,
      "Ġtry": 2771,
      "omin": 2772,
      "iant": 2773,
      "roy": 2774,
      "ubl": 2775,
      "Ġinstead": 2776,
      "Ġshar": 2777,
      "Ġsafe": 2778,
      "Ġhappened": 2779,
      "Ġarrived": 2780,
      "Ġliter": 2781,
      "Now": 2782,
      "Ġchair": 2783,
      "iction": 2784,
      "Ġfat": 2785,
      "Ġsilence": 2786,
      "Ġliber": 2787,
      "ajor": 2788,
      "osing": 2789,
      "Ġcovered": 2790,
      "ication": 2791,
      "Ġsimple": 2792,
      "St": 2793,
      "ootnote": 2794,
      "ethod": 2795,
      "Ġclot": 2796,
      "Ġphys": 2797,
      "Ġenter": 2798,
      "Ġbecom": 2799,
      "Ġsomewhat": 2800,
      "Ġwis": 2801,
      "Ġentirely": 2802,
      "Ġwrote": 2803,
      "Ġintrodu": 2804,
      "urs": 2805,
      "Ġfun": 2806,
      "cil": 2807,
      "Ġdirection": 2808,
      "ogra": 2809,
      "Ġnote": 2810,
      "ĠTom": 2811,
      "Ġsmile": 2812,
      "Ġeasy": 2813,
      "Ġworks": 2814,
      ":--": 2815,
      "hard": 2816,
      "bo": 2817,
      "Ġraised": 2818,
      "Ġsouth": 2819,
      "Ġnoble": 2820,
      "ulty": 2821,
      "Ġeat": 2822,
      "ruction": 2823,
      "ulation": 2824,
      "35": 2825,
      "Ġperform": 2826,
      "Ġorgan": 2827,
      "aled": 2828,
      "Ġusual": 2829,
      "Wh": 2830,
      "ĠTr": 2831,
      "imate": 2832,
      "Footnote": 2833,
      "Ġpun": 2834,
      "Ġfool": 2835,
      "36": 2836,
      "ĠSha": 2837,
      "Ġcarry": 2838,
      "Ġglass": 2839,
      "Ġindividual": 2840,
      "For": 2841,
      "oured": 2842,
      "Ġcivil": 2843,
      "str": 2844,
      "pond": 2845,
      "So": 2846,
      "Ġdrew": 2847,
      "Ġvillage": 2848,
      "Ġfigure": 2849,
      "ED": 2850,
      "ĠIndian": 2851,
      "Ġgiving": 2852,
      "Ġmeant": 2853,
      "raid": 2854,
      "Ġeasily": 2855,
      "rop": 2856,
      "Ġdrink": 2857,
      "face": 2858,
      "light": 2859,
      "Ġsole": 2860,
      "icked": 2861,
      "Ġadvant": 2862,
      "Ġstream": 2863,
      "ĠCount": 2864,
      "Ġguard": 2865,
      "ĠGu": 2866,
      "Ġrepresent": 2867,
      "Ġmerely": 2868,
      "ech": 2869,
      "Ġconsidered": 2870,
      "Ġphil": 2871,
      "Ġcomb": 2872,
      "Ġshore": 2873,
      "Ġcircumstances": 2874,
      "Ġcases": 2875,
      "Ġknows": 2876,
      "ĠSh": 2877,
      "Ġspring": 2878,
      "alley": 2879,
      "orough": 2880,
      "Ġstruck": 2881,
      "esty": 2882,
      "Ġstran": 2883,
      "Ġoblig": 2884,
      "Ġgrave": 2885,
      "ĠPres": 2886,
      "ales": 2887,
      "ĠComm": 2888,
      "ae": 2889,
      "ĠJack": 2890,
      "ĠState": 2891,
      "Ġsin": 2892,
      "Ġdesign": 2893,
      "Ġthinking": 2894,
      "Not": 2895,
      "acher": 2896,
      "Ġwalked": 2897,
      "ellow": 2898,
      "Ġpress": 2899,
      "Ġmusic": 2900,
      "ĠHouse": 2901,
      "Ġpiece": 2902,
      "pan": 2903,
      "now": 2904,
      "ashion": 2905,
      "Ġyes": 2906,
      "bled": 2907,
      "pel": 2908,
      "Ġwhatever": 2909,
      "ĠUnited": 2910,
      "Ġdinner": 2911,
      "Ġlearned": 2912,
      "Ġslowly": 2913,
      "Ġpaid": 2914,
      "erred": 2915,
      "ĠHenry": 2916,
      "sembl": 2917,
      "Ġextra": 2918,
      "ĠWest": 2919,
      "Ġstraight": 2920,
      "Ġthoughts": 2921,
      "aries": 2922,
      "34": 2923,
      "right": 2924,
      "Ġsimilar": 2925,
      "Ġjourney": 2926,
      "Ġfing": 2927,
      "Ġmill": 2928,
      "icate": 2929,
      "__": 2930,
      "Ġexpression": 2931,
      "Ġcustom": 2932,
      "Ġmarried": 2933,
      "Ġfru": 2934,
      "Ġloc": 2935,
      "Ġcaught": 2936,
      "Ġign": 2937,
      "come": 2938,
      "Ġhost": 2939,
      "Ġpecul": 2940,
      "Ġsociety": 2941,
      "ean": 2942,
      "Ġpure": 2943,
      "37": 2944,
      "Ġstarted": 2945,
      "enced": 2946,
      "Ġobserved": 2947,
      "Ġstreet": 2948,
      "Ġban": 2949,
      "Ġspot": 2950,
      "ghed": 2951,
      "Ġloved": 2952,
      "Ġscarcely": 2953,
      "Ġlanguage": 2954,
      "Ġofficers": 2955,
      "road": 2956,
      "olved": 2957,
      "Ġpeculiar": 2958,
      "ishop": 2959,
      "Ġbroad": 2960,
      "lt": 2961,
      "Ġseeing": 2962,
      "Ġallowed": 2963,
      "Ġbless": 2964,
      "dd": 2965,
      "ett": 2966,
      "Ġafraid": 2967,
      "reed": 2968,
      "Ġboard": 2969,
      "Ġamount": 2970,
      "Ġgreatest": 2971,
      "Ġexperience": 2972,
      "arrow": 2973,
      "umb": 2974,
      "Ġcapt": 2975,
      "!'": 2976,
      "ux": 2977,
      "Ġsubst": 2978,
      "com": 2979,
      "race": 2980,
      "Ġprocess": 2981,
      "Ġseven": 2982,
      "Ġmoved": 2983,
      "Ġvalue": 2984,
      "!âĢĿ": 2985,
      "Ġiron": 2986,
      "Ġcharge": 2987,
      "Ġevil": 2988,
      "aff": 2989,
      "house": 2990,
      "ĠWas": 2991,
      "Ġforget": 2992,
      "ointed": 2993,
      "Ġlower": 2994,
      "rel": 2995,
      "Ã¦": 2996,
      "Ġsick": 2997,
      "Ġborn": 2998,
      "uded": 2999,
      "ĠSpan": 3000,
      "Ġball": 3001,
      "ĠCharles": 3002,
      "Ġmaterial": 3003,
      "ev": 3004,
      "Ġterr": 3005,
      "Ġleaving": 3006,
      "Ġgetting": 3007,
      "21": 3008,
      "Ġtone": 3009,
      "Ġimpro": 3010,
      "Ġutter": 3011,
      "Ġforgot": 3012,
      "Ġsummer": 3013,
      "bles": 3014,
      "Ġgirls": 3015,
      "Ġsurr": 3016,
      "ctions": 3017,
      "Ġapparent": 3018,
      "38": 3019,
      "Ġexpected": 3020,
      "ether": 3021,
      "Ġhealth": 3022,
      "Ġtears": 3023,
      "Ġmagn": 3024,
      "ĠII": 3025,
      "orth": 3026,
      "Ġimpress": 3027,
      "hel": 3028,
      "Ġtast": 3029,
      "olly": 3030,
      "Ġshowed": 3031,
      "Ġquickly": 3032,
      "Ġcloud": 3033,
      "oom": 3034,
      "Ġsupposed": 3035,
      "Ġscene": 3036,
      "Ġeduc": 3037,
      "ĠLou": 3038,
      "Ġhouses": 3039,
      "Ġbank": 3040,
      "Ġvirt": 3041,
      "Ġwalls": 3042,
      "Ġneg": 3043,
      "Ġunto": 3044,
      "ĠIndians": 3045,
      "noon": 3046,
      "Ġfirm": 3047,
      "Ġopportun": 3048,
      "Ġforms": 3049,
      "Ġadmir": 3050,
      "Ġgaz": 3051,
      "Ġpap": 3052,
      "Ġthirty": 3053,
      "ĠWell": 3054,
      "form": 3055,
      "Ġrace": 3056,
      "gment": 3057,
      "Ġgrace": 3058,
      "Ġdistingu": 3059,
      "ades": 3060,
      "Ġbuilt": 3061,
      "Ġmethod": 3062,
      "ov": 3063,
      "Ġstrugg": 3064,
      "ibly": 3065,
      "Ġwrite": 3066,
      "lend": 3067,
      "Ġgrew": 3068,
      "Ġmiddle": 3069,
      "Ġgives": 3070,
      "Ġstopped": 3071,
      "ĠGr": 3072,
      "ĠNorth": 3073,
      "ĠQueen": 3074,
      "Ġdue": 3075,
      "ST": 3076,
      "Ġinj": 3077,
      "ĠSouth": 3078,
      "Ġshown": 3079,
      "ĠLa": 3080,
      "Ġartic": 3081,
      "ny": 3082,
      "39": 3083,
      "Ġdeser": 3084,
      "Ġoutside": 3085,
      "Ġdim": 3086,
      "Ġetc": 3087,
      "Ġdepend": 3088,
      "Ġexec": 3089,
      "uses": 3090,
      "erous": 3091,
      "otion": 3092,
      "umed": 3093,
      "Ġpath": 3094,
      "ĠAug": 3095,
      "ĠPrince": 3096,
      "187": 3097,
      "Ġchanged": 3098,
      "Ġclaim": 3099,
      "Ġproduced": 3100,
      "Ġlaughed": 3101,
      "Ġassist": 3102,
      "Ġexcell": 3103,
      "under": 3104,
      "Ġmodern": 3105,
      "III": 3106,
      "Ġrecord": 3107,
      "hib": 3108,
      "Ġbran": 3109,
      "Ġkilled": 3110,
      "Ġtemper": 3111,
      "188": 3112,
      "Ġleaves": 3113,
      "Ġmess": 3114,
      "ĠJes": 3115,
      "AC": 3116,
      "itive": 3117,
      "Ġpra": 3118,
      "Ġfal": 3119,
      "irth": 3120,
      "ĠAmerica": 3121,
      "Ġdrawn": 3122,
      "Ġtroops": 3123,
      "het": 3124,
      "ription": 3125,
      "elve": 3126,
      "Ġdiscovered": 3127,
      "set": 3128,
      "ĠJames": 3129,
      "Ġpassion": 3130,
      "Ġflowers": 3131,
      "Ġsoldiers": 3132,
      "Ġphilosop": 3133,
      "Ġforest": 3134,
      "Ġere": 3135,
      "Ġcou": 3136,
      "hest": 3137,
      "gel": 3138,
      "Ġproperty": 3139,
      "Ġwinter": 3140,
      "Ġmarriage": 3141,
      "Ġhath": 3142,
      "Ġlives": 3143,
      "istic": 3144,
      "Ġcop": 3145,
      "All": 3146,
      "rict": 3147,
      "oyal": 3148,
      "Ġdread": 3149,
      "Ġmountain": 3150,
      "Ġdistinct": 3151,
      "Ġattend": 3152,
      "Ġtender": 3153,
      "Ġexistence": 3154,
      "ĠAg": 3155,
      "Ġconsiderable": 3156,
      "inc": 3157,
      "Ġspecial": 3158,
      "Ġoriginal": 3159,
      "Ġearn": 3160,
      "Ġpicture": 3161,
      "Ġfavour": 3162,
      "umn": 3163,
      "Ġgarden": 3164,
      "ĠYet": 3165,
      "Ġinha": 3166,
      "Ġcaptain": 3167,
      "189": 3168,
      "Ġauthority": 3169,
      "Ġdetermined": 3170,
      "ĠRoman": 3171,
      "Ġhung": 3172,
      "Ġsor": 3173,
      "ĠGl": 3174,
      "Ġprivate": 3175,
      "Ġeager": 3176,
      "Ġloss": 3177,
      "Ġnotice": 3178,
      "zen": 3179,
      "ails": 3180,
      "Ġreach": 3181,
      "Ġappears": 3182,
      "Ġreligion": 3183,
      "iles": 3184,
      "Ġmut": 3185,
      "inite": 3186,
      "Ġwaiting": 3187,
      "rid": 3188,
      "Ġpull": 3189,
      "Ġid": 3190,
      "Ġstudy": 3191,
      "ĠSch": 3192,
      "eds": 3193,
      "Ġhero": 3194,
      "appe": 3195,
      "Ġwait": 3196,
      "Ġfra": 3197,
      "Ġfifty": 3198,
      "Ġarg": 3199,
      "ishment": 3200,
      "Ġbreath": 3201,
      "Ġpref": 3202,
      "Ġafternoon": 3203,
      "Ġequal": 3204,
      "Ġgrou": 3205,
      "Ġrid": 3206,
      "soci": 3207,
      "Ġneck": 3208,
      "Ġhang": 3209,
      "Ġcat": 3210,
      "ĠGreat": 3211,
      "Ġabsolute": 3212,
      "ĠRome": 3213,
      "Ġnames": 3214,
      "Ġder": 3215,
      "ables": 3216,
      "Ġsitting": 3217,
      "Ġsnow": 3218,
      "Ġspecies": 3219,
      "ĠThom": 3220,
      "Ġdu": 3221,
      "Ġgoes": 3222,
      "icated": 3223,
      "Ġpleasant": 3224,
      "Ġcover": 3225,
      "reet": 3226,
      "inal": 3227,
      "Ġsufficient": 3228,
      "lls": 3229,
      "Ġdeclared": 3230,
      "Ġconduct": 3231,
      "Ġsymp": 3232,
      "Ġforeign": 3233,
      "Ġconversation": 3234,
      "uge": 3235,
      "ENT": 3236,
      "clock": 3237,
      "Ġpassage": 3238,
      "ourt": 3239,
      "Ġplant": 3240,
      "Ġextreme": 3241,
      "ois": 3242,
      "vation": 3243,
      "Ġnews": 3244,
      "Ġsurface": 3245,
      "zz": 3246,
      "action": 3247,
      "ĠWhere": 3248,
      "Ġlikely": 3249,
      "Ġfixed": 3250,
      "Ġreceive": 3251,
      "Ġnarrow": 3252,
      "Ġshout": 3253,
      "Ġdi": 3254,
      "known": 3255,
      "asp": 3256,
      "Ġspeaking": 3257,
      "Ġappre": 3258,
      "how": 3259,
      "Ġfly": 3260,
      "Ġhonour": 3261,
      "Ġfloor": 3262,
      "Ġsword": 3263,
      "Ġph": 3264,
      "Ġreply": 3265,
      "Ġbeside": 3266,
      "Ġpassing": 3267,
      "Ġprepared": 3268,
      "Ġinteresting": 3269,
      "Ġcit": 3270,
      "Ġ$": 3271,
      "Ġshot": 3272,
      "hold": 3273,
      "Ġtrave": 3274,
      "Ġescape": 3275,
      "ĠThus": 3276,
      "Ġdegree": 3277,
      "Ġusually": 3278,
      "Ġdifficulty": 3279,
      "Ġsand": 3280,
      "ĠGovernment": 3281,
      "pir": 3282,
      "ergy": 3283,
      "Ġlaws": 3284,
      "Ġheat": 3285,
      "Ġsilent": 3286,
      "opt": 3287,
      "ĠCr": 3288,
      "ander": 3289,
      "Ġreligious": 3290,
      "osite": 3291,
      "Ġdecided": 3292,
      "Ġsong": 3293,
      "Ġkiss": 3294,
      "Ġspread": 3295,
      "Ġmentioned": 3296,
      "jo": 3297,
      "ITH": 3298,
      "Ġheight": 3299,
      "ding": 3300,
      "Ġwished": 3301,
      "Ġdestroy": 3302,
      "vey": 3303,
      "ague": 3304,
      "ĠSm": 3305,
      "ĀĀĀĀ": 3306,
      "Ġbread": 3307,
      "ĠJu": 3308,
      "lly": 3309,
      "lin": 3310,
      "45": 3311,
      "Ġpersonal": 3312,
      "Ġess": 3313,
      "Ġstorm": 3314,
      "Ġbelieved": 3315,
      "irst": 3316,
      "Ġoffered": 3317,
      "Ġminute": 3318,
      "Ġbroke": 3319,
      "Ġur": 3320,
      "ĠRev": 3321,
      "Ġhabit": 3322,
      "Ġmeeting": 3323,
      "Ġrepeated": 3324,
      "sec": 3325,
      "ĠTheir": 3326,
      "IG": 3327,
      "Ġdoctor": 3328,
      "Ġfavor": 3329,
      "Ġrail": 3330,
      "Ġevidence": 3331,
      "Ġfashion": 3332,
      "Ġdry": 3333,
      "ias": 3334,
      "peror": 3335,
      "ram": 3336,
      "unk": 3337,
      "Ġspeech": 3338,
      "off": 3339,
      "ĠPaul": 3340,
      "arily": 3341,
      "arer": 3342,
      "Ġunless": 3343,
      "eb": 3344,
      "Ġfail": 3345,
      "Ġladies": 3346,
      "Ġmaid": 3347,
      "ĠDuke": 3348,
      "Ġobtained": 3349,
      "Ġdisg": 3350,
      "Ġcre": 3351,
      "hens": 3352,
      "Ġhigher": 3353,
      "Ġexample": 3354,
      "Ġprincip": 3355,
      "Ġcoast": 3356,
      "Ġsupport": 3357,
      "Ġdiscuss": 3358,
      "Ġmembers": 3359,
      "Ġrequired": 3360,
      "Ġbeneath": 3361,
      "Ġsimply": 3362,
      "ĠCor": 3363,
      "Ġtest": 3364,
      "ĠAnt": 3365,
      "IV": 3366,
      "185": 3367,
      "Ġsides": 3368,
      "iments": 3369,
      "Ġallow": 3370,
      "Ã¡": 3371,
      "sed": 3372,
      "Ġexerc": 3373,
      "cle": 3374,
      "Ġvain": 3375,
      "Ġsty": 3376,
      "Ġorders": 3377,
      "Ġsmo": 3378,
      "Ġlif": 3379,
      "Ġanimal": 3380,
      "Ġproved": 3381,
      "Ġpale": 3382,
      "Ġbuilding": 3383,
      "Ġmoon": 3384,
      "ĠRuss": 3385,
      "Ġsail": 3386,
      "pping": 3387,
      "aval": 3388,
      "ĠIN": 3389,
      "Ġofficer": 3390,
      "ĠMin": 3391,
      "Ġmel": 3392,
      "ibility": 3393,
      "Ġtit": 3394,
      "Ġpossession": 3395,
      "ĠDav": 3396,
      "arl": 3397,
      "Ġfit": 3398,
      "Ġdescend": 3399,
      "Ġones": 3400,
      "Ġprogress": 3401,
      "vernor": 3402,
      "Ġperfectly": 3403,
      "Ġprint": 3404,
      "Ġtwelve": 3405,
      "Ġcab": 3406,
      "ĠEvery": 3407,
      "Ġsilver": 3408,
      "Ġapart": 3409,
      "uten": 3410,
      "rank": 3411,
      "Ġdoll": 3412,
      "look": 3413,
      "Ġbox": 3414,
      "Ġrise": 3415,
      "Ġwitness": 3416,
      "nal": 3417,
      "Ġconcern": 3418,
      "ĠWar": 3419,
      "Ġcrit": 3420,
      "Ġcult": 3421,
      "Ġgrad": 3422,
      "Ġmotion": 3423,
      "Ġordinary": 3424,
      "ocked": 3425,
      "ĠCal": 3426,
      "Ġmatters": 3427,
      "Ġmiss": 3428,
      "Ġav": 3429,
      "Ġ...": 3430,
      "ĠJew": 3431,
      "pany": 3432,
      "Ġfro": 3433,
      "Ġcrown": 3434,
      "Ġpolitical": 3435,
      "ception": 3436,
      "Ġintellig": 3437,
      "bered": 3438,
      "Ġcorner": 3439,
      "Ġdeli": 3440,
      "dy": 3441,
      "Ġrule": 3442,
      "Ġwise": 3443,
      "Ġrain": 3444,
      "Ġturning": 3445,
      "Ġende": 3446,
      "iqu": 3447,
      "Ġsusp": 3448,
      "Ġterrible": 3449,
      "ĠAugust": 3450,
      "ĠGre": 3451,
      "ology": 3452,
      "46": 3453,
      "Ġbitter": 3454,
      "itor": 3455,
      "Ġopportunity": 3456,
      "iently": 3457,
      "ik": 3458,
      "Ġclosed": 3459,
      "Ġband": 3460,
      "ners": 3461,
      "ify": 3462,
      "Ġadvantage": 3463,
      "Ġpreser": 3464,
      "Ġreb": 3465,
      "Do": 3466,
      "Ġsky": 3467,
      "Ġplease": 3468,
      "ĠSw": 3469,
      "Ġsteps": 3470,
      "Ġtrain": 3471,
      "Ġinstance": 3472,
      "Ġnative": 3473,
      "Ġmoral": 3474,
      "idently": 3475,
      "Ġportion": 3476,
      "Ġourselves": 3477,
      "bar": 3478,
      "ses": 3479,
      "Ġcaused": 3480,
      "Ġopposite": 3481,
      "Ġgame": 3482,
      "Ġvalley": 3483,
      "Ġrunning": 3484,
      "ĠRic": 3485,
      "ĠFather": 3486,
      "ustri": 3487,
      "retched": 3488,
      "Ġserious": 3489,
      "Ġwest": 3490,
      "Ġreve": 3491,
      "ctr": 3492,
      "48": 3493,
      "Ġcalm": 3494,
      "Ġadopt": 3495,
      "Ġunderstood": 3496,
      "chant": 3497,
      "illy": 3498,
      "Ġregular": 3499,
      "Ġsteam": 3500,
      "ville": 3501,
      "ocks": 3502,
      "Ġaccompl": 3503,
      "Ġweight": 3504,
      "erable": 3505,
      "lected": 3506,
      "Ġfol": 3507,
      "_;": 3508,
      "Ġbod": 3509,
      "Ġpit": 3510,
      "ĠSam": 3511,
      "Ġunf": 3512,
      "Ġspace": 3513,
      "morrow": 3514,
      "RO": 3515,
      "Ġanimals": 3516,
      "Ġconscious": 3517,
      "ĠMor": 3518,
      "Ġwriting": 3519,
      "Ġbeat": 3520,
      "ogether": 3521,
      "Ġrul": 3522,
      "Ġsplend": 3523,
      "Ġordered": 3524,
      "Ġpot": 3525,
      "Ġ----": 3526,
      "aken": 3527,
      "cher": 3528,
      "Ġengaged": 3529,
      "Ġwealth": 3530,
      "Ġhall": 3531,
      "Ġrare": 3532,
      "Ġaut": 3533,
      "Ġdescribed": 3534,
      "illing": 3535,
      "Ġcolour": 3536,
      "Ġvent": 3537,
      "Ġloud": 3538,
      "ĠMon": 3539,
      "Ġgrass": 3540,
      "ounced": 3541,
      "Ġarch": 3542,
      "Ġcontro": 3543,
      "Ġroy": 3544,
      "ification": 3545,
      "wing": 3546,
      "hal": 3547,
      "Ġsav": 3548,
      "Ġhappiness": 3549,
      "Ġmemory": 3550,
      "arm": 3551,
      "47": 3552,
      "Ġimportance": 3553,
      "Ġchap": 3554,
      "ration": 3555,
      "Ġmort": 3556,
      "Ġsuggest": 3557,
      "Ġsurprise": 3558,
      "Ġdrawing": 3559,
      "Ġpleased": 3560,
      "Ġbill": 3561,
      "Ġagree": 3562,
      "Ġhonor": 3563,
      "Ġimper": 3564,
      "Ġjustice": 3565,
      "Ġintended": 3566,
      "pered": 3567,
      "aped": 3568,
      "Ġspent": 3569,
      "Ġbow": 3570,
      "Ġvan": 3571,
      "respond": 3572,
      "Ġfright": 3573,
      "Ġcurious": 3574,
      "IA": 3575,
      "Ġstation": 3576,
      "sued": 3577,
      "UR": 3578,
      "Ġfrequently": 3579,
      "Ġtouch": 3580,
      "Ġprevent": 3581,
      "fortun": 3582,
      "Ġmountains": 3583,
      "inent": 3584,
      "uf": 3585,
      "Ġyellow": 3586,
      "no": 3587,
      "Ġbrown": 3588,
      "Ġshut": 3589,
      "ajesty": 3590,
      "Ġspite": 3591,
      "Ġpock": 3592,
      "Ġlying": 3593,
      "field": 3594,
      "Ġcorre": 3595,
      "ĠBo": 3596,
      "chan": 3597,
      "wood": 3598,
      "Ġsituation": 3599,
      "ization": 3600,
      "Ġproud": 3601,
      "Ġignor": 3602,
      "Ġemployed": 3603,
      "Ġcand": 3604,
      "ear": 3605,
      "190": 3606,
      "Ġgrant": 3607,
      "Ġstop": 3608,
      "Ġgreatly": 3609,
      "Ġmeaning": 3610,
      "fast": 3611,
      "pon": 3612,
      "Ġmilitary": 3613,
      "Ġconqu": 3614,
      "Ġfinally": 3615,
      "Ġoffer": 3616,
      "IR": 3617,
      "Ġheads": 3618,
      "Ġstar": 3619,
      "Ġvast": 3620,
      "Ġsharp": 3621,
      "Ġtrying": 3622,
      "Ġbenef": 3623,
      "iden": 3624,
      "ĠBur": 3625,
      "Ġrob": 3626,
      "rees": 3627,
      "cip": 3628,
      "Ġparent": 3629,
      "ĠWho": 3630,
      "ena": 3631,
      "Ġ{": 3632,
      "Ġtakes": 3633,
      "asc": 3634,
      "Ġprove": 3635,
      "Ġthorough": 3636,
      "Ġcred": 3637,
      "Ġprec": 3638,
      "Ġthreat": 3639,
      "Ġ+": 3640,
      "Ġillustr": 3641,
      "Ġpieces": 3642,
      "Ġpoints": 3643,
      "gypt": 3644,
      "Ġfalse": 3645,
      "Ġforty": 3646,
      "Ġspeed": 3647,
      "Ġcourage": 3648,
      "Ġbirds": 3649,
      "mit": 3650,
      "Ġearli": 3651,
      "Ġtrade": 3652,
      "ember": 3653,
      "Ġfortune": 3654,
      "Ġep": 3655,
      "uments": 3656,
      "Ġseat": 3657,
      "Ġtrad": 3658,
      "ĠOur": 3659,
      "ril": 3660,
      "CH": 3661,
      "Ġendeav": 3662,
      "ipped": 3663,
      "Ġthrown": 3664,
      "With": 3665,
      "Ġroyal": 3666,
      "Ġobtain": 3667,
      "Ġinstant": 3668,
      "Ġpet": 3669,
      "ĠPeter": 3670,
      "Ġwine": 3671,
      "eg": 3672,
      "Ġarrange": 3673,
      "Ġsacrif": 3674,
      "Ġgro": 3675,
      "ees": 3676,
      "Ġsocial": 3677,
      "Ġsearch": 3678,
      "Ġmach": 3679,
      "Ġaffection": 3680,
      "Ġfallen": 3681,
      "Ġmovement": 3682,
      "Ġpopular": 3683,
      "Ġdisappe": 3684,
      "Ġmeasure": 3685,
      "Ġconditions": 3686,
      "Ġemp": 3687,
      "Ġring": 3688,
      "Ġsake": 3689,
      "Ġways": 3690,
      "Ġcheer": 3691,
      "Ġris": 3692,
      "Ġpromise": 3693,
      "Ġtong": 3694,
      "isters": 3695,
      "Is": 3696,
      "Ġreading": 3697,
      "Ġinformation": 3698,
      "Ġlooks": 3699,
      "Ġfish": 3700,
      "ĠWITH": 3701,
      "Ġearnest": 3702,
      "Ġcapital": 3703,
      "pet": 3704,
      "Ġbottom": 3705,
      "ashed": 3706,
      "Ġwonderful": 3707,
      "Ġfier": 3708,
      "Ġdifference": 3709,
      "Ġaston": 3710,
      "ational": 3711,
      "perior": 3712,
      "Ġafford": 3713,
      "Ġstro": 3714,
      "lex": 3715,
      "Ġspoken": 3716,
      "ublic": 3717,
      "ĠCong": 3718,
      "After": 3719,
      "Ġfully": 3720,
      "ĠXX": 3721,
      "Ġthrew": 3722,
      "Ġpublished": 3723,
      "Ġsympath": 3724,
      "Ġquant": 3725,
      "Ġfem": 3726,
      "alt": 3727,
      "US": 3728,
      "Ġpresented": 3729,
      "Ġavo": 3730,
      "Ġwid": 3731,
      "Ġsize": 3732,
      "aced": 3733,
      "olic": 3734,
      "Ġclean": 3735,
      "Ġwrit": 3736,
      "ĠCo": 3737,
      "Ġears": 3738,
      "Ġtall": 3739,
      "ĠEven": 3740,
      "49": 3741,
      "ĠSec": 3742,
      "Ġworse": 3743,
      "lished": 3744,
      "Ġcarefully": 3745,
      "Ġnamed": 3746,
      "Ġperce": 3747,
      "rem": 3748,
      "Ġaffairs": 3749,
      "ĠConst": 3750,
      "Ġremains": 3751,
      "essor": 3752,
      "ĠIr": 3753,
      "ĠThomas": 3754,
      "Ġworking": 3755,
      "ait": 3756,
      "ĠLouis": 3757,
      "Ġtaste": 3758,
      "ancing": 3759,
      "._,": 3760,
      "ĠJud": 3761,
      "One": 3762,
      "Ġattract": 3763,
      "Ġthin": 3764,
      "gl": 3765,
      "Ġstir": 3766,
      "Ġfacts": 3767,
      "Ġoccupied": 3768,
      "eal": 3769,
      "ĠScot": 3770,
      "ĠEgypt": 3771,
      "ĠColonel": 3772,
      "Ġbreast": 3773,
      "Ġterms": 3774,
      "Ġpictures": 3775,
      "Ġseason": 3776,
      "Ġfruit": 3777,
      "orious": 3778,
      "Ġobliged": 3779,
      "ege": 3780,
      "Ġquarter": 3781,
      "ids": 3782,
      "Ġweeks": 3783,
      "ternal": 3784,
      "stand": 3785,
      "antic": 3786,
      "Al": 3787,
      "iny": 3788,
      "Ġstock": 3789,
      "Ġexcellent": 3790,
      "Ġrend": 3791,
      "Ġtalking": 3792,
      "min": 3793,
      "Ġnumerous": 3794,
      "Ġanxious": 3795,
      "ially": 3796,
      "Ġjudge": 3797,
      "Ġremarkable": 3798,
      "Ġdism": 3799,
      "Ġbrave": 3800,
      "Ġguess": 3801,
      "eed": 3802,
      "Ġfeelings": 3803,
      "ĠJesus": 3804,
      "idenote": 3805,
      "ending": 3806,
      "Ġbesides": 3807,
      "Ġfamiliar": 3808,
      "Ġassoci": 3809,
      "ĠPort": 3810,
      "nes": 3811,
      "Ġsucceeded": 3812,
      "Sidenote": 3813,
      "Ġworthy": 3814,
      "Ġcorrespond": 3815,
      "Ġweather": 3816,
      "rence": 3817,
      "amb": 3818,
      "Ġservant": 3819,
      "Ġgrat": 3820,
      "Ġbold": 3821,
      "ok": 3822,
      "rud": 3823,
      "Ġaltogether": 3824,
      "ĠFrank": 3825,
      "utions": 3826,
      "Ġproport": 3827,
      "icious": 3828,
      "31": 3829,
      "Ġquestions": 3830,
      "Ġhonest": 3831,
      "Ġeffort": 3832,
      "Ġwel": 3833,
      "Ġinhabit": 3834,
      "ores": 3835,
      "Ġstage": 3836,
      "Ġtow": 3837,
      "irgin": 3838,
      "Ġhunt": 3839,
      "Ġunivers": 3840,
      "ĠCourt": 3841,
      "Ġexped": 3842,
      "Ġforced": 3843,
      "Ġevents": 3844,
      "AD": 3845,
      "lict": 3846,
      "Ġpowers": 3847,
      "urb": 3848,
      "itated": 3849,
      "ival": 3850,
      "60": 3851,
      "Ġblind": 3852,
      "Ġexactly": 3853,
      "ĠMart": 3854,
      "Ġdarkness": 3855,
      "ĠRep": 3856,
      "urally": 3857,
      "Ġstyle": 3858,
      "Ġexper": 3859,
      "ĠSuch": 3860,
      "By": 3861,
      "oned": 3862,
      "aces": 3863,
      "ios": 3864,
      "she": 3865,
      "Ġdistant": 3866,
      "Ġadvance": 3867,
      "Ġerr": 3868,
      "Ġfinished": 3869,
      "ailed": 3870,
      "Ġgentlemen": 3871,
      "Ġextent": 3872,
      "Ġbas": 3873,
      "Ġbirth": 3874,
      "ental": 3875,
      "Ġeast": 3876,
      "TH": 3877,
      "Be": 3878,
      "sy": 3879,
      "Ġhes": 3880,
      "Ġgate": 3881,
      "llustr": 3882,
      "cer": 3883,
      "Of": 3884,
      "alled": 3885,
      "Ġideas": 3886,
      "Ġdwell": 3887,
      "quis": 3888,
      "usted": 3889,
      "ien": 3890,
      "Ġcompar": 3891,
      "Don": 3892,
      "Ġfreed": 3893,
      "Ġsettle": 3894,
      "ĠJan": 3895,
      "Ġsuffer": 3896,
      "Ġhills": 3897,
      "Ġdam": 3898,
      "Ġsettled": 3899,
      "ulf": 3900,
      "Ġfancy": 3901,
      "Ġglance": 3902,
      "eper": 3903,
      "ensive": 3904,
      "Ġregarded": 3905,
      "Ġaid": 3906,
      "Ġreport": 3907,
      "omm": 3908,
      "asons": 3909,
      "Ġliberty": 3910,
      "Ġsour": 3911,
      "bb": 3912,
      "Ġaccompan": 3913,
      "Ġrough": 3914,
      "Ġwounded": 3915,
      "Ġcitiz": 3916,
      "Ġsev": 3917,
      "Ġlot": 3918,
      "iance": 3919,
      "ĠJer": 3920,
      "Ġwear": 3921,
      "ky": 3922,
      "Ġhistor": 3923,
      "Ġdiss": 3924,
      "Ġaddress": 3925,
      "idden": 3926,
      "Ġadvent": 3927,
      "Ġholding": 3928,
      "Ġsuppl": 3929,
      "Ġredu": 3930,
      "Ġclothes": 3931,
      "Let": 3932,
      "estern": 3933,
      "Ġproof": 3934,
      "ĠDan": 3935,
      "Ġserve": 3936,
      "Ġburst": 3937,
      "Ġpack": 3938,
      "Ġotherwise": 3939,
      "Ġstreets": 3940,
      "ora": 3941,
      "Ġbare": 3942,
      "Ġsuperior": 3943,
      "ĠTur": 3944,
      "ĠMont": 3945,
      "oles": 3946,
      "leg": 3947,
      "Ġmarked": 3948,
      "ĠPal": 3949,
      "Ġsought": 3950,
      "Ġyield": 3951,
      "Ġestablish": 3952,
      "!--": 3953,
      "ĠOld": 3954,
      "Ġlies": 3955,
      "atures": 3956,
      "rig": 3957,
      "Ġleading": 3958,
      "ators": 3959,
      "Ġhighest": 3960,
      "Ġfate": 3961,
      "Ġrising": 3962,
      "Ġdom": 3963,
      "ayed": 3964,
      "Ġlean": 3965,
      "Î½": 3966,
      "Ġestablished": 3967,
      "Ġthank": 3968,
      "Ġentertain": 3969,
      "Ġsquare": 3970,
      "Ġsorry": 3971,
      "Ġpractice": 3972,
      "yr": 3973,
      "Ġuncle": 3974,
      "icks": 3975,
      "Ġremoved": 3976,
      "Ġaddition": 3977,
      "Ġupper": 3978,
      "Ġparticularly": 3979,
      "Ġfamous": 3980,
      "Ġprinciple": 3981,
      "Ġconfidence": 3982,
      "Ġundert": 3983,
      "Ġdign": 3984,
      "Ġevent": 3985,
      "Ġopening": 3986,
      "fl": 3987,
      "aked": 3988,
      "ulous": 3989,
      "ĠIII": 3990,
      "pelled": 3991,
      "Ġsevere": 3992,
      "ams": 3993,
      "Ġpromised": 3994,
      "Ġsolemn": 3995,
      "Ġcompanion": 3996,
      "Ġinterv": 3997,
      "orne": 3998,
      "ĠHim": 3999,
      "igned": 4000,
      "Ġglory": 4001,
      "Ġasc": 4002,
      "Ġdoctr": 4003,
      "Ġdispl": 4004,
      "liament": 4005,
      "Ġprincipal": 4006,
      "Ġshare": 4007,
      "Ġpride": 4008,
      "Ġdisapp": 4009,
      "Ġer": 4010,
      "Ah": 4011,
      "ĠRichard": 4012,
      "Ġconfess": 4013,
      "Ġjudgment": 4014,
      "burg": 4015,
      "Ġbab": 4016,
      "Ġcentre": 4017,
      "ĠJust": 4018,
      "Ġevidently": 4019,
      "Ġcook": 4020,
      "Ġindepend": 4021,
      "lebr": 4022,
      "Ġqual": 4023,
      "ĠÃ": 4024,
      "ĠJune": 4025,
      "ĠMarch": 4026,
      "Ġwouldn": 4027,
      "Ġdise": 4028,
      "Ġforgotten": 4029,
      "Ġmir": 4030,
      "Ġcatch": 4031,
      "Ġsorrow": 4032,
      "ĠColl": 4033,
      "Ġcruel": 4034,
      "een": 4035,
      "athered": 4036,
      "Ġwoods": 4037,
      "ĠMadame": 4038,
      "Ġvig": 4039,
      "ais": 4040,
      "Ġrefused": 4041,
      "Ġfault": 4042,
      "ocr": 4043,
      "ĠSpanish": 4044,
      "Ġbecomes": 4045,
      "Ġsoldier": 4046,
      "ĠStreet": 4047,
      "isions": 4048,
      "âĶĢâĶĢâĶĢâĶĢ": 4049,
      "ability": 4050,
      "Ġdece": 4051,
      "Ġhearts": 4052,
      "Ġegg": 4053,
      "ourse": 4054,
      "ĠDick": 4055,
      "Ġroof": 4056,
      "Ġwaters": 4057,
      "Ġfond": 4058,
      "Ġclim": 4059,
      "ĠGreek": 4060,
      "Ġshook": 4061,
      "Ġserved": 4062,
      "Ġcontrary": 4063,
      "Ġships": 4064,
      "Ġwatched": 4065,
      "Ġstranger": 4066,
      "Ġrate": 4067,
      "ulated": 4068,
      "\"'": 4069,
      "Ġexceed": 4070,
      "Ġinstru": 4071,
      "Ġsmiled": 4072,
      "Ġeld": 4073,
      "amm": 4074,
      "using": 4075,
      "Ġprince": 4076,
      "Ġkingdom": 4077,
      "Ġdaily": 4078,
      "esh": 4079,
      "tering": 4080,
      "Ġneighbour": 4081,
      "Ġiii": 4082,
      "Ġunw": 4083,
      "Ġbeha": 4084,
      "Ġlose": 4085,
      "ĠMac": 4086,
      "lo": 4087,
      "ĠST": 4088,
      "Ġshape": 4089,
      "Ġcool": 4090,
      "icy": 4091,
      "Ġamb": 4092,
      "Ġequally": 4093,
      "Ġscience": 4094,
      "Ġinnoc": 4095,
      "Ġpounds": 4096,
      "Ġexhib": 4097,
      "isp": 4098,
      "Ġpos": 4099,
      "Ġblow": 4100,
      "Ġempt": 4101,
      "Ġresist": 4102,
      "Ġrelations": 4103,
      "Ġthro": 4104,
      "ĠBer": 4105,
      "Ġbull": 4106,
      "Ġfaint": 4107,
      "Ġinterrupt": 4108,
      "Ġseek": 4109,
      "Ġcelebr": 4110,
      "Ġdistrict": 4111,
      "44": 4112,
      "was": 4113,
      "Ġpriest": 4114,
      "rose": 4115,
      "ĠHall": 4116,
      "ĠMag": 4117,
      "Ġappointed": 4118,
      "eder": 4119,
      "Ġprice": 4120,
      "Ġpointed": 4121,
      "Ġconsequence": 4122,
      "chief": 4123,
      "Ġpowerful": 4124,
      "ĠÎ": 4125,
      "erson": 4126,
      "Ġmarry": 4127,
      "Ġbrief": 4128,
      "Ġtravel": 4129,
      "Ġlarger": 4130,
      "Ġconcer": 4131,
      "Ġfarm": 4132,
      "Ġnecessity": 4133,
      "Ġdistinguished": 4134,
      "Ġthroughout": 4135,
      "ems": 4136,
      "ĠCath": 4137,
      "cks": 4138,
      "outhern": 4139,
      "ograph": 4140,
      "Ġcontem": 4141,
      "Ġinterp": 4142,
      "Ġincreased": 4143,
      "atory": 4144,
      "aches": 4145,
      "aret": 4146,
      "His": 4147,
      "Ġapparently": 4148,
      "ette": 4149,
      "see": 4150,
      "Ġpossessed": 4151,
      "Ġspirits": 4152,
      "Ġadvanced": 4153,
      "Ġnine": 4154,
      "Ġcarriage": 4155,
      "Ġedge": 4156,
      "Ġdouble": 4157,
      "ĠTO": 4158,
      "AP": 4159,
      "Ġbrill": 4160,
      "Ġdiscover": 4161,
      "ĠSpain": 4162,
      "Ġaud": 4163,
      "Ġknowing": 4164,
      "Ġmult": 4165,
      "Ġstates": 4166,
      "Ġproduce": 4167,
      "astic": 4168,
      "sha": 4169,
      "which": 4170,
      "Ġfollows": 4171,
      "Ġsupply": 4172,
      "ĠSu": 4173,
      "Ġpapers": 4174,
      "ĠMe": 4175,
      "Ġdollars": 4176,
      "32": 4177,
      "Ġservants": 4178,
      "Ġtot": 4179,
      "Ġkill": 4180,
      "hem": 4181,
      "Ġprinciples": 4182,
      "Ġremarked": 4183,
      "Ġtea": 4184,
      "Ġexpressed": 4185,
      "Ġshadow": 4186,
      "Ġhandsome": 4187,
      "EC": 4188,
      "cies": 4189,
      "Ġintellect": 4190,
      "ĠLaw": 4191,
      "_)": 4192,
      "Ġremembered": 4193,
      "attered": 4194,
      "Ġinstr": 4195,
      "Ġoccurred": 4196,
      "Ġknight": 4197,
      "gen": 4198,
      "Ar": 4199,
      "hant": 4200,
      "Ġbelief": 4201,
      "Ġeducation": 4202,
      "Ġkeeping": 4203,
      "Ġfart": 4204,
      "rang": 4205,
      "Ġaside": 4206,
      "Ġdropped": 4207,
      "Ġtreas": 4208,
      "ĠVol": 4209,
      "ĠWhile": 4210,
      "ĠSy": 4211,
      "hus": 4212,
      "Ġholy": 4213,
      "Ġquietly": 4214,
      "bted": 4215,
      "van": 4216,
      "Ġvo": 4217,
      "ĠSund": 4218,
      "ama": 4219,
      "ata": 4220,
      "ĠCast": 4221,
      "Ġmighty": 4222,
      "Ġsacred": 4223,
      "Ġdesired": 4224,
      "Ġsuggested": 4225,
      "do": 4226,
      "ĠMc": 4227,
      "Ġtransl": 4228,
      "acity": 4229,
      "Ġexplain": 4230,
      ",[": 4231,
      "Ġtitle": 4232,
      "====": 4233,
      "ĠJuly": 4234,
      "Ġmanif": 4235,
      "Ġnations": 4236,
      "Ġdivine": 4237,
      "uel": 4238,
      "Ġcup": 4239,
      "Ġinches": 4240,
      "ara": 4241,
      "nat": 4242,
      "pons": 4243,
      "Ġbell": 4244,
      "Ġplayed": 4245,
      "Ġpreced": 4246,
      "pes": 4247,
      "Ġsubjects": 4248,
      "itz": 4249,
      "Ġshoulder": 4250,
      "Ġgrowing": 4251,
      "GE": 4252,
      "Ġprovided": 4253,
      "Ġenemies": 4254,
      "ĠPresident": 4255,
      "irm": 4256,
      "Ġexplained": 4257,
      "ieur": 4258,
      "Ġpp": 4259,
      "bling": 4260,
      "Ġprim": 4261,
      "ule": 4262,
      "Ġpage": 4263,
      "Ġinhabitants": 4264,
      "Ġsecure": 4265,
      "theless": 4266,
      "Ġacquaint": 4267,
      "aker": 4268,
      "Ġtaught": 4269,
      "Ġlod": 4270,
      "orthern": 4271,
      "Ġpocket": 4272,
      "Ġcell": 4273,
      "Ch": 4274,
      ".âĢĻ": 4275,
      "Ġrapidly": 4276,
      "ousin": 4277,
      "Ġfailed": 4278,
      "Here": 4279,
      "Ġisn": 4280,
      "ushing": 4281,
      "Ġbreakfast": 4282,
      "Ġnoticed": 4283,
      "cts": 4284,
      "Ġdare": 4285,
      "Ġgar": 4286,
      "Ġfingers": 4287,
      "uary": 4288,
      "Ġbeast": 4289,
      "ĠAf": 4290,
      "Ġnice": 4291,
      "Ġreck": 4292,
      "Ġcolor": 4293,
      "Ġshoulders": 4294,
      "Ġgroup": 4295,
      "oms": 4296,
      "ims": 4297,
      "ID": 4298,
      "ĠIsland": 4299,
      "ĠSen": 4300,
      "Ġlear": 4301,
      "acle": 4302,
      "Ġcloth": 4303,
      "omp": 4304,
      "Ġnaturally": 4305,
      "Ġpurcha": 4306,
      "aud": 4307,
      "tis": 4308,
      "ainted": 4309,
      "Ġsuffered": 4310,
      "ye": 4311,
      "Ġjoined": 4312,
      "Ġdust": 4313,
      "umph": 4314,
      "Ġdate": 4315,
      "Ġsurprised": 4316,
      "ode": 4317,
      "ipe": 4318,
      "Ġcouldn": 4319,
      "ĠMa": 4320,
      "ĠTe": 4321,
      "Ġuseful": 4322,
      "Ġactually": 4323,
      "Ġrank": 4324,
      "ĠRobert": 4325,
      "Ġwindows": 4326,
      "Ġpursu": 4327,
      "Ġune": 4328,
      "Ġwilling": 4329,
      "ĠProf": 4330,
      "ĠHigh": 4331,
      "ĠWil": 4332,
      "ĠPat": 4333,
      "Ġhosp": 4334,
      "orous": 4335,
      "Ġproceeded": 4336,
      "arest": 4337,
      "Ġcarrying": 4338,
      "ĠOct": 4339,
      "Ġbodies": 4340,
      "ĠHist": 4341,
      "Ġcreature": 4342,
      "-+": 4343,
      "port": 4344,
      "Ġdescription": 4345,
      "Ġsaf": 4346,
      "Ġworked": 4347,
      "Ġtongue": 4348,
      "Ġcow": 4349,
      "Ġstands": 4350,
      "Ġmajor": 4351,
      "Ġgain": 4352,
      "ĠSan": 4353,
      "Ġunknown": 4354,
      "ĠJose": 4355,
      "llen": 4356,
      "Ġcrossed": 4357,
      "Ġgolden": 4358,
      "Ġmurm": 4359,
      "Ġrub": 4360,
      "cture": 4361,
      "key": 4362,
      ");": 4363,
      "ancy": 4364,
      "Ġfaces": 4365,
      "ĠHel": 4366,
      "Ġseized": 4367,
      "Ġconnected": 4368,
      "Ġdirectly": 4369,
      "Ġshows": 4370,
      "ror": 4371,
      "Ġsatisfied": 4372,
      "**": 4373,
      "ĠEast": 4374,
      "Ġpair": 4375,
      "ique": 4376,
      "Ġgrown": 4377,
      "--_": 4378,
      "180": 4379,
      "rey": 4380,
      "ading": 4381,
      "kin": 4382,
      "uries": 4383,
      "Ġextraord": 4384,
      "Ġmission": 4385,
      "Ġgathered": 4386,
      "ico": 4387,
      "Ġarran": 4388,
      "Ġvolume": 4389,
      "Ġpity": 4390,
      "Ġaccompanied": 4391,
      "Ġcere": 4392,
      "Ġrocks": 4393,
      "hington": 4394,
      "ĠEdward": 4395,
      "ÏĦ": 4396,
      "iation": 4397,
      "Ġhom": 4398,
      "ese": 4399,
      "Ġtrembl": 4400,
      "Ġdangerous": 4401,
      "ential": 4402,
      "place": 4403,
      "Ġconsist": 4404,
      "Ġdriven": 4405,
      "ault": 4406,
      "Ġlog": 4407,
      "atin": 4408,
      "ĠAlex": 4409,
      "Ġnumbers": 4410,
      "Ġcompletely": 4411,
      "Ġnational": 4412,
      "ada": 4413,
      "Ġaband": 4414,
      "cknow": 4415,
      "umes": 4416,
      "Ġskin": 4417,
      "utation": 4418,
      "ĠHam": 4419,
      "Ġagreed": 4420,
      "ĠMore": 4421,
      "Ġseries": 4422,
      "Ġtired": 4423,
      "Ġsup": 4424,
      "Ġfinding": 4425,
      "Ġfigures": 4426,
      "esc": 4427,
      "Ġspect": 4428,
      "Ġvers": 4429,
      "Ġlegs": 4430,
      "Ġguns": 4431,
      "ĠEmperor": 4432,
      "Ġiv": 4433,
      "uls": 4434,
      "five": 4435,
      "isl": 4436,
      "ributed": 4437,
      "Ġacknow": 4438,
      "ĠBel": 4439,
      "elle": 4440,
      "ĠSmith": 4441,
      "Ġcontent": 4442,
      "Ġresembl": 4443,
      "ĠPrin": 4444,
      "Ġice": 4445,
      "Ġadmitted": 4446,
      "urd": 4447,
      "rate": 4448,
      "Ġpalace": 4449,
      "AU": 4450,
      "Ġrelief": 4451,
      "Ġproportion": 4452,
      "onsieur": 4453,
      "Ġapplied": 4454,
      "overy": 4455,
      "can": 4456,
      "enes": 4457,
      "ĠArch": 4458,
      "Ġpred": 4459,
      "stone": 4460,
      "Ġclearly": 4461,
      "Ġwand": 4462,
      "ĠGood": 4463,
      "Ġmyst": 4464,
      "ĠPh": 4465,
      "mas": 4466,
      "Ġstones": 4467,
      "Ġfreedom": 4468,
      "ker": 4469,
      "ĠVirgin": 4470,
      "Ġarrival": 4471,
      "Ġlabor": 4472,
      "berg": 4473,
      "Ġflesh": 4474,
      "Ġconcerning": 4475,
      "Ġexcit": 4476,
      "Ġhurried": 4477,
      "Ġwriter": 4478,
      "=,": 4479,
      "umber": 4480,
      "Ġangry": 4481,
      "ĠSept": 4482,
      "Ġfarther": 4483,
      "Ġbore": 4484,
      "Ġunfortun": 4485,
      "bre": 4486,
      "Ġrights": 4487,
      "Ġelect": 4488,
      "ĠIndia": 4489,
      "._--": 4490,
      "Ġreader": 4491,
      "Ġshel": 4492,
      "ĠLu": 4493,
      "Ġsaved": 4494,
      "mony": 4495,
      "ĠEn": 4496,
      "verse": 4497,
      "ĠÂ": 4498,
      "ĠRiver": 4499,
      "Ġsplendid": 4500,
      "Ġenthus": 4501,
      "Ġobjects": 4502,
      "Ġteeth": 4503,
      "Ġbent": 4504,
      "Î±": 4505,
      "Ġcurrent": 4506,
      "utenant": 4507,
      "Ġresults": 4508,
      "Ġwaited": 4509,
      "Ġinvest": 4510,
      "Ġsons": 4511,
      "Ġregret": 4512,
      "Ġtask": 4513,
      "sue": 4514,
      "From": 4515,
      "dra": 4516,
      "Ġtwice": 4517,
      "Ġmidst": 4518,
      "Ġtreated": 4519,
      "Ġsuspect": 4520,
      "179": 4521,
      "Ġtouched": 4522,
      "80": 4523,
      "Ġtheory": 4524,
      "Ġsurely": 4525,
      "ĠApril": 4526,
      "Ġthrow": 4527,
      "Ġfortun": 4528,
      "Ġfill": 4529,
      "Ġbearing": 4530,
      "ĠFranc": 4531,
      "aper": 4532,
      "atives": 4533,
      "Ġfellows": 4534,
      "ardon": 4535,
      "75": 4536,
      "AY": 4537,
      "Ġconsideration": 4538,
      "Ġtal": 4539,
      "Ġbag": 4540,
      "ĠTwo": 4541,
      "then": 4542,
      "Ġpersu": 4543,
      "ĠAra": 4544,
      ".;": 4545,
      "ĠIrish": 4546,
      "izing": 4547,
      "ĠPhilip": 4548,
      "Ġduties": 4549,
      "Ġalive": 4550,
      "Ġhither": 4551,
      "Ġdrive": 4552,
      "Ġrespons": 4553,
      "cked": 4554,
      "Ġimpression": 4555,
      "Ġmarch": 4556,
      "isher": 4557,
      "Ġstruggle": 4558,
      "Ġinquir": 4559,
      "ĠDavid": 4560,
      "ivered": 4561,
      "Ġgather": 4562,
      "gu": 4563,
      "Ġabsence": 4564,
      "ture": 4565,
      "Ġbase": 4566,
      "just": 4567,
      "Ġsmoke": 4568,
      "Ġgradually": 4569,
      "ĠItaly": 4570,
      "vi": 4571,
      "uding": 4572,
      "Ġsalt": 4573,
      "ivity": 4574,
      "SIL": 4575,
      "uable": 4576,
      "70": 4577,
      "asing": 4578,
      "Ġcorrect": 4579,
      "Ġtelling": 4580,
      "agon": 4581,
      "ĠWor": 4582,
      "Ġreign": 4583,
      "Ġproposed": 4584,
      "Ġrepresented": 4585,
      "Ġamongst": 4586,
      "Ġsoil": 4587,
      "ufact": 4588,
      "rant": 4589,
      "Ġmyster": 4590,
      "bury": 4591,
      "Ġefforts": 4592,
      "Ġbal": 4593,
      "Ġminds": 4594,
      "Ġspr": 4595,
      "Ġcoat": 4596,
      "hand": 4597,
      "ĠAL": 4598,
      "Ġshame": 4599,
      "Ġharm": 4600,
      "Ġflower": 4601,
      "ĠWashington": 4602,
      "eter": 4603,
      "Ġinside": 4604,
      "ĠHad": 4605,
      "Ġtail": 4606,
      "Ġtalked": 4607,
      "Ġdepth": 4608,
      "Def": 4609,
      "ĠMaster": 4610,
      "Ġextraordinary": 4611,
      "Ġforces": 4612,
      "Ġdressed": 4613,
      "Ġwhil": 4614,
      "itch": 4615,
      "ĠYes": 4616,
      "Ġintroduced": 4617,
      "Ġlack": 4618,
      "Ġfifteen": 4619,
      "ĠHeaven": 4620,
      "55": 4621,
      "Ġindu": 4622,
      "Ġneeded": 4623,
      "Ġlake": 4624,
      "ieve": 4625,
      "ĠBra": 4626,
      "Ġluck": 4627,
      "Ġexplan": 4628,
      "Mrs": 4629,
      "Ġexcitement": 4630,
      "----\"": 4631,
      "lection": 4632,
      "Ġaware": 4633,
      "ĠSunday": 4634,
      "Ġcommer": 4635,
      "ĠIts": 4636,
      "ips": 4637,
      "Ġwhispered": 4638,
      "ological": 4639,
      "ĠMajesty": 4640,
      "Ġain": 4641,
      "Ġorn": 4642,
      "Ġobey": 4643,
      "Ġgenius": 4644,
      "Ġyards": 4645,
      "osen": 4646,
      "Ġretreat": 4647,
      "Ġdemanded": 4648,
      "Ġlevel": 4649,
      "Ġdevelopment": 4650,
      "kind": 4651,
      "Ġmile": 4652,
      "ĠBen": 4653,
      "Ġcrim": 4654,
      "arted": 4655,
      "Ġ{~": 4656,
      "ares": 4657,
      "Ġrode": 4658,
      "ĠCongress": 4659,
      "ĠGermany": 4660,
      "ĠChe": 4661,
      "Ġfeatures": 4662,
      "Ġimpl": 4663,
      "Ġclosely": 4664,
      "rie": 4665,
      "chen": 4666,
      "cles": 4667,
      "Ġflo": 4668,
      "ĠMed": 4669,
      "Ġz": 4670,
      "Ġconnection": 4671,
      "Ġrequire": 4672,
      "Ġfaithful": 4673,
      "Ġgloom": 4674,
      "Ġsympathy": 4675,
      "Ġsuspic": 4676,
      "ĠYour": 4677,
      "ica": 4678,
      "Ġdrag": 4679,
      "Ġentrance": 4680,
      "Ġtempt": 4681,
      "Ġsuffering": 4682,
      "while": 4683,
      "Ġtruly": 4684,
      "Ġburning": 4685,
      "Ġlisten": 4686,
      "Ġprayer": 4687,
      "bon": 4688,
      "Ġputting": 4689,
      "lor": 4690,
      "Ġofficial": 4691,
      "Ġaccepted": 4692,
      "AND": 4693,
      "inn": 4694,
      "Ġcultiv": 4695,
      "ĠMount": 4696,
      "OW": 4697,
      "mond": 4698,
      "Ġworship": 4699,
      "ĠEs": 4700,
      "Ġing": 4701,
      "Ġmember": 4702,
      "ĠRed": 4703,
      "Ġprevious": 4704,
      "Ġprepar": 4705,
      "leep": 4706,
      "Ġhun": 4707,
      "Ġshoot": 4708,
      "Ġrelation": 4709,
      "anc": 4710,
      "Ġquantity": 4711,
      "ishes": 4712,
      "Ġtype": 4713,
      "Ġobst": 4714,
      "ĠCam": 4715,
      "law": 4716,
      "Ġcomposed": 4717,
      "ĠJoseph": 4718,
      "ĠWal": 4719,
      "edy": 4720,
      "Ġwhilst": 4721,
      "ta": 4722,
      "Ġexcited": 4723,
      "Ġrom": 4724,
      "ĠFort": 4725,
      "Ġwalking": 4726,
      "Ġwatching": 4727,
      "Ġyours": 4728,
      "Ġhearing": 4729,
      "Ġpill": 4730,
      "Ġincrease": 4731,
      "Ġadvice": 4732,
      "Ġbrain": 4733,
      "Ġbusy": 4734,
      "astern": 4735,
      "Ġlands": 4736,
      "ĠJim": 4737,
      "inity": 4738,
      "ĠSer": 4739,
      "100": 4740,
      "Î¿": 4741,
      "Ġnovel": 4742,
      "Ġcounten": 4743,
      "Ġlovely": 4744,
      "Ġmas": 4745,
      "Ġinstinct": 4746,
      "Ġflat": 4747,
      "Ġpick": 4748,
      "Ġmal": 4749,
      "ittee": 4750,
      "ĠMany": 4751,
      "ĠMil": 4752,
      "Ġhide": 4753,
      "Ġconstit": 4754,
      "terday": 4755,
      "Ġsatisfaction": 4756,
      ",âĢĻ": 4757,
      "Ġminister": 4758,
      "ecause": 4759,
      "Ġmilk": 4760,
      "Ġnearer": 4761,
      "Ġdivided": 4762,
      "wed": 4763,
      "ĠWhite": 4764,
      "Ġcompanions": 4765,
      "Ġspiritual": 4766,
      "inet": 4767,
      "ĠIm": 4768,
      "asant": 4769,
      "iest": 4770,
      "Ġengine": 4771,
      "esides": 4772,
      "Ġprofession": 4773,
      "Ġabsolutely": 4774,
      "iform": 4775,
      "Ġspend": 4776,
      "estic": 4777,
      "Ġhappen": 4778,
      "Ġpresently": 4779,
      "Ġaccident": 4780,
      "Ġhurt": 4781,
      "Ġnoise": 4782,
      "Ġjoin": 4783,
      "Ġfalling": 4784,
      "Ġprotect": 4785,
      "ĠCa": 4786,
      "Ġceased": 4787,
      "Ġassured": 4788,
      "Ġvirtue": 4789,
      "Ġcareful": 4790,
      "ĠIre": 4791,
      "Ġslave": 4792,
      "ĠEliz": 4793,
      "See": 4794,
      "Ġpossibly": 4795,
      "Ġthoroughly": 4796,
      "Ġmoving": 4797,
      "Ġgained": 4798,
      "ĠFirst": 4799,
      "Ġaffair": 4800,
      "Ġhighly": 4801,
      "Ġamid": 4802,
      "Ġrevol": 4803,
      "Ġflight": 4804,
      "Ġprisoners": 4805,
      "Ġinterests": 4806,
      "udd": 4807,
      "Ġinformed": 4808,
      "],": 4809,
      "Ġprisoner": 4810,
      "Ġburied": 4811,
      "Ġsurrounded": 4812,
      "Ġwants": 4813,
      "Ġdiam": 4814,
      "Ġadmin": 4815,
      "ĠSat": 4816,
      "Ġcastle": 4817,
      "oman": 4818,
      "Ġfields": 4819,
      "ension": 4820,
      "oring": 4821,
      "Ġ\"_": 4822,
      "Ġbridge": 4823,
      "Ġstars": 4824,
      "Ġcoff": 4825,
      "udes": 4826,
      "Ġdevil": 4827,
      "ĠAfric": 4828,
      "Ġwore": 4829,
      "Ġparents": 4830,
      "Ġcolumn": 4831,
      "utch": 4832,
      "ilities": 4833,
      "ĠMer": 4834,
      "Ġdisci": 4835,
      "work": 4836,
      "\"--": 4837,
      "Ġfighting": 4838,
      "ĠPerhaps": 4839,
      "Ġdeb": 4840,
      "ĠHoly": 4841,
      "fle": 4842,
      "Ġresolved": 4843,
      "Ġreser": 4844,
      "ĠBlack": 4845,
      "Ġsuit": 4846,
      "Ġseated": 4847,
      "ĠRoyal": 4848,
      "Ġimmense": 4849,
      "Ġbuy": 4850,
      "Ġpractical": 4851,
      "happ": 4852,
      "Ġlistened": 4853,
      "Ġsupper": 4854,
      "Ġqueen": 4855,
      "ĠFred": 4856,
      "Ġaver": 4857,
      "Ġempty": 4858,
      "Ġuns": 4859,
      "Ġgods": 4860,
      "Ġfierce": 4861,
      "itory": 4862,
      "Ġpartly": 4863,
      "Ġproject": 4864,
      "Ġrender": 4865,
      "unch": 4866,
      "Ġliterature": 4867,
      "cean": 4868,
      "Ġrendered": 4869,
      "ĠSal": 4870,
      "Ġsmiling": 4871,
      "Defn": 4872,
      "Ġsan": 4873,
      "ads": 4874,
      "Ġcalling": 4875,
      "Ġmanufact": 4876,
      "Ġchamber": 4877,
      "ari": 4878,
      "standing": 4879,
      "there": 4880,
      "Ġflag": 4881,
      "Ġdespair": 4882,
      "Ġlocal": 4883,
      "Ġcircle": 4884,
      "Ġride": 4885,
      "Where": 4886,
      "Ġevident": 4887,
      "Ġmat": 4888,
      "Ġworst": 4889,
      "Ġdull": 4890,
      "Ġcapable": 4891,
      "Ġvessels": 4892,
      "Ġlabour": 4893,
      "Ġbegun": 4894,
      "Ġparties": 4895,
      "Ġlibr": 4896,
      "Ġswift": 4897,
      "Ġunable": 4898,
      "Ġphysical": 4899,
      "Ġwelcome": 4900,
      "onn": 4901,
      "ĠIV": 4902,
      "Ġstore": 4903,
      "Ġdozen": 4904,
      "Ġrooms": 4905,
      "omen": 4906,
      "Ġgrief": 4907,
      "Ġactive": 4908,
      "Ġintention": 4909,
      "Ġmoments": 4910,
      "ĠCle": 4911,
      "Ġpros": 4912,
      ";\"": 4913,
      "ĠItalian": 4914,
      "56": 4915,
      "ober": 4916,
      "Ġhopes": 4917,
      "Ġsuccessful": 4918,
      "lessly": 4919,
      "Ġexha": 4920,
      "Ġwholly": 4921,
      "Ġstern": 4922,
      "Ġenv": 4923,
      "Ġarranged": 4924,
      "Ġconstant": 4925,
      "Ġkeen": 4926,
      "Ġble": 4927,
      "Ġpopulation": 4928,
      "looking": 4929,
      "Ġinterested": 4930,
      "Ġnon": 4931,
      "pri": 4932,
      "Ġdeeply": 4933,
      "ĠLy": 4934,
      "ĠGree": 4935,
      "42": 4936,
      "ĠMo": 4937,
      "ĠVen": 4938,
      "Ġcouple": 4939,
      "Ġattached": 4940,
      "Ġstated": 4941,
      "Ġcro": 4942,
      "Ġmerchant": 4943,
      "Ġstriking": 4944,
      "Ġwicked": 4945,
      "Ġimagination": 4946,
      "Who": 4947,
      "rim": 4948,
      "Ġadopted": 4949,
      "Ġpor": 4950,
      "Ġbranches": 4951,
      "Ġho": 4952,
      "Ġsingular": 4953,
      "OD": 4954,
      "oration": 4955,
      "ERS": 4956,
      "Ġfriendship": 4957,
      "ĠJul": 4958,
      "Ġkindly": 4959,
      "ĠBet": 4960,
      "Ġdelicate": 4961,
      "Ġdevoted": 4962,
      "va": 4963,
      "Ġskill": 4964,
      "Ġhence": 4965,
      "Ġimagine": 4966,
      "Ġapproach": 4967,
      "Ġlaughing": 4968,
      "Ġappreci": 4969,
      "Ġreven": 4970,
      "Ġident": 4971,
      "ustomed": 4972,
      "Ġplants": 4973,
      "Ġshowing": 4974,
      "ĠCompany": 4975,
      "aps": 4976,
      "Ġexercise": 4977,
      "Ġindign": 4978,
      "Ġtext": 4979,
      "ĠNever": 4980,
      "la": 4981,
      "Ġrout": 4982,
      "Ġtells": 4983,
      "anch": 4984,
      "Ġdestroyed": 4985,
      "Ġvaluable": 4986,
      "Ġconstitution": 4987,
      "ician": 4988,
      "Ġflour": 4989,
      "Ġsafety": 4990,
      "Ġloose": 4991,
      "ula": 4992,
      "ĠBrown": 4993,
      "ĠCH": 4994,
      "Ġteacher": 4995,
      "Ġconstantly": 4996,
      "Ġadmit": 4997,
      "Ġindiff": 4998,
      "Ġactual": 4999,
      "eping": 5000,
      "Ġescaped": 5001,
      "Ġcrime": 5002,
      "Ġends": 5003,
      "Ġkinds": 5004,
      "Ġcauses": 5005,
      "orse": 5006,
      "Ġdying": 5007,
      "Ġcondem": 5008,
      "enny": 5009,
      "Ġcollect": 5010,
      "Ġarrest": 5011,
      "Come": 5012,
      "Ġdesper": 5013,
      "onscious": 5014,
      "RI": 5015,
      "Ġxx": 5016,
      "á½": 5017,
      "Ġnarr": 5018,
      "ĠJo": 5019,
      "Ġwisdom": 5020,
      "Ġabund": 5021,
      "iece": 5022,
      "Ġliked": 5023,
      "Ġhab": 5024,
      "four": 5025,
      "Ġcitizens": 5026,
      "Ġcord": 5027,
      "Ġcopy": 5028,
      "Ġrejo": 5029,
      "Ġfer": 5030,
      "Ġmagnific": 5031,
      "Ġdirected": 5032,
      "Ġmistake": 5033,
      "ĠAcc": 5034,
      "Ġprompt": 5035,
      "Ġreasons": 5036,
      "Ġchosen": 5037,
      "Ġtrial": 5038,
      "Ġconcerned": 5039,
      "Ġbutter": 5040,
      "Ġsmooth": 5041,
      "nel": 5042,
      "41": 5043,
      "Ġbrilliant": 5044,
      "Ġterror": 5045,
      "Ġcontinue": 5046,
      "Ġdoors": 5047,
      "Ġgray": 5048,
      "Ġcountries": 5049,
      "Ġlifted": 5050,
      "Ġcredit": 5051,
      "Ġstick": 5052,
      "Ġdrove": 5053,
      "Ġtrem": 5054,
      "Ġhuge": 5055,
      "ĠDel": 5056,
      "kins": 5057,
      "59": 5058,
      "Ġvisited": 5059,
      "host": 5060,
      "Ġrecoll": 5061,
      "____": 5062,
      "ato": 5063,
      "Ġpron": 5064,
      "iture": 5065,
      "Ġprospect": 5066,
      "ĠLie": 5067,
      "ĠHarry": 5068,
      "icip": 5069,
      "Ġfairly": 5070,
      "ourable": 5071,
      "Ġgle": 5072,
      "Ġviews": 5073,
      "Ġremind": 5074,
      "Ġdefe": 5075,
      "Ġcontained": 5076,
      "Ġwed": 5077,
      "57": 5078,
      "ols": 5079,
      "aling": 5080,
      "Ġseparate": 5081,
      "Ġrepro": 5082,
      "Ġconven": 5083,
      "ldom": 5084,
      "Ġpressed": 5085,
      "ĠPope": 5086,
      "ILL": 5087,
      "ĠNature": 5088,
      "Ġprotection": 5089,
      "rated": 5090,
      "ĠCoun": 5091,
      "Ġsolid": 5092,
      "ĠParliament": 5093,
      "Ġnose": 5094,
      "Ġsubm": 5095,
      "Ġquality": 5096,
      "Ġcompelled": 5097,
      "Ġstead": 5098,
      "Ġimpat": 5099,
      "olf": 5100,
      "Ġmurder": 5101,
      "etch": 5102,
      "Ġtum": 5103,
      "Ġnotes": 5104,
      "Ġearlier": 5105,
      "ĠReg": 5106,
      "ĠGra": 5107,
      "entions": 5108,
      "Ġcountenance": 5109,
      "Ġstrict": 5110,
      "Ġstories": 5111,
      "Ġaddressed": 5112,
      "Ġrad": 5113,
      "Ġvoy": 5114,
      "rit": 5115,
      "ointment": 5116,
      "Ġimprove": 5117,
      "ograp": 5118,
      "Ġexchan": 5119,
      "Ġvariety": 5120,
      "Ġpatient": 5121,
      "tic": 5122,
      "Ġstatement": 5123,
      "Ġtax": 5124,
      "Ġmistress": 5125,
      "agement": 5126,
      "Ġhoped": 5127,
      "ana": 5128,
      "Ġbringing": 5129,
      "ĠCome": 5130,
      "ĠProv": 5131,
      "Ġgas": 5132,
      "Ġplate": 5133,
      "ĠRob": 5134,
      "ĠIreland": 5135,
      "Ġforb": 5136,
      "Ġimmediate": 5137,
      "Ġsovere": 5138,
      "Ġcousin": 5139,
      "Ġgrey": 5140,
      "ĠSim": 5141,
      "Ġfold": 5142,
      "Ġsufficiently": 5143,
      "Ġassistance": 5144,
      "Ġdoctrine": 5145,
      "ĠMex": 5146,
      "Ġgay": 5147,
      "Ġwings": 5148,
      "ourn": 5149,
      "ĠCatholic": 5150,
      "gers": 5151,
      "Ġarose": 5152,
      "Ġfever": 5153,
      "ai": 5154,
      "Ġprinted": 5155,
      "teenth": 5156,
      "Ġsex": 5157,
      "Ġliqu": 5158,
      "inate": 5159,
      "Ġcontract": 5160,
      "Ġbecoming": 5161,
      "ĠMajor": 5162,
      "Ġfleet": 5163,
      "Ġprivile": 5164,
      "uit": 5165,
      "abeth": 5166,
      "Ġexception": 5167,
      "ealous": 5168,
      "oused": 5169,
      "Ġreward": 5170,
      "ounding": 5171,
      "Ġrecomm": 5172,
      "Ġge": 5173,
      "has": 5174,
      "Ġdisease": 5175,
      "Ġbord": 5176,
      "ĠMal": 5177,
      "ATION": 5178,
      "ends": 5179,
      "Ġcontempt": 5180,
      "Ġconclusion": 5181,
      "Ġpour": 5182,
      "Ġrequest": 5183,
      "?--": 5184,
      "Ġworn": 5185,
      "Ġdisappeared": 5186,
      "Ġtowns": 5187,
      "Ġproc": 5188,
      "Ġmercy": 5189,
      "Ġfought": 5190,
      "Ġsheep": 5191,
      "cho": 5192,
      "These": 5193,
      "Good": 5194,
      "Ġeffects": 5195,
      "ds": 5196,
      "Ġconvin": 5197,
      "OS": 5198,
      "178": 5199,
      "Ġcities": 5200,
      "58": 5201,
      "bly": 5202,
      "ĠNap": 5203,
      "Ġvictory": 5204,
      "ĠAh": 5205,
      "Ġmix": 5206,
      "aunt": 5207,
      "ĠHill": 5208,
      "ris": 5209,
      "Ġcaval": 5210,
      "Ġacquaintance": 5211,
      "Ġclasses": 5212,
      "ĠFrancis": 5213,
      "43": 5214,
      "Ġsigh": 5215,
      "Ġyesterday": 5216,
      "Ġdignity": 5217,
      "ĠJac": 5218,
      "more": 5219,
      "iable": 5220,
      "Ġchiefly": 5221,
      "Ġbay": 5222,
      "ĠJe": 5223,
      "Ġaim": 5224,
      "ĠBook": 5225,
      "Ġfemale": 5226,
      "ĠSociety": 5227,
      "Ġplaying": 5228,
      "Ġarticle": 5229,
      "iber": 5230,
      "Ġshop": 5231,
      "ĠMark": 5232,
      "conom": 5233,
      "och": 5234,
      "otes": 5235,
      "ĠXV": 5236,
      "ĠBill": 5237,
      "Ġenergy": 5238,
      "Ġcolon": 5239,
      "ĠPers": 5240,
      "aming": 5241,
      "Ġclouds": 5242,
      "Ġsooner": 5243,
      "Ġrear": 5244,
      "Ġpolicy": 5245,
      "Ġcommission": 5246,
      "Ġdeck": 5247,
      "Ġpan": 5248,
      "they": 5249,
      "ĠCity": 5250,
      "Ġregion": 5251,
      "Ġdrop": 5252,
      "atively": 5253,
      "EM": 5254,
      "Ġeverywhere": 5255,
      "Ġ[_": 5256,
      "Ġcalcul": 5257,
      "Ġavoid": 5258,
      "ĠNove": 5259,
      "iel": 5260,
      ".--_": 5261,
      "Ġfriendly": 5262,
      "ĠMass": 5263,
      "Ġended": 5264,
      "Ġreference": 5265,
      "thur": 5266,
      "ĠGrand": 5267,
      "Ġchoice": 5268,
      "Ġcritic": 5269,
      "ĠLife": 5270,
      "Ġexpedition": 5271,
      "ĠPol": 5272,
      "Ġchanges": 5273,
      "ĠAc": 5274,
      "Ġhate": 5275,
      "urity": 5276,
      "TA": 5277,
      "ĠAnn": 5278,
      "Ġmurd": 5279,
      "Ġknees": 5280,
      "rael": 5281,
      "Ġdemon": 5282,
      "itate": 5283,
      "Ġtriumph": 5284,
      "antry": 5285,
      "ige": 5286,
      "Ġdesir": 5287,
      "Ġproble": 5288,
      "UL": 5289,
      "Ġmeat": 5290,
      "Ġcattle": 5291,
      "pro": 5292,
      "Ġoil": 5293,
      "Ġseldom": 5294,
      "ilty": 5295,
      "Ġdogs": 5296,
      "Ġslightly": 5297,
      "mo": 5298,
      "Ġcontrol": 5299,
      "Ġfinal": 5300,
      "Ġunhapp": 5301,
      "ĠInst": 5302,
      "arse": 5303,
      "uts": 5304,
      "ĠTra": 5305,
      ".âĢĶ": 5306,
      "Ġkit": 5307,
      "Ġteach": 5308,
      "oqu": 5309,
      "irit": 5310,
      "Ġcommanded": 5311,
      "ĠSeptember": 5312,
      "Ġvisible": 5313,
      "Ġrange": 5314,
      "Ġthrone": 5315,
      "Ġnerv": 5316,
      "Ġlover": 5317,
      "ĠFeb": 5318,
      "ĠBishop": 5319,
      "Ġdiscovery": 5320,
      "Ġguide": 5321,
      "ĠOctober": 5322,
      "Ġplenty": 5323,
      "Ġshr": 5324,
      "ston": 5325,
      "ĠEr": 5326,
      "ounce": 5327,
      "ption": 5328,
      "ĠNat": 5329,
      "alog": 5330,
      "Ġmarket": 5331,
      "Ġsacrifice": 5332,
      "ĠOnly": 5333,
      "ĠDu": 5334,
      "ĠHowever": 5335,
      "ĀĀĀĀĀĀĀĀ": 5336,
      "Ġaunt": 5337,
      "Ġwet": 5338,
      "Ġweap": 5339,
      "Ġlat": 5340,
      "ller": 5341,
      "Ġpraise": 5342,
      "eless": 5343,
      "Ġarticles": 5344,
      "acon": 5345,
      "Ġruin": 5346,
      "Ġcurios": 5347,
      "ulate": 5348,
      "Ġpurposes": 5349,
      "Ġprecious": 5350,
      "ĠMic": 5351,
      "Ġconscience": 5352,
      "jud": 5353,
      "Ġgovern": 5354,
      "Ġgently": 5355,
      "Ġpainted": 5356,
      "UM": 5357,
      "Ġdetails": 5358,
      "Ġsugar": 5359,
      "Ġcard": 5360,
      "win": 5361,
      "Ġbought": 5362,
      "ĠProfessor": 5363,
      "Ġuniform": 5364,
      "Ġjealous": 5365,
      "Ġgoods": 5366,
      "Ġintelligence": 5367,
      "emed": 5368,
      "illa": 5369,
      "don": 5370,
      "Ġregiment": 5371,
      "Ġexplanation": 5372,
      "Ġdig": 5373,
      "ARD": 5374,
      "Ġattended": 5375,
      "ĠStill": 5376,
      "Ġmaintain": 5377,
      "oleon": 5378,
      "Ġfoolish": 5379,
      "Ġnewsp": 5380,
      "Ġextended": 5381,
      "hall": 5382,
      "ĠProt": 5383,
      "Ġnur": 5384,
      "Ġ-": 5385,
      "Ġapproached": 5386,
      "Ġpermitted": 5387,
      "Ġsentiment": 5388,
      "Ġassembl": 5389,
      "Ġtur": 5390,
      "ĠBay": 5391,
      "ĠCat": 5392,
      "Ġlux": 5393,
      "Ġmessage": 5394,
      "ĠHon": 5395,
      "iii": 5396,
      "sey": 5397,
      "father": 5398,
      "who": 5399,
      "Ġdawn": 5400,
      "Ġunderstanding": 5401,
      "Ġaccustomed": 5402,
      "ĠThose": 5403,
      "Ġscient": 5404,
      "ribed": 5405,
      "Ġslaves": 5406,
      "ĠSomet": 5407,
      "Ġconvey": 5408,
      "ĠWood": 5409,
      "].": 5410,
      "ĠOff": 5411,
      "Ġolder": 5412,
      "oston": 5413,
      "eding": 5414,
      "ns": 5415,
      "ĠEarl": 5416,
      "ĠSte": 5417,
      "Ġkindness": 5418,
      "Ġhidden": 5419,
      "Ġdivision": 5420,
      "Ġextremely": 5421,
      "aints": 5422,
      "Ex": 5423,
      "ĠTem": 5424,
      "ĠLong": 5425,
      "Ġasleep": 5426,
      "Ġindul": 5427,
      "Ġadminist": 5428,
      "Ġcaut": 5429,
      "line": 5430,
      "Ġbanks": 5431,
      "usc": 5432,
      "Ġthinks": 5433,
      "Ġbrothers": 5434,
      "Ġobserv": 5435,
      "riot": 5436,
      "âĢĶâĢĶ": 5437,
      "Ġnatives": 5438,
      "Ġsigns": 5439,
      "Ġcler": 5440,
      "Ġchapter": 5441,
      "Ġascend": 5442,
      "Ġmental": 5443,
      "Ġpulled": 5444,
      "oop": 5445,
      "66": 5446,
      "Ġcontaining": 5447,
      "Ġtale": 5448,
      "Ġunex": 5449,
      "bing": 5450,
      "Ġstrike": 5451,
      "Ġraise": 5452,
      "rough": 5453,
      "ĠConf": 5454,
      "Ġgrowth": 5455,
      "inking": 5456,
      "ino": 5457,
      "Ġservices": 5458,
      "Ġconsent": 5459,
      "worth": 5460,
      "Ġthousands": 5461,
      "Ġma": 5462,
      "Ġconsult": 5463,
      "Ġwasn": 5464,
      "Ġwishes": 5465,
      "Ġvision": 5466,
      "inging": 5467,
      "ĠScotland": 5468,
      "Ġneeds": 5469,
      "Ġcharming": 5470,
      "Ġeverybody": 5471,
      "Her": 5472,
      "Ġacts": 5473,
      "gs": 5474,
      "ĠThou": 5475,
      "Ġtemple": 5476,
      "Ġinstantly": 5477,
      "hire": 5478,
      "Ġweary": 5479,
      "ĠMen": 5480,
      "long": 5481,
      "Ġwound": 5482,
      "Ã¨": 5483,
      "Ġamuse": 5484,
      "Ġcondu": 5485,
      "hend": 5486,
      "Per": 5487,
      "Ġtreatment": 5488,
      "Ġox": 5489,
      "Ġven": 5490,
      "Ġanger": 5491,
      "Ġfamilies": 5492,
      "after": 5493,
      "Ġcelebrated": 5494,
      "ĠDid": 5495,
      "inction": 5496,
      "Ġcharacters": 5497,
      "bour": 5498,
      "Ġinterf": 5499,
      "Ġspecim": 5500,
      "Ġdish": 5501,
      "Ġoccasionally": 5502,
      "Ġsource": 5503,
      "ĠAunt": 5504,
      "ĠMarg": 5505,
      "Ġsmaller": 5506,
      "Ġhaven": 5507,
      "pected": 5508,
      "pent": 5509,
      "ĠHu": 5510,
      "Ġpreserved": 5511,
      "Ġsinging": 5512,
      "Ġcommitted": 5513,
      "Ġartist": 5514,
      "Ġinvestig": 5515,
      "Ġdefence": 5516,
      "Ġben": 5517,
      "Ġreturning": 5518,
      "cember": 5519,
      "Ġsouls": 5520,
      "ĠLove": 5521,
      "Ġfourth": 5522,
      "agger": 5523,
      "Ġnobody": 5524,
      "Ġdefend": 5525,
      "Ġdischar": 5526,
      "ĠThough": 5527,
      "mosp": 5528,
      "Ġargument": 5529,
      "Ġsubsequ": 5530,
      "Ġgreet": 5531,
      "acles": 5532,
      "onder": 5533,
      "yer": 5534,
      "ulse": 5535,
      "á¼": 5536,
      "ĠWhe": 5537,
      "rous": 5538,
      "aine": 5539,
      "tle": 5540,
      "Illustr": 5541,
      "erior": 5542,
      "Ġrushed": 5543,
      "omb": 5544,
      "Ġdestruction": 5545,
      "Ġprosper": 5546,
      "Ġawful": 5547,
      "Ġhotel": 5548,
      "Ġenl": 5549,
      "Ġdelivered": 5550,
      "Ġeggs": 5551,
      "Ġinnocent": 5552,
      "Ġamaz": 5553,
      "ĠLatin": 5554,
      "Ġvoices": 5555,
      "ĠDor": 5556,
      "Ġacquainted": 5557,
      "Ġcompre": 5558,
      "ago": 5559,
      "Ġblank": 5560,
      "IST": 5561,
      "Ġfinger": 5562,
      "Ġsprang": 5563,
      "Ġdesert": 5564,
      "Ġaccomplished": 5565,
      "ĠVer": 5566,
      "Ġahead": 5567,
      "Ġanxiety": 5568,
      "Ġadmiration": 5569,
      "Ġner": 5570,
      "Ġinfinite": 5571,
      "Ġcalls": 5572,
      "ĠElizabeth": 5573,
      "Ġformerly": 5574,
      "ĠPo": 5575,
      "Ġdifficulties": 5576,
      "fall": 5577,
      "UN": 5578,
      "Ġpoetry": 5579,
      "Ġframe": 5580,
      "Ġvic": 5581,
      "urches": 5582,
      "omer": 5583,
      "ĠCHAPTER": 5584,
      "Ġconstru": 5585,
      "Ġpoison": 5586,
      "Ġcounty": 5587,
      "Ġcho": 5588,
      "Ġsavage": 5589,
      "Ġpolice": 5590,
      "ĠBefore": 5591,
      "Ġcrew": 5592,
      "Ġlearning": 5593,
      "ĠBritain": 5594,
      "Ġreflect": 5595,
      "Ġodd": 5596,
      "UT": 5597,
      "amps": 5598,
      "Ġcontains": 5599,
      "Ġreality": 5600,
      "ĠBible": 5601,
      "icity": 5602,
      "Ġages": 5603,
      "Ġperpet": 5604,
      "ĠVal": 5605,
      "ĠGovernor": 5606,
      "Ġbaby": 5607,
      "Ġstrongly": 5608,
      "Ġfled": 5609,
      "Ġease": 5610,
      "Ġhole": 5611,
      "atre": 5612,
      "Ġenorm": 5613,
      "board": 5614,
      "Î¹": 5615,
      "Ġsixty": 5616,
      "Ġrecognized": 5617,
      "Ġatmosp": 5618,
      "Ġham": 5619,
      "Ġpages": 5620,
      "Ġinclined": 5621,
      "ĠLittle": 5622,
      "Ġfurnished": 5623,
      "Your": 5624,
      "Ġcontrast": 5625,
      "Ġunus": 5626,
      "Ġyounger": 5627,
      "CE": 5628,
      "arts": 5629,
      "Ġphr": 5630,
      "Ġmachine": 5631,
      "Ġarmed": 5632,
      "Ġkitchen": 5633,
      "bro": 5634,
      "Ġboats": 5635,
      "Ġsentence": 5636,
      "Ġsche": 5637,
      "Ġguilty": 5638,
      "Ġprocl": 5639,
      "rian": 5640,
      "Ġconver": 5641,
      "Ġveget": 5642,
      "asions": 5643,
      "Ġproperly": 5644,
      "ĠBab": 5645,
      "Ġprobable": 5646,
      "Ġfrequent": 5647,
      "Ġschol": 5648,
      "Ġbree": 5649,
      "Ġcott": 5650,
      "ĠBesides": 5651,
      "Ġdeparture": 5652,
      "Ġgranted": 5653,
      "Ġqualities": 5654,
      "Ġinterrupted": 5655,
      "Ġconfusion": 5656,
      "ieved": 5657,
      "Ġmechan": 5658,
      "fulness": 5659,
      "ĠUnion": 5660,
      "Ġhyp": 5661,
      "ĠDoctor": 5662,
      "ĠScott": 5663,
      "Ġviolent": 5664,
      "Ġinquired": 5665,
      "inese": 5666,
      "90": 5667,
      "Ġclergy": 5668,
      "Ġsimpl": 5669,
      "Ġkings": 5670,
      "Ġze": 5671,
      "Ġasking": 5672,
      "Ġchoose": 5673,
      ";--": 5674,
      "Ġhabits": 5675,
      "Ġmanners": 5676,
      "org": 5677,
      "ĠCont": 5678,
      "Ġphilosophy": 5679,
      "Ġdomin": 5680,
      "Ġutterly": 5681,
      "Ġwhence": 5682,
      "Ġdance": 5683,
      "erted": 5684,
      "ĠDiv": 5685,
      "Ġreform": 5686,
      "Le": 5687,
      "Ġwheel": 5688,
      "ĠMat": 5689,
      "ria": 5690,
      "Ġinstrument": 5691,
      "Ġperformed": 5692,
      "Ġemotion": 5693,
      "ĠJanuary": 5694,
      "Ġbehold": 5695,
      "ĠIsrael": 5696,
      "Ġuniversal": 5697,
      "Ġmanifest": 5698,
      "Ġmiserable": 5699,
      "Ġaspect": 5700,
      "Ġcenturies": 5701,
      "Ġpardon": 5702,
      "Ġplans": 5703,
      "ura": 5704,
      "Ġbos": 5705,
      "Ġrecon": 5706,
      "Ġsell": 5707,
      "pless": 5708,
      "ĠNapoleon": 5709,
      "Ġpil": 5710,
      "Ġeconom": 5711,
      "Ġglorious": 5712,
      "apan": 5713,
      "Ġpup": 5714,
      "Ġportra": 5715,
      "tt": 5716,
      "Ġclever": 5717,
      "Ġmajority": 5718,
      "Ġobv": 5719,
      "ĠBob": 5720,
      "Ġliterary": 5721,
      "Ġfounded": 5722,
      "IM": 5723,
      "Ġmounted": 5724,
      "ĠCons": 5725,
      "Ġfund": 5726,
      "itect": 5727,
      "ste": 5728,
      "ĠGreen": 5729,
      "Ġfo": 5730,
      "Ġbetray": 5731,
      "Ġtight": 5732,
      "Ġunfortunate": 5733,
      "Ġaccord": 5734,
      "Ġcuriosity": 5735,
      "Ġshouted": 5736,
      "ighed": 5737,
      "Ġreduced": 5738,
      "Ġelement": 5739,
      "otton": 5740,
      "ĠArthur": 5741,
      "Ġmeal": 5742,
      "ĠJews": 5743,
      "Ġdreadful": 5744,
      "ĠIndeed": 5745,
      "Ġthroat": 5746,
      "gain": 5747,
      "Ġpunishment": 5748,
      "Ġhousehold": 5749,
      "65": 5750,
      "PSIL": 5751,
      "aks": 5752,
      "PSILON": 5753,
      "Ġthanks": 5754,
      "Ġthrust": 5755,
      "68": 5756,
      "Ġax": 5757,
      "upon": 5758,
      "Ġfulf": 5759,
      "Ġaffected": 5760,
      "asm": 5761,
      "Ġkey": 5762,
      "Ġbranch": 5763,
      "this": 5764,
      "Îµ": 5765,
      "Ġdoubtless": 5766,
      "ĠArt": 5767,
      "Ġcomfortable": 5768,
      "ĠSpe": 5769,
      "ĠFig": 5770,
      "Ġdoesn": 5771,
      "ĠSpirit": 5772,
      "ĠPark": 5773,
      "ĠAre": 5774,
      "book": 5775,
      "mat": 5776,
      "ĠNovember": 5777,
      "Ġtribes": 5778,
      "Ġmovements": 5779,
      "Ġintense": 5780,
      "rows": 5781,
      "iah": 5782,
      "Ġphen": 5783,
      "ĠCorn": 5784,
      "irs": 5785,
      "De": 5786,
      "ĠWin": 5787,
      "ĠDes": 5788,
      "bel": 5789,
      "Ġsetting": 5790,
      "Ġspark": 5791,
      "Will": 5792,
      "Ġwaste": 5793,
      "withstanding": 5794,
      "owder": 5795,
      "Ġstret": 5796,
      "Ġlikewise": 5797,
      "Ġtent": 5798,
      "ĠLand": 5799,
      "Ġsurre": 5800,
      "born": 5801,
      "Ġexecution": 5802,
      "Ġemer": 5803,
      "ĠOx": 5804,
      "Ġclo": 5805,
      "69": 5806,
      "ĠChan": 5807,
      "rill": 5808,
      "sm": 5809,
      "Ġpaused": 5810,
      "lie": 5811,
      "cest": 5812,
      "ĠMars": 5813,
      "Ġprofess": 5814,
      "ugg": 5815,
      "Ġbuildings": 5816,
      "Ġfatal": 5817,
      "gest": 5818,
      "Ġretired": 5819,
      "Ġhorn": 5820,
      "Ġattitude": 5821,
      "ĠSav": 5822,
      "Ġgovernor": 5823,
      "Ġbatt": 5824,
      "Ġabroad": 5825,
      "Ġexcess": 5826,
      "Ġdelay": 5827,
      "Ġrene": 5828,
      "Ġremaining": 5829,
      "78": 5830,
      "eenth": 5831,
      "Sir": 5832,
      "Ġrecent": 5833,
      "Ġthunder": 5834,
      "Ġfeast": 5835,
      "ĠAmong": 5836,
      "ĠDecember": 5837,
      "Ġobserve": 5838,
      "hael": 5839,
      "Ġreadily": 5840,
      "ĠDuring": 5841,
      "Ġtempor": 5842,
      "Ġbelonged": 5843,
      "ruary": 5844,
      "ĠEmp": 5845,
      "ĠUncle": 5846,
      "ĠBoston": 5847,
      "Ġnav": 5848,
      "ĠLake": 5849,
      "MA": 5850,
      "ĠSl": 5851,
      "Ġstairs": 5852,
      "Ġwaves": 5853,
      "ĠChinese": 5854,
      "Ġsounds": 5855,
      "raph": 5856,
      "ELL": 5857,
      "Ġmud": 5858,
      "vol": 5859,
      "',": 5860,
      "Ġlibrary": 5861,
      "Ġenjoyed": 5862,
      "Ġhollow": 5863,
      "Ġignorant": 5864,
      "pic": 5865,
      "Ġnorthern": 5866,
      "ĠAustri": 5867,
      "ĠLike": 5868,
      "ĠCham": 5869,
      "Ġbid": 5870,
      "ĠâĢĻ": 5871,
      "ĠTre": 5872,
      "Ġcheeks": 5873,
      "Some": 5874,
      "Ġwarri": 5875,
      "Ġaccur": 5876,
      "Ġgrate": 5877,
      "asy": 5878,
      "Ġquarters": 5879,
      "ĠAct": 5880,
      "Ġdepos": 5881,
      "Ġconsciousness": 5882,
      "rived": 5883,
      "Ġpriests": 5884,
      "Ġlit": 5885,
      "urance": 5886,
      "ĠEuropean": 5887,
      "Ġmeasures": 5888,
      "Ġedition": 5889,
      "Ġwriters": 5890,
      "ORD": 5891,
      "Ġreferred": 5892,
      "urbed": 5893,
      "Ġprofound": 5894,
      "Ġlest": 5895,
      "Ġjew": 5896,
      "rier": 5897,
      "Ġblessed": 5898,
      "Ġdelighted": 5899,
      "Ġfrightened": 5900,
      "Ġcompet": 5901,
      "ĠHave": 5902,
      "Ġchest": 5903,
      "Ġgift": 5904,
      "acious": 5905,
      "ĠSqu": 5906,
      "Ġcreated": 5907,
      "lers": 5908,
      "Ġcareer": 5909,
      "Ġtub": 5910,
      "Ġconvinced": 5911,
      "Ġdegrees": 5912,
      "Ġschools": 5913,
      "zy": 5914,
      "gend": 5915,
      "Ġsilk": 5916,
      "Ġobsc": 5917,
      "Ġbend": 5918,
      "owned": 5919,
      "ĠMid": 5920,
      "Illustration": 5921,
      "Ġincident": 5922,
      "Ġpressure": 5923,
      "ĠFr": 5924,
      "will": 5925,
      "Ġocean": 5926,
      "Ġwretched": 5927,
      "ola": 5928,
      "Ġessential": 5929,
      "Ġabsurd": 5930,
      "Ġshade": 5931,
      "Ġsubstance": 5932,
      "Ġassumed": 5933,
      "Ġdisturb": 5934,
      "Ġlately": 5935,
      "ashing": 5936,
      "Ġapproaching": 5937,
      "Ġhoriz": 5938,
      "aign": 5939,
      "Ġappeal": 5940,
      "ĠCouncil": 5941,
      "Ġstepped": 5942,
      "olid": 5943,
      "Am": 5944,
      "Ġalike": 5945,
      "ella": 5946,
      "ĠUnivers": 5947,
      "Ġlegisl": 5948,
      "Ġhelped": 5949,
      "OP": 5950,
      "Ġmysterious": 5951,
      "Ġcabin": 5952,
      "Ġunp": 5953,
      "onds": 5954,
      "ĠDE": 5955,
      "ground": 5956,
      "Ġopposition": 5957,
      "Ġbew": 5958,
      "ua": 5959,
      "Ġacknowled": 5960,
      "Ġstuff": 5961,
      "armed": 5962,
      "gments": 5963,
      "Ġfeared": 5964,
      "Ġseparated": 5965,
      "Ġsecured": 5966,
      "ĠRose": 5967,
      "RON": 5968,
      "Ġsen": 5969,
      "Ġbelonging": 5970,
      "Ġannounced": 5971,
      "Ġobservation": 5972,
      "ĠEar": 5973,
      "Ġoperation": 5974,
      "Ġfeather": 5975,
      "Ġmode": 5976,
      "Ġabsor": 5977,
      "Ġdil": 5978,
      "ĠRussian": 5979,
      "Ġelder": 5980,
      "Ġrum": 5981,
      "Ġexposed": 5982,
      "Ġremarks": 5983,
      "Ġnodd": 5984,
      "bridge": 5985,
      "Ġclub": 5986,
      "Ġbenefit": 5987,
      "Ġscientific": 5988,
      "erent": 5989,
      "Ġcommenced": 5990,
      "Ġbones": 5991,
      "ĠPri": 5992,
      "Ġinse": 5993,
      "------": 5994,
      "ĠOM": 5995,
      "Ġthence": 5996,
      "Ġcontempl": 5997,
      "Ġflying": 5998,
      "Ġrude": 5999,
      "Ġacid": 6000,
      "Ġopinions": 6001,
      "rog": 6002,
      "Ġcounter": 6003,
      "Ġinch": 6004,
      "Ġmystery": 6005,
      "ĠMur": 6006,
      "Ġscattered": 6007,
      "ĠAss": 6008,
      "Ġprecise": 6009,
      "Ġfee": 6010,
      "erer": 6011,
      "osal": 6012,
      "Ġunhappy": 6013,
      "met": 6014,
      "67": 6015,
      "Ġsovereign": 6016,
      "Ġbreaking": 6017,
      "Ġsuspicion": 6018,
      "Ġlone": 6019,
      "Ġinsc": 6020,
      "Ġpushed": 6021,
      "Ġhumble": 6022,
      "Ġexcuse": 6023,
      "ĠMill": 6024,
      "Ġdeveloped": 6025,
      "stairs": 6026,
      "RA": 6027,
      "Ġeternal": 6028,
      "atus": 6029,
      "Ġrang": 6030,
      "ifying": 6031,
      "Ġmagnificent": 6032,
      "ums": 6033,
      "Did": 6034,
      "Ġleader": 6035,
      "ĠFer": 6036,
      "Ġvac": 6037,
      "Ġentit": 6038,
      "Ġmixed": 6039,
      "Ġvoyage": 6040,
      "ĠDutch": 6041,
      "Ġwooden": 6042,
      "unning": 6043,
      "Ġshell": 6044,
      "ĠJapan": 6045,
      "Ġindust": 6046,
      "Ġsoftly": 6047,
      "alem": 6048,
      "Ġhint": 6049,
      "his": 6050,
      "Ġhorror": 6051,
      "Ġabst": 6052,
      "Ġutmost": 6053,
      "Ġcouncil": 6054,
      "Ġintim": 6055,
      "Ġexpense": 6056,
      "Ġintellectual": 6057,
      "ĠAng": 6058,
      "Ġrisk": 6059,
      "ĠVirginia": 6060,
      "ĠSar": 6061,
      "Ġswept": 6062,
      "Ġwithdra": 6063,
      "Ġfrank": 6064,
      "za": 6065,
      "Ġeagerly": 6066,
      "Ġguests": 6067,
      "Ġpause": 6068,
      "Ġpipe": 6069,
      "illery": 6070,
      "Ġlaughter": 6071,
      "Â·": 6072,
      "ĠEach": 6073,
      "held": 6074,
      "Ġinsp": 6075,
      "Ġwhenever": 6076,
      "Ġenterpr": 6077,
      "Ġreputation": 6078,
      "Ġunconscious": 6079,
      "Ġplainly": 6080,
      "Ġperman": 6081,
      "irty": 6082,
      "ĠHal": 6083,
      "Ġislands": 6084,
      "pass": 6085,
      "Ġmale": 6086,
      "Ġsust": 6087,
      "Ġsteep": 6088,
      "Ġanybody": 6089,
      "Ġconcluded": 6090,
      "Ġpin": 6091,
      "ĠTw": 6092,
      "Ġborne": 6093,
      "Ġowing": 6094,
      "Ġacted": 6095,
      "iring": 6096,
      "Ġarrangement": 6097,
      "Ġchat": 6098,
      "Ġcompared": 6099,
      "mbly": 6100,
      "Ġdistress": 6101,
      "Ġrefuse": 6102,
      "Ġrestra": 6103,
      "Ġatmosphere": 6104,
      "Ġdeliver": 6105,
      "Ġcounsel": 6106,
      "nces": 6107,
      "Go": 6108,
      "_--": 6109,
      "Ġded": 6110,
      "Ġhitherto": 6111,
      "Ġscorn": 6112,
      "ression": 6113,
      "Ġdeliber": 6114,
      "Ġattempted": 6115,
      "Ġsignific": 6116,
      "Ġpropri": 6117,
      "Ġrelated": 6118,
      "icial": 6119,
      "Ġdisposed": 6120,
      "Ġbride": 6121,
      "Ġobed": 6122,
      "Ġavail": 6123,
      "Ġwra": 6124,
      "arrison": 6125,
      "ĠUnder": 6126,
      "Ġming": 6127,
      "Ġwing": 6128,
      "idents": 6129,
      "sembly": 6130,
      "Ġdelightful": 6131,
      "Ġscheme": 6132,
      "ici": 6133,
      "back": 6134,
      "Ġhit": 6135,
      "ĠNothing": 6136,
      "non": 6137,
      "Ġnervous": 6138,
      "Ġoath": 6139,
      "ĠPrincess": 6140,
      "Ġmanaged": 6141,
      "Ġideal": 6142,
      "ĠBro": 6143,
      "Ġmankind": 6144,
      "Ġcomr": 6145,
      "Ġtrace": 6146,
      "ka": 6147,
      "uer": 6148,
      "Ġsees": 6149,
      "Ġgenerous": 6150,
      "Ġpicked": 6151,
      "ÏĤ": 6152,
      "Ġknife": 6153,
      "ĠMonsieur": 6154,
      "General": 6155,
      "Ġstiff": 6156,
      "ĠKe": 6157,
      "Ġsurv": 6158,
      "Ġgif": 6159,
      "Ġcollection": 6160,
      "Ġuttered": 6161,
      "SS": 6162,
      "Ġflood": 6163,
      "Ġcharacteristic": 6164,
      "Ind": 6165,
      "Ġweakness": 6166,
      "Ġauthorities": 6167,
      "Ġdistinction": 6168,
      "ĠArab": 6169,
      "Ġrevolution": 6170,
      "Ġbosom": 6171,
      "Ġoccasions": 6172,
      "Ġslept": 6173,
      "ctive": 6174,
      "Ġmonarch": 6175,
      "ĠCent": 6176,
      "Ġchurches": 6177,
      "enger": 6178,
      "Ġthread": 6179,
      "ĠMargaret": 6180,
      "Ġdefinite": 6181,
      "Ġsus": 6182,
      "fect": 6183,
      "Ġuseless": 6184,
      "Ġrow": 6185,
      "Ġestate": 6186,
      "Ġfix": 6187,
      "Ġforehead": 6188,
      "Ġmatch": 6189,
      "urely": 6190,
      "ancholy": 6191,
      "77": 6192,
      "Ġdomestic": 6193,
      "Ġmoder": 6194,
      "Ġfil": 6195,
      "ĠTH": 6196,
      "Ġascertain": 6197,
      "Ġhal": 6198,
      "Ġshining": 6199,
      "Ġadventure": 6200,
      "Ġtribe": 6201,
      "Ġcreatures": 6202,
      "Ġstretched": 6203,
      "Ġric": 6204,
      "Ġprovin": 6205,
      "Ġvague": 6206,
      "Ġapply": 6207,
      "ospel": 6208,
      "Ġles": 6209,
      "ĠMess": 6210,
      "Ġmood": 6211,
      "Qu": 6212,
      "ĠOther": 6213,
      "pse": 6214,
      "Ġmedic": 6215,
      "arian": 6216,
      "Ġdreams": 6217,
      "Miss": 6218,
      "Ġzeal": 6219,
      "EW": 6220,
      "ĠVict": 6221,
      "cast": 6222,
      "Ġissued": 6223,
      "Ġloving": 6224,
      "ĠFebruary": 6225,
      "Ġinstit": 6226,
      "eral": 6227,
      "umin": 6228,
      "rue": 6229,
      "Ġkissed": 6230,
      "Ġindependent": 6231,
      "ini": 6232,
      "Ġrules": 6233,
      "mir": 6234,
      "ĠInt": 6235,
      "atched": 6236,
      "ĠHistory": 6237,
      "two": 6238,
      "Ġalarm": 6239,
      "Ġfreely": 6240,
      "ĠSpani": 6241,
      "Ġdw": 6242,
      "Ġreported": 6243,
      "Ġvolunt": 6244,
      "Ġbark": 6245,
      "Ġleaf": 6246,
      "Ġlights": 6247,
      "Ġinner": 6248,
      "ĠStep": 6249,
      "Ġcollected": 6250,
      "bor": 6251,
      "Ġurged": 6252,
      "Ġimage": 6253,
      "Ġarchitect": 6254,
      "Ġrolled": 6255,
      "amma": 6256,
      "gent": 6257,
      "Ġnest": 6258,
      "Ġcavalry": 6259,
      "ĠVI": 6260,
      "Ġdoc": 6261,
      "Ġlighted": 6262,
      "Ġfired": 6263,
      "Ġtransf": 6264,
      "ĠCastle": 6265,
      "Ġunited": 6266,
      "inder": 6267,
      "Ġridic": 6268,
      "Ġcommunity": 6269,
      "ĠChristians": 6270,
      "Ġtrembling": 6271,
      "ĠVan": 6272,
      "Ġtroubles": 6273,
      "ĠPre": 6274,
      "inth": 6275,
      "Ġdimin": 6276,
      "ington": 6277,
      "ĠFar": 6278,
      "uther": 6279,
      "sell": 6280,
      "ĠChristmas": 6281,
      "ache": 6282,
      "--------------------------------": 6283,
      "iasm": 6284,
      "Ġcharm": 6285,
      "ĠCamp": 6286,
      "ĠSea": 6287,
      "Ġperceived": 6288,
      "eous": 6289,
      "ĠAN": 6290,
      "Ġenormous": 6291,
      "Ġnevertheless": 6292,
      "Ġwhisper": 6293,
      "Ġren": 6294,
      "Ġincluding": 6295,
      "had": 6296,
      "Ġcig": 6297,
      "Ġelements": 6298,
      "Ġcircumstance": 6299,
      "imony": 6300,
      "ante": 6301,
      "oph": 6302,
      "Ġrele": 6303,
      "79": 6304,
      "liness": 6305,
      "phe": 6306,
      "Ġexamination": 6307,
      "ĠMother": 6308,
      "Ġwestern": 6309,
      "abled": 6310,
      "Ġghost": 6311,
      "elled": 6312,
      "icable": 6313,
      "ĠMel": 6314,
      "Ġignorance": 6315,
      "_:": 6316,
      "Ġfame": 6317,
      "[=": 6318,
      "Ġspl": 6319,
      "hank": 6320,
      "Ġrage": 6321,
      "iast": 6322,
      "ĠSil": 6323,
      "ita": 6324,
      ".\"[": 6325,
      "ĠSand": 6326,
      "ÃŃ": 6327,
      "Ġgets": 6328,
      "adem": 6329,
      "Ġecc": 6330,
      "Ġinsult": 6331,
      "Ġawa": 6332,
      "vest": 6333,
      "Ġcompleted": 6334,
      "oos": 6335,
      "Ġpist": 6336,
      "Ġriding": 6337,
      "Ġnoted": 6338,
      "ĠWall": 6339,
      "apers": 6340,
      "Ġvel": 6341,
      "Ġod": 6342,
      "Ġpier": 6343,
      "fty": 6344,
      "ĠSecret": 6345,
      "Ġsupported": 6346,
      "Ġresolution": 6347,
      "Ġanticip": 6348,
      "Ġappropri": 6349,
      "ange": 6350,
      "BER": 6351,
      "ĠBoth": 6352,
      "peare": 6353,
      "Ġuncertain": 6354,
      "Ġsomewhere": 6355,
      "Ġfest": 6356,
      "lands": 6357,
      "Ġgaze": 6358,
      "Ġhumanity": 6359,
      "aughters": 6360,
      "iated": 6361,
      "Ġsouthern": 6362,
      "Ġbatter": 6363,
      "Ġach": 6364,
      "Ġderived": 6365,
      "Ġcoffee": 6366,
      "Ġagreeable": 6367,
      "upid": 6368,
      "Ġinvited": 6369,
      "Ġelsewhere": 6370,
      "Ġinterview": 6371,
      "Ġspare": 6372,
      "ĠJean": 6373,
      "Ġgazed": 6374,
      "Ġissue": 6375,
      "ĠSaint": 6376,
      "Ġinterior": 6377,
      "Ġdisposition": 6378,
      "Ġmelancholy": 6379,
      "Ġsection": 6380,
      "Ġcoach": 6381,
      "Ġreject": 6382,
      "Ġscenes": 6383,
      "aly": 6384,
      "76": 6385,
      "Ġuncom": 6386,
      "Ġacquired": 6387,
      "Ġtradition": 6388,
      "lets": 6389,
      "Ġá¼": 6390,
      "ĠRussia": 6391,
      "200": 6392,
      "actory": 6393,
      "Ġfalls": 6394,
      "Ġancest": 6395,
      "ca": 6396,
      "Ġsteel": 6397,
      "Ġspeaks": 6398,
      "ĠPen": 6399,
      "Ġneighbor": 6400,
      "Ġburned": 6401,
      "Ġcrowded": 6402,
      "Ġmisery": 6403,
      "Ġmarks": 6404,
      "Ġadj": 6405,
      "Ġanch": 6406,
      "Ġwondered": 6407,
      "adel": 6408,
      "oys": 6409,
      "Ġprovince": 6410,
      "Ġcentral": 6411,
      "Ġsla": 6412,
      "Ġelev": 6413,
      "aying": 6414,
      "Ġbrow": 6415,
      "Ġdiscussion": 6416,
      "othe": 6417,
      "ĠDar": 6418,
      "Ġprovisions": 6419,
      "Ġmethods": 6420,
      "Ġbrig": 6421,
      "ĠFlore": 6422,
      "Ġglim": 6423,
      "when": 6424,
      "ĠAnother": 6425,
      "IX": 6426,
      "ĠMartin": 6427,
      "Ġpenet": 6428,
      "oln": 6429,
      "Ġunexpected": 6430,
      "Ġenthusiasm": 6431,
      "Ġeleven": 6432,
      "Ġrig": 6433,
      "Ġpainful": 6434,
      "Ġpoem": 6435,
      "Ġresc": 6436,
      "Ġaccordingly": 6437,
      "ĠCollege": 6438,
      "Ġattacked": 6439,
      "Ġprejud": 6440,
      "aws": 6441,
      "yard": 6442,
      "Ġpreviously": 6443,
      "Ġfirmly": 6444,
      "Ġrent": 6445,
      "Ġfinds": 6446,
      "Ġretain": 6447,
      "Ġaltern": 6448,
      "Ġwidow": 6449,
      "Ġhunting": 6450,
      "Cl": 6451,
      "Ïģ": 6452,
      "Ġcher": 6453,
      "ĠDen": 6454,
      "Ġrust": 6455,
      "Ġencl": 6456,
      "Ġtrack": 6457,
      "Ġhanging": 6458,
      "Ġlistening": 6459,
      "Ġturns": 6460,
      "Ġdared": 6461,
      "Ġrecovered": 6462,
      "Ġviolence": 6463,
      "ipping": 6464,
      "ĠAgain": 6465,
      "icient": 6466,
      "Ġcontinu": 6467,
      "Mar": 6468,
      "Ġshock": 6469,
      "Ġentitled": 6470,
      "Ġtreasure": 6471,
      "ĠProtest": 6472,
      "IF": 6473,
      "Ġelectric": 6474,
      "iana": 6475,
      "Ġinstances": 6476,
      "Ġdecor": 6477,
      "Ġtroubled": 6478,
      "car": 6479,
      "Ġcharged": 6480,
      "Ġunion": 6481,
      "Ġcampaign": 6482,
      "Ġshelter": 6483,
      "ĠHol": 6484,
      "Ġconsists": 6485,
      "Ġeste": 6486,
      "ĠLook": 6487,
      "Ġblame": 6488,
      "Ġult": 6489,
      "Ġouter": 6490,
      "XX": 6491,
      "Ġconfined": 6492,
      "Ġtoler": 6493,
      "ĠCarol": 6494,
      "amped": 6495,
      "ĠThy": 6496,
      "ĠBell": 6497,
      "osure": 6498,
      "Our": 6499,
      "Ġnet": 6500,
      "add": 6501,
      "Ġmarched": 6502,
      "Ġbul": 6503,
      "Ġspecul": 6504,
      "Ġexperiment": 6505,
      "Ġhanded": 6506,
      "Very": 6507,
      "Ġrush": 6508,
      "Ġflame": 6509,
      "Ġdecision": 6510,
      "Ġmerry": 6511,
      "Ġhastily": 6512,
      "Ġinvol": 6513,
      "ĠSon": 6514,
      "Ġsignal": 6515,
      "ĠGerm": 6516,
      "Ġcheek": 6517,
      "hamed": 6518,
      "Ġbegins": 6519,
      "ART": 6520,
      "~,": 6521,
      "Ġcompass": 6522,
      "ĠGen": 6523,
      "mother": 6524,
      "Ġterritory": 6525,
      "Ġrope": 6526,
      "ĠDem": 6527,
      "Ġresidence": 6528,
      "Ġpursued": 6529,
      "oria": 6530,
      "Ġglanced": 6531,
      "Ġunm": 6532,
      "Ġassert": 6533,
      "Ġcontrib": 6534,
      "uv": 6535,
      "Ġaverage": 6536,
      "ĠAfrica": 6537,
      "ĠPart": 6538,
      "Ġsummon": 6539,
      "Ġsed": 6540,
      "Ġexamined": 6541,
      "Ġmild": 6542,
      "tr": 6543,
      "engers": 6544,
      "Ġhers": 6545,
      "PHA": 6546,
      "Ġtied": 6547,
      "Ġtower": 6548,
      "ĠFair": 6549,
      "Ġaccompany": 6550,
      "Ġcart": 6551,
      "SE": 6552,
      "aph": 6553,
      "Ġcollege": 6554,
      "Ġblaz": 6555,
      "Ġdemonstr": 6556,
      "Ġstructure": 6557,
      "ibr": 6558,
      "ĠGold": 6559,
      "Ġteaching": 6560,
      "Ġmistaken": 6561,
      "Ġlamp": 6562,
      "ĠYe": 6563,
      "master": 6564,
      "burgh": 6565,
      "Ġapt": 6566,
      "ĠSchool": 6567,
      "wick": 6568,
      "otted": 6569,
      "Ġtotal": 6570,
      "oser": 6571,
      "Ġsolution": 6572,
      "asped": 6573,
      "Ġoperations": 6574,
      "Ġbishop": 6575,
      "ements": 6576,
      "ĠRog": 6577,
      "Ġsumm": 6578,
      "ĠAbb": 6579,
      "ailing": 6580,
      "Ġmillions": 6581,
      "Ġconsequently": 6582,
      "ĠJane": 6583,
      "iveness": 6584,
      "God": 6585,
      "aver": 6586,
      "Ġangel": 6587,
      "ĠRem": 6588,
      "Are": 6589,
      "lla": 6590,
      "ros": 6591,
      "Ġdesperate": 6592,
      "ĠEv": 6593,
      "Ġeleg": 6594,
      "time": 6595,
      "ĠRepublic": 6596,
      "greg": 6597,
      "Ġsupplied": 6598,
      "ĠEp": 6599,
      "ĠChristianity": 6600,
      "abor": 6601,
      "Ġannoy": 6602,
      "istry": 6603,
      "Ġgrounds": 6604,
      "Ġerror": 6605,
      "ĠDay": 6606,
      "Ġtables": 6607,
      "incoln": 6608,
      "ĠJoe": 6609,
      "Ġconflict": 6610,
      "Ġhurry": 6611,
      "Ġdirections": 6612,
      "Ġstronger": 6613,
      "Ġmaintained": 6614,
      "Ġattain": 6615,
      "Ġpatience": 6616,
      "ero": 6617,
      "olation": 6618,
      "Ġfoundation": 6619,
      "Ġentering": 6620,
      "Ġruns": 6621,
      "oubted": 6622,
      "Ġusing": 6623,
      "Just": 6624,
      "Ġpasses": 6625,
      "rison": 6626,
      "Ġsuperst": 6627,
      "Ġabandoned": 6628,
      "Ġgrim": 6629,
      "While": 6630,
      "Ne": 6631,
      "Ġwarning": 6632,
      "Ġfailure": 6633,
      "Ġseed": 6634,
      "52": 6635,
      "Ġexisted": 6636,
      "Ġaudience": 6637,
      "Ġbask": 6638,
      "Ġapplication": 6639,
      "Ġrailway": 6640,
      "Ġforming": 6641,
      "51": 6642,
      "Ġbeloved": 6643,
      "Ġmurmured": 6644,
      "Ġdrift": 6645,
      "Ġroads": 6646,
      "cel": 6647,
      "ANT": 6648,
      "Ġchain": 6649,
      "Ġhaste": 6650,
      "itute": 6651,
      "Ġyard": 6652,
      "Ġnearest": 6653,
      "bell": 6654,
      "ĠGal": 6655,
      "Ġsym": 6656,
      "Ġfavourite": 6657,
      "Ġroll": 6658,
      "geon": 6659,
      "AB": 6660,
      "ĠWhich": 6661,
      "Ġbarbar": 6662,
      "Ġgates": 6663,
      "Ġling": 6664,
      "OC": 6665,
      "Ġinher": 6666,
      "raction": 6667,
      "ĠSus": 6668,
      "Ġadapt": 6669,
      "mark": 6670,
      "Ġbowed": 6671,
      "Ġstandard": 6672,
      "Ġresistance": 6673,
      "usive": 6674,
      "Ġlonely": 6675,
      "Ġshru": 6676,
      "aux": 6677,
      "Ġphilosopher": 6678,
      "ĠAlexander": 6679,
      "Ġinex": 6680,
      "64": 6681,
      "Ġloyal": 6682,
      "Ġstout": 6683,
      "Ġneighbourhood": 6684,
      "Ġdeparted": 6685,
      "Ġdaughters": 6686,
      "ĠSol": 6687,
      "ĠThree": 6688,
      "Ġdescended": 6689,
      "Ġexperienced": 6690,
      "Ġrecently": 6691,
      "ĠCap": 6692,
      ",âĢĶ": 6693,
      "Ġcurtain": 6694,
      "Ġempire": 6695,
      "ĠRh": 6696,
      "Ġgrasp": 6697,
      "Ġwrites": 6698,
      "Ġcommunication": 6699,
      "Ġ#": 6700,
      "Ġashamed": 6701,
      "ĠDun": 6702,
      "piration": 6703,
      "shine": 6704,
      "Ġaccounts": 6705,
      "vell": 6706,
      "Ġopposed": 6707,
      "Ġsymb": 6708,
      "Ġowner": 6709,
      "Ġrival": 6710,
      "Ġexceedingly": 6711,
      "Ġswall": 6712,
      "Ġestablishment": 6713,
      "Ġafterward": 6714,
      "Ġrestored": 6715,
      "ĠALPHA": 6716,
      "Tis": 6717,
      "Ġrecall": 6718,
      "Ġwhist": 6719,
      "umption": 6720,
      "ĠCra": 6721,
      "Ġtide": 6722,
      "Ġeloqu": 6723,
      "Ab": 6724,
      "Ġpresents": 6725,
      "Ġdevotion": 6726,
      "ĠCur": 6727,
      "Ġprud": 6728,
      "Ġbears": 6729,
      "pter": 6730,
      "Ġgratitude": 6731,
      "Ġsincere": 6732,
      "ĠDev": 6733,
      "hearted": 6734,
      "olk": 6735,
      "ping": 6736,
      "Ġgeneration": 6737,
      "88": 6738,
      "Ġcorrupt": 6739,
      "cent": 6740,
      "Ġmemor": 6741,
      "Ġactivity": 6742,
      "Ġsteady": 6743,
      "Ġsisters": 6744,
      "Ġflew": 6745,
      "xed": 6746,
      "Ġmart": 6747,
      "low": 6748,
      "74": 6749,
      "ĠEle": 6750,
      "Ġsleeping": 6751,
      "Ġingen": 6752,
      "Ġslightest": 6753,
      "ulations": 6754,
      "Ġdram": 6755,
      "enses": 6756,
      "gon": 6757,
      "ESS": 6758,
      "ĠFOR": 6759,
      "Ġlanded": 6760,
      "OH": 6761,
      "Ġgenu": 6762,
      "63": 6763,
      "Ġverse": 6764,
      "ĠDou": 6765,
      "ĠHence": 6766,
      "Ġcries": 6767,
      "orter": 6768,
      "mes": 6769,
      "Ġpoured": 6770,
      "ĠHoll": 6771,
      "Ġforgive": 6772,
      "ĠBu": 6773,
      "ications": 6774,
      "rer": 6775,
      "allel": 6776,
      "Pro": 6777,
      "Ġsenses": 6778,
      "Ġencoura": 6779,
      "igs": 6780,
      "Ġindustry": 6781,
      "ĠUniversity": 6782,
      "elling": 6783,
      "Ġcliff": 6784,
      "Ġloves": 6785,
      "Ġard": 6786,
      "Ġdar": 6787,
      "ĠWater": 6788,
      "Ġpaint": 6789,
      "Ġerected": 6790,
      "ĠAccording": 6791,
      "Ġscale": 6792,
      "iate": 6793,
      "54": 6794,
      "ography": 6795,
      "orus": 6796,
      "Ġprayers": 6797,
      "Ġwave": 6798,
      "ĠUpon": 6799,
      "Ġmidnight": 6800,
      "Ġprecip": 6801,
      "inations": 6802,
      "62": 6803,
      "amation": 6804,
      "water": 6805,
      "53": 6806,
      "da": 6807,
      "Ġbrings": 6808,
      "quar": 6809,
      "Ġconviction": 6810,
      "ĠBon": 6811,
      "ĠHy": 6812,
      "Ġcoal": 6813,
      "ĠDra": 6814,
      "Ġsorts": 6815,
      "Ġhistorical": 6816,
      "Ġflung": 6817,
      "Ġlimited": 6818,
      "ĠAnne": 6819,
      "Ġactions": 6820,
      "Ġparish": 6821,
      "Ġtransp": 6822,
      "61": 6823,
      ",)": 6824,
      "âĢĵ": 6825,
      "Ġcaptured": 6826,
      "icit": 6827,
      "Ġovert": 6828,
      "Ġprofit": 6829,
      "Ġbegged": 6830,
      "Ġcomment": 6831,
      "Ġconstruction": 6832,
      "Ġconcealed": 6833,
      "irmed": 6834,
      "Ġcottage": 6835,
      "ĠJohnson": 6836,
      "Ġcotton": 6837,
      "ĠRos": 6838,
      "Ġdeny": 6839,
      "Ġseriously": 6840,
      "ĠLincoln": 6841,
      "Ġpermit": 6842,
      "Ġtrick": 6843,
      "Ġconception": 6844,
      "reen": 6845,
      "Ġpreceding": 6846,
      "ĠFreder": 6847,
      "Ġrailroad": 6848,
      "Ġmarble": 6849,
      "Ġaltar": 6850,
      "ĠFore": 6851,
      "Ġrivers": 6852,
      "Ġbi": 6853,
      "Ġrevel": 6854,
      "Ġdebt": 6855,
      "Ġrese": 6856,
      "_]": 6857,
      "Un": 6858,
      "Or": 6859,
      "ĠFa": 6860,
      "Ġhelpless": 6861,
      "Ġmillion": 6862,
      "Ġcutting": 6863,
      "ĠLieutenant": 6864,
      "Ġtreaty": 6865,
      "umped": 6866,
      "Ġcontact": 6867,
      "Ġneat": 6868,
      "Ġreaders": 6869,
      "ulgar": 6870,
      "Ġthreatened": 6871,
      "Ġstraw": 6872,
      "Ġextract": 6873,
      "Ġclaims": 6874,
      "some": 6875,
      "Ġcheck": 6876,
      "ĠRE": 6877,
      "Ġantiqu": 6878,
      "ĠSometimes": 6879,
      "Ġnoon": 6880,
      "Can": 6881,
      "Ġsuggestion": 6882,
      "Ġconducted": 6883,
      "Ġunusual": 6884,
      "Ġinsisted": 6885,
      "tym": 6886,
      "ĠOxford": 6887,
      "Ġburden": 6888,
      "Ġremove": 6889,
      "ĠFin": 6890,
      "Ġnodded": 6891,
      "Ġinferior": 6892,
      "Ġlargely": 6893,
      "Ġwag": 6894,
      "Ġassembled": 6895,
      "Ġproblem": 6896,
      "Ġcapacity": 6897,
      "ki": 6898,
      "Ġbeings": 6899,
      "usions": 6900,
      "Ġpuzz": 6901,
      "Ġrested": 6902,
      "ronic": 6903,
      "ĠTrans": 6904,
      "Ġsituated": 6905,
      "Ġtear": 6906,
      "uting": 6907,
      "acc": 6908,
      "quet": 6909,
      "ieu": 6910,
      "itan": 6911,
      "rep": 6912,
      ".),": 6913,
      "Ġlegal": 6914,
      "Hist": 6915,
      "abb": 6916,
      "Ġcontinually": 6917,
      "IGH": 6918,
      "gra": 6919,
      "Ġmasters": 6920,
      "inks": 6921,
      "pher": 6922,
      "usalem": 6923,
      "ĠOnce": 6924,
      "Ġgest": 6925,
      "oral": 6926,
      "_).": 6927,
      "Ġcraft": 6928,
      "Ġnurse": 6929,
      "Ġbottle": 6930,
      "Never": 6931,
      "ĠCanada": 6932,
      "Ġrelative": 6933,
      "Ġnecessarily": 6934,
      "Ġhungry": 6935,
      "thren": 6936,
      "Have": 6937,
      "Ġforever": 6938,
      "Ġastonishment": 6939,
      "iverse": 6940,
      "May": 6941,
      "Ġsettlement": 6942,
      "Ġsubs": 6943,
      "hedral": 6944,
      "Ġacting": 6945,
      "bid": 6946,
      "ĠCape": 6947,
      "Ġplat": 6948,
      "Ġcam": 6949,
      "Ġdistinctly": 6950,
      "Ġreceiving": 6951,
      "ĠApp": 6952,
      "IES": 6953,
      "Ġimagined": 6954,
      "Ġboast": 6955,
      "Ġsupreme": 6956,
      "eel": 6957,
      "Ġalter": 6958,
      "Ġtrail": 6959,
      "Ġinev": 6960,
      "Ġsore": 6961,
      "aments": 6962,
      "Ġdancing": 6963,
      "ensions": 6964,
      "ĠDep": 6965,
      "._]": 6966,
      "Ġincreasing": 6967,
      "olate": 6968,
      "Ġsafely": 6969,
      "Ġsending": 6970,
      "Ġholds": 6971,
      "Ġjoint": 6972,
      "Ġslavery": 6973,
      "Ġshortly": 6974,
      "ĠHaving": 6975,
      "Ġwre": 6976,
      "ĠWould": 6977,
      "ĠFour": 6978,
      "Ġautumn": 6979,
      "Ġrarely": 6980,
      "Ġindividuals": 6981,
      "Ġtestimony": 6982,
      "ĠJacob": 6983,
      "Ġflow": 6984,
      "ĠBaron": 6985,
      "rels": 6986,
      "Ġeating": 6987,
      "eps": 6988,
      "ĠCrown": 6989,
      "Ġearliest": 6990,
      "ican": 6991,
      "Ġleaders": 6992,
      "arrass": 6993,
      "TON": 6994,
      "Ġom": 6995,
      "Ġpersec": 6996,
      "Ġsunshine": 6997,
      "Ġceremony": 6998,
      "Ġdetail": 6999,
      "Ġcrying": 7000,
      "Ġped": 7001,
      "Ġcommonly": 7002,
      "Ġconceal": 7003,
      "ĠSur": 7004,
      "72": 7005,
      "ricult": 7006,
      "Ġprevented": 7007,
      "Ġnotion": 7008,
      "Ġwinds": 7009,
      "Ġreaching": 7010,
      "ĠSince": 7011,
      "west": 7012,
      "Ġstudied": 7013,
      "NE": 7014,
      "ado": 7015,
      "150": 7016,
      "Ġexert": 7017,
      "Ġpermission": 7018,
      "Äģ": 7019,
      "ĠPost": 7020,
      "AV": 7021,
      "ĠRes": 7022,
      "Ġtrip": 7023,
      "Ġresumed": 7024,
      "ĠTy": 7025,
      "Ġestim": 7026,
      "elf": 7027,
      "Ġdriving": 7028,
      "Ġaven": 7029,
      "ĠBY": 7030,
      "Ġexhausted": 7031,
      "Ġstrangers": 7032,
      "Ġtendency": 7033,
      "ĠChina": 7034,
      "Ġpractically": 7035,
      "!_": 7036,
      "Ġnights": 7037,
      "ĠPruss": 7038,
      "Ġwire": 7039,
      "Ġsuccession": 7040,
      "Ġrefuge": 7041,
      "ertainly": 7042,
      "rol": 7043,
      "Ġbrid": 7044,
      "RY": 7045,
      "Ġfears": 7046,
      "Ġaloud": 7047,
      "uce": 7048,
      "John": 7049,
      "elly": 7050,
      "Ġventure": 7051,
      "ipt": 7052,
      "zed": 7053,
      "Ġours": 7054,
      "Ġtones": 7055,
      "ĠRel": 7056,
      "Ġscream": 7057,
      "Ġunl": 7058,
      "ona": 7059,
      "Ġstrain": 7060,
      "Re": 7061,
      "Ġthrowing": 7062,
      "Ġlegend": 7063,
      "Thus": 7064,
      "Ġcas": 7065,
      "Ġbelongs": 7066,
      "Ġresour": 7067,
      "ĠMost": 7068,
      "Ġscra": 7069,
      "Ġastonished": 7070,
      "Perhaps": 7071,
      "Ġfarmer": 7072,
      "99": 7073,
      "acco": 7074,
      "Ġsank": 7075,
      "Ġcheerful": 7076,
      "ĠScript": 7077,
      "Ġoh": 7078,
      "gate": 7079,
      "Ġsport": 7080,
      "din": 7081,
      "ĠKent": 7082,
      "Ġsang": 7083,
      "Ġslipped": 7084,
      "ras": 7085,
      "Ġvon": 7086,
      "OUR": 7087,
      "Ġmortal": 7088,
      "Ġcomplex": 7089,
      "Ġperil": 7090,
      "ĠHard": 7091,
      "Pl": 7092,
      "TION": 7093,
      "achment": 7094,
      "Ġblock": 7095,
      "Ġtele": 7096,
      "Ġnotwithstanding": 7097,
      "Ġrecover": 7098,
      "ĠGall": 7099,
      "Ġcommittee": 7100,
      "Ġshoes": 7101,
      "Ġextrem": 7102,
      "Ġconsequences": 7103,
      "Ġgenuine": 7104,
      "quisite": 7105,
      "160": 7106,
      "Ġremo": 7107,
      "Ġdeclare": 7108,
      "ĠWalter": 7109,
      "Ġprefer": 7110,
      "Ġabrupt": 7111,
      "Ġseventy": 7112,
      "Ġlofty": 7113,
      "Ġhorrible": 7114,
      "Ġwives": 7115,
      "ĠFri": 7116,
      "Ġabsent": 7117,
      "Ġpursuit": 7118,
      "Ġta": 7119,
      "Ġash": 7120,
      "Con": 7121,
      "Ġbrand": 7122,
      "ĠGard": 7123,
      "Ġpossibility": 7124,
      "Ġsul": 7125,
      "Ġsuitable": 7126,
      "Ġscru": 7127,
      "Ġroute": 7128,
      "Ġdeserted": 7129,
      "vent": 7130,
      "arded": 7131,
      "Ġselected": 7132,
      "Ġplun": 7133,
      "Ġvictim": 7134,
      "Ġambition": 7135,
      "Ġdescribe": 7136,
      "icken": 7137,
      "gels": 7138,
      "Ġseeking": 7139,
      "Ġdoth": 7140,
      "Ġshield": 7141,
      "Ġhaunt": 7142,
      "Ġstupid": 7143,
      "Ġhomes": 7144,
      "bow": 7145,
      "ĠHelen": 7146,
      "aus": 7147,
      "Ġmaiden": 7148,
      "Ġresol": 7149,
      "Ġshadows": 7150,
      "71": 7151,
      "Ġdiscipl": 7152,
      "ĠIllustr": 7153,
      "Ġoriginally": 7154,
      "vity": 7155,
      "udden": 7156,
      "ules": 7157,
      "Ġguest": 7158,
      "ga": 7159,
      "ĠVIII": 7160,
      "Ġsomehow": 7161,
      "Ġmuttered": 7162,
      "omed": 7163,
      "Ġcontents": 7164,
      "ĠTherefore": 7165,
      "OND": 7166,
      "ida": 7167,
      "hum": 7168,
      "OV": 7169,
      "Ġeighteen": 7170,
      "Ġhundreds": 7171,
      "Ïĥ": 7172,
      "Ġchim": 7173,
      "Ġconj": 7174,
      "Ġscr": 7175,
      "Ġcommander": 7176,
      "Ġagent": 7177,
      "icted": 7178,
      "Ġemperor": 7179,
      "HER": 7180,
      "Ġprophe": 7181,
      "Ġinstructions": 7182,
      "Ġhell": 7183,
      "Ġadmire": 7184,
      "ĠJerusalem": 7185,
      "Ġtorn": 7186,
      "ĠSax": 7187,
      "wl": 7188,
      "ĠCard": 7189,
      "Ġgracious": 7190,
      "Ġenabled": 7191,
      "Ġfathers": 7192,
      "Ġpowder": 7193,
      "Ġcontrad": 7194,
      "Ġpover": 7195,
      "mod": 7196,
      "OTA": 7197,
      "Ġroot": 7198,
      "ĠJones": 7199,
      "Ġthine": 7200,
      "Ġdrinking": 7201,
      "ĠSouthern": 7202,
      "ĠRomans": 7203,
      "ĠAny": 7204,
      "Ġreckon": 7205,
      "ĠMem": 7206,
      "Ġecho": 7207,
      "Ġidle": 7208,
      "Ġresting": 7209,
      "Ġshake": 7210,
      "Ġheavily": 7211,
      "ients": 7212,
      "Ġmasses": 7213,
      "isation": 7214,
      "Ġembarrass": 7215,
      "Ġundoubted": 7216,
      "pended": 7217,
      "Ġrevealed": 7218,
      "esar": 7219,
      "ĠMus": 7220,
      "ĠOl": 7221,
      "lle": 7222,
      "En": 7223,
      "ĠPortug": 7224,
      "Ġcree": 7225,
      "Look": 7226,
      "Ġmoreover": 7227,
      "Ġextensive": 7228,
      "ĠDeath": 7229,
      "aration": 7230,
      "Ġruins": 7231,
      "eanwhile": 7232,
      "Ġmerc": 7233,
      "Ġmaterials": 7234,
      "Tr": 7235,
      "Ġfurniture": 7236,
      "Ġpoverty": 7237,
      "Ġexisting": 7238,
      "Ġdrunk": 7239,
      "Ġability": 7240,
      "vin": 7241,
      "Ġfitted": 7242,
      "sal": 7243,
      "Ġtriump": 7244,
      "aping": 7245,
      "Ġlandl": 7246,
      "regular": 7247,
      "Ġexternal": 7248,
      "Ġinquiry": 7249,
      "Ġprotest": 7250,
      "Ġsale": 7251,
      "Ġobjection": 7252,
      "Ġchem": 7253,
      "Ġrespond": 7254,
      "riff": 7255,
      "ucky": 7256,
      "Ġimpulse": 7257,
      "ustral": 7258,
      "89": 7259,
      "Ġtemperature": 7260,
      "icing": 7261,
      "Ġregarding": 7262,
      "Ġsuspected": 7263,
      "Ġlap": 7264,
      "estion": 7265,
      "Ġcommerce": 7266,
      "ulp": 7267,
      "Ġchose": 7268,
      "Ġrifle": 7269,
      "Ġimmort": 7270,
      "ĠSant": 7271,
      "natural": 7272,
      "bra": 7273,
      "lem": 7274,
      "oup": 7275,
      "Ġmetal": 7276,
      "rage": 7277,
      "Ġcomposition": 7278,
      "Ġpassages": 7279,
      "Ġvote": 7280,
      "Ġdisturbed": 7281,
      "anned": 7282,
      "iary": 7283,
      "._)": 7284,
      "Ġcrossing": 7285,
      "abel": 7286,
      "Ġshed": 7287,
      "Ġdismiss": 7288,
      "course": 7289,
      "RAN": 7290,
      "Ġindicated": 7291,
      "Ġpurple": 7292,
      "from": 7293,
      "Ġgrateful": 7294,
      "Ġmerit": 7295,
      "Ġrequires": 7296,
      "assad": 7297,
      "Ġleis": 7298,
      "Ġsensible": 7299,
      "ĠPier": 7300,
      "ĠInf": 7301,
      "resses": 7302,
      "ICRON": 7303,
      "73": 7304,
      "Ġsaddle": 7305,
      "ĠOMICRON": 7306,
      "Ġbind": 7307,
      "IE": 7308,
      "Ġanyone": 7309,
      "Ġcolours": 7310,
      "Ġborrow": 7311,
      "mouth": 7312,
      "Ġpatriot": 7313,
      "Ġreflection": 7314,
      "Ġtouching": 7315,
      "Ġphrase": 7316,
      "ĠSecretary": 7317,
      "Every": 7318,
      "Ġindifferent": 7319,
      "ĠVII": 7320,
      "Ġpatron": 7321,
      "UC": 7322,
      "ĠIOTA": 7323,
      "Ġstared": 7324,
      "Ġproduction": 7325,
      "INE": 7326,
      "Ġwondering": 7327,
      "Ġfearful": 7328,
      "Ġincon": 7329,
      "Ġsevent": 7330,
      "Ġexquisite": 7331,
      "outs": 7332,
      "tes": 7333,
      "iege": 7334,
      "Ġterrif": 7335,
      "Ġleather": 7336,
      "Ġchapel": 7337,
      "Ġraising": 7338,
      "_),": 7339,
      "Ġperceive": 7340,
      "Ġga": 7341,
      "Ġknock": 7342,
      "idel": 7343,
      "Ġtomb": 7344,
      "keeper": 7345,
      "ĠLee": 7346,
      "Ġimprison": 7347,
      "Ġprem": 7348,
      "âģ": 7349,
      "Ġwrath": 7350,
      "Ġnaked": 7351,
      "Ġrav": 7352,
      "Ġincluded": 7353,
      "icians": 7354,
      "bler": 7355,
      "Ġeastern": 7356,
      "Ġfeed": 7357,
      "era": 7358,
      "Ġtar": 7359,
      "anim": 7360,
      "Ġintelligent": 7361,
      "Ġquoted": 7362,
      "Ġdivers": 7363,
      "Ġobvious": 7364,
      "ĠYoung": 7365,
      "ĠGent": 7366,
      "ĠCy": 7367,
      "Ġthri": 7368,
      "ĠCross": 7369,
      "wr": 7370,
      "vant": 7371,
      "ĠPur": 7372,
      "Ġlawyer": 7373,
      "uns": 7374,
      "Ġcopper": 7375,
      "Ġlin": 7376,
      "ĠTemple": 7377,
      "vy": 7378,
      "Ġpains": 7379,
      "á¿": 7380,
      "Ġsailed": 7381,
      "Ġengra": 7382,
      "ties": 7383,
      "ĠSpaniards": 7384,
      "OHN": 7385,
      "Ġphot": 7386,
      "ĠEst": 7387,
      "Ġwaist": 7388,
      "Ġreasonable": 7389,
      "Ġshalt": 7390,
      "Ġwanting": 7391,
      "Ġretire": 7392,
      "Ġfires": 7393,
      "ĠVi": 7394,
      "Ġswim": 7395,
      "Ġstayed": 7396,
      "Ġmagist": 7397,
      "Ġhospital": 7398,
      "500": 7399,
      "ded": 7400,
      "Ġenable": 7401,
      "Ġleads": 7402,
      "ĠDist": 7403,
      "Ġcared": 7404,
      "lessness": 7405,
      "ÏĢ": 7406,
      "Ġsomebody": 7407,
      "ĠConstant": 7408,
      "Ġlesson": 7409,
      "Ġranks": 7410,
      "Ġbadly": 7411,
      "chester": 7412,
      "Ġintroduction": 7413,
      "alls": 7414,
      "Ġartillery": 7415,
      "hetic": 7416,
      "Ġencourage": 7417,
      "Ġcondemned": 7418,
      "Ġrot": 7419,
      "Ġsins": 7420,
      "urday": 7421,
      "Ġshone": 7422,
      "Ġunlike": 7423,
      "Ġdeed": 7424,
      "Ġlimbs": 7425,
      "oked": 7426,
      "Ġdisgrace": 7427,
      "Ġslender": 7428,
      "Ġcards": 7429,
      "kespeare": 7430,
      "ĠSecond": 7431,
      "ositions": 7432,
      "Ġsteadily": 7433,
      "Ġportrait": 7434,
      "Ġdeeds": 7435,
      "Ġbade": 7436,
      "Ġfolk": 7437,
      "Ġtob": 7438,
      "alks": 7439,
      "Ġburnt": 7440,
      "ĠGar": 7441,
      "ĠEtym": 7442,
      "ĠThrough": 7443,
      "Ġvillages": 7444,
      "Ġprinces": 7445,
      "Ġcombined": 7446,
      "itors": 7447,
      "Ġseas": 7448,
      "pers": 7449,
      "Ġawak": 7450,
      "Ġovercome": 7451,
      "TS": 7452,
      "Ġstair": 7453,
      "atr": 7454,
      "Ġanywhere": 7455,
      "85": 7456,
      "Ġtraining": 7457,
      "Ġmultitude": 7458,
      "eman": 7459,
      "Ġperformance": 7460,
      "Ġstaff": 7461,
      "Ġcomparison": 7462,
      "Ġadvantages": 7463,
      "riptions": 7464,
      "Ġtiny": 7465,
      "ĠConstitution": 7466,
      "omach": 7467,
      "Ġfasc": 7468,
      "ĠMichael": 7469,
      "ĠAlb": 7470,
      "ĠWord": 7471,
      "arson": 7472,
      "Ġdeeper": 7473,
      "Ġinduced": 7474,
      "Ġfastened": 7475,
      "osh": 7476,
      "agn": 7477,
      "Ġregions": 7478,
      "ĠGermans": 7479,
      "kerchief": 7480,
      "miral": 7481,
      "Ġapprehens": 7482,
      "Ġlightly": 7483,
      "six": 7484,
      "ĠColumb": 7485,
      "Ġselfish": 7486,
      "Ġbapt": 7487,
      "Ġprepare": 7488,
      "Ġbath": 7489,
      "Ġpronounced": 7490,
      "Ġprovide": 7491,
      "Ġemployment": 7492,
      "\";": 7493,
      "eries": 7494,
      "Ġhastened": 7495,
      "ĠAtl": 7496,
      "Ġtoss": 7497,
      "Ġassure": 7498,
      "Ġneglect": 7499,
      "vet": 7500,
      "Ġcheap": 7501,
      "ĠMax": 7502,
      "Ġpound": 7503,
      "Ġclerk": 7504,
      "ĠEmpire": 7505,
      "Ġstim": 7506,
      "Ġparted": 7507,
      "Ġlimit": 7508,
      "Pr": 7509,
      "urre": 7510,
      "ĠTurk": 7511,
      "OK": 7512,
      "uddenly": 7513,
      "ĠEPSILON": 7514,
      "ĠLeg": 7515,
      "Ġrepeat": 7516,
      "Ġartific": 7517,
      "ĠTake": 7518,
      "Ġdisplayed": 7519,
      "mann": 7520,
      "Ġsounded": 7521,
      "âģĦ": 7522,
      "--'": 7523,
      ".'\"": 7524,
      "erring": 7525,
      "Ġcomparatively": 7526,
      "ĠWestern": 7527,
      "Ġfinest": 7528,
      "ĠAustral": 7529,
      "Ġvivid": 7530,
      "Ġquarrel": 7531,
      "Ġgardens": 7532,
      "Ġfolks": 7533,
      "Ġcourts": 7534,
      "Ġcivilization": 7535,
      "Ġrelieved": 7536,
      "ĠGrace": 7537,
      "Ġblessing": 7538,
      "amental": 7539,
      "Se": 7540,
      "izes": 7541,
      "ulating": 7542,
      "Ġgifts": 7543,
      "Ġrealized": 7544,
      "Ġconsisted": 7545,
      "Ġremote": 7546,
      "aur": 7547,
      "anks": 7548,
      "yes": 7549,
      "Ġintervals": 7550,
      "Ġparallel": 7551,
      "Ġlimits": 7552,
      "Ġbeaten": 7553,
      "Ġthereby": 7554,
      "pton": 7555,
      "ĠBert": 7556,
      "ĠBO": 7557,
      "Ġdwelling": 7558,
      "Ġprincess": 7559,
      "Ġexchange": 7560,
      "Ġmedicine": 7561,
      "Ġbasis": 7562,
      "illes": 7563,
      "Ġwedding": 7564,
      "Ġsem": 7565,
      "Ġheavens": 7566,
      "Ġpreserve": 7567,
      "Ġfolly": 7568,
      "Ġdenied": 7569,
      "Ġelection": 7570,
      "Ġarts": 7571,
      "Ġconvention": 7572,
      "ĠHaw": 7573,
      "Ġinterpret": 7574,
      "Ġadorn": 7575,
      "Ġpolitics": 7576,
      "Ġfert": 7577,
      "Ġbrethren": 7578,
      "Ġqueer": 7579,
      "Ġsharply": 7580,
      "Ġintimate": 7581,
      "Ġjob": 7582,
      "ĠMoses": 7583,
      "Ġsheet": 7584,
      "wich": 7585,
      "Ġendure": 7586,
      "Ġfortunate": 7587,
      "Ġbeasts": 7588,
      "Ġwrought": 7589,
      "98": 7590,
      "Ġauthors": 7591,
      "inated": 7592,
      "lying": 7593,
      "Ġdecide": 7594,
      "Ġpatter": 7595,
      "Ġclay": 7596,
      "omena": 7597,
      "Ġlic": 7598,
      "Ġpurchase": 7599,
      "Ġconquer": 7600,
      "Ġslain": 7601,
      "Ġfatig": 7602,
      "encies": 7603,
      "ĠAlso": 7604,
      "URE": 7605,
      "Ġsigned": 7606,
      "unction": 7607,
      "170": 7608,
      "ifications": 7609,
      "Ġpermanent": 7610,
      "Ġau": 7611,
      "wor": 7612,
      "Ġprize": 7613,
      "Ġmanufacture": 7614,
      "Ġenterprise": 7615,
      "Ġmars": 7616,
      "Ġfinish": 7617,
      "QU": 7618,
      "Ġcriticism": 7619,
      "Ġpant": 7620,
      "Ġconfident": 7621,
      "Ġadministration": 7622,
      "geant": 7623,
      "uthor": 7624,
      "otte": 7625,
      "Ġmotive": 7626,
      "Ġvolumes": 7627,
      "Ġhadn": 7628,
      "ulars": 7629,
      "Ġdetect": 7630,
      "Ġpace": 7631,
      "Ġarrive": 7632,
      "Ad": 7633,
      "vert": 7634,
      "umm": 7635,
      "Ġcorps": 7636,
      "Ġoccupation": 7637,
      "ormal": 7638,
      "Ġmead": 7639,
      "Ġsmell": 7640,
      "Ġapartment": 7641,
      "Ġleaning": 7642,
      "Ġcandid": 7643,
      "Ġendeavour": 7644,
      "Ġcommercial": 7645,
      "cia": 7646,
      "Ġstarting": 7647,
      "Ġtheatre": 7648,
      "Ġperfection": 7649,
      "Ġgazing": 7650,
      "ĠLuc": 7651,
      "Ġstudent": 7652,
      "ĠPass": 7653,
      "Ġtick": 7654,
      "gly": 7655,
      "Ġirregular": 7656,
      "isk": 7657,
      "Ġduke": 7658,
      "Ġgroups": 7659,
      "Ġnarrative": 7660,
      "Ġwherever": 7661,
      "Ġlargest": 7662,
      "Ġmast": 7663,
      "Ġattracted": 7664,
      "ĠWorld": 7665,
      "Ġunre": 7666,
      "Ġgoodness": 7667,
      "IP": 7668,
      "Ġbeheld": 7669,
      "Ġlan": 7670,
      "Ġcents": 7671,
      "burn": 7672,
      "Ġ~": 7673,
      "chess": 7674,
      "Ġlock": 7675,
      "ĠOut": 7676,
      "Ġstartled": 7677,
      "Ġtravelling": 7678,
      "Ġthereof": 7679,
      "Ġbloom": 7680,
      "Ġdetermination": 7681,
      "Ġconsidering": 7682,
      "Ġphysician": 7683,
      "Ġmoist": 7684,
      "ustrious": 7685,
      "ĠGil": 7686,
      "Ġsongs": 7687,
      "azz": 7688,
      "Ġmould": 7689,
      "col": 7690,
      "Ġlun": 7691,
      "ĠCON": 7692,
      "Ġvine": 7693,
      "Ġsatisfactory": 7694,
      "Ġvisitor": 7695,
      "Ġdisag": 7696,
      "Ġsupplies": 7697,
      "Ġgrain": 7698,
      "Ġvary": 7699,
      "Ġobservations": 7700,
      "Ġpine": 7701,
      "Ġgallant": 7702,
      "ĠMexico": 7703,
      "Ġdoubtful": 7704,
      "ifully": 7705,
      "Ġminor": 7706,
      "Ġboil": 7707,
      "Ġrecords": 7708,
      "Ġentreat": 7709,
      "Ġconnect": 7710,
      "Ġleaned": 7711,
      "Ġlively": 7712,
      "Ġrecorded": 7713,
      "equ": 7714,
      "Ġbreeze": 7715,
      "inence": 7716,
      "OG": 7717,
      "uated": 7718,
      "alo": 7719,
      "Ġdelic": 7720,
      "Ġrespects": 7721,
      "ĠHugh": 7722,
      "Ġattempts": 7723,
      "Ġmanage": 7724,
      "itudes": 7725,
      "ulpt": 7726,
      "ĠBas": 7727,
      "Ġdistrib": 7728,
      "Ġmagic": 7729,
      "order": 7730,
      "itating": 7731,
      "ĠBern": 7732,
      "ĠJudge": 7733,
      "Ġcovering": 7734,
      "Ã¢": 7735,
      "ĠHor": 7736,
      "Ġcrack": 7737,
      "Ġoutward": 7738,
      "Ġhatred": 7739,
      "Ġlion": 7740,
      "fortune": 7741,
      "Ġsixteen": 7742,
      "Ġstrengthen": 7743,
      "Ã¤": 7744,
      "Ġprominent": 7745,
      "ĠAbout": 7746,
      "ĠMaria": 7747,
      "Ġju": 7748,
      "otions": 7749,
      "ĠGrant": 7750,
      "Ġexamine": 7751,
      "Ġtu": 7752,
      "phia": 7753,
      "useum": 7754,
      "Ġexecuted": 7755,
      "Ġtin": 7756,
      "ĠTell": 7757,
      "Ġprimitive": 7758,
      "Ġfran": 7759,
      "Ġpreferred": 7760,
      "Ġinspired": 7761,
      "ogue": 7762,
      "rates": 7763,
      "Ġabandon": 7764,
      "Ġcustoms": 7765,
      "Ġpointing": 7766,
      "Ġembra": 7767,
      "Ġgloomy": 7768,
      "Ġfury": 7769,
      "Ġcommence": 7770,
      "Ġthirst": 7771,
      "gged": 7772,
      "ĠCommission": 7773,
      "Sh": 7774,
      "Ġdragged": 7775,
      "ĠBal": 7776,
      "Ġdining": 7777,
      "leness": 7778,
      "Ġsurrender": 7779,
      "asure": 7780,
      "anny": 7781,
      "ĠCharl": 7782,
      "iations": 7783,
      "Ġproceedings": 7784,
      "Ġfourteen": 7785,
      "========": 7786,
      "Ġhospit": 7787,
      "Ġfount": 7788,
      "leton": 7789,
      "Ġtobacco": 7790,
      "Ġexamples": 7791,
      "ieties": 7792,
      "ĠBre": 7793,
      "phant": 7794,
      "Ġhesitated": 7795,
      "uscript": 7796,
      "Ġcease": 7797,
      "Ġplays": 7798,
      "Ġfeature": 7799,
      "Ġward": 7800,
      "Ġsanct": 7801,
      "Ġlaying": 7802,
      "ARY": 7803,
      "Ġhid": 7804,
      "ĠRock": 7805,
      "ĠAlthough": 7806,
      "Ġsolitary": 7807,
      "erness": 7808,
      "onsense": 7809,
      "Ġsecurity": 7810,
      "Ġarmies": 7811,
      "Ġgraceful": 7812,
      "ĠArmy": 7813,
      "Ġwash": 7814,
      "Ġshaking": 7815,
      "ĠAndrew": 7816,
      "bishop": 7817,
      "\"_": 7818,
      "case": 7819,
      "Ġdepartment": 7820,
      "ĠFlorence": 7821,
      "Ġattrib": 7822,
      "Ġrevenge": 7823,
      "Ġgarrison": 7824,
      "Ġcoward": 7825,
      "brew": 7826,
      "Ġcleared": 7827,
      "Ġlust": 7828,
      "Ġfurnish": 7829,
      "Ġplatform": 7830,
      "ĠGreeks": 7831,
      "Ġconvenient": 7832,
      "Ġpreparing": 7833,
      "force": 7834,
      "Ġbuff": 7835,
      "ĠHolland": 7836,
      "alys": 7837,
      "Ġthither": 7838,
      "Ġfollowers": 7839,
      "ĠBa": 7840,
      "Ġmob": 7841,
      "Ġfeeble": 7842,
      "Ġappar": 7843,
      "Ġindependence": 7844,
      "IAN": 7845,
      "Ġmock": 7846,
      "Ġcure": 7847,
      "Ġsteamer": 7848,
      "Ġassume": 7849,
      "quarters": 7850,
      "Ġoffering": 7851,
      "Ġrebell": 7852,
      "Ġreception": 7853,
      "Ġindignation": 7854,
      "Ġawake": 7855,
      "iner": 7856,
      "andal": 7857,
      "Ġrecognised": 7858,
      "agues": 7859,
      "Ġcoo": 7860,
      "ĠAmericans": 7861,
      "Ġeaten": 7862,
      "Ġwritings": 7863,
      "Ġobedience": 7864,
      "ws": 7865,
      "Ġconceived": 7866,
      "ĠPenn": 7867,
      "ĠSun": 7868,
      "ĠRich": 7869,
      "Ġadditional": 7870,
      "Ġbat": 7871,
      "ĠLeon": 7872,
      "Ġpositive": 7873,
      "Ã³": 7874,
      "Ġrespectable": 7875,
      "ĠÌ": 7876,
      "Ġoak": 7877,
      "Ġwhereas": 7878,
      "istics": 7879,
      "Ġjump": 7880,
      "ĠKn": 7881,
      "Ġprel": 7882,
      "Ġconcent": 7883,
      "Ġexists": 7884,
      "ĠShakespeare": 7885,
      "Ġstomach": 7886,
      "anqu": 7887,
      "Ġboots": 7888,
      "Ġroots": 7889,
      "Ġarrangements": 7890,
      "Ġcreation": 7891,
      "itious": 7892,
      "Ġstudies": 7893,
      "rust": 7894,
      "ĠRevolution": 7895,
      "Ġsensation": 7896,
      "Ġtransform": 7897,
      "Ġdict": 7898,
      "Ġprecisely": 7899,
      "ints": 7900,
      "Ġpassions": 7901,
      "Ġsighed": 7902,
      "ĠNational": 7903,
      "Ġsne": 7904,
      "Ġtraged": 7905,
      "Ġapost": 7906,
      "bes": 7907,
      "Ġcolony": 7908,
      "Ġgathering": 7909,
      "Ġplot": 7910,
      "irk": 7911,
      "Ġamusement": 7912,
      "Ġcontempor": 7913,
      "iano": 7914,
      "whel": 7915,
      "Ġcomprehend": 7916,
      "Ġgrows": 7917,
      "Ġgroan": 7918,
      "Ġarise": 7919,
      "ĠChief": 7920,
      "eur": 7921,
      "oof": 7922,
      "iot": 7923,
      "Ġhappens": 7924,
      "ĠTim": 7925,
      "Ġtimid": 7926,
      "Ġmischief": 7927,
      "Ġinvolved": 7928,
      "Ġstreams": 7929,
      "Ġslip": 7930,
      "Ġcapture": 7931,
      "atherine": 7932,
      "Ġbuck": 7933,
      "Ġhind": 7934,
      "ĠTown": 7935,
      "foot": 7936,
      "Ġadmirable": 7937,
      "Ġfet": 7938,
      "obe": 7939,
      "Ġhed": 7940,
      "Ġclimate": 7941,
      "ĠPac": 7942,
      "Ġprocession": 7943,
      "Ġknee": 7944,
      "Ġruined": 7945,
      "Ġmusical": 7946,
      "Ġdemands": 7947,
      "Ġdaring": 7948,
      "Ġselect": 7949,
      "Ġinstruction": 7950,
      "Ġbeds": 7951,
      "Ġaccess": 7952,
      "Ġearnestly": 7953,
      "Ġenlar": 7954,
      "Ġcannon": 7955,
      "Ġdisgu": 7956,
      "Ġpicturesque": 7957,
      "Ġclock": 7958,
      "Ġinstitutions": 7959,
      "Ġmajesty": 7960,
      "Ġpeasant": 7961,
      "Ġmedium": 7962,
      "irect": 7963,
      "Ġafforded": 7964,
      "Ġmixture": 7965,
      "Another": 7966,
      "fa": 7967,
      "Ġpainting": 7968,
      "Ġcryst": 7969,
      "Ġrecollect": 7970,
      "Ġscore": 7971,
      "pled": 7972,
      "eer": 7973,
      "cut": 7974,
      "Ġattained": 7975,
      "lyn": 7976,
      "cont": 7977,
      "Ġmingled": 7978,
      "Ġplains": 7979,
      "Ġresponsible": 7980,
      "ĠPeople": 7981,
      "mar": 7982,
      "part": 7983,
      "Ġmyth": 7984,
      "Ġdisappointed": 7985,
      "gram": 7986,
      "Two": 7987,
      "Ġcoarse": 7988,
      "Ġnewspaper": 7989,
      "ĠBurn": 7990,
      "Ġvanished": 7991,
      "headed": 7992,
      "ĠCro": 7993,
      "Ġstring": 7994,
      "Ġwashed": 7995,
      "Ġvulgar": 7996,
      "oping": 7997,
      "Ġprivilege": 7998,
      "81": 7999,
      "Ġelected": 8000,
      "Ġjest": 8001,
      "Ġwars": 8002,
      "ĠOX": 8003,
      "ĠSenate": 8004,
      "Ġbrass": 8005,
      "Ġpreparation": 8006,
      "Ġbeach": 8007,
      "Ġclaimed": 8008,
      "Ġrays": 8009,
      "anda": 8010,
      "Ġreflected": 8011,
      "racy": 8012,
      "Ġpaying": 8013,
      "ibus": 8014,
      "Ġrespecting": 8015,
      "Ġstudents": 8016,
      "Ġdisappointment": 8017,
      "rat": 8018,
      "eight": 8019,
      "Ġirres": 8020,
      "arly": 8021,
      "Ġhoney": 8022,
      "Ġswear": 8023,
      "Ġcolumns": 8024,
      "Ġdrank": 8025,
      "adelphia": 8026,
      "95": 8027,
      "Ġdefect": 8028,
      "terior": 8029,
      "âĶĢâĶĢâĶĢâĶĢâĶĢâĶĢâĶĢâĶĢ": 8030,
      "Ġpoets": 8031,
      "tw": 8032,
      "ribe": 8033,
      "120": 8034,
      "Ġprey": 8035,
      "VI": 8036,
      "Ġdepths": 8037,
      "ocratic": 8038,
      "Ġretained": 8039,
      "Ġrolling": 8040,
      "ĠNed": 8041,
      "Ġgrandfather": 8042,
      "fts": 8043,
      "Ġmap": 8044,
      "Ġmodest": 8045,
      "Ġmostly": 8046,
      "ĠEve": 8047,
      "Ġvaried": 8048,
      "Ġflatter": 8049,
      "Ġprosperity": 8050,
      "Ġflu": 8051,
      "Ġprovinces": 8052,
      "Ġhandkerchief": 8053,
      "Ġarea": 8054,
      "Ġenjoyment": 8055,
      "Ġconspic": 8056,
      "Ġphenomena": 8057,
      "bye": 8058,
      "ĠTest": 8059,
      "iforn": 8060,
      "_.\"": 8061,
      "Ġmant": 8062,
      "Ġrein": 8063,
      "Ġplates": 8064,
      "Ġstroke": 8065,
      "AG": 8066,
      "Ã¶": 8067,
      "Ġinvitation": 8068,
      "Ġsculpt": 8069,
      "ĠNU": 8070,
      "Ġdoub": 8071,
      "LES": 8072,
      "Ġdefeat": 8073,
      "ester": 8074,
      "ĠStra": 8075,
      "Ġdepends": 8076,
      "itty": 8077,
      "Ġsurrounding": 8078,
      "Ġarrested": 8079,
      "Ġunple": 8080,
      "Ġimpressed": 8081,
      "Ġhated": 8082,
      "Ġreports": 8083,
      "SON": 8084,
      "Ġinsist": 8085,
      "seen": 8086,
      "lesiast": 8087,
      "Ġdiscipline": 8088,
      "igne": 8089,
      "aneous": 8090,
      "Ġlanding": 8091,
      "Ġsummit": 8092,
      "Col": 8093,
      "occ": 8094,
      "Ġpreparations": 8095,
      "Ġlightning": 8096,
      "Ġmedical": 8097,
      "Ġinjury": 8098,
      "Ġsentiments": 8099,
      "Ġlift": 8100,
      "ĠLight": 8101,
      "ĠIll": 8102,
      "ĠProtestant": 8103,
      "Ġkeeps": 8104,
      "Ġelabor": 8105,
      "Ġdesires": 8106,
      "82": 8107,
      "ĠPan": 8108,
      "ĠâĢ": 8109,
      "Ġheed": 8110,
      "Ġconstructed": 8111,
      "ĠMoreover": 8112,
      "Ġfeels": 8113,
      "uming": 8114,
      "ials": 8115,
      "sing": 8116,
      "Ġaged": 8117,
      "Ġappet": 8118,
      "Ġclothing": 8119,
      "Ġrat": 8120,
      "oid": 8121,
      "Ġdarling": 8122,
      "Ġbloss": 8123,
      "Ġharmony": 8124,
      "ĠCaesar": 8125,
      "ishops": 8126,
      "rily": 8127,
      "othy": 8128,
      "Ġfed": 8129,
      "Ġvirtues": 8130,
      "ĠNa": 8131,
      "Ġugly": 8132,
      "Ġsimplicity": 8133,
      "ilton": 8134,
      "Ġraces": 8135,
      "Ġundoubtedly": 8136,
      "92": 8137,
      "ĠMos": 8138,
      "Ġwherein": 8139,
      "Ġneglected": 8140,
      "inson": 8141,
      "olph": 8142,
      "Ġagricult": 8143,
      "Ġengagement": 8144,
      "Ġproceeding": 8145,
      "HO": 8146,
      "Ġhorizon": 8147,
      "Ġtranslation": 8148,
      "ĠRec": 8149,
      "Î»": 8150,
      "Such": 8151,
      "rd": 8152,
      "Ġformation": 8153,
      "Ġchamp": 8154,
      "Ġoverwhel": 8155,
      "ĠBoy": 8156,
      "Ġ/": 8157,
      "ĠStephen": 8158,
      "ĠMinister": 8159,
      "ĠShall": 8160,
      "Ġsubsequent": 8161,
      "Ġcir": 8162,
      "ĠChild": 8163,
      "ĠChic": 8164,
      "EST": 8165,
      "84": 8166,
      "Ġprovision": 8167,
      "Ġbasket": 8168,
      "Ġharsh": 8169,
      "Ġcharity": 8170,
      "Ġceremon": 8171,
      "houses": 8172,
      "ĠTurn": 8173,
      "ĠSever": 8174,
      "ĠSaturday": 8175,
      "ĠAR": 8176,
      "Ġcriminal": 8177,
      "Ġfishing": 8178,
      "Ġpink": 8179,
      "Ġpersuaded": 8180,
      "Ġinit": 8181,
      "urious": 8182,
      "Ġvener": 8183,
      "ĠSher": 8184,
      "dig": 8185,
      "oiselle": 8186,
      "Ġpond": 8187,
      "Ġconfused": 8188,
      "akers": 8189,
      "vis": 8190,
      "Ġate": 8191,
      "Ġowe": 8192,
      "Ġlocked": 8193,
      "Ġpropriet": 8194,
      "Ġeighty": 8195,
      "Ġcave": 8196,
      "ĠOs": 8197,
      "Lord": 8198,
      "utive": 8199,
      "Ġfruits": 8200,
      "Ġdisplay": 8201,
      "Ä«": 8202,
      "ushes": 8203,
      "inted": 8204,
      "Ġsurvey": 8205,
      "Ġvisitors": 8206,
      "300": 8207,
      "Ġsiege": 8208,
      "Ġministers": 8209,
      "Ġtreacher": 8210,
      "Ġcandle": 8211,
      "During": 8212,
      "three": 8213,
      "Ġmisfortune": 8214,
      "Ġknocked": 8215,
      "LY": 8216,
      "83": 8217,
      "ĠFe": 8218,
      "ĠSIG": 8219,
      "Ġvenge": 8220,
      "Ġaccused": 8221,
      "olt": 8222,
      "ouch": 8223,
      "Ġregards": 8224,
      "Ġpoems": 8225,
      "Ġerect": 8226,
      "Ġweapons": 8227,
      "ĠPoor": 8228,
      "Ġoffices": 8229,
      "ĠAdam": 8230,
      "Cha": 8231,
      "Ġener": 8232,
      "Ġassault": 8233,
      "bet": 8234,
      "riages": 8235,
      "Ġwearing": 8236,
      "Ġtremend": 8237,
      "Ġshores": 8238,
      "ggy": 8239,
      "ĠAlf": 8240,
      "ĠTime": 8241,
      "Ġcunning": 8242,
      "Ġintercourse": 8243,
      "olen": 8244,
      "Ġspecimens": 8245,
      "Ġpolite": 8246,
      "Ġacknowledged": 8247,
      "Ġwandering": 8248,
      "agle": 8249,
      "Ġnois": 8250,
      "ĠNight": 8251,
      "Ġmour": 8252,
      "Ġflash": 8253,
      "vag": 8254,
      "Ġpled": 8255,
      "rich": 8256,
      "Ġhumour": 8257,
      "ques": 8258,
      "ĠAlice": 8259,
      "Ġverses": 8260,
      "Ġsummoned": 8261,
      "Ġbeating": 8262,
      "mble": 8263,
      "ba": 8264,
      "Ġvest": 8265,
      "END": 8266,
      "ĠCommittee": 8267,
      "Ġphilosoph": 8268,
      "ĠXXX": 8269,
      "Nothing": 8270,
      "Ġbone": 8271,
      "Ġmanuscript": 8272,
      "Ġinfl": 8273,
      "Ġbeard": 8274,
      "Ġrepublic": 8275,
      "Ġangels": 8276,
      "96": 8277,
      "net": 8278,
      "ĠAsia": 8279,
      "ĠCart": 8280,
      "ills": 8281,
      "ĠRod": 8282,
      "Ġtrif": 8283,
      "ĠCOM": 8284,
      "ĠAdmiral": 8285,
      "Ġtimber": 8286,
      "Ġperple": 8287,
      "Ġtrunk": 8288,
      "ĠDec": 8289,
      "Ġcomrades": 8290,
      "Ġwages": 8291,
      "grat": 8292,
      "Ġpersist": 8293,
      "Ġbalance": 8294,
      "ĠEnglishman": 8295,
      "Ġupright": 8296,
      "zing": 8297,
      "sters": 8298,
      "Ġcompanies": 8299,
      "Ġinstitution": 8300,
      "orthy": 8301,
      "ĠCaliforn": 8302,
      "ĠON": 8303,
      "ĠWind": 8304,
      "licted": 8305,
      "Ġinvari": 8306,
      "ĠSub": 8307,
      "Ġrises": 8308,
      "Ġnephe": 8309,
      "ATE": 8310,
      "Ġfarew": 8311,
      "alph": 8312,
      "ĠMah": 8313,
      "Ġtun": 8314,
      "Ġpark": 8315,
      "ĠMet": 8316,
      "Ġfain": 8317,
      "Ġsatisfy": 8318,
      "Ġcens": 8319,
      "tery": 8320,
      "ĠIsa": 8321,
      "necess": 8322,
      "Ġgig": 8323,
      "ĠSamuel": 8324,
      "Ġcomplain": 8325,
      "Ġplanted": 8326,
      "Ġdeer": 8327,
      "Ġmate": 8328,
      "91": 8329,
      "Ġimprovement": 8330,
      "Ġrud": 8331,
      "Ġvigorous": 8332,
      "Ġorganization": 8333,
      "hered": 8334,
      "Ġcultivated": 8335,
      "cs": 8336,
      "UB": 8337,
      "Ġoffence": 8338,
      "Ġoccurs": 8339,
      "dro": 8340,
      "going": 8341,
      "Ġsurround": 8342,
      "Ġdried": 8343,
      "Ġconfession": 8344,
      "Ġjumped": 8345,
      "86": 8346,
      "pical": 8347,
      "Ġcrept": 8348,
      "omy": 8349,
      "gn": 8350,
      "Ġencoun": 8351,
      "onia": 8352,
      "Ġanchor": 8353,
      "Ġentertained": 8354,
      "Ġsubstant": 8355,
      "oting": 8356,
      "ĠServ": 8357,
      "Bl": 8358,
      "Ġdressing": 8359,
      "Ġconsiderably": 8360,
      "Ġjack": 8361,
      "Ġmodel": 8362,
      "Ġslee": 8363,
      "Ġshells": 8364,
      "ĠAT": 8365,
      "Ġexperiments": 8366,
      "Ġincred": 8367,
      "Ġrhy": 8368,
      "Ġclam": 8369,
      "lement": 8370,
      "awn": 8371,
      "ĠGreece": 8372,
      "Ġfuneral": 8373,
      "Ġfavorite": 8374,
      "Ġqui": 8375,
      "Ġmusk": 8376,
      "Ãª": 8377,
      "Ġpapa": 8378,
      "Before": 8379,
      "Ġfarewell": 8380,
      "Ġinduce": 8381,
      "Ġdur": 8382,
      "Ġtenderness": 8383,
      "Ġbehalf": 8384,
      "haw": 8385,
      "ensity": 8386,
      "Fig": 8387,
      "Ġdaylight": 8388,
      "Ġdiver": 8389,
      "Ġrug": 8390,
      "dess": 8391,
      "Ġhut": 8392,
      "ĠStan": 8393,
      "Ġdestined": 8394,
      "never": 8395,
      "Ġmotives": 8396,
      "ĠBilly": 8397,
      "Ġaccomplish": 8398,
      "Ġresponsibility": 8399,
      "urg": 8400,
      "ervation": 8401,
      "ĠOXIA": 8402,
      "ĠLuther": 8403,
      "Ġbond": 8404,
      "87": 8405,
      "New": 8406,
      "Ġdiscl": 8407,
      "ĀĀĀĀĀĀĀĀĀĀĀĀĀĀĀĀ": 8408,
      "called": 8409,
      "Ġrefer": 8410,
      "Ġdiameter": 8411,
      "Ġhandle": 8412,
      "ĠCarl": 8413,
      "ĠWy": 8414,
      "Ġchiefs": 8415,
      "Ġreproach": 8416,
      "olis": 8417,
      "ĠWithout": 8418,
      "utenberg": 8419,
      "Ġwagon": 8420,
      "Ġteleg": 8421,
      "Ġfeathers": 8422,
      "Ġexhibited": 8423,
      "boat": 8424,
      "EG": 8425,
      "inger": 8426,
      "Ġbewild": 8427,
      "asting": 8428,
      "Ġagony": 8429,
      "Ġmamma": 8430,
      "inery": 8431,
      "ĠBru": 8432,
      "ISH": 8433,
      "ĠLucy": 8434,
      "Ġrecommend": 8435,
      "Ġoccasional": 8436,
      "Ġconfirmed": 8437,
      "emon": 8438,
      "Ġassociated": 8439,
      "Ġwarriors": 8440,
      "Ġnamely": 8441,
      "MAN": 8442,
      "Ġappointment": 8443,
      "sych": 8444,
      "Ġventured": 8445,
      "ĠPhiladelphia": 8446,
      "Ġindic": 8447,
      "Ġdirty": 8448,
      "Ġgru": 8449,
      "Ġpile": 8450,
      "inus": 8451,
      "Ġexagger": 8452,
      "97": 8453,
      "Ġarist": 8454,
      "Ġformal": 8455,
      "Ġcloak": 8456,
      "Äĵ": 8457,
      "ĠArist": 8458,
      "Ġmutual": 8459,
      "arc": 8460,
      "ĠOb": 8461,
      "93": 8462,
      "Ġdistinguish": 8463,
      "Ġdeadly": 8464,
      "Ġinstruments": 8465,
      "Ġcloser": 8466,
      "Ġrisen": 8467,
      "ounted": 8468,
      "Ġeffected": 8469,
      "ĠSk": 8470,
      "chn": 8471,
      "Ġculture": 8472,
      "rot": 8473,
      "ĠOR": 8474,
      "Ġsaint": 8475,
      "Ġfifth": 8476,
      "Ġlend": 8477,
      "Ġvice": 8478,
      "ila": 8479,
      "Ġfanci": 8480,
      "ĠBrother": 8481,
      "Ġillness": 8482,
      "Ġproposition": 8483,
      "iac": 8484,
      "vas": 8485,
      "Ġlosing": 8486,
      "Ġhostile": 8487,
      "Ġadding": 8488,
      "plom": 8489,
      "ano": 8490,
      "Ġmessenger": 8491,
      "ĠTor": 8492,
      "onies": 8493,
      "olas": 8494,
      "Ġaccommod": 8495,
      "aria": 8496,
      "Ġ\"'": 8497,
      "Ġfiring": 8498,
      "ĠWat": 8499,
      "Ġgiant": 8500,
      "Ġcy": 8501,
      "ĠÃł": 8502,
      "Ġtom": 8503,
      "Ġrighteous": 8504,
      "Ġportions": 8505,
      "Ġstirred": 8506,
      "Ġrepent": 8507,
      "Ġsubl": 8508,
      "onday": 8509,
      "ala": 8510,
      "osity": 8511,
      "Ġremainder": 8512,
      "ĠAtt": 8513,
      "Ġmans": 8514,
      "Ġbush": 8515,
      "Sc": 8516,
      "Ġgown": 8517,
      "Ġpassengers": 8518,
      "Take": 8519,
      "Ġflames": 8520,
      "Ġnerves": 8521,
      "uk": 8522,
      "Ġber": 8523,
      "Ġabol": 8524,
      "ĠKnight": 8525,
      "ĠAngel": 8526,
      "Ġfoe": 8527,
      "uously": 8528,
      "94": 8529,
      "Ġeducated": 8530,
      "Ġchildhood": 8531,
      "Ġtour": 8532,
      "ĠEll": 8533,
      "aging": 8534,
      "Ġadvoc": 8535,
      "Ġwake": 8536,
      "Ġsecretary": 8537,
      "Ġinvent": 8538,
      "Ġroses": 8539,
      "Ġinternal": 8540,
      "ĠHebrew": 8541,
      "Ġveil": 8542,
      "Ġload": 8543,
      "Ġstaring": 8544,
      "achel": 8545,
      "atisf": 8546,
      "Ġcorrespondence": 8547,
      "Ġlessons": 8548,
      "NOT": 8549,
      "Ġcritical": 8550,
      "Ġromance": 8551,
      "Ġtransport": 8552,
      "Dr": 8553,
      "Ġcu": 8554,
      "Ġboiling": 8555,
      "mind": 8556,
      "Ġfragments": 8557,
      "reement": 8558,
      "ĠTAU": 8559,
      "Ġroar": 8560,
      "Ġuniverse": 8561,
      "urrection": 8562,
      "Ġengage": 8563,
      "ĠConfeder": 8564,
      "Ġgang": 8565,
      "Ġliberal": 8566,
      "whe": 8567,
      "umps": 8568,
      "Ġaccum": 8569,
      "Ġdrops": 8570,
      "Ġjudges": 8571,
      "IGHT": 8572,
      "Ġvengeance": 8573,
      "Ġeditor": 8574,
      "Ġspell": 8575,
      "ĠMiddle": 8576,
      "Ġabundant": 8577,
      "Ġforests": 8578,
      "Ġdescent": 8579,
      "Ġcream": 8580,
      "UST": 8581,
      "Ġyer": 8582,
      "AK": 8583,
      "Ġacres": 8584,
      "Ġcolonel": 8585,
      "Ġnegot": 8586,
      "Ġens": 8587,
      "Ġfisher": 8588,
      "Ġdesigned": 8589,
      "sch": 8590,
      "uity": 8591,
      "Ġsymbol": 8592,
      "OUN": 8593,
      "ĠNorthern": 8594,
      "Ġcalculated": 8595,
      "Ġpresident": 8596,
      "Ġsunk": 8597,
      "Ġtid": 8598,
      "ĠÌģ": 8599,
      "ĠBeing": 8600,
      "othes": 8601,
      "Ġintend": 8602,
      "enna": 8603,
      "ĠSIGMA": 8604,
      "Ġpromptly": 8605,
      "Ġimproved": 8606,
      "adise": 8607,
      "Ġwounds": 8608,
      "Ġpleasing": 8609,
      "fare": 8610,
      "ĠMort": 8611,
      "Ġyonder": 8612,
      "uish": 8613,
      "throp": 8614,
      "Ġreprodu": 8615,
      "arte": 8616,
      "Ġwilderness": 8617,
      "Ġchimney": 8618,
      "Ġalarmed": 8619,
      "Ġdistricts": 8620,
      "Ġreview": 8621,
      "Ġresign": 8622,
      "ĠSix": 8623,
      "Ġextravag": 8624,
      "ORY": 8625,
      "ocracy": 8626,
      "Ġreluct": 8627,
      "bec": 8628,
      "Ġsilently": 8629,
      "Ġcertainty": 8630,
      "scape": 8631,
      "Ġcombination": 8632,
      "oonful": 8633,
      "Ġsailor": 8634,
      "ROM": 8635,
      "ĠFra": 8636,
      "Ġdisagree": 8637,
      "ĠNav": 8638,
      "Ġdesk": 8639,
      "borough": 8640,
      "Ġmoderate": 8641,
      "Ġoccupy": 8642,
      "ĠEdition": 8643,
      "Ġindifference": 8644,
      "Ġhunger": 8645,
      "grim": 8646,
      "ĠSi": 8647,
      "Ġfancied": 8648,
      "Ġconsisting": 8649,
      "eers": 8650,
      "artment": 8651,
      "Ġoun": 8652,
      "Ġreserve": 8653,
      "Ġweapon": 8654,
      "Ġvisits": 8655,
      "Ġinfant": 8656,
      "Ġunjust": 8657,
      "Ġcalmly": 8658,
      "Ġbron": 8659,
      "Ġcontest": 8660,
      "Ġpalm": 8661,
      "Sec": 8662,
      "Ġinquire": 8663,
      "Ġmissed": 8664,
      "Ġborder": 8665,
      "Ġ,": 8666,
      "rad": 8667,
      "Ġfairy": 8668,
      "Ġinfantry": 8669,
      "ĠHind": 8670,
      "Ġincons": 8671,
      "ĠLibr": 8672,
      "oming": 8673,
      "ĠLew": 8674,
      "Ġglow": 8675,
      "Ġbased": 8676,
      "tree": 8677,
      "ĠJeff": 8678,
      "Ġmourn": 8679,
      "Ġconceive": 8680,
      "ĠAdd": 8681,
      "Ġholes": 8682,
      "Ġquart": 8683,
      "Ġwarrant": 8684,
      "ĠPot": 8685,
      "ĠÂ£": 8686,
      "Ġhaz": 8687,
      "Ġindisp": 8688,
      "ĠJewish": 8689,
      "Ġsubmit": 8690,
      "ĠÏĦ": 8691,
      "ĠHay": 8692,
      "DE": 8693,
      "Ġheap": 8694,
      "Ġmail": 8695,
      "Ġbushes": 8696,
      "Ġnavig": 8697,
      "Ġconfessed": 8698,
      "Ġromantic": 8699,
      "Ġrealize": 8700,
      "Ġcongrat": 8701,
      "Ġprevailed": 8702,
      "Åį": 8703,
      "irds": 8704,
      "ighted": 8705,
      "Ġblows": 8706,
      "ĠOffice": 8707,
      "eyed": 8708,
      "point": 8709,
      "ĠBart": 8710,
      "ersed": 8711,
      "Ġannual": 8712,
      "Ġcontented": 8713,
      "ĠChat": 8714,
      "Ġaltered": 8715,
      "Ġpeas": 8716,
      "PH": 8717,
      "zo": 8718,
      "Ġtales": 8719,
      "ĠRuth": 8720,
      "Ġstores": 8721,
      "Ġgrin": 8722,
      "wall": 8723,
      "Ġbrick": 8724,
      "Ġdegr": 8725,
      "Ġcitizen": 8726,
      "ĠFrederick": 8727,
      "ĠWales": 8728,
      "herent": 8729,
      "bu": 8730,
      "glass": 8731,
      "Ġfootst": 8732,
      "ĠJOHN": 8733,
      "AST": 8734,
      "llers": 8735,
      "Ġsmart": 8736,
      "Ġincap": 8737,
      "ippi": 8738,
      "Ġpressing": 8739,
      "Ġliquid": 8740,
      "Ġbrush": 8741,
      "ĠIX": 8742,
      "Ġcourtes": 8743,
      "ographical": 8744,
      "Ġsadly": 8745,
      "ĠSwed": 8746,
      "ashes": 8747,
      "kward": 8748,
      "Ġcanoe": 8749,
      "Ġtroop": 8750,
      "ĠNich": 8751,
      "ĠSum": 8752,
      "Ġstrictly": 8753,
      "Ġtrump": 8754,
      "gging": 8755,
      "Ġpig": 8756,
      "Ġrecognize": 8757,
      "ez": 8758,
      "Ġlieutenant": 8759,
      "Ġplacing": 8760,
      "ulus": 8761,
      "Ġattractive": 8762,
      "Ġwheat": 8763,
      "Ġsober": 8764,
      "Because": 8765,
      "Ġpeaceful": 8766,
      "Ġpir": 8767,
      "Ġadvancing": 8768,
      "Ġheartily": 8769,
      "Ġsailors": 8770,
      "Ġassigned": 8771,
      "uation": 8772,
      "racted": 8773,
      "wa": 8774,
      "Ġelephant": 8775,
      "rained": 8776,
      "Ġvoc": 8777,
      "Ġpleasures": 8778,
      "ĠOver": 8779,
      "________": 8780,
      "La": 8781,
      "text": 8782,
      "aired": 8783,
      "Ġweigh": 8784,
      "Ġinvention": 8785,
      "ĠLiber": 8786,
      "Ġsite": 8787,
      "Ġcolonies": 8788,
      "ands": 8789,
      "ĠEgyptian": 8790,
      "Ġimperfect": 8791,
      "Ġgesture": 8792,
      "ĠTri": 8793,
      "Ġhealthy": 8794,
      "Ġprophet": 8795,
      "Ġorg": 8796,
      "Ġdus": 8797,
      "ioned": 8798,
      "Ġdetermine": 8799,
      "Ġsuperf": 8800,
      "Ġamused": 8801,
      "Thank": 8802,
      "only": 8803,
      "Ġsympt": 8804,
      "Ġholid": 8805,
      "Ġtemporary": 8806,
      "Ġashes": 8807,
      "Ġpious": 8808,
      "ĠBi": 8809,
      "Ġdesirable": 8810,
      "ĠBull": 8811,
      "Ġcolors": 8812,
      "Ġdeemed": 8813,
      "idd": 8814,
      "Ġcommanding": 8815,
      "Ġ}": 8816,
      "box": 8817,
      "Ġconspir": 8818,
      "Ġunnecess": 8819,
      "Ġinevitable": 8820,
      "ĠBuck": 8821,
      "Ġmarvell": 8822,
      "ĠComp": 8823,
      "Ġpayment": 8824,
      "Ġresources": 8825,
      "Ġpainter": 8826,
      "Ġwheels": 8827,
      "Ġflashed": 8828,
      "Ġannounce": 8829,
      "Ġsalvation": 8830,
      "Ġgravely": 8831,
      "rive": 8832,
      "Ġcounted": 8833,
      "Ġmerchants": 8834,
      "apping": 8835,
      "Ġske": 8836,
      "Ġtremendous": 8837,
      "Ġinjured": 8838,
      "onic": 8839,
      "Ġample": 8840,
      "Ġseats": 8841,
      "Ġninet": 8842,
      "Ġpurchased": 8843,
      "Ġloaded": 8844,
      "ĠHead": 8845,
      "Ġtranqu": 8846,
      "Ġbitterly": 8847,
      "Ġnephew": 8848,
      "isible": 8849,
      "Ġjur": 8850,
      "Ġhook": 8851,
      "iger": 8852,
      "Ġprosec": 8853,
      "ingham": 8854,
      "Ġcel": 8855,
      "agan": 8856,
      "Ġdisgust": 8857,
      "ifies": 8858,
      "Ġcongreg": 8859,
      "Ġpretended": 8860,
      "Ġobeyed": 8861,
      "ĠEdin": 8862,
      "Ġdisappear": 8863,
      "Ġdense": 8864,
      "Ġchanging": 8865,
      "Ġthrong": 8866,
      "Ġresent": 8867,
      "Ġadvised": 8868,
      "Ġarguments": 8869,
      "Ġtrained": 8870,
      "Ġpreacher": 8871,
      "Ġdischarge": 8872,
      "Ġremedy": 8873,
      "iron": 8874,
      "Ġtoil": 8875,
      "Ġrepresentative": 8876,
      "Ġabsorbed": 8877,
      "Ġknights": 8878,
      "Ġprolong": 8879,
      "Ġrepose": 8880,
      "ĠOhio": 8881,
      "piece": 8882,
      "Ġfrost": 8883,
      "Ġvanity": 8884,
      "Ġguilt": 8885,
      "Ġsaints": 8886,
      "Ġawkward": 8887,
      "ĠHot": 8888,
      "ĠCab": 8889,
      "ĠRoger": 8890,
      "Ġpropose": 8891,
      "azine": 8892,
      "Ġhem": 8893,
      "ylvan": 8894,
      "Ġpurely": 8895,
      "Ġupward": 8896,
      "Ġtract": 8897,
      "irts": 8898,
      "Ġoppon": 8899,
      "Ġwandered": 8900,
      "ĠScotch": 8901,
      "Ġindicate": 8902,
      "ournal": 8903,
      "Ġhiding": 8904,
      "Ġnut": 8905,
      "Ġdesigns": 8906,
      "ĠAustria": 8907,
      "ĠPle": 8908,
      "Ġcombat": 8909,
      "ĠImper": 8910,
      "Ġswiftly": 8911,
      "coat": 8912,
      "Ġgenerations": 8913,
      "Ġpitch": 8914,
      "ĠFox": 8915,
      "Ġbund": 8916,
      "bbing": 8917,
      "Ġunpleasant": 8918,
      "ĠArm": 8919,
      "Ġsmoking": 8920,
      "Ġyielded": 8921,
      "Mad": 8922,
      "Ġshooting": 8923,
      "resent": 8924,
      "Ġchin": 8925,
      "Ġsketch": 8926,
      "Ġgran": 8927,
      "ĠFle": 8928,
      "sels": 8929,
      "ĠPacific": 8930,
      "Ġlinen": 8931,
      "ĠBed": 8932,
      "Ge": 8933,
      "Ġashore": 8934,
      "Ġconquered": 8935,
      "ĠLo": 8936,
      "ĠProject": 8937,
      "Ġseam": 8938,
      "ĠBabyl": 8939,
      "inating": 8940,
      "Ġdearest": 8941,
      "Ġconspicuous": 8942,
      "Ġdiscussed": 8943,
      "Ġtransm": 8944,
      "Ġpool": 8945,
      "ĠCounty": 8946,
      "ORE": 8947,
      "Ġol": 8948,
      "ribly": 8949,
      "Ġnobles": 8950,
      "pson": 8951,
      "ĠDis": 8952,
      "ĠNevertheless": 8953,
      "Ġmeantime": 8954,
      "Ġtrusted": 8955,
      "Ġprohib": 8956,
      "ĠBrig": 8957,
      "umbled": 8958,
      "ĠKings": 8959,
      "Ġconvent": 8960,
      "Ġinward": 8961,
      "ibilities": 8962,
      "forth": 8963,
      "Ġrenewed": 8964,
      "bbed": 8965,
      "ĠGib": 8966,
      "Ġgarments": 8967,
      "Ġcorpor": 8968,
      "ĠGospel": 8969,
      "Ġcock": 8970,
      "ĠCalifornia": 8971,
      "Ġdashed": 8972,
      "Ġprotected": 8973,
      "Ġacknowledge": 8974,
      "Ġviz": 8975,
      "Ġsquad": 8976,
      "Ġdefeated": 8977,
      "Ġeffective": 8978,
      "ĠHart": 8979,
      "Ġdeceived": 8980,
      "acks": 8981,
      "po": 8982,
      "ctures": 8983,
      "Ġfox": 8984,
      "ĠAuthor": 8985,
      "Ġtrembled": 8986,
      "Ġfence": 8987,
      "iciency": 8988,
      "ĠJapanese": 8989,
      "Ġstrangely": 8990,
      "Ġheels": 8991,
      "Ġnewspapers": 8992,
      "Ġrecognition": 8993,
      "ĠDown": 8994,
      "rene": 8995,
      "ĠMarie": 8996,
      "asper": 8997,
      "ĠMS": 8998,
      "ĠApost": 8999,
      "Ġassembly": 9000,
      "Ġconsec": 9001,
      "Ġtherein": 9002,
      "Ġfavourable": 9003,
      "Ġconquest": 9004,
      ".\"--_": 9005,
      "Ġerrors": 9006,
      "Ġridiculous": 9007,
      "EY": 9008,
      "Ġangle": 9009,
      "osa": 9010,
      "Ġlasted": 9011,
      "Ġsilly": 9012,
      "Ġsets": 9013,
      "Ġridge": 9014,
      "Ġbust": 9015,
      "Ġjealousy": 9016,
      "ho": 9017,
      "130": 9018,
      "ĠVery": 9019,
      "ĠField": 9020,
      "Ġsubsc": 9021,
      "Ġcurse": 9022,
      "Ġpublication": 9023,
      "Ġroused": 9024,
      "asse": 9025,
      "ĠPR": 9026,
      "Ġnob": 9027,
      "ima": 9028,
      "Ġresemblance": 9029,
      "ĠReform": 9030,
      "Ġneighbours": 9031,
      "Ġspeedily": 9032,
      "Ġvault": 9033,
      "ĠLow": 9034,
      "Ġstolen": 9035,
      "Ġstuck": 9036,
      "Ġlandlord": 9037,
      "ym": 9038,
      "Ġstatue": 9039,
      "Ġsunset": 9040,
      "Ġweeping": 9041,
      "ĠCountess": 9042,
      "Ġoft": 9043,
      "Ġecclesiast": 9044,
      "Ġafore": 9045,
      "Ġreverence": 9046,
      "Ġreminded": 9047,
      "Ġrepresents": 9048,
      "'.": 9049,
      "Ġjournal": 9050,
      "Ġdiplom": 9051,
      "Ġmurdered": 9052,
      "ĠDivine": 9053,
      "ĠPut": 9054,
      "Ġuses": 9055,
      "Ġexpenses": 9056,
      "Ġstole": 9057,
      "rain": 9058,
      "uset": 9059,
      "Ġillustrated": 9060,
      "ĠRalph": 9061,
      "Ġtraveller": 9062,
      "fold": 9063,
      "boy": 9064,
      "ĠWhether": 9065,
      "Ġleisure": 9066,
      "ĠLam": 9067,
      "why": 9068,
      "chard": 9069,
      "Ġfloating": 9070,
      "Ġdre": 9071,
      "Ġwrapped": 9072,
      "Ġelegant": 9073,
      "Ġduck": 9074,
      "Ġwitnesses": 9075,
      "Ġcorresponding": 9076,
      "Ġspecimen": 9077,
      "ĠJackson": 9078,
      "Ġrecalled": 9079,
      "Ġdisple": 9080,
      "-+--------": 9081,
      "ĠBarn": 9082,
      "Ġjoke": 9083,
      "Ġeasier": 9084,
      "ĠBerlin": 9085,
      "Ġamusing": 9086,
      "Ġheir": 9087,
      "plain": 9088,
      "ĠAsh": 9089,
      "urred": 9090,
      "Ġtraces": 9091,
      "Ġlonging": 9092,
      "Ġclimbed": 9093,
      "Ġdiscont": 9094,
      "ĠEastern": 9095,
      "Ġbells": 9096,
      "Ġmachinery": 9097,
      "Ġbreathing": 9098,
      "gage": 9099,
      "table": 9100,
      "ctors": 9101,
      "break": 9102,
      "Ġfunction": 9103,
      "Ġadventures": 9104,
      "hin": 9105,
      "ĠSP": 9106,
      "ĠGutenberg": 9107,
      "Ġupwards": 9108,
      "Ġwhirl": 9109,
      "Ġtragedy": 9110,
      "Ġextending": 9111,
      "Ġbud": 9112,
      "Ġcareless": 9113,
      "Î¼": 9114,
      "Ġeminent": 9115,
      "Ġpha": 9116,
      "Ġclosing": 9117,
      "Ġwidely": 9118,
      "ĠKate": 9119,
      "Ġachieve": 9120,
      "Ġedges": 9121,
      "Ġsprings": 9122,
      "ĠPage": 9123,
      "oche": 9124,
      "Ġartificial": 9125,
      "uy": 9126,
      "Ġmotor": 9127,
      "Ġneighborhood": 9128,
      "Ġmonument": 9129,
      "Ġstable": 9130,
      "Ġswung": 9131,
      "Ġmanagement": 9132,
      "Ġabundance": 9133,
      "Ġextend": 9134,
      "uz": 9135,
      "rants": 9136,
      "Ġseal": 9137,
      "Ġgrie": 9138,
      "Ġconveyed": 9139,
      "ĠConn": 9140,
      "Ġartistic": 9141,
      "Ġaroused": 9142,
      "ĠRus": 9143,
      "Ġglit": 9144,
      "ĠWel": 9145,
      "ĠProvidence": 9146,
      "Ġadmired": 9147,
      "liver": 9148,
      "Ġcrimson": 9149,
      "ĠCambridge": 9150,
      "imately": 9151,
      "ĠVenice": 9152,
      "ĠMir": 9153,
      "Ġabruptly": 9154,
      "Ġtravelled": 9155,
      "Ġtalent": 9156,
      "Ġdamp": 9157,
      "Ġputs": 9158,
      "Ġbetrayed": 9159,
      "ĠPoint": 9160,
      "stead": 9161,
      "Ġesteem": 9162,
      "might": 9163,
      "Ġwha": 9164,
      "Ġwarn": 9165,
      "Ġlowest": 9166,
      "nut": 9167,
      "acing": 9168,
      "Greek": 9169,
      "quer": 9170,
      "Ġpresc": 9171,
      "ĠGray": 9172,
      "........": 9173,
      "Ġpassionate": 9174,
      "emoiselle": 9175,
      "ĠUp": 9176,
      "aire": 9177,
      "Ġspecially": 9178,
      "Ġancestors": 9179,
      "achuset": 9180,
      "Ġnewly": 9181,
      "Ġbestowed": 9182,
      "Ġreserved": 9183,
      "Ġvit": 9184,
      "andy": 9185,
      "Ġspots": 9186,
      "orable": 9187,
      "Ġliable": 9188,
      "Ġheavenly": 9189,
      "achusetts": 9190,
      "Ġcells": 9191,
      "wen": 9192,
      "Ġemphas": 9193,
      "ector": 9194,
      "***": 9195,
      "ĠFel": 9196,
      "Ġdispute": 9197,
      "Ġwitnessed": 9198,
      "ĠGran": 9199,
      "usal": 9200,
      "Ġeldest": 9201,
      "Ġram": 9202,
      "Ġillustration": 9203,
      "110": 9204,
      "eches": 9205,
      "mun": 9206,
      "Ġseverely": 9207,
      "nold": 9208,
      "Ġchase": 9209,
      "Ġgorge": 9210,
      "ĠTill": 9211,
      "Ġemotions": 9212,
      "ĠClub": 9213,
      "Ġunity": 9214,
      "ĠEsq": 9215,
      "Ġprofessional": 9216,
      "Ġtriumphant": 9217,
      "Ġlament": 9218,
      "Ġavailable": 9219,
      "PER": 9220,
      "Ġinsol": 9221,
      "Ġdiscourse": 9222,
      "About": 9223,
      "Ġcharges": 9224,
      "intend": 9225,
      "Ġimages": 9226,
      "Ġprayed": 9227,
      "Char": 9228,
      "Eng": 9229,
      "Ġbarn": 9230,
      "pha": 9231,
      "Ġassurance": 9232,
      "pen": 9233,
      "Ġrestore": 9234,
      "cra": 9235,
      "ĠHas": 9236,
      "ĠFre": 9237,
      "Ġshepher": 9238,
      "Ġwarned": 9239,
      "Ġtemples": 9240,
      "Ġdangers": 9241,
      "ĠPlace": 9242,
      "ĠOri": 9243,
      "ridge": 9244,
      "Ġmax": 9245,
      "Ġteachers": 9246,
      "ĠSupp": 9247,
      "idable": 9248,
      "issippi": 9249,
      "Ġtyran": 9250,
      "Ġferv": 9251,
      "ĠGord": 9252,
      "Ġcenter": 9253,
      "Ġsink": 9254,
      "rusted": 9255,
      "ĠEdinburgh": 9256,
      "Ġcyl": 9257,
      "ĠClare": 9258,
      "Ġmoonlight": 9259,
      "Ġanxiously": 9260,
      "ĠHa": 9261,
      "Ġcopies": 9262,
      "Ġwool": 9263,
      "Ġdeserve": 9264,
      "TO": 9265,
      "ĠPop": 9266,
      "Ġadapted": 9267,
      "Ġscholars": 9268,
      "Ġseeds": 9269,
      "ĠPap": 9270,
      "ĠThor": 9271,
      "lder": 9272,
      "rap": 9273,
      "Ġpetition": 9274,
      "ĠGeorg": 9275,
      "Ġwret": 9276,
      "Ġirr": 9277,
      "Ġrepair": 9278,
      "Ġoutl": 9279,
      "Ġsuspended": 9280,
[...]
