{
  "version": "1.0",
  "truncation": null,
  "padding": null,
  "added_tokens": [
    {
      "id": 0,
      "content": "<|endoftext|>",
      "single_word": false,
      "lstrip": false,
      "rstrip": false,
      "normalized": false,
      "special": true
    }
  ],
  "normalizer": null,
  "pre_tokenizer": {
    "type": "ByteLevel",
    "add_prefix_space": false,
    "trim_offsets": true,
    "use_regex": true
  },
  "post_processor": null,
  "decoder": {
    "type": "ByteLevel",
    "add_prefix_space": true,
    "trim_offsets": true,
    "use_regex": true
  },
  "model": {
    "type": "BPE",
    "dropout": null,
    "unk_token": null,
    "continuing_subword_prefix": null,
    "end_of_word_suffix": null,
    "fuse_unk": false,
    "byte_fallback": false,
    "ignore_merges": false,
    "vocab": {
      "<|endoftext|>": 0,
      "!": 1,
      "\"": 2,
      "#": 3,
      "$": 4,
      "%": 5,
      "&": 6,
      "'": 7,
      "(": 8,
      ")": 9,
      "*": 10,
      "+": 11,
      ",": 12,
      "-": 13,
      ".": 14,
      "/": 15,
      "0": 16,
      "1": 17,
      "2": 18,
      "3": 19,
      "4": 20,
      "5": 21,
      "6": 22,
      "7": 23,
      "8": 24,
      "9": 25,
      ":": 26,
      ";": 27,
      "<": 28,
      "=": 29,
      ">": 30,
      "?": 31,
      "@": 32,
      "A": 33,
      "B": 34,
      "C": 35,
      "D": 36,
      "E": 37,
      "F": 38,
      "G": 39,
      "H": 40,
      "I": 41,
      "J": 42,
      "K": 43,
      "L": 44,
      "M": 45,
      "N": 46,
      "O": 47,
      "P": 48,
      "Q": 49,
      "R": 50,
      "S": 51,
      "T": 52,
      "U": 53,
      "V": 54,
      "W": 55,
      "X": 56,
      "Y": 57,
      "Z": 58,
      "[": 59,
      "\\": 60,
      "]": 61,
      "^": 62,
      "_": 63,
      "`": 64,
      "a": 65,
      "b": 66,
      "c": 67,
      "d": 68,
      "e": 69,
      "f": 70,
      "g": 71,
      "h": 72,
      "i": 73,
      "j": 74,
      "k": 75,
      "l": 76,
      "m": 77,
      "n": 78,
      "o": 79,
      "p": 80,
      "q": 81,
      "r": 82,
      "s": 83,
      "t": 84,
      "u": 85,
      "v": 86,
      "w": 87,
      "x": 88,
      "y": 89,
      "z": 90,
      "{": 91,
      "|": 92,
      "}": 93,
      "~": 94,
      "¡": 95,
      "¢": 96,
      "£": 97,
      "¤": 98,
      "¥": 99,
      "¦": 100,
      "§": 101,
      "¨": 102,
      "©": 103,
      "ª": 104,
      "«": 105,
      "®": 106,
      "¯": 107,
      "°": 108,
      "±": 109,
      "²": 110,
      "³": 111,
      "´": 112,
      "µ": 113,
      "¶": 114,
      "·": 115,
      "¹": 116,
      "º": 117,
      "»": 118,
      "¼": 119,
      "½": 120,
      "¾": 121,
      "¿": 122,
      "Â": 123,
      "Ã": 124,
      "Ä": 125,
      "Å": 126,
      "Ê": 127,
      "Ì": 128,
      "á": 129,
      "â": 130,
      "ā": 131,
      "Ă": 132,
      "ć": 133,
      "Ĉ": 134,
      "ĉ": 135,
      "Ċ": 136,
      "ċ": 137,
      "ē": 138,
      "Ĝ": 139,
      "Ġ": 140,
      "Ģ": 141,
      "ģ": 142,
      "Ĥ": 143,
      "ĥ": 144,
      "Ħ": 145,
      "Ĩ": 146,
      "ĩ": 147,
      "Ī": 148,
      "ī": 149,
      "Į": 150,
      "į": 151,
      "İ": 152,
      "ı": 153,
      "ĳ": 154,
      "Ĵ": 155,
      "ĵ": 156,
      "Ķ": 157,
      "ĸ": 158,
      "Ĺ": 159,
      "ĺ": 160,
      "Ļ": 161,
      "Ľ": 162,
      "ľ": 163,
      "Ŀ": 164,
      "ł": 165,
      "Ń": 166,
      "Ġt": 167,
      "he": 168,
      "Ġa": 169,
      "in": 170,
      "Ġthe": 171,
      "ĠĠ": 172,
      "Ġo": 173,
      "Ġw": 174,
      "Ġs": 175,
      "re": 176,
      "nd": 177,
      "er": 178,
      "ha": 179,
      "Ġb": 180,
      "ou": 181,
      "is": 182,
      "it": 183,
      "ed": 184,
      "Ġm": 185,
      "on": 186,
      "Ġof": 187,
      "Ġf": 188,
      "en": 189,
      "Ġand": 190,
      "Ġc": 191,
      "or": 192,
      "es": 193,
      "Ġto": 194,
      "ing": 195,
      "ll": 196,
      "ĠĠĠĠ": 197,
      "ar": 198,
      "Ġp": 199,
      "Ġd": 200,
      "an": 201,
      "Ġin": 202,
      "at": 203,
      "Ġh": 204,
      "as": 205,
      "Ġl": 206,
      "Ġn": 207,
      "Ġhe": 208,
      "om": 209,
      "Ġha": 210,
      "hat": 211,
      "le": 212,
      "Ġbe": 213,
      "ĠI": 214,
      "ic": 215,
      "Ġg": 216,
      "ot": 217,
      "ow": 218,
      "st": 219,
      "ut": 220,
      "Ġth": 221,
      "ve": 222,
      "se": 223,
      "Ġe": 224,
      "im": 225,
      "ld": 226,
      "id": 227,
      "ent": 228,
      "Ġthat": 229,
      "gh": 230,
      "ly": 231,
      "ion": 232,
      "ce": 233,
      "al": 234,
      "Ġy": 235,
      "Ġu": 236,
      "ĠT": 237,
      "ir": 238,
      "ay": 239,
      "Ġwas": 240,
      "et": 241,
      "ith": 242,
      "Ġre": 243,
      "Ġit": 244,
      "Ġwh": 245,
      "ver": 246,
      "Ġon": 247,
      "ur": 248,
      "ĠA": 249,
      "Ġfor": 250,
      "Ġhis": 251,
      "Ġwith": 252,
      "ad": 253,
      "Ġas": 254,
      "Ġwe": 255,
      "ro": 256,
      "Ġyou": 257,
      "ght": 258,
      "her": 259,
      "ri": 260,
      "Ġis": 261,
      "ac": 262,
      "ĠĠĠĠĠĠĠĠ": 263,
      "am": 264,
      "Ġst": 265,
      "ĠS": 266,
      "ĊĠ": 267,
      "Ġnot": 268,
      "Ġan": 269,
      "ter": 270,
      "and": 271,
      "ill": 272,
      "od": 273,
      "ain": 274,
      "--": 275,
      "th": 276,
      "Ġhad": 277,
      "ould": 278,
      "if": 279,
      "ec": 280,
      "ke": 281,
      "ĠH": 282,
      "Ġat": 283,
      "ĠM": 284,
      "il": 285,
      "ĊĠĠ": 286,
      "ich": 287,
      "ch": 288,
      "ore": 289,
      "ĠThe": 290,
      "Ġme": 291,
      "Ġhim": 292,
      "ess": 293,
      "Ġher": 294,
      "'s": 295,
      "ĊĠĠĠ": 296,
      "us": 297,
      "red": 298,
      "rom": 299,
      "ĠB": 300,
      "ĠC": 301,
      "Ġse": 302,
      "to": 303,
      "Ġby": 304,
      "the": 305,
      "all": 306,
      "ra": 307,
      "Ġwhich": 308,
      "Ġmy": 309,
      "Ġsa": 310,
      "ge": 311,
      "Ġsu": 312,
      "Ġso": 313,
      "ul": 314,
      "ome": 315,
      "ĊĊ": 316,
      "Ġk": 317,
      "Ġhave": 318,
      "ight": 319,
      "Ġall": 320,
      "ĠW": 321,
      "Ġthey": 322,
      "pp": 323,
      "Ġde": 324,
      "est": 325,
      "Ġor": 326,
      "Ġbut": 327,
      "Ġup": 328,
      "Ġfrom": 329,
      "qu": 330,
      "Ġ\"": 331,
      "ation": 332,
      "ĠL": 333,
      "Ġthis": 334,
      "Ġv": 335,
      "res": 336,
      "Ġcon": 337,
      "Ġwhe": 338,
      "ous": 339,
      "em": 340,
      "ab": 341,
      "nt": 342,
      "ard": 343,
      "Ġr": 344,
      "ol": 345,
      "Ġsh": 346,
      "Ġshe": 347,
      "Ġwere": 348,
      "Ġthem": 349,
      "ant": 350,
      "ĠP": 351,
      "Ġman": 352,
      "our": 353,
      "el": 354,
      "ĠG": 355,
      "ers": 356,
      "ust": 357,
      "ame": 358,
      "os": 359,
      "um": 360,
      "Ġne": 361,
      "ong": 362,
      "ist": 363,
      "Ġgo": 364,
      "Ġsp": 365,
      "Ġtheir": 366,
      "art": 367,
      "Ġdo": 368,
      "Ġex": 369,
      "Ġare": 370,
      ".\"": 371,
      "Ġwho": 372,
      "ast": 373,
      "ok": 374,
      "ĠF": 375,
      "ind": 376,
      "op": 377,
      "ie": 378,
      "un": 379,
      "Ġone": 380,
      "ig": 381,
      "ĠAnd": 382,
      "Ġlo": 383,
      "Ġal": 384,
      "ĠO": 385,
      "ound": 386,
      "Ġsaid": 387,
      "ord": 388,
      "sel": 389,
      "out": 390,
      "Ġno": 391,
      "very": 392,
      "ell": 393,
      "ive": 394,
      "Ġsha": 395,
      "Ġun": 396,
      "ĊĠĠĠĠĠĠĠĠ": 397,
      "iv": 398,
      "Ġthere": 399,
      "ak": 400,
      "ect": 401,
      "ate": 402,
      "ear": 403,
      "ct": 404,
      "han": 405,
      "The": 406,
      "Ġcom": 407,
      "ĠE": 408,
      "one": 409,
      "pt": 410,
      "ĠN": 411,
      "ity": 412,
      "own": 413,
      "reat": 414,
      "Ġab": 415,
      "ough": 416,
      "Ġwill": 417,
      "Ġout": 418,
      "ĠD": 419,
      "Ġkn": 420,
      "Ġwould": 421,
      ",\"": 422,
      "ry": 423,
      "ure": 424,
      "ort": 425,
      "ĊĠĠĠĠĠĠĠĠĠĠ": 426,
      "Ġpro": 427,
      "Ġwhen": 428,
      "Ġpl": 429,
      "ies": 430,
      "ĠJ": 431,
      "ine": 432,
      "au": 433,
      "ven": 434,
      "ther": 435,
      "itt": 436,
      "ĠHe": 437,
      "ose": 438,
      "ake": 439,
      "Ġ1": 440,
      "Ġle": 441,
      "Ġbeen": 442,
      "ide": 443,
      "ost": 444,
      "ace": 445,
      "ag": 446,
      "hed": 447,
      "Ġj": 448,
      "ass": 449,
      "Ġar": 450,
      "self": 451,
      "of": 452,
      "ep": 453,
      "fore": 454,
      "Ġag": 455,
      "ack": 456,
      "ĠR": 457,
      "end": 458,
      "Ġyour": 459,
      "are": 460,
      "Ġli": 461,
      "ime": 462,
      "Ġwor": 463,
      "ond": 464,
      "Ġupon": 465,
      "ck": 466,
      "hi": 467,
      "Ġif": 468,
      "Ġam": 469,
      "Ġmore": 470,
      "Ġinto": 471,
      "Ġshall": 472,
      "ish": 473,
      "ud": 474,
      "Ġtr": 475,
      "ood": 476,
      "Ġthou": 477,
      "Ġaf": 478,
      "Ġus": 479,
      "ĊĠĠĠĠ": 480,
      "ment": 481,
      "Ġbr": 482,
      "ings": 483,
      "ance": 484,
      "other": 485,
      "pl": 486,
      "urn": 487,
      "ade": 488,
      "Ġ(": 489,
      "ice": 490,
      "Ġwhat": 491,
      "Ġqu": 492,
      "Ġother": 493,
      "cc": 494,
      "we": 495,
      "Ġsome": 496,
      "way": 497,
      "ence": 498,
      "able": 499,
      "Ġtw": 500,
      "'t": 501,
      "Ġcan": 502,
      "Ġany": 503,
      "Ġro": 504,
      "ite": 505,
      "per": 506,
      "Ġcould": 507,
      "Ġfe": 508,
      "Ġthan": 509,
      "Ġday": 510,
      "ble": 511,
      "Ġpr": 512,
      "Ġen": 513,
      "Ġour": 514,
      "ue": 515,
      "Ġbl": 516,
      "Ġcl": 517,
      "ount": 518,
      "av": 519,
      "ree": 520,
      "Ġtime": 521,
      "ire": 522,
      "be": 523,
      "Ġsay": 524,
      "Ġgreat": 525,
      "ne": 526,
      "wn": 527,
      "Ġdid": 528,
      "00": 529,
      "ious": 530,
      "ather": 531,
      "ans": 532,
      "Ġgr": 533,
      "Ġnow": 534,
      "Ġagain": 535,
      "ĠTh": 536,
      "Ġsee": 537,
      "Ġ_": 538,
      "Ġdis": 539,
      "ng": 540,
      "ittle": 541,
      "age": 542,
      "Ġvery": 543,
      "Ġthen": 544,
      "Ġover": 545,
      "Ġhand": 546,
      "hing": 547,
      "Ġim": 548,
      "Ġad": 549,
      "Ġlike": 550,
      "ap": 551,
      "old": 552,
      "ĠIt": 553,
      "ĠĠĠĠĠĠĠĠĠĠĠĠĠĠĠĠ": 554,
      "Ġ'": 555,
      "ally": 556,
      "ife": 557,
      "te": 558,
      "Ġknow": 559,
      "ĠBut": 560,
      "Ġfl": 561,
      "ick": 562,
      "nder": 563,
      "Ġper": 564,
      "ath": 565,
      "Ġpe": 566,
      "ied": 567,
      "ress": 568,
      "ness": 569,
      "Ġhas": 570,
      "ink": 571,
      "Ġshould": 572,
      "uch": 573,
      "ber": 574,
      "?\"": 575,
      "Ġabout": 576,
      "ved": 577,
      "ions": 578,
      "bl": 579,
      "oll": 580,
      "Ġoff": 581,
      "ff": 582,
      "Ġmade": 583,
      "Ġlittle": 584,
      "Ġapp": 585,
      "Ġbefore": 586,
      "Ġgood": 587,
      "Ġits": 588,
      "ated": 589,
      "Ġthr": 590,
      "ful": 591,
      "orn": 592,
      "Ġbo": 593,
      "ward": 594,
      "Ġafter": 595,
      "irst": 596,
      "Ġdown": 597,
      "ull": 598,
      "âĢ": 599,
      "so": 600,
      "ER": 601,
      "ĠK": 602,
      "Ġmen": 603,
      ".,": 604,
      "Ġcame": 605,
      "ach": 606,
      "ru": 607,
      "Ġmay": 608,
      "act": 609,
      "Ġthese": 610,
      "Ġtwo": 611,
      "Ġonly": 612,
      "Ġlook": 613,
      "ise": 614,
      "ary": 615,
      "ile": 616,
      "ons": 617,
      "tain": 618,
      "ave": 619,
      "ĊĊĠ": 620,
      "ark": 621,
      "ci": 622,
      "ign": 623,
      "ty": 624,
      "Ġpart": 625,
      "for": 626,
      "Ġpre": 627,
      "Ġpo": 628,
      "Ġ2": 629,
      "ren": 630,
      "ĠY": 631,
      "Ġwhere": 632,
      "Ġlong": 633,
      "right": 634,
      "Ġdes": 635,
      "ted": 636,
      "hen": 637,
      "ove": 638,
      "Ġcha": 639,
      "Ġhow": 640,
      "Ġcome": 641,
      "ĠGod": 642,
      "Ġrem": 643,
      "ang": 644,
      "Ġsuch": 645,
      "Ġmust": 646,
      "ouse": 647,
      "ople": 648,
      "Ġsc": 649,
      "Ġway": 650,
      "Ġold": 651,
      "Ġmuch": 652,
      "Ġfirst": 653,
      "oth": 654,
      "Ġbec": 655,
      "Ġunto": 656,
      "Ġch": 657,
      "Ġunder": 658,
      "man": 659,
      "ft": 660,
      "Ġevery": 661,
      "cl": 662,
      "Ġown": 663,
      "Ġmight": 664,
      "Ġear": 665,
      "OR": 666,
      "ered": 667,
      "!\"": 668,
      "ĠIn": 669,
      "Ġeven": 670,
      "iz": 671,
      "Ġpass": 672,
      "ps": 673,
      "01": 674,
      "Ġwell": 675,
      "ia": 676,
      "'d": 677,
      "ian": 678,
      "ause": 679,
      "Ġgl": 680,
      "Ġbet": 681,
      "Ġnever": 682,
      "ors": 683,
      "Ġsm": 684,
      "Ġcomp": 685,
      "Ġpeople": 686,
      "oss": 687,
      "that": 688,
      "Ġthose": 689,
      "fe": 690,
      "Ġthy": 691,
      "Ġey": 692,
      "ĊĊĠĠĠĠ": 693,
      "Ġthrough": 694,
      "Ġres": 695,
      "hes": 696,
      "ady": 697,
      "Ġmany": 698,
      "ked": 699,
      "Ġcall": 700,
      "Ġcomm": 701,
      "ears": 702,
      "ater": 703,
      "Ġsl": 704,
      "air": 705,
      "ĠMr": 706,
      "ves": 707,
      "Ġacc": 708,
      "led": 709,
      "ried": 710,
      "Ġmost": 711,
      "ory": 712,
      "anc": 713,
      "Ġlet": 714,
      "Ġwent": 715,
      "pe": 716,
      "Ġlife": 717,
      "ought": 718,
      "Ġi": 719,
      "Ġbeing": 720,
      "ving": 721,
      "aw": 722,
      "Ġstr": 723,
      "ily": 724,
      "Ġmake": 725,
      "not": 726,
      "Ġback": 727,
      "Ġcont": 728,
      "ĠV": 729,
      "Ġking": 730,
      "Ġhimself": 731,
      "Ġwr": 732,
      "Ġbeg": 733,
      "ens": 734,
      "ĠShe": 735,
      "iss": 736,
      "ew": 737,
      "Ġra": 738,
      "Ġhere": 739,
      "de": 740,
      "mer": 741,
      "wh": 742,
      "Ġword": 743,
      "Ġbel": 744,
      "Ġ3": 745,
      "Ġthought": 746,
      "Ġseem": 747,
      "ever": 748,
      "igh": 749,
      "Ġcons": 750,
      "ult": 751,
      "row": 752,
      "Ġthink": 753,
      "og": 754,
      "eth": 755,
      "Ġaway": 756,
      "ither": 757,
      "Ġfound": 758,
      "oy": 759,
      "ations": 760,
      "int": 761,
      "Ġob": 762,
      "Ġwork": 763,
      "ĠCh": 764,
      "Ġhead": 765,
      "hild": 766,
      "),": 767,
      "Ġser": 768,
      "Ġhouse": 769,
      "Ġimp": 770,
      "ase": 771,
      "Ġtoo": 772,
      "less": 773,
      "ower": 774,
      "Ġthee": 775,
      "Ġpres": 776,
      "ared": 777,
      "his": 778,
      "Ġent": 779,
      "Ġke": 780,
      "ened": 781,
      "Ġalso": 782,
      "ict": 783,
      "les": 784,
      "And": 785,
      "Ġ[": 786,
      "ition": 787,
      "Ġturn": 788,
      "Ġsame": 789,
      "med": 790,
      "Ġchild": 791,
      "riend": 792,
      "Ġatt": 793,
      "Ġjust": 794,
      "here": 795,
      "ĠFor": 796,
      "li": 797,
      "ild": 798,
      "ince": 799,
      "ĠSt": 800,
      "pect": 801,
      "He": 802,
      "ock": 803,
      "with": 804,
      "Ġplace": 805,
      "Ġheart": 806,
      "ollow": 807,
      "Ġend": 808,
      "Ġye": 809,
      "Ġlast": 810,
      "Ġyet": 811,
      "ex": 812,
      "Ġtake": 813,
      "lf": 814,
      "get": 815,
      "ple": 816,
      "ged": 817,
      "Ġwithout": 818,
      "up": 819,
      "omet": 820,
      "aid": 821,
      "Ġrep": 822,
      "ished": 823,
      "Ġop": 824,
      "Ġsw": 825,
      "ĠTo": 826,
      "land": 827,
      "ret": 828,
      "ject": 829,
      "und": 830,
      "Ġ4": 831,
      "ial": 832,
      "Ġwar": 833,
      "ener": 834,
      "Ġeyes": 835,
      "Ġret": 836,
      "ix": 837,
      "atter": 838,
      "ible": 839,
      "Ġput": 840,
      "Ġever": 841,
      "..": 842,
      "Ġwom": 843,
      "Ġco": 844,
      "Ġspe": 845,
      "Ġstill": 846,
      "me": 847,
      "Ġright": 848,
      "ail": 849,
      "Ġthings": 850,
      "Ġagainst": 851,
      "Ġfar": 852,
      "02": 853,
      "ced": 854,
      "Ġhar": 855,
      "ORD": 856,
      "Ġ--": 857,
      "AL": 858,
      "Ġsaw": 859,
      "ms": 860,
      "Ġfriend": 861,
      "Ġwhile": 862,
      "Ġnight": 863,
      "Ġset": 864,
      "Ġcar": 865,
      "TER": 866,
      "ody": 867,
      "Ġget": 868,
      "Ġlove": 869,
      "It": 870,
      "Ġcount": 871,
      "ss": 872,
      "ents": 873,
      "hy": 874,
      "aught": 875,
      "ction": 876,
      "ertain": 877,
      "Ġdist": 878,
      "Ġbre": 879,
      "ĠThey": 880,
      "Ġname": 881,
      "was": 882,
      "con": 883,
      "ently": 884,
      "Ġtook": 885,
      "ks": 886,
      "ip": 887,
      "RE": 888,
      "imes": 889,
      "ĠThere": 890,
      "aking": 891,
      "ning": 892,
      "ical": 893,
      "Ġnew": 894,
      "Ġnor": 895,
      "IN": 896,
      "Ġfather": 897,
      "'ll": 898,
      "Ġland": 899,
      "Ġlight": 900,
      "ĠĠĠĠĠĠ": 901,
      "Ġgive": 902,
      ".'": 903,
      "ĠLORD": 904,
      "Ġmar": 905,
      "----": 906,
      "ĠAn": 907,
      "ON": 908,
      "Ġanother": 909,
      "_,": 910,
      "Ġcour": 911,
      "Ġleft": 912,
      "its": 913,
      "Ġnat": 914,
      "com": 915,
      "Ġthree": 916,
      "Ġsec": 917,
      "ĠU": 918,
      "Ġface": 919,
      "Ġyoung": 920,
      "ĠThis": 921,
      "ĠThen": 922,
      "Ġfollow": 923,
      "Ġinst": 924,
      "ale": 925,
      "Ġworld": 926,
      "but": 927,
      "ched": 928,
      "Ġtell": 929,
      "Ġem": 930,
      "ĠAs": 931,
      "Ġthough": 932,
      "ĠWe": 933,
      "den": 934,
      "Ġsub": 935,
      "Ġyears": 936,
      "su": 937,
      "ner": 938,
      "Ġonce": 939,
      "rist": 940,
      "Ġfind": 941,
      "Ġrel": 942,
      "Ġson": 943,
      "ars": 944,
      "ways": 945,
      "Ġamong": 946,
      "rew": 947,
      "Ġac": 948,
      "ived": 949,
      "ah": 950,
      "aut": 951,
      "HE": 952,
      "vers": 953,
      "But": 954,
      "Ġsupp": 955,
      "du": 956,
      "Ġfo": 957,
      "ited": 958,
      "Ġev": 959,
      "Ġnothing": 960,
      "Ġcalled": 961,
      "Ġpers": 962,
      "Ġchar": 963,
      "alk": 964,
      "Ġple": 965,
      "Ġ5": 966,
      "ual": 967,
      "rest": 968,
      "Ġint": 969,
      "Ġkind": 970,
      "thing": 971,
      "att": 972,
      "selves": 973,
      "Ġgiv": 974,
      "Ġfell": 975,
      "Ġside": 976,
      "Ġdec": 977,
      "Ġwhom": 978,
      "ĠIs": 979,
      "ins": 980,
      "har": 981,
      "ates": 982,
      "ows": 983,
      "ĠThat": 984,
      "ts": 985,
      "my": 986,
      "Ġheard": 987,
      "Ġsomet": 988,
      "der": 989,
      "uth": 990,
      ".]": 991,
      "most": 992,
      "Ġrest": 993,
      "ook": 994,
      "ween": 995,
      "ures": 996,
      "pr": 997,
      "Ġmind": 998,
      "Ġtri": 999,
      "ined": 1000,
      "ised": 1001,
      "Ġeach": 1002,
      "Ġbecause": 1003,
      "Ġchan": 1004,
      "aster": 1005,
      "cept": 1006,
      "Ġcr": 1007,
      "Ġstre": 1008,
      "Ġwant": 1009,
      "ief": 1010,
      "apt": 1011,
      "ET": 1012,
      "ier": 1013,
      "Ġhands": 1014,
      "Ġreturn": 1015,
      "Ġpur": 1016,
      "ĠSo": 1017,
      "Ġdif": 1018,
      "Ġdone": 1019,
      "ting": 1020,
      "Ġthing": 1021,
      "._": 1022,
      "ob": 1023,
      "ired": 1024,
      "Ġnear": 1025,
      "pped": 1026,
      "ope": 1027,
      "Ġdeath": 1028,
      "Ġrec": 1029,
      "Ġhapp": 1030,
      "Ġsou": 1031,
      "Ġexp": 1032,
      "Ġboth": 1033,
      "sh": 1034,
      "Ġreg": 1035,
      "osed": 1036,
      "Ġseen": 1037,
      "ĠIf": 1038,
      "br": 1039,
      "Ġsur": 1040,
      "ĠYou": 1041,
      "Ġgu": 1042,
      "Ġ6": 1043,
      "by": 1044,
      "Ġans": 1045,
      "vent": 1046,
      "EN": 1047,
      "Ġposs": 1048,
      "gether": 1049,
      "ph": 1050,
      "ten": 1051,
      "Ġmon": 1052,
      "vel": 1053,
      "AN": 1054,
      "Ġ.": 1055,
      "Ġgot": 1056,
      "aken": 1057,
      "Ġhome": 1058,
      "Ġsoon": 1059,
      "men": 1060,
      "Ġfew": 1061,
      "fect": 1062,
      "Ġind": 1063,
      "ĠWhen": 1064,
      "Ġtold": 1065,
      "ces": 1066,
      "ser": 1067,
      "fl": 1068,
      "gg": 1069,
      "ield": 1070,
      "ular": 1071,
      "Ġlooked": 1072,
      "ĠChrist": 1073,
      ",'": 1074,
      "Ġdays": 1075,
      "ĊĊĊ": 1076,
      "Ġbu": 1077,
      "ross": 1078,
      "ung": 1079,
      "oice": 1080,
      "iness": 1081,
      "Ġcur": 1082,
      "Ġbeh": 1083,
      "ird": 1084,
      "Ġalways": 1085,
      "Ġsent": 1086,
      "ute": 1087,
      "Ġmo": 1088,
      "Ġwater": 1089,
      "Ġbetween": 1090,
      "Ġri": 1091,
      "over": 1092,
      "Ġfr": 1093,
      "AR": 1094,
      "Ġ(?": 1095,
      "ĠWhat": 1096,
      "Ġhum": 1097,
      "Ġlar": 1098,
      "ering": 1099,
      "ank": 1100,
      "Ġocc": 1101,
      "ont": 1102,
      "which": 1103,
      "unt": 1104,
      "Ġgener": 1105,
      "any": 1106,
      "Ġwoman": 1107,
      "Ġsat": 1108,
      "ason": 1109,
      "ĠMar": 1110,
      "Ġearth": 1111,
      "irl": 1112,
      "Ġstand": 1113,
      "ters": 1114,
      "Ġmin": 1115,
      "ating": 1116,
      "Ġwords": 1117,
      "az": 1118,
      "Ġmom": 1119,
      "ĠLord": 1120,
      "In": 1121,
      "Ġgave": 1122,
      "cri": 1123,
      "Ġdon": 1124,
      "Ġhaving": 1125,
      "Ġpower": 1126,
      "Ġdisc": 1127,
      "oud": 1128,
      "elt": 1129,
      "Ġboy": 1130,
      "Ġasked": 1131,
      "ĠWh": 1132,
      "Ġ18": 1133,
      "Ġhear": 1134,
      "Ġact": 1135,
      "ully": 1136,
      "Ġwhole": 1137,
      "You": 1138,
      "Ġtoward": 1139,
      "Ġsil": 1140,
      "Ġfore": 1141,
      "ĊĠĠĠĠĠ": 1142,
      "ee": 1143,
      "ained": 1144,
      "Ġtre": 1145,
      "ĠKing": 1146,
      "Ġcle": 1147,
      "Ġbelie": 1148,
      "als": 1149,
      "Ġconf": 1150,
      "Ġcertain": 1151,
      "Ġter": 1152,
      "ments": 1153,
      "Ġwind": 1154,
      "Ġseemed": 1155,
      "app": 1156,
      "Ġunt": 1157,
      "Ġcountry": 1158,
      "Ġchildren": 1159,
      "Ġhalf": 1160,
      "ities": 1161,
      "Ġart": 1162,
      "ene": 1163,
      "Ġdep": 1164,
      "Ġbrought": 1165,
      "Ġinc": 1166,
      "ants": 1167,
      "Ġhigh": 1168,
      "Ġkeep": 1169,
      "ĠJo": 1170,
      "Ġhour": 1171,
      "Ġdoor": 1172,
      "Ġfam": 1173,
      "atch": 1174,
      "Ġbro": 1175,
      "aven": 1176,
      "II": 1177,
      "xt": 1178,
      "Ġadd": 1179,
      "Ġfeel": 1180,
      "fter": 1181,
      "had": 1182,
      "Ġbetter": 1183,
      "rent": 1184,
      "Ġ(?),": 1185,
      "Ġdr": 1186,
      "Ġbest": 1187,
      "Ġ7": 1188,
      "Ġhor": 1189,
      "Ġmother": 1190,
      "Ġlaw": 1191,
      "Ġste": 1192,
      "ned": 1193,
      "Ġdra": 1194,
      "ĊĊĊĊ": 1195,
      "Ġgoing": 1196,
      "iet": 1197,
      "ling": 1198,
      "Ġinter": 1199,
      "gr": 1200,
      "ange": 1201,
      "owed": 1202,
      "Ġhath": 1203,
      "Ġdel": 1204,
      "ĠBr": 1205,
      "Ġ|": 1206,
      "ĠHis": 1207,
      "Ġsmall": 1208,
      "ALL": 1209,
      "oun": 1210,
      "day": 1211,
      "Ġknew": 1212,
      "undred": 1213,
      "Ġserv": 1214,
      "Ġfa": 1215,
      "Ġhon": 1216,
      "Ġext": 1217,
      "oc": 1218,
      "Ġlay": 1219,
      "ub": 1220,
      "Ġfall": 1221,
      "you": 1222,
      "Ġroom": 1223,
      "mon": 1224,
      "Ġtra": 1225,
      "ians": 1226,
      "ES": 1227,
      "Ġsk": 1228,
      "Ġread": 1229,
      "Ġmoment": 1230,
      "erc": 1231,
      "Ġdead": 1232,
      "orning": 1233,
      "amp": 1234,
      "Ġnum": 1235,
      "Ġpleas": 1236,
      "Ġsays": 1237,
      "ubl": 1238,
      "ĠEng": 1239,
      "ius": 1240,
      "Ġpresent": 1241,
      "Ġbegan": 1242,
      "ĠâĢ": 1243,
      "Ġturned": 1244,
      "Ġgra": 1245,
      "Ġpri": 1246,
      "ey": 1247,
      "Ġcare": 1248,
      "Ġless": 1249,
      "oke": 1250,
      "Ġspeak": 1251,
      "ense": 1252,
      "Ġwa": 1253,
      "Ġsle": 1254,
      "ison": 1255,
      "ĠAr": 1256,
      "Ġhel": 1257,
      "Ġthus": 1258,
      "ĠAt": 1259,
      "ains": 1260,
      "now": 1261,
      "Ġstood": 1262,
      "Ġfour": 1263,
      "ives": 1264,
      "Ġadv": 1265,
      "Ġins": 1266,
      "Ġround": 1267,
      "Ġsun": 1268,
      "Ġuntil": 1269,
      "US": 1270,
      "ceed": 1271,
      "ib": 1272,
      "Ġref": 1273,
      "Ġhard": 1274,
      "Ġwhose": 1275,
      "Ġsuff": 1276,
      "ets": 1277,
      "Ġel": 1278,
      "Ġche": 1279,
      "Ġfire": 1280,
      "What": 1281,
      "Ġcity": 1282,
      "Ġtogether": 1283,
      "Ġmyself": 1284,
      "aces": 1285,
      "Ġass": 1286,
      "Ġmatter": 1287,
      "irit": 1288,
      "Ġquite": 1289,
      "Ġdou": 1290,
      "Ġsoul": 1291,
      "Ġopen": 1292,
      "REE": 1293,
      "read": 1294,
      "Ġcond": 1295,
      "ĊĊĠĠĠĠĠĠĠĠ": 1296,
      "Ġenough": 1297,
      "Ġfull": 1298,
      "ude": 1299,
      "ately": 1300,
      "Ġbody": 1301,
      "Ġfeet": 1302,
      "ETTER": 1303,
      "Ġgiven": 1304,
      "Ġprop": 1305,
      "Ġgirl": 1306,
      "Ġdark": 1307,
      "Ġnec": 1308,
      "Ġes": 1309,
      "Ġbeaut": 1310,
      "ĠLETTER": 1311,
      "him": 1312,
      "uring": 1313,
      "03": 1314,
      "ane": 1315,
      "Ġvis": 1316,
      "Ġcannot": 1317,
      "pro": 1318,
      "ury": 1319,
      "{~": 1320,
      "~}": 1321,
      "Ġeff": 1322,
      "ably": 1323,
      "Ġair": 1324,
      "stand": 1325,
      "Ġrece": 1326,
      "entle": 1327,
      "Ġhundred": 1328,
      "Ġpoor": 1329,
      "ĠBe": 1330,
      "Ġwhite": 1331,
      "urch": 1332,
      "âĢĻ": 1333,
      "Ġsign": 1334,
      "Ġneed": 1335,
      "ĠSM": 1336,
      "Ġtill": 1337,
      "oney": 1338,
      "aint": 1339,
      "ines": 1340,
      "GREE": 1341,
      "ern": 1342,
      "GREEK": 1343,
      "Ġlarge": 1344,
      "ĠSMALL": 1345,
      "Ġbrother": 1346,
      "ides": 1347,
      "Ġmorning": 1348,
      "Ġsince": 1349,
      "Ġthemselves": 1350,
      "Ġfear": 1351,
      "Ġsomething": 1352,
      "Ġvoice": 1353,
      "ger": 1354,
      "fic": 1355,
      "ĠĠĠ": 1356,
      "ĠOn": 1357,
      "ention": 1358,
      "Ġwife": 1359,
      "Ġcourse": 1360,
      "hip": 1361,
      "ousand": 1362,
      "Ġtaken": 1363,
      "Ġtrue": 1364,
      "Ġdoes": 1365,
      "Ġhast": 1366,
      "used": 1367,
      "aced": 1368,
      "Ġfact": 1369,
      "ĠAl": 1370,
      "terest": 1371,
      "outh": 1372,
      "Ġform": 1373,
      "bed": 1374,
      "ĠNo": 1375,
      ",--": 1376,
      "Ġperson": 1377,
      "CH": 1378,
      "Ġill": 1379,
      "Ġpoint": 1380,
      "Ġrather": 1381,
      "fort": 1382,
      "lect": 1383,
      "ached": 1384,
      "Ġsing": 1385,
      "We": 1386,
      "Ġalmost": 1387,
      "Ġgold": 1388,
      "ister": 1389,
      "Ġwond": 1390,
      "Ġfair": 1391,
      "ided": 1392,
      "bt": 1393,
      "Ġsure": 1394,
      "Ġhold": 1395,
      "Ġsea": 1396,
      "Ġused": 1397,
      "eter": 1398,
      "aughter": 1399,
      "Ġothers": 1400,
      "ages": 1401,
      "illed": 1402,
      "Ġtem": 1403,
      "uc": 1404,
      "Ġcommand": 1405,
      "Ġte": 1406,
      "Ġplay": 1407,
      "ider": 1408,
      "fully": 1409,
      "well": 1410,
      "they": 1411,
      "ific": 1412,
      "uck": 1413,
      "Ġmean": 1414,
      "19": 1415,
      "Ġaw": 1416,
      "haps": 1417,
      "Ġnext": 1418,
      "Ġswe": 1419,
      "Ġii": 1420,
      "Ġtherefore": 1421,
      "Ġbus": 1422,
      "Ġabove": 1423,
      "ĠPr": 1424,
      "hn": 1425,
      "There": 1426,
      "ressed": 1427,
      "Ġjud": 1428,
      "Ġuse": 1429,
      "ĠWith": 1430,
      "Ġsim": 1431,
      "ott": 1432,
      "gin": 1433,
      "ĠX": 1434,
      "She": 1435,
      "Ġgone": 1436,
      "ured": 1437,
      "Ġcent": 1438,
      "Ġbook": 1439,
      "irc": 1440,
      "Ġbring": 1441,
      "Ġblood": 1442,
      "cha": 1443,
      "ĠNow": 1444,
      "akes": 1445,
      "ĠOf": 1446,
      "Ġdire": 1447,
      "ek": 1448,
      "Ġfelt": 1449,
      "Ġground": 1450,
      "cho": 1451,
      "ery": 1452,
      "ĠMy": 1453,
      "Ġwithin": 1454,
      "Ġfriends": 1455,
      "That": 1456,
      "Ġblack": 1457,
      "Ġmet": 1458,
      "ĠNor": 1459,
      "Ġstrong": 1460,
      "Ġopp": 1461,
      "hil": 1462,
      "Ġcontin": 1463,
      "Ġbur": 1464,
      "ration": 1465,
      "bit": 1466,
      "no": 1467,
      "ĠHow": 1468,
      "ream": 1469,
      "Ġhelp": 1470,
      "lish": 1471,
      "enty": 1472,
      "form": 1473,
      "Ġsir": 1474,
      "Ġspec": 1475,
      "ording": 1476,
      "ilt": 1477,
      "ually": 1478,
      "ended": 1479,
      "Ġyear": 1480,
      "Ġtimes": 1481,
      "iles": 1482,
      "Ġthousand": 1483,
      "Ġlive": 1484,
      "Ġforth": 1485,
      "ying": 1486,
      "ĠMrs": 1487,
      "~}{~": 1488,
      "ized": 1489,
      "Ġrepl": 1490,
      "Ġrun": 1491,
      "Ġalong": 1492,
      "ote": 1493,
      "Ġhowever": 1494,
      "anger": 1495,
      "ash": 1496,
      "Ġgentle": 1497,
      "ric": 1498,
      "ug": 1499,
      "ken": 1500,
      "ards": 1501,
      "wer": 1502,
      "ĠQ": 1503,
      "To": 1504,
      "attle": 1505,
      "wor": 1506,
      "Ġpassed": 1507,
      "Ġdev": 1508,
      "dom": 1509,
      "lt": 1510,
      "overed": 1511,
      "ready": 1512,
      "Ġdear": 1513,
      "ident": 1514,
      "Ġlord": 1515,
      "orrow": 1516,
      "Ġprom": 1517,
      "ĠOF": 1518,
      "iving": 1519,
      "Ġclose": 1520,
      "ublic": 1521,
      "Ġgre": 1522,
      "she": 1523,
      "them": 1524,
      "par": 1525,
      "str": 1526,
      "iew": 1527,
      "bs": 1528,
      "ution": 1529,
      "ites": 1530,
      "aim": 1531,
      "Ġsecond": 1532,
      "Ġinde": 1533,
      "Ġcol": 1534,
      "Ġinterest": 1535,
      "Ġsaying": 1536,
      "dden": 1537,
      "there": 1538,
      "Ġcried": 1539,
      "Ġprin": 1540,
      "Ġwall": 1541,
      "Ġreason": 1542,
      "Ġshow": 1543,
      "Ġdiffe": 1544,
      "Ġmis": 1545,
      "cess": 1546,
      "Ġadm": 1547,
      "Ġmid": 1548,
      "Ġsound": 1549,
      "Ġfin": 1550,
      "Ġalone": 1551,
      "Ġreal": 1552,
      "Ġinv": 1553,
      "Ġdeep": 1554,
      "oor": 1555,
      "cap": 1556,
      "Ġquest": 1557,
      "Ġbelieve": 1558,
      "from": 1559,
      "ĠSp": 1560,
      "iting": 1561,
      "Ġmoney": 1562,
      "Ġknown": 1563,
      "10": 1564,
      "As": 1565,
      "iful": 1566,
      "Ġtown": 1567,
      "ev": 1568,
      "Ġoften": 1569,
      "Ġwood": 1570,
      "Then": 1571,
      "Ġbehind": 1572,
      "king": 1573,
      "where": 1574,
      "Ġhope": 1575,
      "wered": 1576,
      "Ġleave": 1577,
      "ĠTHE": 1578,
      "Ġcor": 1579,
      "Ġmine": 1580,
      "This": 1581,
      "ience": 1582,
      "Ġmount": 1583,
      "TH": 1584,
      "rael": 1585,
      "ĠĠĠĠĠĠĠĠĠĠĠĠĠĠĠĠĠĠĠĠĠĠĠĠĠĠĠĠĠĠĠĠ": 1586,
      "sp": 1587,
      "Ġho": 1588,
      "osition": 1589,
      "Ġheaven": 1590,
      "Ġbes": 1591,
      "Th": 1592,
      "Ġappear": 1593,
      "eng": 1594,
      "Ġbar": 1595,
      "ĠAll": 1596,
      "--\"": 1597,
      ".)": 1598,
      "No": 1599,
      "have": 1600,
      "AP": 1601,
      "Ġsudden": 1602,
      "mb": 1603,
      "ural": 1604,
      "Ġsix": 1605,
      "Ġorder": 1606,
      "Ġbed": 1607,
      "ley": 1608,
      "Ġ8": 1609,
      "Ġherself": 1610,
      "were": 1611,
      "18": 1612,
      "Ġpray": 1613,
      "ances": 1614,
      "Ġmeet": 1615,
      "ism": 1616,
      "une": 1617,
      "IS": 1618,
      "'m": 1619,
      "use": 1620,
      "though": 1621,
      "Ġsum": 1622,
      "like": 1623,
      "Ġhuman": 1624,
      "Ġgod": 1625,
      "Ġten": 1626,
      "ĠMiss": 1627,
      "Ġ9": 1628,
      "Ġsy": 1629,
      "Ġsight": 1630,
      "Ġshort": 1631,
      "Ġdiv": 1632,
      "Ġmeans": 1633,
      "Ġfur": 1634,
      "ax": 1635,
      "Ġwild": 1636,
      "Ġide": 1637,
      "Ġvar": 1638,
      "Ġred": 1639,
      "their": 1640,
      "Ġspirit": 1641,
      "ls": 1642,
      "11": 1643,
      "veral": 1644,
      "let": 1645,
      "Ġanything": 1646,
      "ames": 1647,
      "eared": 1648,
      "hile": 1649,
      "Ġnature": 1650,
      "ient": 1651,
      "Ġest": 1652,
      "ats": 1653,
      "ĠIsrael": 1654,
      "Ġlear": 1655,
      "Ġremem": 1656,
      "aves": 1657,
      "Ġanswered": 1658,
      "Ġlady": 1659,
      "ĠHer": 1660,
      "tr": 1661,
      "Ġdest": 1662,
      "Ġcase": 1663,
      "co": 1664,
      "Ġeither": 1665,
      "ative": 1666,
      "'ve": 1667,
      "what": 1668,
      "Ġreplied": 1669,
      "Ġcut": 1670,
      "ĠSir": 1671,
      "Ġord": 1672,
      "âĢĿ": 1673,
      "ature": 1674,
      "Ġcast": 1675,
      "Ġdro": 1676,
      "Ġindeed": 1677,
      "13": 1678,
      "14": 1679,
      "12": 1680,
      "Ġ*": 1681,
      "iled": 1682,
      "itted": 1683,
      "When": 1684,
      "ING": 1685,
      "ĠâĢľ": 1686,
      "Ġlost": 1687,
      "Ġfaith": 1688,
      "head": 1689,
      "hall": 1690,
      "Ġmanner": 1691,
      "Ġlau": 1692,
      "tern": 1693,
      "Ġarm": 1694,
      "IC": 1695,
      "rence": 1696,
      "ones": 1697,
      "ring": 1698,
      "Ġdoubt": 1699,
      "Ġtalk": 1700,
      "ĠJohn": 1701,
      "ĠOne": 1702,
      "Ġnumber": 1703,
      "Ġcirc": 1704,
      "ham": 1705,
      "Ġobser": 1706,
      "Ġmus": 1707,
      "this": 1708,
      "ĠCl": 1709,
      "Ġbear": 1710,
      "ility": 1711,
      "ney": 1712,
      "Ġtruth": 1713,
      "arted": 1714,
      "Ġce": 1715,
      "Ġsubject": 1716,
      "Ġstru": 1717,
      "Ġcommon": 1718,
      "Ġarms": 1719,
      "ges": 1720,
      "Ġhorse": 1721,
      "Ġdef": 1722,
      "rying": 1723,
      "Ġmaster": 1724,
      "ĊĊĠĠĠ": 1725,
      "ety": 1726,
      "Ġcoming": 1727,
      "band": 1728,
      "Ġmod": 1729,
      "ho": 1730,
      "ĠUn": 1731,
      "Ġfree": 1732,
      "Ġwhy": 1733,
      "04": 1734,
      "Ġpret": 1735,
      "Ġenem": 1736,
      "They": 1737,
      "ĊĊĠĠĠĠĠĠĠĠĠ": 1738,
      "Ġstate": 1739,
      "Ġlead": 1740,
      "Ġitself": 1741,
      "Ġleast": 1742,
      "Ġseveral": 1743,
      "Ġfoot": 1744,
      "body": 1745,
      "cer": 1746,
      "Ġalready": 1747,
      "Ġeas": 1748,
      "alth": 1749,
      "Ġtrans": 1750,
      "Ġdri": 1751,
      "Ġkept": 1752,
      "empt": 1753,
      "ught": 1754,
      "Ġpast": 1755,
      "gy": 1756,
      "rie": 1757,
      "io": 1758,
      "ump": 1759,
      "Ġed": 1760,
      "Ġnecess": 1761,
      "Ġcharac": 1762,
      "meric": 1763,
      "arch": 1764,
      "che": 1765,
      "Ġlow": 1766,
      "ches": 1767,
      "part": 1768,
      "vern": 1769,
      "Ġheld": 1770,
      "ĠAN": 1771,
      "Ġpossess": 1772,
      "Ġwish": 1773,
      "Ġexc": 1774,
      "For": 1775,
      "Ġexpl": 1776,
      "cript": 1777,
      "Ġfive": 1778,
      "Ġrequ": 1779,
      "cy": 1780,
      "ĠĠĠĠĠ": 1781,
      "Ġabs": 1782,
      "tered": 1783,
      "ued": 1784,
      "Ġelse": 1785,
      "Ġeye": 1786,
      "Ġpeace": 1787,
      "ices": 1788,
      "ĠFr": 1789,
      "Ġaff": 1790,
      "Ġpain": 1791,
      "Ġsleep": 1792,
      "Ġchief": 1793,
      "ination": 1794,
      "Ġneither": 1795,
      "Ġclear": 1796,
      "Ġchurch": 1797,
      "son": 1798,
      "Ġnone": 1799,
      "Ġprodu": 1800,
      "Well": 1801,
      "af": 1802,
      "oura": 1803,
      "Ġcreat": 1804,
      "ccess": 1805,
      "Ġaccording": 1806,
      "Ġ&": 1807,
      "Ġprov": 1808,
      "Ġaccount": 1809,
      "ots": 1810,
      "alked": 1811,
      "Ġbecome": 1812,
      "itude": 1813,
      "Ġwit": 1814,
      "Ġprof": 1815,
      "under": 1816,
      "Ġwomen": 1817,
      "iously": 1818,
      "Ġconst": 1819,
      "Ġbecame": 1820,
      "rem": 1821,
      "!'": 1822,
      "Ġru": 1823,
      "ma": 1824,
      "Ġcause": 1825,
      "Ġhus": 1826,
      "IL": 1827,
      "side": 1828,
      "Ġfort": 1829,
      "Ġmark": 1830,
      "Ġstrange": 1831,
      "resent": 1832,
      "Ġview": 1833,
      "Ġperfect": 1834,
      "Ġequ": 1835,
      "Ġaround": 1836,
      "Yes": 1837,
      "?'": 1838,
      "Ġca": 1839,
      "Ġir": 1840,
      "ĠInd": 1841,
      "ean": 1842,
      "Ġcap": 1843,
      "Ġwalk": 1844,
      "Ġsort": 1845,
      "hold": 1846,
      "Ġsold": 1847,
      "ĠRe": 1848,
      "Oh": 1849,
      "irt": 1850,
      "Ġdaughter": 1851,
      "owing": 1852,
      "bled": 1853,
      "Ġstri": 1854,
      "Ġinf": 1855,
      "icked": 1856,
      "asion": 1857,
      "Ġwonder": 1858,
      "Ġreturned": 1859,
      "Ġobject": 1860,
      "Ġsweet": 1861,
      "Ġappro": 1862,
      "Ġlooking": 1863,
      "ĠZ": 1864,
      "ĠSee": 1865,
      "ustration": 1866,
      "Ġconsider": 1867,
      "wards": 1868,
      "So": 1869,
      "Ġhur": 1870,
      "cient": 1871,
      "Ġsin": 1872,
      "sc": 1873,
      "owers": 1874,
      "ased": 1875,
      "Ġbegin": 1876,
      "Ġunderstand": 1877,
      "oin": 1878,
      "Ġeffect": 1879,
      "Ġpar": 1880,
      "16": 1881,
      "Ġquick": 1882,
      "iter": 1883,
      "orm": 1884,
      "If": 1885,
      "els": 1886,
      "15": 1887,
      "Ġtrou": 1888,
      "Ġfine": 1889,
      "who": 1890,
      "An": 1891,
      "ality": 1892,
      "ists": 1893,
      "aving": 1894,
      "OL": 1895,
      "Ġsto": 1896,
      "Ġut": 1897,
      "....": 1898,
      "Ġwhether": 1899,
      "ĠBy": 1900,
      "Ġfight": 1901,
      "20": 1902,
      "Ġmonth": 1903,
      "Ġmag": 1904,
      "ald": 1905,
      "ift": 1906,
      "Ġfav": 1907,
      "Ġriver": 1908,
      "arent": 1909,
      "ĠOr": 1910,
      "itten": 1911,
      "gs": 1912,
      "ster": 1913,
      "ĠDe": 1914,
      "Ill": 1915,
      "night": 1916,
      "Ġperhaps": 1917,
      "ising": 1918,
      "would": 1919,
      "raw": 1920,
      "ement": 1921,
      "Ġtowards": 1922,
      "Ġroad": 1923,
      "Ġauth": 1924,
      "Ġhair": 1925,
      "Ġrespect": 1926,
      "Ġfamily": 1927,
      "ging": 1928,
      "23": 1929,
      "pose": 1930,
      "Ġquestion": 1931,
      "ony": 1932,
      "Ġtwenty": 1933,
      "Ġeat": 1934,
      "Ġexpect": 1935,
      "ified": 1936,
      "Ġpublic": 1937,
      "Ġsit": 1938,
      "Ġpol": 1939,
      "Ġdie": 1940,
      "Ġfre": 1941,
      "Ġval": 1942,
      "dle": 1943,
      "Ġfield": 1944,
      "ize": 1945,
      "Ġevil": 1946,
      "ĠAmeric": 1947,
      "Ġran": 1948,
      "Ġsons": 1949,
      "24": 1950,
      "My": 1951,
      "itting": 1952,
      "Ġshalt": 1953,
      "will": 1954,
      "cend": 1955,
      "Ġeng": 1956,
      "uss": 1957,
      "aul": 1958,
      "medi": 1959,
      "ract": 1960,
      "ĠLet": 1961,
      "Ġproper": 1962,
      "Illustration": 1963,
      "Ġworth": 1964,
      "come": 1965,
      "Ġlaid": 1966,
      "Ġvill": 1967,
      "Ġunc": 1968,
      "Ġable": 1969,
      "ert": 1970,
      "ĠEnglish": 1971,
      "Ġfig": 1972,
      "Ġhill": 1973,
      "Ġsword": 1974,
      "Ġexam": 1975,
      "ĠGr": 1976,
      "Ġtou": 1977,
      "Ġduring": 1978,
      "Ġbattle": 1979,
      "Ġsac": 1980,
      "Ġcapt": 1981,
      "ze": 1982,
      "Ġcold": 1983,
      "Ġmaking": 1984,
      "Ġdifferent": 1985,
      "Ġjoy": 1986,
      "Ġhusband": 1987,
      "Ġele": 1988,
      "ush": 1989,
      "idence": 1990,
      "Ġgeneral": 1991,
      "ior": 1992,
      "Ġcharacter": 1993,
      "Ġanswer": 1994,
      "Ġpat": 1995,
      "gu": 1996,
      "Âł": 1997,
      "Ġstay": 1998,
      "then": 1999,
      "bo": 2000,
      "ĠAnne": 2001,
      "THE": 2002,
      "roy": 2003,
      "ead": 2004,
      "que": 2005,
      "ED": 2006,
      "26": 2007,
      "Al": 2008,
      "Ġmouth": 2009,
      "Ġbreat": 2010,
      "Ġready": 2011,
      "Ġpal": 2012,
      "tained": 2013,
      "Ġseems": 2014,
      "Ġbene": 2015,
      "dis": 2016,
      "ĠWhere": 2017,
      "ror": 2018,
      "Ġfif": 2019,
      "Ġbreak": 2020,
      "ann": 2021,
      "ament": 2022,
      "avy": 2023,
      "Ġbeautiful": 2024,
      "ially": 2025,
      "ĠAb": 2026,
      "Ġglad": 2027,
      "pper": 2028,
      "Ġ17": 2029,
      "AT": 2030,
      "uff": 2031,
      "pre": 2032,
      "Ġstep": 2033,
      "At": 2034,
      "LE": 2035,
      "utes": 2036,
      "Ġbig": 2037,
      "Ġdirect": 2038,
      "--------": 2039,
      "Ġreceived": 2040,
      "ounded": 2041,
      "17": 2042,
      "Ġdream": 2043,
      "RO": 2044,
      "Ġescap": 2045,
      "Ġpay": 2046,
      "ression": 2047,
      "Ġtable": 2048,
      "iah": 2049,
      "Ġfollowed": 2050,
      "antly": 2051,
      "ĠPro": 2052,
      "isf": 2053,
      "Ġbad": 2054,
      "Ġevening": 2055,
      "Ġmerc": 2056,
      "Ġvol": 2057,
      "mp": 2058,
      "Ġpa": 2059,
      "ĠPar": 2060,
      "Ġremark": 2061,
      "Ġori": 2062,
      "Ġsuccess": 2063,
      "Ġport": 2064,
      "Ġarri": 2065,
      "Ġcarried": 2066,
      "light": 2067,
      "Ġmot": 2068,
      "Ġask": 2069,
      "Ġfast": 2070,
      "chool": 2071,
      "ĠNot": 2072,
      "reg": 2073,
      "Ġexper": 2074,
      "Ġletter": 2075,
      "ours": 2076,
      "ĠĠĠĠĠĠĠĠĠĠĠĠĠĠĠĠĠĠĠĠĠĠĠĠ": 2077,
      "iment": 2078,
      "Ġwon": 2079,
      "iff": 2080,
      "val": 2081,
      "Ġrose": 2082,
      "Ġbusiness": 2083,
      "Ġloc": 2084,
      "Ġstreng": 2085,
      "Ġslow": 2086,
      "inter": 2087,
      "ĠAm": 2088,
      "cious": 2089,
      "Ġmist": 2090,
      "Ġlonger": 2091,
      "Ġdecl": 2092,
      "iar": 2093,
      "rel": 2094,
      "ledge": 2095,
      "oses": 2096,
      "Ġprison": 2097,
      "ries": 2098,
      "yond": 2099,
      "Ġbuild": 2100,
      "ĠWho": 2101,
      "iol": 2102,
      "Ġbird": 2103,
      "Ġpartic": 2104,
      "aj": 2105,
      "oman": 2106,
      "Ġve": 2107,
      "Ġdiffic": 2108,
      "Ġlad": 2109,
      "Ġforg": 2110,
      "How": 2111,
      "Ġanim": 2112,
      "Ġmere": 2113,
      "Ġled": 2114,
      "Ġexcept": 2115,
      "Ġcross": 2116,
      "Ġlist": 2117,
      "Ġprob": 2118,
      "ustom": 2119,
      "On": 2120,
      "Ġdisp": 2121,
      "inct": 2122,
      "Ġsal": 2123,
      "Ġbit": 2124,
      "Ġmur": 2125,
      "ounds": 2126,
      "Ġtree": 2127,
      "ĠWhy": 2128,
      "Ġ16": 2129,
      "ues": 2130,
      "Ġstud": 2131,
      "Ġwatch": 2132,
      "Ġreally": 2133,
      "Ġauthor": 2134,
      "Ġearly": 2135,
      "wo": 2136,
      "APTER": 2137,
      "Ġdem": 2138,
      "Ġsol": 2139,
      "mber": 2140,
      "Ġsometimes": 2141,
      "Ġbehold": 2142,
      "EL": 2143,
      "ĠĠĠĠĠĠĠ": 2144,
      "Ġsend": 2145,
      "do": 2146,
      "Now": 2147,
      "Ġimport": 2148,
      "ĠNew": 2149,
      "Ġcorn": 2150,
      "iver": 2151,
      "ĠEngland": 2152,
      "Ġscar": 2153,
      "Ġcal": 2154,
      "off": 2155,
      "Ã©": 2156,
      "Ġrelig": 2157,
      "rs": 2158,
      "room": 2159,
      "airs": 2160,
      "Ġpriest": 2161,
      "_.": 2162,
      "Ġexist": 2163,
      "Ġfollowing": 2164,
      "Ġpossible": 2165,
      "Ġacross": 2166,
      "Ġlab": 2167,
      "ron": 2168,
      "claim": 2169,
      "Ġbra": 2170,
      "hand": 2171,
      ":--": 2172,
      "Ġdraw": 2173,
      "ondon": 2174,
      "Ġdrink": 2175,
      "when": 2176,
      "ĠThese": 2177,
      "Ġwat": 2178,
      "vol": 2179,
      "riage": 2180,
      "ton": 2181,
      "Ġcourt": 2182,
      "Ġidea": 2183,
      "how": 2184,
      "ĠCom": 2185,
      "ighb": 2186,
      "Ġmove": 2187,
      "Ġfellow": 2188,
      "ingly": 2189,
      "Ġplain": 2190,
      "Ġ19": 2191,
      "Ġmiles": 2192,
      "yl": 2193,
      "Ġquiet": 2194,
      "bec": 2195,
      "house": 2196,
      "Ġliving": 2197,
      "Ġgovern": 2198,
      "Ġcoll": 2199,
      "ĠDo": 2200,
      "Ġorigin": 2201,
      "Ġspoke": 2202,
      "Ġhappy": 2203,
      "Ġfool": 2204,
      "OU": 2205,
      "iers": 2206,
      "lo": 2207,
      "ĠHar": 2208,
      "Ġremain": 2209,
      "ection": 2210,
      "Ġhist": 2211,
      "Ġage": 2212,
      "ĠHere": 2213,
      "Ġmad": 2214,
      "Ġregard": 2215,
      "'re": 2216,
      "irm": 2217,
      "ĠEx": 2218,
      "imp": 2219,
      "ĠSc": 2220,
      "Ġcomple": 2221,
      "ength": 2222,
      "go": 2223,
      "ples": 2224,
      "Ġreached": 2225,
      "arden": 2226,
      "upon": 2227,
      "uct": 2228,
      "Ġappeared": 2229,
      "look": 2230,
      "Ġdied": 2231,
      "Ġgreen": 2232,
      "22": 2233,
      "Ġrock": 2234,
      "Ġchange": 2235,
      "Ġstory": 2236,
      "Ġlang": 2237,
      "Ġformer": 2238,
      "iece": 2239,
      "Ġforce": 2240,
      "min": 2241,
      "itions": 2242,
      "rupt": 2243,
      "more": 2244,
      "ky": 2245,
      "Ġbeyond": 2246,
      "enn": 2247,
      "ĠWill": 2248,
      "Ġsqu": 2249,
      "Ġshad": 2250,
      "Ġsense": 2251,
      "oe": 2252,
      "ously": 2253,
      "Ġquar": 2254,
      "Ġstra": 2255,
      "Ġdeal": 2256,
      "Ġburn": 2257,
      "000": 2258,
      "bes": 2259,
      "rench": 2260,
      "gan": 2261,
      "Ġbless": 2262,
      "Ġpi": 2263,
      "Ġdanger": 2264,
      "ĠLe": 2265,
      "Ġpretty": 2266,
      "Ġdidn": 2267,
      "Ġpict": 2268,
      "Ġet": 2269,
      "Ġ15": 2270,
      "Ġhours": 2271,
      "Ġcomes": 2272,
      "some": 2273,
      "Ġentered": 2274,
      "Why": 2275,
      "osp": 2276,
      "Ġcoun": 2277,
      "ST": 2278,
      "amed": 2279,
      "ĠFrom": 2280,
      "Ġbright": 2281,
      "yr": 2282,
      "ĠBl": 2283,
      "Ġaccom": 2284,
      "Ġcry": 2285,
      "Ġsecret": 2286,
      "Ġtend": 2287,
      "Ġsn": 2288,
      "asp": 2289,
      "Ġsurpr": 2290,
      "Ġoccasion": 2291,
      "Ġeight": 2292,
      "iod": 2293,
      "Ġought": 2294,
      "Ġship": 2295,
      "oint": 2296,
      "ship": 2297,
      "eor": 2298,
      "Ġsuper": 2299,
      "Ġnatural": 2300,
      "Ġpurpose": 2301,
      "athe": 2302,
      "Ġlived": 2303,
      "iant": 2304,
      "ĠJes": 2305,
      "Ġimag": 2306,
      "Ġtop": 2307,
      "sequ": 2308,
      "Ġstrength": 2309,
      "Ġremember": 2310,
      "aring": 2311,
      "Ġtribe": 2312,
      "kn": 2313,
      "Ġ14": 2314,
      "Ġlie": 2315,
      "Ġsave": 2316,
      "ils": 2317,
      "ĠAND": 2318,
      "after": 2319,
      "asure": 2320,
      "Ġtrees": 2321,
      "Ġsuddenly": 2322,
      "ases": 2323,
      "Ġline": 2324,
      "Ġyouth": 2325,
      "ics": 2326,
      "Ġlate": 2327,
      "Ġdoct": 2328,
      "Ġdesp": 2329,
      "âĢĶ": 2330,
      "iam": 2331,
      "ume": 2332,
      "Ġfront": 2333,
      "joy": 2334,
      "Ġstone": 2335,
      "Ġsad": 2336,
      "idge": 2337,
      "ĠEl": 2338,
      "Ġlater": 2339,
      "ored": 2340,
      "ĠCon": 2341,
      "bert": 2342,
      "Ġopened": 2343,
      "hood": 2344,
      "Ġhung": 2345,
      "Ġlength": 2346,
      "Ġoffic": 2347,
      "Ġhot": 2348,
      "Ġrich": 2349,
      "rible": 2350,
      "alley": 2351,
      "ech": 2352,
      "ĠPhil": 2353,
      "Ġdelight": 2354,
      "rough": 2355,
      "Ġwritten": 2356,
      "urg": 2357,
      "Ġnearly": 2358,
      "Ġtaking": 2359,
      "pec": 2360,
      "ires": 2361,
      "Ġcre": 2362,
      "aff": 2363,
      "usion": 2364,
      "Ġfurther": 2365,
      "ĠBar": 2366,
      "Ġwrong": 2367,
      "uke": 2368,
      "olog": 2369,
      "ushed": 2370,
      "Ġnoble": 2371,
      "Ġacqu": 2372,
      "Ġhop": 2373,
      "ening": 2374,
      "Ġaffect": 2375,
      "sem": 2376,
      "Ġsoft": 2377,
      "oved": 2378,
      "Ġmain": 2379,
      "Ġforward": 2380,
      "inion": 2381,
      "flu": 2382,
      "ask": 2383,
      "IA": 2384,
      "Ġclot": 2385,
      "Ġsister": 2386,
      "Ġsus": 2387,
      "aged": 2388,
      "rief": 2389,
      "raid": 2390,
      "Ġentire": 2391,
      "With": 2392,
      "Ġfle": 2393,
      "been": 2394,
      "ĠLondon": 2395,
      "ays": 2396,
      "Ġant": 2397,
      "ouses": 2398,
      "Ġ13": 2399,
      "Ġhat": 2400,
      "Ġdut": 2401,
      "Ġthine": 2402,
      "ike": 2403,
      "ission": 2404,
      "erry": 2405,
      "Ġproceed": 2406,
      "wise": 2407,
      "ĠAfter": 2408,
      "Ġprinci": 2409,
      "Ġden": 2410,
      "05": 2411,
      "vell": 2412,
      "Ġself": 2413,
      "Ġvisit": 2414,
      "Ġneighb": 2415,
      "inary": 2416,
      "ik": 2417,
      "ium": 2418,
      "Ġcomfort": 2419,
      "Ġfail": 2420,
      "cell": 2421,
      "ogn": 2422,
      "ected": 2423,
      "Ġarmy": 2424,
      ").": 2425,
      "Ġplaced": 2426,
      "ĠNep": 2427,
      "ĠCar": 2428,
      "Ġboys": 2429,
      "hel": 2430,
      "bling": 2431,
      "Ġsoci": 2432,
      "fer": 2433,
      "iding": 2434,
      "Ġsatisf": 2435,
      "esh": 2436,
      "ĠSe": 2437,
      "cent": 2438,
      "Ġimmedi": 2439,
      "Ġmakes": 2440,
      "Ġschool": 2441,
      "ien": 2442,
      "can": 2443,
      "Ġperiod": 2444,
      "Ġprot": 2445,
      "Ġpract": 2446,
      "Ġadded": 2447,
      "gl": 2448,
      "IT": 2449,
      "Ġdesire": 2450,
      "eds": 2451,
      "Ġjour": 2452,
      "Ġwis": 2453,
      "Ġmention": 2454,
      "Ġarr": 2455,
      "Ġthir": 2456,
      "resh": 2457,
      "25": 2458,
      "cons": 2459,
      "count": 2460,
      "Ġconcer": 2461,
      "Ġcompany": 2462,
      "Ġbound": 2463,
      "Ġdet": 2464,
      "ĠChristian": 2465,
      "Ġgods": 2466,
      "Ġver": 2467,
      "Ġconce": 2468,
      "Ġhonour": 2469,
      "CHAPTER": 2470,
      "time": 2471,
      "Ġeverything": 2472,
      "Ġparticular": 2473,
      "IO": 2474,
      "could": 2475,
      "Ġblue": 2476,
      "Ġbeast": 2477,
      "ager": 2478,
      "Ġhig": 2479,
      "Ġque": 2480,
      "21": 2481,
      "Ġcontinued": 2482,
      "vere": 2483,
      "set": 2484,
      "ested": 2485,
      "Ġlaugh": 2486,
      "Ġnecessary": 2487,
      "eness": 2488,
      "Ġancient": 2489,
      "iling": 2490,
      "pan": 2491,
      "Ġdistance": 2492,
      "acy": 2493,
      "Ġgrand": 2494,
      "Ġplan": 2495,
      "Ġbelong": 2496,
      "Of": 2497,
      "Ġtried": 2498,
      "Ġvict": 2499,
      "ĠTom": 2500,
      "Ġpriv": 2501,
      "ler": 2502,
      "Ġgreater": 2503,
      "Ġsuppose": 2504,
      "teen": 2505,
      "Ġmighty": 2506,
      "gment": 2507,
      "ises": 2508,
      "Ġmaid": 2509,
      "orses": 2510,
      "mn": 2511,
      "Ġwindow": 2512,
      "Ġmed": 2513,
      "Ġdeg": 2514,
      "Ġnation": 2515,
      "aded": 2516,
      "cont": 2517,
      "ining": 2518,
      "Ġcrow": 2519,
      "ĠThou": 2520,
      "Ġwide": 2521,
      "Ġda": 2522,
      "ixed": 2523,
      "Ġer": 2524,
      "erv": 2525,
      "anced": 2526,
      "Ġseven": 2527,
      "Ġhost": 2528,
      "Ġholy": 2529,
      "Ġlatter": 2530,
      "Ġago": 2531,
      "Ġincl": 2532,
      "Ġtrust": 2533,
      "oured": 2534,
      "Ġmor": 2535,
      "ellow": 2536,
      "Ġplaces": 2537,
      "aled": 2538,
      "Ġgrow": 2539,
      "Ġservice": 2540,
      "Ġthird": 2541,
      "Ġchance": 2542,
      "Ġheavy": 2543,
      "Ġstart": 2544,
      "face": 2545,
      "urs": 2546,
      "Ġgentleman": 2547,
      "Ġkill": 2548,
      "pass": 2549,
      "ĠJesus": 2550,
      "Ġdrew": 2551,
      "ĠDav": 2552,
      "Ġprep": 2553,
      "Ġbott": 2554,
      "Ġinn": 2555,
      "Ġpleasure": 2556,
      "rif": 2557,
      "ĠMan": 2558,
      "Ġkingdom": 2559,
      "Ġwanted": 2560,
      "IG": 2561,
      "ral": 2562,
      "Ġspr": 2563,
      "just": 2564,
      ".--": 2565,
      "Ġpra": 2566,
      "aching": 2567,
      "27": 2568,
      "Ġdoing": 2569,
      "Ġfly": 2570,
      "Ġfru": 2571,
      "ivid": 2572,
      "ov": 2573,
      "pping": 2574,
      "Ġmusic": 2575,
      "sec": 2576,
      "Ġsett": 2577,
      "Ġincre": 2578,
      "Ġbroken": 2579,
      "bel": 2580,
      "eterm": 2581,
      "about": 2582,
      "Ġsaith": 2583,
      "Ġknowledge": 2584,
      "Ġfilled": 2585,
      "Ġenemy": 2586,
      "Ġalthough": 2587,
      "oot": 2588,
      "OM": 2589,
      "rodu": 2590,
      "Ġrepresent": 2591,
      "road": 2592,
      "ivers": 2593,
      "Ġremained": 2594,
      "Ġsingle": 2595,
      "into": 2596,
      "Ġgrave": 2597,
      "All": 2598,
      "Ġwalked": 2599,
      "ĠJud": 2600,
      "DW": 2601,
      "OT": 2602,
      "Ġgrace": 2603,
      "ĠFrench": 2604,
      "Ġcircum": 2605,
      "great": 2606,
      "ips": 2607,
      "long": 2608,
      "ossible": 2609,
      "Ġscarce": 2610,
      "des": 2611,
      "nor": 2612,
      "Ġcru": 2613,
      "Ġsick": 2614,
      "again": 2615,
      "Ġclass": 2616,
      "Ġattempt": 2617,
      "ĠYet": 2618,
      "Ġnar": 2619,
      "Ġpen": 2620,
      "Ġang": 2621,
      "Ġfeeling": 2622,
      "ument": 2623,
      "Ġcompan": 2624,
      "formed": 2625,
      "Not": 2626,
      "isted": 2627,
      "ĠSome": 2628,
      "Ġlim": 2629,
      "Ġthick": 2630,
      "ĠGeor": 2631,
      "Ġav": 2632,
      "Ġwicked": 2633,
      "gel": 2634,
      "Ġmoon": 2635,
      "Ġstraight": 2636,
      "Ġiii": 2637,
      "001": 2638,
      "Ġbeauty": 2639,
      "Ġlangu": 2640,
      "Ġtry": 2641,
      "Ġtreat": 2642,
      "Ġborn": 2643,
      "Ġafraid": 2644,
      "place": 2645,
      "Ġparty": 2646,
      "Ġresol": 2647,
      "Ġnorth": 2648,
      "ically": 2649,
      "Ġpun": 2650,
      "ĠEd": 2651,
      "ĠPl": 2652,
      "Ġla": 2653,
      "Ġlips": 2654,
      "AM": 2655,
      "Ġpost": 2656,
      "Ġmem": 2657,
      "ĠDavid": 2658,
      "bar": 2659,
      "Ġtrouble": 2660,
      "Ġcertainly": 2661,
      "ĠGer": 2662,
      "002": 2663,
      "bles": 2664,
      "uge": 2665,
      "ancy": 2666,
      "Ġconv": 2667,
      "St": 2668,
      "Ġdisapp": 2669,
      "Ġstanding": 2670,
      "Ġresult": 2671,
      "Ġfut": 2672,
      "comm": 2673,
      "ator": 2674,
      "ploy": 2675,
      "ĠThus": 2676,
      "Ġbread": 2677,
      "arm": 2678,
      "hant": 2679,
      "Ġparts": 2680,
      "claimed": 2681,
      "Ġinqu": 2682,
      "ision": 2683,
      "osing": 2684,
      "oken": 2685,
      "Ġobl": 2686,
      "Ġminutes": 2687,
      "ĠNephi": 2688,
      "race": 2689,
      "Ġvarious": 2690,
      "gypt": 2691,
      "kes": 2692,
      "ĠMad": 2693,
      "Ġwise": 2694,
      "Ġbelow": 2695,
      "Ġhappened": 2696,
      "Ġenjoy": 2697,
      "said": 2698,
      "ribut": 2699,
      "ching": 2700,
      "ital": 2701,
      "Ġenter": 2702,
      "Ġoccup": 2703,
      "enth": 2704,
      "Ġstruck": 2705,
      "ourage": 2706,
      "Ġvirt": 2707,
      "Ġdress": 2708,
      "ishment": 2709,
      "Ġ10": 2710,
      "ext": 2711,
      "ĠQu": 2712,
      "Ġjourney": 2713,
      "Ġdwell": 2714,
      "Ġposition": 2715,
      "ops": 2716,
      "Ġfal": 2717,
      "pri": 2718,
      "Ġtong": 2719,
      "ĊĊĠĠ": 2720,
      "ĠPrince": 2721,
      "ina": 2722,
      "Ġdestroy": 2723,
      "Ġpaper": 2724,
      "Ġsong": 2725,
      "ĠAnt": 2726,
      "III": 2727,
      "Ġviol": 2728,
      "003": 2729,
      "Ġbeside": 2730,
      "orted": 2731,
      "nce": 2732,
      "hys": 2733,
      "Ġstreet": 2734,
      "Ġmass": 2735,
      "umb": 2736,
      "Ġbreath": 2737,
      "ĠChar": 2738,
      "ĠQue": 2739,
      "Ġthoughts": 2740,
      "should": 2741,
      "Ġsilver": 2742,
      "Ġweak": 2743,
      "ĠEn": 2744,
      "pid": 2745,
      "Ġcamp": 2746,
      "IR": 2747,
      "ply": 2748,
      "Ġfing": 2749,
      "iced": 2750,
      "Ġflesh": 2751,
      "aptain": 2752,
      "stood": 2753,
      "Ġforest": 2754,
      "sm": 2755,
      "Ġwine": 2756,
      "Ġsens": 2757,
      "Ġleg": 2758,
      "Ġoffer": 2759,
      "ayed": 2760,
      "isp": 2761,
      "ĠJer": 2762,
      "Ġgarden": 2763,
      "Ġworks": 2764,
      "Ġann": 2765,
      "ĠCol": 2766,
      "before": 2767,
      "ĠAd": 2768,
      "Ġsafe": 2769,
      "Is": 2770,
      "than": 2771,
      "uous": 2772,
      "Ġweek": 2773,
      "Ġcontr": 2774,
      "Ġpresence": 2775,
      "rid": 2776,
      "Ġyourself": 2777,
      "na": 2778,
      "ories": 2779,
      "Ġloved": 2780,
      "ork": 2781,
      "Ġreign": 2782,
      "ively": 2783,
      "Ġcloud": 2784,
      "cience": 2785,
      "mit": 2786,
      "Ġmeant": 2787,
      "Ġwarm": 2788,
      "ĠMay": 2789,
      "rill": 2790,
      "Ġraised": 2791,
      "Ġglory": 2792,
      "Ġenc": 2793,
      "40": 2794,
      "Ġslight": 2795,
      "Ġprobably": 2796,
      "rit": 2797,
      "inc": 2798,
      "Ġhang": 2799,
      "Ġattention": 2800,
      "Ġappearance": 2801,
      "Ġvillage": 2802,
      "irth": 2803,
      "stem": 2804,
      "ION": 2805,
      "ĠWell": 2806,
      "Ġshar": 2807,
      "Ġbeginning": 2808,
      "Ġhistory": 2809,
      "Ġsole": 2810,
      "Ġglass": 2811,
      "Ġgar": 2812,
      "ĠCan": 2813,
      "Ġban": 2814,
      "cle": 2815,
      "Ġservant": 2816,
      "Ġhorses": 2817,
      "ĠCha": 2818,
      "Ġslowly": 2819,
      "retched": 2820,
      "Ġcaught": 2821,
      "unity": 2822,
      "Ġgrew": 2823,
      "acle": 2824,
      "pecially": 2825,
      "Ġtears": 2826,
      "Ġgovernment": 2827,
      "Do": 2828,
      "Ġconn": 2829,
      "eous": 2830,
      "004": 2831,
      "Ġsilence": 2832,
      "Ġpop": 2833,
      "bered": 2834,
      "AS": 2835,
      "Ġfat": 2836,
      "ointed": 2837,
      "Ġbeneath": 2838,
      "XX": 2839,
      "Ġbow": 2840,
      "known": 2841,
      "together": 2842,
      "atic": 2843,
      "gar": 2844,
      "Ġdog": 2845,
      "Ġaccept": 2846,
      "ĠEgypt": 2847,
      "Ġfood": 2848,
      "Ġmil": 2849,
      "ference": 2850,
      "28": 2851,
      "ruct": 2852,
      "Ġoper": 2853,
      "elve": 2854,
      "ĠParis": 2855,
      "uted": 2856,
      "ords": 2857,
      "Ġmoved": 2858,
      "Ġutter": 2859,
      "ander": 2860,
      "Ġsorrow": 2861,
      "Ġiron": 2862,
      "has": 2863,
      "ĠDr": 2864,
      "tis": 2865,
      "Ġ25": 2866,
      "Ġtrem": 2867,
      "ded": 2868,
      "ding": 2869,
      "Ġspecies": 2870,
      "Ġprev": 2871,
      "eal": 2872,
      "Ġinflu": 2873,
      "iqu": 2874,
      "Ġheat": 2875,
      "Ġgall": 2876,
      "ĠFl": 2877,
      "Ġfigure": 2878,
      "Ġlif": 2879,
      "inner": 2880,
      "Ġcustom": 2881,
      "ivil": 2882,
      "little": 2883,
      "ĠSh": 2884,
      "ruction": 2885,
      "Ġbooks": 2886,
      "Ġpit": 2887,
      "Ġdread": 2888,
      "Ġwait": 2889,
      "Ġestab": 2890,
      "olly": 2891,
      "iety": 2892,
      "Ġfamil": 2893,
      "zan": 2894,
      "ghed": 2895,
      "thren": 2896,
      "hard": 2897,
      "Ġhardly": 2898,
      "Ġguard": 2899,
      "29": 2900,
      "Ġpiece": 2901,
      "Ġanx": 2902,
      "alled": 2903,
      "Ġforgot": 2904,
      "Ġseeing": 2905,
      "Ġsugg": 2906,
      "Ġvain": 2907,
      "ĠQueen": 2908,
      "uly": 2909,
      "oon": 2910,
      "ades": 2911,
      "Ġstopped": 2912,
      "rect": 2913,
      "Ġopinion": 2914,
      "Ġgen": 2915,
      "Ġdeterm": 2916,
      "Ġsuffic": 2917,
      "ITH": 2918,
      "Ġconcl": 2919,
      "Ġprophe": 2920,
      "ĠWhich": 2921,
      "Ġpath": 2922,
      "Ġshut": 2923,
      "zz": 2924,
      "Ġnames": 2925,
      "Ġund": 2926,
      "Ġrace": 2927,
      "Ġescape": 2928,
      "aked": 2929,
      "Ġimmediately": 2930,
      "Ġexact": 2931,
      "Ġeasy": 2932,
      "Ġcarry": 2933,
      "Ġknows": 2934,
      "ĠFather": 2935,
      "Ġshore": 2936,
      "ĠNe": 2937,
      "Ġwalls": 2938,
      "yal": 2939,
      "ify": 2940,
      "rop": 2941,
      "hor": 2942,
      "Ġgate": 2943,
      "005": 2944,
      "Ġspot": 2945,
      "007": 2946,
      "Ġsummer": 2947,
      "Ġfuture": 2948,
      "Ġspring": 2949,
      "Ġsav": 2950,
      "oom": 2951,
      "Ġsouth": 2952,
      "Ġmult": 2953,
      "Ġcovered": 2954,
      "car": 2955,
      "cceed": 2956,
      "ague": 2957,
      "ences": 2958,
      "Ġsepar": 2959,
      "Ġseek": 2960,
      "Ġrepe": 2961,
      "Ġquickly": 2962,
      "ii": 2963,
      "ys": 2964,
      "Ġconvers": 2965,
      "Ġintell": 2966,
      "umed": 2967,
      "Ġspoken": 2968,
      "idered": 2969,
      "44": 2970,
      "ĠTar": 2971,
      "Ġcompl": 2972,
      "Ġfloor": 2973,
      "Ġconduct": 2974,
      "Ġmarried": 2975,
      "Ġemploy": 2976,
      "006": 2977,
      "Ġwrite": 2978,
      "Ġkings": 2979,
      "bb": 2980,
      "gress": 2981,
      "ending": 2982,
      "Ġdirection": 2983,
      "Ġknight": 2984,
      "ishing": 2985,
      "ĠRome": 2986,
      "Ġroll": 2987,
      "Ġnations": 2988,
      "Ġshout": 2989,
      "Ġdeli": 2990,
      "ca": 2991,
      "eces": 2992,
      "UR": 2993,
      "kin": 2994,
      "Ġlives": 2995,
      "ales": 2996,
      "Ġstat": 2997,
      "Be": 2998,
      "Ġstream": 2999,
      "Ġdifficult": 3000,
      "UT": 3001,
      "happ": 3002,
      "Ġminute": 3003,
      "Ġbod": 3004,
      "ĠFrance": 3005,
      "gain": 3006,
      "ashion": 3007,
      "eks": 3008,
      "Ġsake": 3009,
      "Ġrecogn": 3010,
      "Ġbuilt": 3011,
      "Ġisland": 3012,
      "His": 3013,
      "every": 3014,
      "Ar": 3015,
      "Ġserve": 3016,
      "bor": 3017,
      "vation": 3018,
      "zen": 3019,
      "AD": 3020,
      "habit": 3021,
      "acher": 3022,
      "Ġdim": 3023,
      "Ġdemand": 3024,
      "Ġpoet": 3025,
      "Ġdescend": 3026,
      "velop": 3027,
      "Ġfresh": 3028,
      "your": 3029,
      "dy": 3030,
      "Ġ<": 3031,
      "ĠPer": 3032,
      "ĠStates": 3033,
      "bet": 3034,
      "Ġap": 3035,
      "Ġpersons": 3036,
      "mbers": 3037,
      "Ġmonths": 3038,
      "Ġ`": 3039,
      "Ġneck": 3040,
      "Ġcircumst": 3041,
      "ĠCH": 3042,
      "ĠGeorge": 3043,
      "Ġmill": 3044,
      "ĠCal": 3045,
      "pic": 3046,
      "Ġhid": 3047,
      "ems": 3048,
      "Ġhouses": 3049,
      "elled": 3050,
      "Ġast": 3051,
      "Ġpull": 3052,
      "orts": 3053,
      "bey": 3054,
      "ming": 3055,
      "Ġcra": 3056,
      "ĠLa": 3057,
      "Ġthinking": 3058,
      "Ġfro": 3059,
      "Ġpursu": 3060,
      "Ġliber": 3061,
      "ceived": 3062,
      "Ġinstead": 3063,
      "Ġduty": 3064,
      "Ġplease": 3065,
      "ables": 3066,
      "Ġenemies": 3067,
      "Ġfalse": 3068,
      "Mr": 3069,
      "Ġcomplete": 3070,
      "After": 3071,
      "Ġmess": 3072,
      "new": 3073,
      "Ġnews": 3074,
      "Ġstarted": 3075,
      "ĠGo": 3076,
      "Ġreceive": 3077,
      "pon": 3078,
      "asc": 3079,
      "urope": 3080,
      "Ġfurn": 3081,
      "see": 3082,
      "Ġspeed": 3083,
      "olute": 3084,
      "008": 3085,
      "009": 3086,
      "Ġcentury": 3087,
      "itable": 3088,
      "ĠCome": 3089,
      "Ġdescri": 3090,
      "Ġgaz": 3091,
      "Ġoccur": 3092,
      "IUS": 3093,
      "Ġbold": 3094,
      "fast": 3095,
      "Ġboat": 3096,
      "Ġdarkness": 3097,
      "Ġchair": 3098,
      "ented": 3099,
      "Ġwitness": 3100,
      "Ġbare": 3101,
      "Ġgreatest": 3102,
      "Ġears": 3103,
      "ĠMary": 3104,
      "even": 3105,
      "Ġyes": 3106,
      "ĠLady": 3107,
      "Ġdeser": 3108,
      "Ġgetting": 3109,
      "alem": 3110,
      "Ch": 3111,
      "Ġring": 3112,
      "Ġcharge": 3113,
      "Ġcrown": 3114,
      "Ġdepart": 3115,
      "Ġpp": 3116,
      "Ġkiss": 3117,
      "while": 3118,
      "ĠCa": 3119,
      "Ġjudgment": 3120,
      "reet": 3121,
      "ilar": 3122,
      "kind": 3123,
      "42": 3124,
      "Ġlocation": 3125,
      "Ġid": 3126,
      "Ġign": 3127,
      "arer": 3128,
      "Ġafterwards": 3129,
      "iction": 3130,
      "Ġhall": 3131,
      "OW": 3132,
      "Ġheads": 3133,
      "Ġappl": 3134,
      "ĠEar": 3135,
      "Ġfrequ": 3136,
      "host": 3137,
      "antage": 3138,
      "uded": 3139,
      "Ġlearned": 3140,
      "Ġdom": 3141,
      "Ġves": 3142,
      "ency": 3143,
      "One": 3144,
      "taining": 3145,
      "cr": 3146,
      "Ġpure": 3147,
      "athered": 3148,
      "Ġsystem": 3149,
      "ĠIN": 3150,
      "ulty": 3151,
      "Ġbreast": 3152,
      "itation": 3153,
      "ibly": 3154,
      "anted": 3155,
      "Ġbell": 3156,
      "ipp": 3157,
      "Ġfright": 3158,
      "Ġinstant": 3159,
      "istance": 3160,
      "Ġbrethren": 3161,
      "Ġsky": 3162,
      "Ġfit": 3163,
      "Ġfier": 3164,
      "ulation": 3165,
      "Ġthereof": 3166,
      "Ġfruit": 3167,
      "30": 3168,
      "Ġnote": 3169,
      "Ġbox": 3170,
      "By": 3171,
      "Ġmort": 3172,
      "Ġforget": 3173,
      "ĠEm": 3174,
      "Ġfun": 3175,
      "alt": 3176,
      "Ġreach": 3177,
      "ĠMex": 3178,
      "50": 3179,
      "bre": 3180,
      "Ġwinter": 3181,
      "ĠGree": 3182,
      "Ġspread": 3183,
      ".âĢĿ": 3184,
      "Ġobserved": 3185,
      "Ġcomb": 3186,
      "Ġservants": 3187,
      "stit": 3188,
      "Ġkilled": 3189,
      "Ġsmile": 3190,
      "Ġmagn": 3191,
      "Ġmountain": 3192,
      "ford": 3193,
      "yn": 3194,
      "ividual": 3195,
      "Ġcondition": 3196,
      "oul": 3197,
      "Ġformed": 3198,
      "usalem": 3199,
      "Ġrapid": 3200,
      "ĠOh": 3201,
      "ĠĊĠ": 3202,
      "Ġhearts": 3203,
      "sha": 3204,
      "Ġvan": 3205,
      "ENT": 3206,
      "Ġrul": 3207,
      "only": 3208,
      "Ġchanged": 3209,
      "hu": 3210,
      "Ġbeat": 3211,
      "Ġgoes": 3212,
      "Ġbelieved": 3213,
      "Ġetc": 3214,
      "oes": 3215,
      "Ġsitting": 3216,
      "lend": 3217,
      "Ġespecially": 3218,
      "abb": 3219,
      "Ġbroke": 3220,
      "reme": 3221,
      "lected": 3222,
      "Ġball": 3223,
      "might": 3224,
      "oly": 3225,
      "ye": 3226,
      "irits": 3227,
      "noon": 3228,
      "leep": 3229,
      "Ġways": 3230,
      "Ġexpress": 3231,
      "Ġeast": 3232,
      "Ġvessel": 3233,
      "ourse": 3234,
      "icate": 3235,
      "Ġrise": 3236,
      "Ġlanguage": 3237,
      "Ġpaid": 3238,
      "Ġscene": 3239,
      "010": 3240,
      "Ġrain": 3241,
      "Ġprince": 3242,
      "Ġbroad": 3243,
      "Ġfifty": 3244,
      "eg": 3245,
      "ĠYe": 3246,
      "Ġsimple": 3247,
      "Ġdesign": 3248,
      "Ġhide": 3249,
      "down": 3250,
      "ĠThor": 3251,
      "Ġmiddle": 3252,
      "Ġarrived": 3253,
      "Ġcorner": 3254,
      "ĠHen": 3255,
      "Ġtongue": 3256,
      "ae": 3257,
      "hern": 3258,
      "ĠBrit": 3259,
      "ĠPaul": 3260,
      "011": 3261,
      "Ġsucceed": 3262,
      "ession": 3263,
      "ĊĠĠĠĠĠĠĠĠĠ": 3264,
      "Ġcou": 3265,
      "Ġcost": 3266,
      "ival": 3267,
      "Ġwear": 3268,
      "essor": 3269,
      "Ġimm": 3270,
      "43": 3271,
      "Ġshowed": 3272,
      "Ġexclaimed": 3273,
      "ĠTr": 3274,
      "rees": 3275,
      "Ġhonest": 3276,
      "Ġoutside": 3277,
      "Ġsoldiers": 3278,
      "ste": 3279,
      "Ġdoth": 3280,
      "amb": 3281,
      "unk": 3282,
      "Ġpros": 3283,
      "ĠDan": 3284,
      "Ġproud": 3285,
      "Mar": 3286,
      "eless": 3287,
      "Ġterrible": 3288,
      "Ġband": 3289,
      "Ġshame": 3290,
      "Ġlaughed": 3291,
      "RI": 3292,
      "Ġletters": 3293,
      "Ġlearn": 3294,
      "sed": 3295,
      "Ġcities": 3296,
      "ternal": 3297,
      "Ġtwelve": 3298,
      "âĢľ": 3299,
      "Ġthirty": 3300,
      "Ġflowers": 3301,
      "itiz": 3302,
      "Ġx": 3303,
      "illa": 3304,
      "nat": 3305,
      "Ġ29": 3306,
      "oo": 3307,
      "06": 3308,
      "Ġcho": 3309,
      "Ġtast": 3310,
      "ests": 3311,
      "shall": 3312,
      "aterial": 3313,
      "iring": 3314,
      "Ġpalace": 3315,
      "Here": 3316,
      "ĠMor": 3317,
      "Ġmel": 3318,
      "Let": 3319,
      "ĠJew": 3320,
      "through": 3321,
      "Ġwhatever": 3322,
      "Ġgrass": 3323,
      "Ġaction": 3324,
      "Ġdam": 3325,
      "rep": 3326,
      "ĠSha": 3327,
      "Ġprove": 3328,
      "Ġsupposed": 3329,
      "ped": 3330,
      "Ġlower": 3331,
      "reck": 3332,
      "Ġdiscovered": 3333,
      "oted": 3334,
      "Ġconsequ": 3335,
      "ners": 3336,
      "Ġmut": 3337,
      "mar": 3338,
      "people": 3339,
      "osite": 3340,
      "Alma": 3341,
      "ARD": 3342,
      "ĠCaptain": 3343,
      "ois": 3344,
      "Ġtemper": 3345,
      "Where": 3346,
      "Ġgiving": 3347,
      "ĊĊĠĠĠĠĠĠĠĠĠĠĠĠĠĠĠĠ": 3348,
      "never": 3349,
      "ĠNorth": 3350,
      "Ġeasily": 3351,
      "ĠAmerican": 3352,
      "made": 3353,
      "Ġloud": 3354,
      "Ġcover": 3355,
      "work": 3356,
      "father": 3357,
      "icated": 3358,
      "Ġ26": 3359,
      "Ġemb": 3360,
      "From": 3361,
      "Ġpec": 3362,
      "otion": 3363,
      "itive": 3364,
      "ĠGl": 3365,
      "ĠEurope": 3366,
      "may": 3367,
      "Ġdrawn": 3368,
      "Ġsuffer": 3369,
      "Ġusual": 3370,
      "itary": 3371,
      "Ġtrain": 3372,
      "ĠMoses": 3373,
      "orry": 3374,
      "Ġtender": 3375,
      ".[": 3376,
      "these": 3377,
      "Ġimpossible": 3378,
      "chan": 3379,
      "Ġmidst": 3380,
      "Ġrevol": 3381,
      "Ġrule": 3382,
      "33": 3383,
      "worth": 3384,
      "ĠWas": 3385,
      "Ġshown": 3386,
      "Ġleaves": 3387,
      "Ġmiss": 3388,
      "ication": 3389,
      "osop": 3390,
      "Ġmarriage": 3391,
      "ĠGerman": 3392,
      "Ġpassing": 3393,
      "Ġbrave": 3394,
      "Ġtest": 3395,
      "Ġentirely": 3396,
      "omes": 3397,
      "pal": 3398,
      "Ġspace": 3399,
      "ĠRom": 3400,
      "AC": 3401,
      "Ġsteps": 3402,
      "hest": 3403,
      "Ġfortune": 3404,
      "Ġhealth": 3405,
      "Ġvalley": 3406,
      "07": 3407,
      "``": 3408,
      "Ġeld": 3409,
      "ĠKING": 3410,
      "emed": 3411,
      "action": 3412,
      "Ġspake": 3413,
      "Ġblind": 3414,
      "Ġnarrow": 3415,
      "IV": 3416,
      "Ġoffered": 3417,
      "Ġdry": 3418,
      "himself": 3419,
      "Ġgenerally": 3420,
      "urd": 3421,
      "uliar": 3422,
      "ERS": 3423,
      "Ġsilent": 3424,
      "012": 3425,
      "Ġjudge": 3426,
      "Ġclothes": 3427,
      "Ġod": 3428,
      "Ġdinner": 3429,
      "Ġboard": 3430,
      "ocks": 3431,
      "good": 3432,
      "Ġfirm": 3433,
      "reed": 3434,
      "Ġfill": 3435,
      "Ġcruel": 3436,
      "ĠJerusalem": 3437,
      "Ġleaving": 3438,
      "Ġiv": 3439,
      "wood": 3440,
      "Ġclosed": 3441,
      "pers": 3442,
      "Ġfra": 3443,
      "Ġtot": 3444,
      "Ġattack": 3445,
      "ification": 3446,
      "Ġscarcely": 3447,
      "Ġpleased": 3448,
      "Ġgirls": 3449,
      "Ġimportant": 3450,
      "oid": 3451,
      "Ġcivil": 3452,
      "Ġhy": 3453,
      "Ġreve": 3454,
      "Ġ27": 3455,
      "Ġcommanded": 3456,
      "Ġtouch": 3457,
      "don": 3458,
      "Ġsides": 3459,
      "Ġcat": 3460,
      "Ġcouldn": 3461,
      "Ġgrou": 3462,
      "ĠTherefore": 3463,
      "Ġpieces": 3464,
      "Ġsevent": 3465,
      "chief": 3466,
      "013": 3467,
      "Ġloss": 3468,
      "back": 3469,
      "ĠPe": 3470,
      "Ġbitter": 3471,
      "law": 3472,
      "Ġequal": 3473,
      "Ġpleasant": 3474,
      "ĊĊĠĠĠĠĠĠĠĠĠĠĠĠĠĠ": 3475,
      "Ġpassion": 3476,
      "TA": 3477,
      "Ġ+": 3478,
      "Ġwrote": 3479,
      "morrow": 3480,
      "sy": 3481,
      "erous": 3482,
      "Ġlies": 3483,
      "Ġworse": 3484,
      "Ġyellow": 3485,
      "uses": 3486,
      "know": 3487,
      "Ġoffice": 3488,
      "ails": 3489,
      "Ġfol": 3490,
      "Ġcreature": 3491,
      "Ġstir": 3492,
      "ulf": 3493,
      "Ġspeaking": 3494,
      "Ġfallen": 3495,
      "Ġwished": 3496,
      "aman": 3497,
      "Ġnotice": 3498,
      "ĠEven": 3499,
      "Ġpicture": 3500,
      "Ġturning": 3501,
      "cher": 3502,
      "Ġmotion": 3503,
      "ny": 3504,
      "Ġspeech": 3505,
      "Ġgolden": 3506,
      "Ġbank": 3507,
      "Ġexcell": 3508,
      "ĠTheir": 3509,
      "ĠGu": 3510,
      "ĠOur": 3511,
      "Ġsitu": 3512,
      "ux": 3513,
      "?;": 3514,
      "iny": 3515,
      "Ġpress": 3516,
      "aying": 3517,
      "ĠChurch": 3518,
      "Ġhence": 3519,
      "014": 3520,
      "Ġclean": 3521,
      "Ġbirds": 3522,
      "Ġweight": 3523,
      "Ġ12": 3524,
      "Ġlines": 3525,
      "uns": 3526,
      "ĠEvery": 3527,
      "Ġcheer": 3528,
      "Ġinfluence": 3529,
      "inite": 3530,
      "Ġsnow": 3531,
      "Ġmerely": 3532,
      "Ġgro": 3533,
      "Ġapart": 3534,
      "ingu": 3535,
      "ĠSam": 3536,
      "Ġheight": 3537,
      "omen": 3538,
      "thought": 3539,
      "ivered": 3540,
      "Ġphys": 3541,
      "rose": 3542,
      "Ġcaused": 3543,
      "eping": 3544,
      "cing": 3545,
      "pet": 3546,
      "Ġcand": 3547,
      "Ġrunning": 3548,
      "Ġdoctor": 3549,
      "ĠJack": 3550,
      "ĠJim": 3551,
      "EC": 3552,
      "imate": 3553,
      "Ġroyal": 3554,
      "Ġpromise": 3555,
      "Ġdivine": 3556,
      "eed": 3557,
      "Ġfled": 3558,
      "Ġfavour": 3559,
      "Ġsharp": 3560,
      "Ġtro": 3561,
      "Ġtall": 3562,
      "Ġsurr": 3563,
      "Ġstro": 3564,
      "ĠPeter": 3565,
      "Ġbottom": 3566,
      "mes": 3567,
      "ero": 3568,
      "Ġprocess": 3569,
      "Ġclaim": 3570,
      "Ġwaiting": 3571,
      "pter": 3572,
      "ethod": 3573,
      "Ġtone": 3574,
      "Ġstop": 3575,
      "Ġmer": 3576,
      "Ġrid": 3577,
      "Ġwaters": 3578,
      "ĠBab": 3579,
      "015": 3580,
      "Ġstranger": 3581,
      "Ġyield": 3582,
      "ĠMexic": 3583,
      "orious": 3584,
      "Ġjustice": 3585,
      "Ġfault": 3586,
      "Ġlaws": 3587,
      "God": 3588,
      "Ġsought": 3589,
      "clock": 3590,
      "Ġthank": 3591,
      "Ġ28": 3592,
      "oned": 3593,
      "Ġrighteous": 3594,
      "Ġph": 3595,
      "Ġdue": 3596,
      "Ġhunt": 3597,
      "Ġkne": 3598,
      "Ġsomewhat": 3599,
      "Ġprevent": 3600,
      "Ġearn": 3601,
      "Ġones": 3602,
      "Ġexpected": 3603,
      "inted": 3604,
      "acing": 3605,
      "lex": 3606,
      "Ġproduced": 3607,
      "Ġconqu": 3608,
      "eneral": 3609,
      "ĠYork": 3610,
      "inal": 3611,
      "Ġthrew": 3612,
      "...": 3613,
      "Ġhabit": 3614,
      "Ġindividual": 3615,
      "Ġreligion": 3616,
      "Ġoffering": 3617,
      "Ġexperience": 3618,
      "Ġprepared": 3619,
      "Ġgathered": 3620,
      "ĠMag": 3621,
      "ĠWITH": 3622,
      "tar": 3623,
      "Ġinhabit": 3624,
      "Who": 3625,
      "Ġhonor": 3626,
      "Ġshadow": 3627,
      "Ġoblig": 3628,
      "Ġauthority": 3629,
      "Ġforms": 3630,
      "ille": 3631,
      "Ġblow": 3632,
      "Ġguess": 3633,
      "two": 3634,
      "Ġmir": 3635,
      "cil": 3636,
      "first": 3637,
      "wed": 3638,
      "reen": 3639,
      "Ġwarri": 3640,
      "wr": 3641,
      "Ġelect": 3642,
      "Ġdoll": 3643,
      "pond": 3644,
      "Ġwel": 3645,
      "ĠJe": 3646,
      "Ġlying": 3647,
      "oined": 3648,
      "Ġstar": 3649,
      "Ġconsidered": 3650,
      "41": 3651,
      "Ġallowed": 3652,
      "Ġslain": 3653,
      "Ġlot": 3654,
      "Ġsearch": 3655,
      "Ġsail": 3656,
      "ĠTH": 3657,
      "cription": 3658,
      "Ġreligious": 3659,
      "Ġreply": 3660,
      "Ġpreser": 3661,
      "Ġsociety": 3662,
      "Ġpock": 3663,
      "sl": 3664,
      "Ġbab": 3665,
      "Ġopport": 3666,
      "Ġalive": 3667,
      "AND": 3668,
      "por": 3669,
      "erable": 3670,
      "illy": 3671,
      "ĠHeaven": 3672,
      "ĠAmerica": 3673,
      "Or": 3674,
      "Ġmach": 3675,
      "Ġexec": 3676,
      "PH": 3677,
      "much": 3678,
      "ĠVal": 3679,
      "Ġworthy": 3680,
      "Ġexistence": 3681,
      "Ġsand": 3682,
      "Ġstrugg": 3683,
      "Ġabsolute": 3684,
      "Ġmercy": 3685,
      "Ġspirits": 3686,
      "ĠTarzan": 3687,
      "AU": 3688,
      "Ġeager": 3689,
      "Ġur": 3690,
      "Ġdistinct": 3691,
      "Ġlooks": 3692,
      "ashed": 3693,
      "Ġbuilding": 3694,
      "ourn": 3695,
      "held": 3696,
      "idently": 3697,
      "Ġwouldn": 3698,
      "ĠOl": 3699,
      "ool": 3700,
      "Ġgives": 3701,
      "Ġdevil": 3702,
      "pected": 3703,
      "36": 3704,
      "09": 3705,
      "Ġcourage": 3706,
      "Ġhither": 3707,
      "tering": 3708,
      "Ġwonderful": 3709,
      "pes": 3710,
      "Ġpale": 3711,
      "Ġcrowd": 3712,
      "esty": 3713,
      "Ġexpression": 3714,
      "bers": 3715,
      "rey": 3716,
      "Ġourselves": 3717,
      "Ġorgan": 3718,
      "Ġspent": 3719,
      "istic": 3720,
      "Ġbond": 3721,
      "Ġexample": 3722,
      "Ġsimilar": 3723,
      "umber": 3724,
      "Ġempt": 3725,
      "Ġbirth": 3726,
      "Ġstage": 3727,
      "ĠBehold": 3728,
      "Ġunless": 3729,
      "016": 3730,
      "Ġattend": 3731,
      "Ġfixed": 3732,
      "ĠSouth": 3733,
      "Ġforeign": 3734,
      "Ġlose": 3735,
      "Ġnoise": 3736,
      "isters": 3737,
      "Ġpeculiar": 3738,
      "esar": 3739,
      "Ġarg": 3740,
      "Ġfathers": 3741,
      "45": 3742,
      "Ġafternoon": 3743,
      "Ġ36": 3744,
      "did": 3745,
      "mitted": 3746,
      "Ġliter": 3747,
      "icks": 3748,
      "Ġhappiness": 3749,
      "rat": 3750,
      "Ġtit": 3751,
      "asse": 3752,
      "Ġpassage": 3753,
      "aries": 3754,
      "Ġapparent": 3755,
      "Ġcab": 3756,
      "sect": 3757,
      "Ġrej": 3758,
      "ogra": 3759,
      "Ġdegree": 3760,
      "Ġdust": 3761,
      "Ġsplend": 3762,
      "Ġintrodu": 3763,
      "Ġpride": 3764,
      "aus": 3765,
      "Ġwealth": 3766,
      "Ġ(_": 3767,
      "Ġtor": 3768,
      "Ġreck": 3769,
      "ĠCor": 3770,
      "Ġdevelop": 3771,
      "Ġattract": 3772,
      "ancing": 3773,
      "Ġships": 3774,
      "Ġshook": 3775,
      "Ġcurious": 3776,
      "Ġhigher": 3777,
      "bly": 3778,
      "lar": 3779,
      "Ġbid": 3780,
      "ett": 3781,
      "Ġappears": 3782,
      "Ġwisdom": 3783,
      "Ġphil": 3784,
      "Ġmeaning": 3785,
      "ipped": 3786,
      "vey": 3787,
      "Ġbodies": 3788,
      "Ġanimal": 3789,
      "Ġsurprise": 3790,
      "Ġmaterial": 3791,
      "Ġseat": 3792,
      "comp": 3793,
      "acious": 3794,
      "Ġconcerning": 3795,
      "ieve": 3796,
      "Ġforty": 3797,
      "Ġladies": 3798,
      "Ġfem": 3799,
      "ĠYour": 3800,
      "ishop": 3801,
      "Ġspecial": 3802,
      "Ġignor": 3803,
      "bid": 3804,
      "37": 3805,
      "Ah": 3806,
      "fall": 3807,
      "ias": 3808,
      "such": 3809,
      "umn": 3810,
      "ailed": 3811,
      "Ġamount": 3812,
      "Ġfashion": 3813,
      "Ġshoulder": 3814,
      "Ġextreme": 3815,
      "without": 3816,
      "Ġparent": 3817,
      "Ġsurface": 3818,
      "Ġsimply": 3819,
      "sky": 3820,
      "Ġmeat": 3821,
      "Ġaston": 3822,
      "somet": 3823,
      "Ġ11": 3824,
      "Ġburied": 3825,
      "iently": 3826,
      "ato": 3827,
      "Ġmembers": 3828,
      "ulated": 3829,
      "Ġexceed": 3830,
      "Ġnative": 3831,
      "Ġdecided": 3832,
      "Ġtemple": 3833,
      "Ġfate": 3834,
      "35": 3835,
      "46": 3836,
      "Ġaud": 3837,
      "Ġlikely": 3838,
      "Ġopposite": 3839,
      "aly": 3840,
      "Ġwest": 3841,
      "antic": 3842,
      "Ġmountains": 3843,
      "ĠJudah": 3844,
      "Ġprivate": 3845,
      "Ġsolemn": 3846,
      "ker": 3847,
      "shi": 3848,
      "isc": 3849,
      "Ġconsiderable": 3850,
      "Ġstreets": 3851,
      "Ġcurrent": 3852,
      "rifice": 3853,
      "being": 3854,
      "Ġadvantage": 3855,
      "ember": 3856,
      "Ġordered": 3857,
      "gged": 3858,
      "Ġfaces": 3859,
      "_\"": 3860,
      "isto": 3861,
      "Ġbull": 3862,
      "ĠPres": 3863,
      "Ġlegs": 3864,
      "Ġperfectly": 3865,
      "Ġvent": 3866,
      "Ġvalue": 3867,
      "Obs": 3868,
      "Ġnamed": 3869,
      "fortun": 3870,
      "Ġedge": 3871,
      "Ġblessed": 3872,
      "child": 3873,
      "Ġangry": 3874,
      "ox": 3875,
      "ros": 3876,
      "Ġunderstood": 3877,
      "ators": 3878,
      "Ġshot": 3879,
      "last": 3880,
      "found": 3881,
      "Ġpossession": 3882,
      "ĠMart": 3883,
      "Ġsuit": 3884,
      "018": 3885,
      "Ġuncle": 3886,
      "Ġdetermined": 3887,
      "Ġcases": 3888,
      "Ġhills": 3889,
      "attered": 3890,
      "Ġimpro": 3891,
      "OP": 3892,
      "char": 3893,
      "Ġvast": 3894,
      "Ġpity": 3895,
      "38": 3896,
      "Ġwand": 3897,
      "31": 3898,
      "ĠâĢĺ": 3899,
      "Ġdropped": 3900,
      "Ġmarry": 3901,
      "Ġdare": 3902,
      "ĠBec": 3903,
      "formation": 3904,
      "those": 3905,
      "ĠHad": 3906,
      "tw": 3907,
      "Ġtrying": 3908,
      "Ġallow": 3909,
      "Ġspite": 3910,
      "Ġperform": 3911,
      "Come": 3912,
      "take": 3913,
      "hem": 3914,
      "Ġhuge": 3915,
      "ĠGood": 3916,
      "order": 3917,
      "iration": 3918,
      "Ġfaint": 3919,
      "onder": 3920,
      "Ġ20": 3921,
      "Ġanimals": 3922,
      "Ġgrief": 3923,
      "Ġtravel": 3924,
      "Ġbore": 3925,
      "ĊĠĠĠĠĠĠĠĠĠĠĠĠĠĠĠĠ": 3926,
      "anch": 3927,
      "Ġfeast": 3928,
      "Ġwatched": 3929,
      "Ġmemory": 3930,
      "Ġpolit": 3931,
      "Ġconversation": 3932,
      "acc": 3933,
      "UC": 3934,
      "lor": 3935,
      "theless": 3936,
      "Ġpromised": 3937,
      "friend": 3938,
      "sw": 3939,
      "Ġworship": 3940,
      "ĠHenry": 3941,
      "ĠSuch": 3942,
      "anged": 3943,
      "ĠCount": 3944,
      "Ġstudy": 3945,
      "Ġextra": 3946,
      "Ġpraise": 3947,
      "Ġneighbour": 3948,
      "ios": 3949,
      "asons": 3950,
      "peror": 3951,
      "Ġgather": 3952,
      "Ġstones": 3953,
      "Ġtalking": 3954,
      "Ġhero": 3955,
      "Ġsty": 3956,
      "Ġanger": 3957,
      "och": 3958,
      "Ġthrone": 3959,
      "Ġmoral": 3960,
      "Ġwriting": 3961,
      "Ġfavor": 3962,
      "Ġdifficulty": 3963,
      "Ġoriginal": 3964,
      "yri": 3965,
      "Ġlands": 3966,
      "Ġaside": 3967,
      "estion": 3968,
      "Ġbrown": 3969,
      "32": 3970,
      "ĠRoman": 3971,
      "Ġdistant": 3972,
      "Ġcircumstances": 3973,
      "Ġharm": 3974,
      "Ġ45": 3975,
      "Ġtravell": 3976,
      "hal": 3977,
      "Ġhate": 3978,
      "Ġris": 3979,
      "Ġconc": 3980,
      "ĠSpirit": 3981,
      "ĠHim": 3982,
      "Ġspect": 3983,
      "Ġlock": 3984,
      "Ġroof": 3985,
      "ĠMore": 3986,
      "Ġtaught": 3987,
      "rer": 3988,
      "ainted": 3989,
      "Ġfeather": 3990,
      "Ġfinally": 3991,
      "Ġvirtue": 3992,
      "Tis": 3993,
      "gent": 3994,
      "arest": 3995,
      "Ġlest": 3996,
      "Ġlod": 3997,
      "ocked": 3998,
      "Ġappre": 3999,
      "Ġcalm": 4000,
      "ardon": 4001,
      "oked": 4002,
      "Ġrode": 4003,
      "GE": 4004,
      "Ġaid": 4005,
      "Ġthin": 4006,
      "Ġdeliver": 4007,
      "angers": 4008,
      "Ġcommun": 4009,
      "ounced": 4010,
      "Ġpresently": 4011,
      "Ġlean": 4012,
      "rance": 4013,
      "apers": 4014,
      "urned": 4015,
      "Ġyea": 4016,
      "Ġcaptain": 4017,
      "Ġqueen": 4018,
      "Ġmaj": 4019,
      "ception": 4020,
      "ĠSon": 4021,
      "Ġneg": 4022,
      "Ġdeclared": 4023,
      "019": 4024,
      "iest": 4025,
      "tains": 4026,
      "ibility": 4027,
      "fact": 4028,
      "half": 4029,
      "Ġresem": 4030,
      "017": 4031,
      "ĠJean": 4032,
      "ram": 4033,
      "Ġble": 4034,
      "Ġflight": 4035,
      "anches": 4036,
      "rated": 4037,
      "Ġwings": 4038,
      "--\"_": 4039,
      "Ġproof": 4040,
      "Ġpriests": 4041,
      "._,": 4042,
      "Ġfinished": 4043,
      "looking": 4044,
      "ID": 4045,
      "ceive": 4046,
      "itch": 4047,
      "ĠWhile": 4048,
      "34": 4049,
      "Ġfish": 4050,
      "ĠMaster": 4051,
      "eb": 4052,
      "Ġlifted": 4053,
      "Ġexactly": 4054,
      "Ġphilosop": 4055,
      "Ġder": 4056,
      ",âĢĿ": 4057,
      "occ": 4058,
      "ĠYes": 4059,
      "Ġswift": 4060,
      "standing": 4061,
      "iments": 4062,
      "Ġdu": 4063,
      "Ġmeasure": 4064,
      "ĠGreat": 4065,
      "Ġcop": 4066,
      "water": 4067,
      "Ġmeeting": 4068,
      "field": 4069,
      "eav": 4070,
      "inn": 4071,
      "Ġsan": 4072,
      "aints": 4073,
      "Ġ188": 4074,
      "Ġconfess": 4075,
      "Ġsufficient": 4076,
      "ĠMon": 4077,
      "osen": 4078,
      "Ġcred": 4079,
      "Ġshape": 4080,
      "Ġinstance": 4081,
      "Ġagree": 4082,
      "Ġleap": 4083,
      "abbath": 4084,
      "rec": 4085,
      "Ġ&?;": 4086,
      "aughters": 4087,
      "Wh": 4088,
      "Ġegg": 4089,
      "ĠAL": 4090,
      "Ġtom": 4091,
      "Ġinj": 4092,
      "Ġforced": 4093,
      "Ġsurely": 4094,
      "Ġhurt": 4095
    },
    "merges": [
      [
        "Ġ",
        "t"
      ],
      [
        "h",
        "e"
      ],
      [
        "Ġ",
        "a"
      ],
      [
        "i",
        "n"
      ],
      [
        "Ġt",
        "he"
      ],
      [
        "Ġ",
        "Ġ"
      ],
      [
        "Ġ",
        "o"
      ],
      [
        "Ġ",
        "w"
      ],
      [
        "Ġ",
        "s"
      ],
      [
        "r",
        "e"
      ],
      [
        "n",
        "d"
      ],
      [
        "e",
        "r"
      ],
      [
        "h",
        "a"
      ],
      [
        "Ġ",
        "b"
      ],
      [
        "o",
        "u"
      ],
      [
        "i",
        "s"
      ],
      [
        "i",
        "t"
      ],
      [
        "e",
        "d"
      ],
      [
        "Ġ",
        "m"
      ],
      [
        "o",
        "n"
      ],
      [
        "Ġo",
        "f"
      ],
      [
        "Ġ",
        "f"
      ],
      [
        "e",
        "n"
      ],
      [
        "Ġa",
        "nd"
      ],
      [
        "Ġ",
        "c"
      ],
      [
        "o",
        "r"
      ],
      [
        "e",
        "s"
      ],
      [
        "Ġt",
        "o"
      ],
      [
        "in",
        "g"
      ],
      [
        "l",
        "l"
      ],
      [
        "ĠĠ",
        "ĠĠ"
      ],
      [
        "a",
        "r"
      ],
      [
        "Ġ",
        "p"
      ],
      [
        "Ġ",
        "d"
      ],
      [
        "a",
        "n"
      ],
      [
        "Ġ",
        "in"
      ],
      [
        "a",
        "t"
      ],
      [
        "Ġ",
        "h"
      ],
      [
        "a",
        "s"
      ],
      [
        "Ġ",
        "l"
      ],
      [
        "Ġ",
        "n"
      ],
      [
        "Ġ",
        "he"
      ],
      [
        "o",
        "m"
      ],
      [
        "Ġ",
        "ha"
      ],
      [
        "ha",
        "t"
      ],
      [
        "l",
        "e"
      ],
      [
        "Ġb",
        "e"
      ],
      [
        "Ġ",
        "I"
      ],
      [
        "i",
        "c"
      ],
      [
        "Ġ",
        "g"
      ],
      [
        "o",
        "t"
      ],
      [
        "o",
        "w"
      ],
      [
        "s",
        "t"
      ],
      [
        "u",
        "t"
      ],
      [
        "Ġt",
        "h"
      ],
      [
        "v",
        "e"
      ],
      [
        "s",
        "e"
      ],
      [
        "Ġ",
        "e"
      ],
      [
        "i",
        "m"
      ],
      [
        "l",
        "d"
      ],
      [
        "i",
        "d"
      ],
      [
        "en",
        "t"
      ],
      [
        "Ġt",
        "hat"
      ],
      [
        "g",
        "h"
      ],
      [
        "l",
        "y"
      ],
      [
        "i",
        "on"
      ],
      [
        "c",
        "e"
      ],
      [
        "a",
        "l"
      ],
      [
        "Ġ",
        "y"
      ],
      [
        "Ġ",
        "u"
      ],
      [
        "Ġ",
        "T"
      ],
      [
        "i",
        "r"
      ],
      [
        "a",
        "y"
      ],
      [
        "Ġw",
        "as"
      ],
      [
        "e",
        "t"
      ],
      [
        "it",
        "h"
      ],
      [
        "Ġ",
        "re"
      ],
      [
        "Ġ",
        "it"
      ],
      [
        "Ġw",
        "h"
      ],
      [
        "v",
        "er"
      ],
      [
        "Ġo",
        "n"
      ],
      [
        "u",
        "r"
      ],
      [
        "Ġ",
        "A"
      ],
      [
        "Ġf",
        "or"
      ],
      [
        "Ġh",
        "is"
      ],
      [
        "Ġw",
        "ith"
      ],
      [
        "a",
        "d"
      ],
      [
        "Ġa",
        "s"
      ],
      [
        "Ġw",
        "e"
      ],
      [
        "r",
        "o"
      ],
      [
        "Ġy",
        "ou"
      ],
      [
        "gh",
        "t"
      ],
      [
        "he",
        "r"
      ],
      [
        "r",
        "i"
      ],
      [
        "Ġ",
        "is"
      ],
      [
        "a",
        "c"
      ],
      [
        "ĠĠĠĠ",
        "ĠĠĠĠ"
      ],
      [
        "a",
        "m"
      ],
      [
        "Ġs",
        "t"
      ],
      [
        "Ġ",
        "S"
      ],
      [
        "Ċ",
        "Ġ"
      ],
      [
        "Ġn",
        "ot"
      ],
      [
        "Ġa",
        "n"
      ],
      [
        "t",
        "er"
      ],
      [
        "a",
        "nd"
      ],
      [
        "i",
        "ll"
      ],
      [
        "o",
        "d"
      ],
      [
        "a",
        "in"
      ],
      [
        "-",
        "-"
      ],
      [
        "t",
        "h"
      ],
      [
        "Ġha",
        "d"
      ],
      [
        "ou",
        "ld"
      ],
      [
        "i",
        "f"
      ],
      [
        "e",
        "c"
      ],
      [
        "k",
        "e"
      ],
      [
        "Ġ",
        "H"
      ],
      [
        "Ġa",
        "t"
      ],
      [
        "Ġ",
        "M"
      ],
      [
        "i",
        "l"
      ],
      [
        "Ċ",
        "ĠĠ"
      ],
      [
        "ic",
        "h"
      ],
      [
        "c",
        "h"
      ],
      [
        "o",
        "re"
      ],
      [
        "ĠT",
        "he"
      ],
      [
        "Ġm",
        "e"
      ],
      [
        "Ġh",
        "im"
      ],
      [
        "es",
        "s"
      ],
      [
        "Ġhe",
        "r"
      ],
      [
        "'",
        "s"
      ],
      [
        "ĊĠĠ",
        "Ġ"
      ],
      [
        "u",
        "s"
      ],
      [
        "re",
        "d"
      ],
      [
        "r",
        "om"
      ],
      [
        "Ġ",
        "B"
      ],
      [
        "Ġ",
        "C"
      ],
      [
        "Ġs",
        "e"
      ],
      [
        "t",
        "o"
      ],
      [
        "Ġb",
        "y"
      ],
      [
        "t",
        "he"
      ],
      [
        "a",
        "ll"
      ],
      [
        "r",
        "a"
      ],
      [
        "Ġwh",
        "ich"
      ],
      [
        "Ġm",
        "y"
      ],
      [
        "Ġs",
        "a"
      ],
      [
        "g",
        "e"
      ],
      [
        "Ġs",
        "u"
      ],
      [
        "Ġs",
        "o"
      ],
      [
        "u",
        "l"
      ],
      [
        "om",
        "e"
      ],
      [
        "Ċ",
        "Ċ"
      ],
      [
        "Ġ",
        "k"
      ],
      [
        "Ġha",
        "ve"
      ],
      [
        "i",
        "ght"
      ],
      [
        "Ġa",
        "ll"
      ],
      [
        "Ġ",
        "W"
      ],
      [
        "Ġthe",
        "y"
      ],
      [
        "p",
        "p"
      ],
      [
        "Ġd",
        "e"
      ],
      [
        "es",
        "t"
      ],
      [
        "Ġo",
        "r"
      ],
      [
        "Ġb",
        "ut"
      ],
      [
        "Ġu",
        "p"
      ],
      [
        "Ġf",
        "rom"
      ],
      [
        "q",
        "u"
      ],
      [
        "Ġ",
        "\""
      ],
      [
        "at",
        "ion"
      ],
      [
        "Ġ",
        "L"
      ],
      [
        "Ġth",
        "is"
      ],
      [
        "Ġ",
        "v"
      ],
      [
        "re",
        "s"
      ],
      [
        "Ġc",
        "on"
      ],
      [
        "Ġw",
        "he"
      ],
      [
        "ou",
        "s"
      ],
      [
        "e",
        "m"
      ],
      [
        "a",
        "b"
      ],
      [
        "n",
        "t"
      ],
      [
        "ar",
        "d"
      ],
      [
        "Ġ",
        "r"
      ],
      [
        "o",
        "l"
      ],
      [
        "Ġs",
        "h"
      ],
      [
        "Ġs",
        "he"
      ],
      [
        "Ġwe",
        "re"
      ],
      [
        "Ġthe",
        "m"
      ],
      [
        "an",
        "t"
      ],
      [
        "Ġ",
        "P"
      ],
      [
        "Ġm",
        "an"
      ],
      [
        "ou",
        "r"
      ],
      [
        "e",
        "l"
      ],
      [
        "Ġ",
        "G"
      ],
      [
        "er",
        "s"
      ],
      [
        "u",
        "st"
      ],
      [
        "am",
        "e"
      ],
      [
        "o",
        "s"
      ],
      [
        "u",
        "m"
      ],
      [
        "Ġn",
        "e"
      ],
      [
        "on",
        "g"
      ],
      [
        "is",
        "t"
      ],
      [
        "Ġg",
        "o"
      ],
      [
        "Ġs",
        "p"
      ],
      [
        "Ġthe",
        "ir"
      ],
      [
        "ar",
        "t"
      ],
      [
        "Ġd",
        "o"
      ],
      [
        "Ġe",
        "x"
      ],
      [
        "Ġa",
        "re"
      ],
      [
        ".",
        "\""
      ],
      [
        "Ġwh",
        "o"
      ],
      [
        "as",
        "t"
      ],
      [
        "o",
        "k"
      ],
      [
        "Ġ",
        "F"
      ],
      [
        "in",
        "d"
      ],
      [
        "o",
        "p"
      ],
      [
        "i",
        "e"
      ],
      [
        "u",
        "n"
      ],
      [
        "Ġon",
        "e"
      ],
      [
        "i",
        "g"
      ],
      [
        "ĠA",
        "nd"
      ],
      [
        "Ġl",
        "o"
      ],
      [
        "Ġa",
        "l"
      ],
      [
        "Ġ",
        "O"
      ],
      [
        "ou",
        "nd"
      ],
      [
        "Ġsa",
        "id"
      ],
      [
        "or",
        "d"
      ],
      [
        "se",
        "l"
      ],
      [
        "ou",
        "t"
      ],
      [
        "Ġn",
        "o"
      ],
      [
        "ver",
        "y"
      ],
      [
        "e",
        "ll"
      ],
      [
        "i",
        "ve"
      ],
      [
        "Ġs",
        "ha"
      ],
      [
        "Ġu",
        "n"
      ],
      [
        "Ċ",
        "ĠĠĠĠĠĠĠĠ"
      ],
      [
        "i",
        "v"
      ],
      [
        "Ġthe",
        "re"
      ],
      [
        "a",
        "k"
      ],
      [
        "ec",
        "t"
      ],
      [
        "at",
        "e"
      ],
      [
        "e",
        "ar"
      ],
      [
        "c",
        "t"
      ],
      [
        "ha",
        "n"
      ],
      [
        "T",
        "he"
      ],
      [
        "Ġc",
        "om"
      ],
      [
        "Ġ",
        "E"
      ],
      [
        "on",
        "e"
      ],
      [
        "p",
        "t"
      ],
      [
        "Ġ",
        "N"
      ],
      [
        "it",
        "y"
      ],
      [
        "ow",
        "n"
      ],
      [
        "re",
        "at"
      ],
      [
        "Ġa",
        "b"
      ],
      [
        "ou",
        "gh"
      ],
      [
        "Ġw",
        "ill"
      ],
      [
        "Ġo",
        "ut"
      ],
      [
        "Ġ",
        "D"
      ],
      [
        "Ġk",
        "n"
      ],
      [
        "Ġw",
        "ould"
      ],
      [
        ",",
        "\""
      ],
      [
        "r",
        "y"
      ],
      [
        "u",
        "re"
      ],
      [
        "or",
        "t"
      ],
      [
        "ĊĠĠĠĠĠĠĠĠ",
        "ĠĠ"
      ],
      [
        "Ġp",
        "ro"
      ],
      [
        "Ġwhe",
        "n"
      ],
      [
        "Ġp",
        "l"
      ],
      [
        "i",
        "es"
      ],
      [
        "Ġ",
        "J"
      ],
      [
        "in",
        "e"
      ],
      [
        "a",
        "u"
      ],
      [
        "v",
        "en"
      ],
      [
        "t",
        "her"
      ],
      [
        "it",
        "t"
      ],
      [
        "ĠH",
        "e"
      ],
      [
        "o",
        "se"
      ],
      [
        "a",
        "ke"
      ],
      [
        "Ġ",
        "1"
      ],
      [
        "Ġl",
        "e"
      ],
      [
        "Ġbe",
        "en"
      ],
      [
        "id",
        "e"
      ],
      [
        "o",
        "st"
      ],
      [
        "a",
        "ce"
      ],
      [
        "a",
        "g"
      ],
      [
        "he",
        "d"
      ],
      [
        "Ġ",
        "j"
      ],
      [
        "as",
        "s"
      ],
      [
        "Ġa",
        "r"
      ],
      [
        "sel",
        "f"
      ],
      [
        "o",
        "f"
      ],
      [
        "e",
        "p"
      ],
      [
        "f",
        "ore"
      ],
      [
        "Ġa",
        "g"
      ],
      [
        "ac",
        "k"
      ],
      [
        "Ġ",
        "R"
      ],
      [
        "e",
        "nd"
      ],
      [
        "Ġyou",
        "r"
      ],
      [
        "a",
        "re"
      ],
      [
        "Ġl",
        "i"
      ],
      [
        "im",
        "e"
      ],
      [
        "Ġw",
        "or"
      ],
      [
        "o",
        "nd"
      ],
      [
        "Ġup",
        "on"
      ],
      [
        "c",
        "k"
      ],
      [
        "h",
        "i"
      ],
      [
        "Ġ",
        "if"
      ],
      [
        "Ġa",
        "m"
      ],
      [
        "Ġm",
        "ore"
      ],
      [
        "Ġin",
        "to"
      ],
      [
        "Ġsha",
        "ll"
      ],
      [
        "is",
        "h"
      ],
      [
        "u",
        "d"
      ],
      [
        "Ġt",
        "r"
      ],
      [
        "o",
        "od"
      ],
      [
        "Ġth",
        "ou"
      ],
      [
        "Ġa",
        "f"
      ],
      [
        "Ġu",
        "s"
      ],
      [
        "Ċ",
        "ĠĠĠĠ"
      ],
      [
        "m",
        "ent"
      ],
      [
        "Ġb",
        "r"
      ],
      [
        "ing",
        "s"
      ],
      [
        "an",
        "ce"
      ],
      [
        "ot",
        "her"
      ],
      [
        "p",
        "l"
      ],
      [
        "ur",
        "n"
      ],
      [
        "ad",
        "e"
      ],
      [
        "Ġ",
        "("
      ],
      [
        "ic",
        "e"
      ],
      [
        "Ġw",
        "hat"
      ],
      [
        "Ġ",
        "qu"
      ],
      [
        "Ġo",
        "ther"
      ],
      [
        "c",
        "c"
      ],
      [
        "w",
        "e"
      ],
      [
        "Ġs",
        "ome"
      ],
      [
        "w",
        "ay"
      ],
      [
        "en",
        "ce"
      ],
      [
        "ab",
        "le"
      ],
      [
        "Ġt",
        "w"
      ],
      [
        "'",
        "t"
      ],
      [
        "Ġc",
        "an"
      ],
      [
        "Ġan",
        "y"
      ],
      [
        "Ġ",
        "ro"
      ],
      [
        "it",
        "e"
      ],
      [
        "p",
        "er"
      ],
      [
        "Ġc",
        "ould"
      ],
      [
        "Ġf",
        "e"
      ],
      [
        "Ġt",
        "han"
      ],
      [
        "Ġd",
        "ay"
      ],
      [
        "b",
        "le"
      ],
      [
        "Ġp",
        "r"
      ],
      [
        "Ġ",
        "en"
      ],
      [
        "Ġo",
        "ur"
      ],
      [
        "u",
        "e"
      ],
      [
        "Ġb",
        "l"
      ],
      [
        "Ġc",
        "l"
      ],
      [
        "ou",
        "nt"
      ],
      [
        "a",
        "v"
      ],
      [
        "re",
        "e"
      ],
      [
        "Ġt",
        "ime"
      ],
      [
        "i",
        "re"
      ],
      [
        "b",
        "e"
      ],
      [
        "Ġs",
        "ay"
      ],
      [
        "Ġg",
        "reat"
      ],
      [
        "n",
        "e"
      ],
      [
        "w",
        "n"
      ],
      [
        "Ġd",
        "id"
      ],
      [
        "0",
        "0"
      ],
      [
        "i",
        "ous"
      ],
      [
        "at",
        "her"
      ],
      [
        "an",
        "s"
      ],
      [
        "Ġg",
        "r"
      ],
      [
        "Ġn",
        "ow"
      ],
      [
        "Ġag",
        "ain"
      ],
      [
        "ĠT",
        "h"
      ],
      [
        "Ġse",
        "e"
      ],
      [
        "Ġ",
        "_"
      ],
      [
        "Ġd",
        "is"
      ],
      [
        "n",
        "g"
      ],
      [
        "itt",
        "le"
      ],
      [
        "a",
        "ge"
      ],
      [
        "Ġ",
        "very"
      ],
      [
        "Ġthe",
        "n"
      ],
      [
        "Ġo",
        "ver"
      ],
      [
        "Ġha",
        "nd"
      ],
      [
        "h",
        "ing"
      ],
      [
        "Ġ",
        "im"
      ],
      [
        "Ġa",
        "d"
      ],
      [
        "Ġli",
        "ke"
      ],
      [
        "a",
        "p"
      ],
      [
        "o",
        "ld"
      ],
      [
        "ĠI",
        "t"
      ],
      [
        "ĠĠĠĠĠĠĠĠ",
        "ĠĠĠĠĠĠĠĠ"
      ],
      [
        "Ġ",
        "'"
      ],
      [
        "all",
        "y"
      ],
      [
        "if",
        "e"
      ],
      [
        "t",
        "e"
      ],
      [
        "Ġkn",
        "ow"
      ],
      [
        "ĠB",
        "ut"
      ],
      [
        "Ġf",
        "l"
      ],
      [
        "ic",
        "k"
      ],
      [
        "nd",
        "er"
      ],
      [
        "Ġp",
        "er"
      ],
      [
        "at",
        "h"
      ],
      [
        "Ġp",
        "e"
      ],
      [
        "i",
        "ed"
      ],
      [
        "res",
        "s"
      ],
      [
        "n",
        "ess"
      ],
      [
        "Ġha",
        "s"
      ],
      [
        "in",
        "k"
      ],
      [
        "Ġsh",
        "ould"
      ],
      [
        "u",
        "ch"
      ],
      [
        "b",
        "er"
      ],
      [
        "?",
        "\""
      ],
      [
        "Ġab",
        "out"
      ],
      [
        "v",
        "ed"
      ],
      [
        "ion",
        "s"
      ],
      [
        "b",
        "l"
      ],
      [
        "o",
        "ll"
      ],
      [
        "Ġof",
        "f"
      ],
      [
        "f",
        "f"
      ],
      [
        "Ġm",
        "ade"
      ],
      [
        "Ġl",
        "ittle"
      ],
      [
        "Ġa",
        "pp"
      ],
      [
        "Ġbe",
        "fore"
      ],
      [
        "Ġgo",
        "od"
      ],
      [
        "Ġit",
        "s"
      ],
      [
        "at",
        "ed"
      ],
      [
        "Ġth",
        "r"
      ],
      [
        "f",
        "ul"
      ],
      [
        "or",
        "n"
      ],
      [
        "Ġb",
        "o"
      ],
      [
        "w",
        "ard"
      ],
      [
        "Ġaf",
        "ter"
      ],
      [
        "ir",
        "st"
      ],
      [
        "Ġd",
        "own"
      ],
      [
        "u",
        "ll"
      ],
      [
        "â",
        "Ģ"
      ],
      [
        "s",
        "o"
      ],
      [
        "E",
        "R"
      ],
      [
        "Ġ",
        "K"
      ],
      [
        "Ġm",
        "en"
      ],
      [
        ".",
        ","
      ],
      [
        "Ġc",
        "ame"
      ],
      [
        "ac",
        "h"
      ],
      [
        "r",
        "u"
      ],
      [
        "Ġm",
        "ay"
      ],
      [
        "ac",
        "t"
      ],
      [
        "Ġthe",
        "se"
      ],
      [
        "Ġtw",
        "o"
      ],
      [
        "Ġon",
        "ly"
      ],
      [
        "Ġlo",
        "ok"
      ],
      [
        "is",
        "e"
      ],
      [
        "ar",
        "y"
      ],
      [
        "i",
        "le"
      ],
      [
        "on",
        "s"
      ],
      [
        "t",
        "ain"
      ],
      [
        "a",
        "ve"
      ],
      [
        "Ċ",
        "ĊĠ"
      ],
      [
        "ar",
        "k"
      ],
      [
        "c",
        "i"
      ],
      [
        "ig",
        "n"
      ],
      [
        "t",
        "y"
      ],
      [
        "Ġp",
        "art"
      ],
      [
        "f",
        "or"
      ],
      [
        "Ġp",
        "re"
      ],
      [
        "Ġp",
        "o"
      ],
      [
        "Ġ",
        "2"
      ],
      [
        "re",
        "n"
      ],
      [
        "Ġ",
        "Y"
      ],
      [
        "Ġwhe",
        "re"
      ],
      [
        "Ġl",
        "ong"
      ],
      [
        "ri",
        "ght"
      ],
      [
        "Ġd",
        "es"
      ],
      [
        "t",
        "ed"
      ],
      [
        "he",
        "n"
      ],
      [
        "o",
        "ve"
      ],
      [
        "Ġc",
        "ha"
      ],
      [
        "Ġh",
        "ow"
      ],
      [
        "Ġc",
        "ome"
      ],
      [
        "ĠG",
        "od"
      ],
      [
        "Ġre",
        "m"
      ],
      [
        "an",
        "g"
      ],
      [
        "Ġsu",
        "ch"
      ],
      [
        "Ġm",
        "ust"
      ],
      [
        "ou",
        "se"
      ],
      [
        "op",
        "le"
      ],
      [
        "Ġs",
        "c"
      ],
      [
        "Ġw",
        "ay"
      ],
      [
        "Ġo",
        "ld"
      ],
      [
        "Ġm",
        "uch"
      ],
      [
        "Ġf",
        "irst"
      ],
      [
        "ot",
        "h"
      ],
      [
        "Ġbe",
        "c"
      ],
      [
        "Ġun",
        "to"
      ],
      [
        "Ġc",
        "h"
      ],
      [
        "Ġu",
        "nder"
      ],
      [
        "m",
        "an"
      ],
      [
        "f",
        "t"
      ],
      [
        "Ġe",
        "very"
      ],
      [
        "c",
        "l"
      ],
      [
        "Ġo",
        "wn"
      ],
      [
        "Ġm",
        "ight"
      ],
      [
        "Ġe",
        "ar"
      ],
      [
        "O",
        "R"
      ],
      [
        "e",
        "red"
      ],
      [
        "!",
        "\""
      ],
      [
        "ĠI",
        "n"
      ],
      [
        "Ġe",
        "ven"
      ],
      [
        "i",
        "z"
      ],
      [
        "Ġp",
        "ass"
      ],
      [
        "p",
        "s"
      ],
      [
        "0",
        "1"
      ],
      [
        "Ġwe",
        "ll"
      ],
      [
        "i",
        "a"
      ],
      [
        "'",
        "d"
      ],
      [
        "i",
        "an"
      ],
      [
        "au",
        "se"
      ],
      [
        "Ġg",
        "l"
      ],
      [
        "Ġbe",
        "t"
      ],
      [
        "Ġne",
        "ver"
      ],
      [
        "or",
        "s"
      ],
      [
        "Ġs",
        "m"
      ],
      [
        "Ġcom",
        "p"
      ],
      [
        "Ġpe",
        "ople"
      ],
      [
        "os",
        "s"
      ],
      [
        "t",
        "hat"
      ],
      [
        "Ġth",
        "ose"
      ],
      [
        "f",
        "e"
      ],
      [
        "Ġth",
        "y"
      ],
      [
        "Ġe",
        "y"
      ],
      [
        "ĊĊ",
        "ĠĠĠĠ"
      ],
      [
        "Ġthr",
        "ough"
      ],
      [
        "Ġre",
        "s"
      ],
      [
        "he",
        "s"
      ],
      [
        "ad",
        "y"
      ],
      [
        "Ġman",
        "y"
      ],
      [
        "k",
        "ed"
      ],
      [
        "Ġc",
        "all"
      ],
      [
        "Ġcom",
        "m"
      ],
      [
        "ear",
        "s"
      ],
      [
        "at",
        "er"
      ],
      [
        "Ġs",
        "l"
      ],
      [
        "a",
        "ir"
      ],
      [
        "ĠM",
        "r"
      ],
      [
        "v",
        "es"
      ],
      [
        "Ġa",
        "cc"
      ],
      [
        "l",
        "ed"
      ],
      [
        "ri",
        "ed"
      ],
      [
        "Ġm",
        "ost"
      ],
      [
        "or",
        "y"
      ],
      [
        "an",
        "c"
      ],
      [
        "Ġl",
        "et"
      ],
      [
        "Ġw",
        "ent"
      ],
      [
        "p",
        "e"
      ],
      [
        "Ġl",
        "ife"
      ],
      [
        "ou",
        "ght"
      ],
      [
        "Ġ",
        "i"
      ],
      [
        "Ġbe",
        "ing"
      ],
      [
        "v",
        "ing"
      ],
      [
        "a",
        "w"
      ],
      [
        "Ġst",
        "r"
      ],
      [
        "i",
        "ly"
      ],
      [
        "Ġm",
        "ake"
      ],
      [
        "n",
        "ot"
      ],
      [
        "Ġb",
        "ack"
      ],
      [
        "Ġcon",
        "t"
      ],
      [
        "Ġ",
        "V"
      ],
      [
        "Ġk",
        "ing"
      ],
      [
        "Ġhim",
        "self"
      ],
      [
        "Ġw",
        "r"
      ],
      [
        "Ġbe",
        "g"
      ],
      [
        "en",
        "s"
      ],
      [
        "ĠS",
        "he"
      ],
      [
        "is",
        "s"
      ],
      [
        "e",
        "w"
      ],
      [
        "Ġ",
        "ra"
      ],
      [
        "Ġhe",
        "re"
      ],
      [
        "d",
        "e"
      ],
      [
        "m",
        "er"
      ],
      [
        "w",
        "h"
      ],
      [
        "Ġw",
        "ord"
      ],
      [
        "Ġbe",
        "l"
      ],
      [
        "Ġ",
        "3"
      ],
      [
        "Ġthou",
        "ght"
      ],
      [
        "Ġse",
        "em"
      ],
      [
        "e",
        "ver"
      ],
      [
        "i",
        "gh"
      ],
      [
        "Ġcon",
        "s"
      ],
      [
        "ul",
        "t"
      ],
      [
        "r",
        "ow"
      ],
      [
        "Ġth",
        "ink"
      ],
      [
        "o",
        "g"
      ],
      [
        "et",
        "h"
      ],
      [
        "Ġa",
        "way"
      ],
      [
        "it",
        "her"
      ],
      [
        "Ġf",
        "ound"
      ],
      [
        "o",
        "y"
      ],
      [
        "ation",
        "s"
      ],
      [
        "in",
        "t"
      ],
      [
        "Ġo",
        "b"
      ],
      [
        "Ġwor",
        "k"
      ],
      [
        "ĠC",
        "h"
      ],
      [
        "Ġhe",
        "ad"
      ],
      [
        "hi",
        "ld"
      ],
      [
        ")",
        ","
      ],
      [
        "Ġs",
        "er"
      ],
      [
        "Ġh",
        "ouse"
      ],
      [
        "Ġim",
        "p"
      ],
      [
        "as",
        "e"
      ],
      [
        "Ġto",
        "o"
      ],
      [
        "l",
        "ess"
      ],
      [
        "ow",
        "er"
      ],
      [
        "Ġthe",
        "e"
      ],
      [
        "Ġp",
        "res"
      ],
      [
        "a",
        "red"
      ],
      [
        "h",
        "is"
      ],
      [
        "Ġ",
        "ent"
      ],
      [
        "Ġ",
        "ke"
      ],
      [
        "en",
        "ed"
      ],
      [
        "Ġal",
        "so"
      ],
      [
        "ic",
        "t"
      ],
      [
        "l",
        "es"
      ],
      [
        "A",
        "nd"
      ],
      [
        "Ġ",
        "["
      ],
      [
        "it",
        "ion"
      ],
      [
        "Ġt",
        "urn"
      ],
      [
        "Ġs",
        "ame"
      ],
      [
        "m",
        "ed"
      ],
      [
        "Ġc",
        "hild"
      ],
      [
        "ri",
        "end"
      ],
      [
        "Ġat",
        "t"
      ],
      [
        "Ġj",
        "ust"
      ],
      [
        "he",
        "re"
      ],
      [
        "ĠF",
        "or"
      ],
      [
        "l",
        "i"
      ],
      [
        "i",
        "ld"
      ],
      [
        "in",
        "ce"
      ],
      [
        "ĠS",
        "t"
      ],
      [
        "p",
        "ect"
      ],
      [
        "H",
        "e"
      ],
      [
        "o",
        "ck"
      ],
      [
        "w",
        "ith"
      ],
      [
        "Ġpl",
        "ace"
      ],
      [
        "Ġhe",
        "art"
      ],
      [
        "oll",
        "ow"
      ],
      [
        "Ġe",
        "nd"
      ],
      [
        "Ġy",
        "e"
      ],
      [
        "Ġl",
        "ast"
      ],
      [
        "Ġy",
        "et"
      ],
      [
        "e",
        "x"
      ],
      [
        "Ġt",
        "ake"
      ],
      [
        "l",
        "f"
      ],
      [
        "g",
        "et"
      ],
      [
        "p",
        "le"
      ],
      [
        "g",
        "ed"
      ],
      [
        "Ġwith",
        "out"
      ],
      [
        "u",
        "p"
      ],
      [
        "om",
        "et"
      ],
      [
        "a",
        "id"
      ],
      [
        "Ġre",
        "p"
      ],
      [
        "is",
        "hed"
      ],
      [
        "Ġo",
        "p"
      ],
      [
        "Ġs",
        "w"
      ],
      [
        "ĠT",
        "o"
      ],
      [
        "l",
        "and"
      ],
      [
        "re",
        "t"
      ],
      [
        "j",
        "ect"
      ],
      [
        "u",
        "nd"
      ],
      [
        "Ġ",
        "4"
      ],
      [
        "i",
        "al"
      ],
      [
        "Ġw",
        "ar"
      ],
      [
        "en",
        "er"
      ],
      [
        "Ġey",
        "es"
      ],
      [
        "Ġre",
        "t"
      ],
      [
        "i",
        "x"
      ],
      [
        "at",
        "ter"
      ],
      [
        "i",
        "ble"
      ],
      [
        "Ġp",
        "ut"
      ],
      [
        "Ġe",
        "ver"
      ],
      [
        ".",
        "."
      ],
      [
        "Ġw",
        "om"
      ],
      [
        "Ġc",
        "o"
      ],
      [
        "Ġsp",
        "e"
      ],
      [
        "Ġst",
        "ill"
      ],
      [
        "m",
        "e"
      ],
      [
        "Ġ",
        "right"
      ],
      [
        "a",
        "il"
      ],
      [
        "Ġth",
        "ings"
      ],
      [
        "Ġagain",
        "st"
      ],
      [
        "Ġf",
        "ar"
      ],
      [
        "0",
        "2"
      ],
      [
        "c",
        "ed"
      ],
      [
        "Ġha",
        "r"
      ],
      [
        "OR",
        "D"
      ],
      [
        "Ġ",
        "--"
      ],
      [
        "A",
        "L"
      ],
      [
        "Ġsa",
        "w"
      ],
      [
        "m",
        "s"
      ],
      [
        "Ġf",
        "riend"
      ],
      [
        "Ġwh",
        "ile"
      ],
      [
        "Ġn",
        "ight"
      ],
      [
        "Ġs",
        "et"
      ],
      [
        "Ġc",
        "ar"
      ],
      [
        "T",
        "ER"
      ],
      [
        "od",
        "y"
      ],
      [
        "Ġg",
        "et"
      ],
      [
        "Ġlo",
        "ve"
      ],
      [
        "I",
        "t"
      ],
      [
        "Ġc",
        "ount"
      ],
      [
        "s",
        "s"
      ],
      [
        "ent",
        "s"
      ],
      [
        "h",
        "y"
      ],
      [
        "au",
        "ght"
      ],
      [
        "ct",
        "ion"
      ],
      [
        "er",
        "tain"
      ],
      [
        "Ġd",
        "ist"
      ],
      [
        "Ġb",
        "re"
      ],
      [
        "ĠThe",
        "y"
      ],
      [
        "Ġn",
        "ame"
      ],
      [
        "w",
        "as"
      ],
      [
        "c",
        "on"
      ],
      [
        "ent",
        "ly"
      ],
      [
        "Ġto",
        "ok"
      ],
      [
        "k",
        "s"
      ],
      [
        "i",
        "p"
      ],
      [
        "R",
        "E"
      ],
      [
        "im",
        "es"
      ],
      [
        "ĠThe",
        "re"
      ],
      [
        "ak",
        "ing"
      ],
      [
        "n",
        "ing"
      ],
      [
        "ic",
        "al"
      ],
      [
        "Ġne",
        "w"
      ],
      [
        "Ġn",
        "or"
      ],
      [
        "I",
        "N"
      ],
      [
        "Ġf",
        "ather"
      ],
      [
        "'",
        "ll"
      ],
      [
        "Ġl",
        "and"
      ],
      [
        "Ġl",
        "ight"
      ],
      [
        "ĠĠĠĠ",
        "ĠĠ"
      ],
      [
        "Ġg",
        "ive"
      ],
      [
        ".",
        "'"
      ],
      [
        "ĠL",
        "ORD"
      ],
      [
        "Ġm",
        "ar"
      ],
      [
        "--",
        "--"
      ],
      [
        "ĠA",
        "n"
      ],
      [
        "O",
        "N"
      ],
      [
        "Ġan",
        "other"
      ],
      [
        "_",
        ","
      ],
      [
        "Ġc",
        "our"
      ],
      [
        "Ġle",
        "ft"
      ],
      [
        "it",
        "s"
      ],
      [
        "Ġn",
        "at"
      ],
      [
        "c",
        "om"
      ],
      [
        "Ġth",
        "ree"
      ],
      [
        "Ġs",
        "ec"
      ],
      [
        "Ġ",
        "U"
      ],
      [
        "Ġf",
        "ace"
      ],
      [
        "Ġyou",
        "ng"
      ],
      [
        "ĠTh",
        "is"
      ],
      [
        "ĠThe",
        "n"
      ],
      [
        "Ġf",
        "ollow"
      ],
      [
        "Ġin",
        "st"
      ],
      [
        "a",
        "le"
      ],
      [
        "Ġwor",
        "ld"
      ],
      [
        "b",
        "ut"
      ],
      [
        "c",
        "hed"
      ],
      [
        "Ġt",
        "ell"
      ],
      [
        "Ġe",
        "m"
      ],
      [
        "ĠA",
        "s"
      ],
      [
        "Ġth",
        "ough"
      ],
      [
        "ĠW",
        "e"
      ],
      [
        "d",
        "en"
      ],
      [
        "Ġsu",
        "b"
      ],
      [
        "Ġy",
        "ears"
      ],
      [
        "s",
        "u"
      ],
      [
        "n",
        "er"
      ],
      [
        "Ġon",
        "ce"
      ],
      [
        "r",
        "ist"
      ],
      [
        "Ġf",
        "ind"
      ],
      [
        "Ġre",
        "l"
      ],
      [
        "Ġs",
        "on"
      ],
      [
        "ar",
        "s"
      ],
      [
        "way",
        "s"
      ],
      [
        "Ġam",
        "ong"
      ],
      [
        "re",
        "w"
      ],
      [
        "Ġa",
        "c"
      ],
      [
        "iv",
        "ed"
      ],
      [
        "a",
        "h"
      ],
      [
        "a",
        "ut"
      ],
      [
        "H",
        "E"
      ],
      [
        "ver",
        "s"
      ],
      [
        "B",
        "ut"
      ],
      [
        "Ġsu",
        "pp"
      ],
      [
        "d",
        "u"
      ],
      [
        "Ġf",
        "o"
      ],
      [
        "it",
        "ed"
      ],
      [
        "Ġe",
        "v"
      ],
      [
        "Ġnot",
        "hing"
      ],
      [
        "Ġcall",
        "ed"
      ],
      [
        "Ġp",
        "ers"
      ],
      [
        "Ġcha",
        "r"
      ],
      [
        "al",
        "k"
      ],
      [
        "Ġp",
        "le"
      ],
      [
        "Ġ",
        "5"
      ],
      [
        "u",
        "al"
      ],
      [
        "re",
        "st"
      ],
      [
        "Ġin",
        "t"
      ],
      [
        "Ġk",
        "ind"
      ],
      [
        "th",
        "ing"
      ],
      [
        "at",
        "t"
      ],
      [
        "sel",
        "ves"
      ],
      [
        "Ġg",
        "iv"
      ],
      [
        "Ġf",
        "ell"
      ],
      [
        "Ġs",
        "ide"
      ],
      [
        "Ġd",
        "ec"
      ],
      [
        "Ġwh",
        "om"
      ],
      [
        "ĠI",
        "s"
      ],
      [
        "in",
        "s"
      ],
      [
        "ha",
        "r"
      ],
      [
        "at",
        "es"
      ],
      [
        "ow",
        "s"
      ],
      [
        "ĠT",
        "hat"
      ],
      [
        "t",
        "s"
      ],
      [
        "m",
        "y"
      ],
      [
        "Ġhe",
        "ard"
      ],
      [
        "Ġs",
        "omet"
      ],
      [
        "d",
        "er"
      ],
      [
        "ut",
        "h"
      ],
      [
        ".",
        "]"
      ],
      [
        "m",
        "ost"
      ],
      [
        "Ġre",
        "st"
      ],
      [
        "o",
        "ok"
      ],
      [
        "we",
        "en"
      ],
      [
        "u",
        "res"
      ],
      [
        "p",
        "r"
      ],
      [
        "Ġm",
        "ind"
      ],
      [
        "Ġt",
        "ri"
      ],
      [
        "in",
        "ed"
      ],
      [
        "is",
        "ed"
      ],
      [
        "Ġe",
        "ach"
      ],
      [
        "Ġbec",
        "ause"
      ],
      [
        "Ġc",
        "han"
      ],
      [
        "as",
        "ter"
      ],
      [
        "ce",
        "pt"
      ],
      [
        "Ġc",
        "r"
      ],
      [
        "Ġst",
        "re"
      ],
      [
        "Ġw",
        "ant"
      ],
      [
        "ie",
        "f"
      ],
      [
        "a",
        "pt"
      ],
      [
        "E",
        "T"
      ],
      [
        "i",
        "er"
      ],
      [
        "Ġhand",
        "s"
      ],
      [
        "Ġret",
        "urn"
      ],
      [
        "Ġp",
        "ur"
      ],
      [
        "ĠS",
        "o"
      ],
      [
        "Ġd",
        "if"
      ],
      [
        "Ġd",
        "one"
      ],
      [
        "t",
        "ing"
      ],
      [
        "Ġth",
        "ing"
      ],
      [
        ".",
        "_"
      ],
      [
        "o",
        "b"
      ],
      [
        "i",
        "red"
      ],
      [
        "Ġne",
        "ar"
      ],
      [
        "pp",
        "ed"
      ],
      [
        "op",
        "e"
      ],
      [
        "Ġde",
        "ath"
      ],
      [
        "Ġre",
        "c"
      ],
      [
        "Ġha",
        "pp"
      ],
      [
        "Ġs",
        "ou"
      ],
      [
        "Ġex",
        "p"
      ],
      [
        "Ġb",
        "oth"
      ],
      [
        "s",
        "h"
      ],
      [
        "Ġre",
        "g"
      ],
      [
        "os",
        "ed"
      ],
      [
        "Ġse",
        "en"
      ],
      [
        "ĠI",
        "f"
      ],
      [
        "b",
        "r"
      ],
      [
        "Ġs",
        "ur"
      ],
      [
        "ĠY",
        "ou"
      ],
      [
        "Ġg",
        "u"
      ],
      [
        "Ġ",
        "6"
      ],
      [
        "b",
        "y"
      ],
      [
        "Ġan",
        "s"
      ],
      [
        "v",
        "ent"
      ],
      [
        "E",
        "N"
      ],
      [
        "Ġp",
        "oss"
      ],
      [
        "get",
        "her"
      ],
      [
        "p",
        "h"
      ],
      [
        "t",
        "en"
      ],
      [
        "Ġm",
        "on"
      ],
      [
        "ve",
        "l"
      ],
      [
        "A",
        "N"
      ],
      [
        "Ġ",
        "."
      ],
      [
        "Ġg",
        "ot"
      ],
      [
        "ak",
        "en"
      ],
      [
        "Ġh",
        "ome"
      ],
      [
        "Ġso",
        "on"
      ],
      [
        "m",
        "en"
      ],
      [
        "Ġfe",
        "w"
      ],
      [
        "f",
        "ect"
      ],
      [
        "Ġin",
        "d"
      ],
      [
        "ĠW",
        "hen"
      ],
      [
        "Ġto",
        "ld"
      ],
      [
        "c",
        "es"
      ],
      [
        "s",
        "er"
      ],
      [
        "f",
        "l"
      ],
      [
        "g",
        "g"
      ],
      [
        "ie",
        "ld"
      ],
      [
        "ul",
        "ar"
      ],
      [
        "Ġlook",
        "ed"
      ],
      [
        "ĠCh",
        "rist"
      ],
      [
        ",",
        "'"
      ],
      [
        "Ġday",
        "s"
      ],
      [
        "ĊĊ",
        "Ċ"
      ],
      [
        "Ġb",
        "u"
      ],
      [
        "ro",
        "ss"
      ],
      [
        "un",
        "g"
      ],
      [
        "o",
        "ice"
      ],
      [
        "in",
        "ess"
      ],
      [
        "Ġc",
        "ur"
      ],
      [
        "Ġbe",
        "h"
      ],
      [
        "ir",
        "d"
      ],
      [
        "Ġal",
        "ways"
      ],
      [
        "Ġs",
        "ent"
      ],
      [
        "ut",
        "e"
      ],
      [
        "Ġm",
        "o"
      ],
      [
        "Ġw",
        "ater"
      ],
      [
        "Ġbet",
        "ween"
      ],
      [
        "Ġ",
        "ri"
      ],
      [
        "o",
        "ver"
      ],
      [
        "Ġf",
        "r"
      ],
      [
        "A",
        "R"
      ],
      [
        "Ġ(",
        "?"
      ],
      [
        "ĠW",
        "hat"
      ],
      [
        "Ġh",
        "um"
      ],
      [
        "Ġl",
        "ar"
      ],
      [
        "er",
        "ing"
      ],
      [
        "an",
        "k"
      ],
      [
        "Ġo",
        "cc"
      ],
      [
        "on",
        "t"
      ],
      [
        "wh",
        "ich"
      ],
      [
        "u",
        "nt"
      ],
      [
        "Ġg",
        "ener"
      ],
      [
        "an",
        "y"
      ],
      [
        "Ġwom",
        "an"
      ],
      [
        "Ġs",
        "at"
      ],
      [
        "as",
        "on"
      ],
      [
        "ĠM",
        "ar"
      ],
      [
        "Ġear",
        "th"
      ],
      [
        "ir",
        "l"
      ],
      [
        "Ġst",
        "and"
      ],
      [
        "ter",
        "s"
      ],
      [
        "Ġm",
        "in"
      ],
      [
        "at",
        "ing"
      ],
      [
        "Ġword",
        "s"
      ],
      [
        "a",
        "z"
      ],
      [
        "Ġm",
        "om"
      ],
      [
        "ĠL",
        "ord"
      ],
      [
        "I",
        "n"
      ],
      [
        "Ġg",
        "ave"
      ],
      [
        "c",
        "ri"
      ],
      [
        "Ġd",
        "on"
      ],
      [
        "Ġha",
        "ving"
      ],
      [
        "Ġp",
        "ower"
      ],
      [
        "Ġdis",
        "c"
      ],
      [
        "ou",
        "d"
      ],
      [
        "el",
        "t"
      ],
      [
        "Ġbo",
        "y"
      ],
      [
        "Ġas",
        "ked"
      ],
      [
        "ĠW",
        "h"
      ],
      [
        "Ġ1",
        "8"
      ],
      [
        "Ġhe",
        "ar"
      ],
      [
        "Ġa",
        "ct"
      ],
      [
        "ull",
        "y"
      ],
      [
        "Ġwho",
        "le"
      ],
      [
        "Y",
        "ou"
      ],
      [
        "Ġto",
        "ward"
      ],
      [
        "Ġs",
        "il"
      ],
      [
        "Ġf",
        "ore"
      ],
      [
        "ĊĠĠĠĠ",
        "Ġ"
      ],
      [
        "e",
        "e"
      ],
      [
        "ain",
        "ed"
      ],
      [
        "Ġt",
        "re"
      ],
      [
        "ĠK",
        "ing"
      ],
      [
        "Ġc",
        "le"
      ],
      [
        "Ġbel",
        "ie"
      ],
      [
        "al",
        "s"
      ],
      [
        "Ġcon",
        "f"
      ],
      [
        "Ġc",
        "ertain"
      ],
      [
        "Ġt",
        "er"
      ],
      [
        "ment",
        "s"
      ],
      [
        "Ġw",
        "ind"
      ],
      [
        "Ġseem",
        "ed"
      ],
      [
        "a",
        "pp"
      ],
      [
        "Ġu",
        "nt"
      ],
      [
        "Ġcount",
        "ry"
      ],
      [
        "Ġchild",
        "ren"
      ],
      [
        "Ġha",
        "lf"
      ],
      [
        "it",
        "ies"
      ],
      [
        "Ġar",
        "t"
      ],
      [
        "en",
        "e"
      ],
      [
        "Ġde",
        "p"
      ],
      [
        "Ġbr",
        "ought"
      ],
      [
        "Ġin",
        "c"
      ],
      [
        "ant",
        "s"
      ],
      [
        "Ġh",
        "igh"
      ],
      [
        "Ġke",
        "ep"
      ],
      [
        "ĠJ",
        "o"
      ],
      [
        "Ġh",
        "our"
      ],
      [
        "Ġdo",
        "or"
      ],
      [
        "Ġf",
        "am"
      ],
      [
        "at",
        "ch"
      ],
      [
        "Ġb",
        "ro"
      ],
      [
        "a",
        "ven"
      ],
      [
        "I",
        "I"
      ],
      [
        "x",
        "t"
      ],
      [
        "Ġad",
        "d"
      ],
      [
        "Ġfe",
        "el"
      ],
      [
        "f",
        "ter"
      ],
      [
        "ha",
        "d"
      ],
      [
        "Ġbet",
        "ter"
      ],
      [
        "re",
        "nt"
      ],
      [
        "Ġ(?",
        "),"
      ],
      [
        "Ġd",
        "r"
      ],
      [
        "Ġb",
        "est"
      ],
      [
        "Ġ",
        "7"
      ],
      [
        "Ġh",
        "or"
      ],
      [
        "Ġm",
        "other"
      ],
      [
        "Ġl",
        "aw"
      ],
      [
        "Ġst",
        "e"
      ],
      [
        "n",
        "ed"
      ],
      [
        "Ġd",
        "ra"
      ],
      [
        "ĊĊ",
        "ĊĊ"
      ],
      [
        "Ġgo",
        "ing"
      ],
      [
        "i",
        "et"
      ],
      [
        "l",
        "ing"
      ],
      [
        "Ġin",
        "ter"
      ],
      [
        "g",
        "r"
      ],
      [
        "an",
        "ge"
      ],
      [
        "ow",
        "ed"
      ],
      [
        "Ġha",
        "th"
      ],
      [
        "Ġde",
        "l"
      ],
      [
        "ĠB",
        "r"
      ],
      [
        "Ġ",
        "|"
      ],
      [
        "ĠH",
        "is"
      ],
      [
        "Ġsm",
        "all"
      ],
      [
        "AL",
        "L"
      ],
      [
        "ou",
        "n"
      ],
      [
        "d",
        "ay"
      ],
      [
        "Ġkn",
        "ew"
      ],
      [
        "und",
        "red"
      ],
      [
        "Ġser",
        "v"
      ],
      [
        "Ġf",
        "a"
      ],
      [
        "Ġh",
        "on"
      ],
      [
        "Ġex",
        "t"
      ],
      [
        "o",
        "c"
      ],
      [
        "Ġl",
        "ay"
      ],
      [
        "u",
        "b"
      ],
      [
        "Ġf",
        "all"
      ],
      [
        "y",
        "ou"
      ],
      [
        "Ġro",
        "om"
      ],
      [
        "m",
        "on"
      ],
      [
        "Ġt",
        "ra"
      ],
      [
        "i",
        "ans"
      ],
      [
        "E",
        "S"
      ],
      [
        "Ġs",
        "k"
      ],
      [
        "Ġre",
        "ad"
      ],
      [
        "Ġmom",
        "ent"
      ],
      [
        "er",
        "c"
      ],
      [
        "Ġde",
        "ad"
      ],
      [
        "orn",
        "ing"
      ],
      [
        "am",
        "p"
      ],
      [
        "Ġn",
        "um"
      ],
      [
        "Ġple",
        "as"
      ],
      [
        "Ġsay",
        "s"
      ],
      [
        "u",
        "bl"
      ],
      [
        "ĠE",
        "ng"
      ],
      [
        "i",
        "us"
      ],
      [
        "Ġpres",
        "ent"
      ],
      [
        "Ġbeg",
        "an"
      ],
      [
        "Ġ",
        "âĢ"
      ],
      [
        "Ġturn",
        "ed"
      ],
      [
        "Ġg",
        "ra"
      ],
      [
        "Ġp",
        "ri"
      ],
      [
        "e",
        "y"
      ],
      [
        "Ġc",
        "are"
      ],
      [
        "Ġl",
        "ess"
      ],
      [
        "o",
        "ke"
      ],
      [
        "Ġspe",
        "ak"
      ],
      [
        "en",
        "se"
      ],
      [
        "Ġw",
        "a"
      ],
      [
        "Ġs",
        "le"
      ],
      [
        "is",
        "on"
      ],
      [
        "ĠA",
        "r"
      ],
      [
        "Ġhe",
        "l"
      ],
      [
        "Ġth",
        "us"
      ],
      [
        "ĠA",
        "t"
      ],
      [
        "ain",
        "s"
      ],
      [
        "n",
        "ow"
      ],
      [
        "Ġst",
        "ood"
      ],
      [
        "Ġf",
        "our"
      ],
      [
        "iv",
        "es"
      ],
      [
        "Ġad",
        "v"
      ],
      [
        "Ġin",
        "s"
      ],
      [
        "Ġr",
        "ound"
      ],
      [
        "Ġsu",
        "n"
      ],
      [
        "Ġunt",
        "il"
      ],
      [
        "U",
        "S"
      ],
      [
        "ce",
        "ed"
      ],
      [
        "i",
        "b"
      ],
      [
        "Ġre",
        "f"
      ],
      [
        "Ġhar",
        "d"
      ],
      [
        "Ġwho",
        "se"
      ],
      [
        "Ġsu",
        "ff"
      ],
      [
        "et",
        "s"
      ],
      [
        "Ġe",
        "l"
      ],
      [
        "Ġc",
        "he"
      ],
      [
        "Ġf",
        "ire"
      ],
      [
        "W",
        "hat"
      ],
      [
        "Ġc",
        "ity"
      ],
      [
        "Ġto",
        "gether"
      ],
      [
        "Ġmy",
        "self"
      ],
      [
        "ac",
        "es"
      ],
      [
        "Ġas",
        "s"
      ],
      [
        "Ġm",
        "atter"
      ],
      [
        "ir",
        "it"
      ],
      [
        "Ġqu",
        "ite"
      ],
      [
        "Ġd",
        "ou"
      ],
      [
        "Ġsou",
        "l"
      ],
      [
        "Ġop",
        "en"
      ],
      [
        "RE",
        "E"
      ],
      [
        "re",
        "ad"
      ],
      [
        "Ġc",
        "ond"
      ],
      [
        "ĊĊ",
        "ĠĠĠĠĠĠĠĠ"
      ],
      [
        "Ġen",
        "ough"
      ],
      [
        "Ġf",
        "ull"
      ],
      [
        "ud",
        "e"
      ],
      [
        "ate",
        "ly"
      ],
      [
        "Ġb",
        "ody"
      ],
      [
        "Ġfe",
        "et"
      ],
      [
        "ET",
        "TER"
      ],
      [
        "Ġgiv",
        "en"
      ],
      [
        "Ġpro",
        "p"
      ],
      [
        "Ġg",
        "irl"
      ],
      [
        "Ġd",
        "ark"
      ],
      [
        "Ġn",
        "ec"
      ],
      [
        "Ġ",
        "es"
      ],
      [
        "Ġbe",
        "aut"
      ],
      [
        "ĠL",
        "ETTER"
      ],
      [
        "h",
        "im"
      ],
      [
        "ur",
        "ing"
      ],
      [
        "0",
        "3"
      ],
      [
        "an",
        "e"
      ],
      [
        "Ġv",
        "is"
      ],
      [
        "Ġcan",
        "not"
      ],
      [
        "p",
        "ro"
      ],
      [
        "ur",
        "y"
      ],
      [
        "{",
        "~"
      ],
      [
        "~",
        "}"
      ],
      [
        "Ġe",
        "ff"
      ],
      [
        "ab",
        "ly"
      ],
      [
        "Ġa",
        "ir"
      ],
      [
        "st",
        "and"
      ],
      [
        "Ġre",
        "ce"
      ],
      [
        "ent",
        "le"
      ],
      [
        "Ġh",
        "undred"
      ],
      [
        "Ġpo",
        "or"
      ],
      [
        "ĠB",
        "e"
      ],
      [
        "Ġwh",
        "ite"
      ],
      [
        "ur",
        "ch"
      ],
      [
        "âĢ",
        "Ļ"
      ],
      [
        "Ġs",
        "ign"
      ],
      [
        "Ġne",
        "ed"
      ],
      [
        "ĠS",
        "M"
      ],
      [
        "Ġt",
        "ill"
      ],
      [
        "one",
        "y"
      ],
      [
        "ain",
        "t"
      ],
      [
        "in",
        "es"
      ],
      [
        "G",
        "REE"
      ],
      [
        "er",
        "n"
      ],
      [
        "GREE",
        "K"
      ],
      [
        "Ġlar",
        "ge"
      ],
      [
        "ĠSM",
        "ALL"
      ],
      [
        "Ġbr",
        "other"
      ],
      [
        "id",
        "es"
      ],
      [
        "Ġm",
        "orning"
      ],
      [
        "Ġs",
        "ince"
      ],
      [
        "Ġthem",
        "selves"
      ],
      [
        "Ġf",
        "ear"
      ],
      [
        "Ġsomet",
        "hing"
      ],
      [
        "Ġv",
        "oice"
      ],
      [
        "g",
        "er"
      ],
      [
        "f",
        "ic"
      ],
      [
        "ĠĠ",
        "Ġ"
      ],
      [
        "ĠO",
        "n"
      ],
      [
        "ent",
        "ion"
      ],
      [
        "Ġw",
        "ife"
      ],
      [
        "Ġcour",
        "se"
      ],
      [
        "hi",
        "p"
      ],
      [
        "ous",
        "and"
      ],
      [
        "Ġt",
        "aken"
      ],
      [
        "Ġtr",
        "ue"
      ],
      [
        "Ġdo",
        "es"
      ],
      [
        "Ġha",
        "st"
      ],
      [
        "us",
        "ed"
      ],
      [
        "ac",
        "ed"
      ],
      [
        "Ġf",
        "act"
      ],
      [
        "ĠA",
        "l"
      ],
      [
        "te",
        "rest"
      ],
      [
        "ou",
        "th"
      ],
      [
        "Ġfor",
        "m"
      ],
      [
        "b",
        "ed"
      ],
      [
        "ĠN",
        "o"
      ],
      [
        ",",
        "--"
      ],
      [
        "Ġpers",
        "on"
      ],
      [
        "C",
        "H"
      ],
      [
        "Ġ",
        "ill"
      ],
      [
        "Ġpo",
        "int"
      ],
      [
        "Ġr",
        "ather"
      ],
      [
        "f",
        "ort"
      ],
      [
        "le",
        "ct"
      ],
      [
        "ac",
        "hed"
      ],
      [
        "Ġs",
        "ing"
      ],
      [
        "W",
        "e"
      ],
      [
        "Ġal",
        "most"
      ],
      [
        "Ġgo",
        "ld"
      ],
      [
        "is",
        "ter"
      ],
      [
        "Ġw",
        "ond"
      ],
      [
        "Ġf",
        "air"
      ],
      [
        "id",
        "ed"
      ],
      [
        "b",
        "t"
      ],
      [
        "Ġsu",
        "re"
      ],
      [
        "Ġh",
        "old"
      ],
      [
        "Ġse",
        "a"
      ],
      [
        "Ġus",
        "ed"
      ],
      [
        "et",
        "er"
      ],
      [
        "aught",
        "er"
      ],
      [
        "Ġother",
        "s"
      ],
      [
        "ag",
        "es"
      ],
      [
        "ill",
        "ed"
      ],
      [
        "Ġt",
        "em"
      ],
      [
        "u",
        "c"
      ],
      [
        "Ġcomm",
        "and"
      ],
      [
        "Ġt",
        "e"
      ],
      [
        "Ġpl",
        "ay"
      ],
      [
        "id",
        "er"
      ],
      [
        "f",
        "ully"
      ],
      [
        "w",
        "ell"
      ],
      [
        "the",
        "y"
      ],
      [
        "if",
        "ic"
      ],
      [
        "u",
        "ck"
      ],
      [
        "Ġme",
        "an"
      ],
      [
        "1",
        "9"
      ],
      [
        "Ġa",
        "w"
      ],
      [
        "ha",
        "ps"
      ],
      [
        "Ġne",
        "xt"
      ],
      [
        "Ġs",
        "we"
      ],
      [
        "Ġi",
        "i"
      ],
      [
        "Ġthere",
        "fore"
      ],
      [
        "Ġb",
        "us"
      ],
      [
        "Ġab",
        "ove"
      ],
      [
        "ĠP",
        "r"
      ],
      [
        "h",
        "n"
      ],
      [
        "The",
        "re"
      ],
      [
        "ress",
        "ed"
      ],
      [
        "Ġj",
        "ud"
      ],
      [
        "Ġu",
        "se"
      ],
      [
        "ĠW",
        "ith"
      ],
      [
        "Ġs",
        "im"
      ],
      [
        "ot",
        "t"
      ],
      [
        "g",
        "in"
      ],
      [
        "Ġ",
        "X"
      ],
      [
        "S",
        "he"
      ],
      [
        "Ġg",
        "one"
      ],
      [
        "u",
        "red"
      ],
      [
        "Ġc",
        "ent"
      ],
      [
        "Ġbo",
        "ok"
      ],
      [
        "ir",
        "c"
      ],
      [
        "Ġbr",
        "ing"
      ],
      [
        "Ġbl",
        "ood"
      ],
      [
        "c",
        "ha"
      ],
      [
        "ĠN",
        "ow"
      ],
      [
        "ak",
        "es"
      ],
      [
        "ĠO",
        "f"
      ],
      [
        "Ġd",
        "ire"
      ],
      [
        "e",
        "k"
      ],
      [
        "Ġf",
        "elt"
      ],
      [
        "Ġgr",
        "ound"
      ],
      [
        "ch",
        "o"
      ],
      [
        "er",
        "y"
      ],
      [
        "ĠM",
        "y"
      ],
      [
        "Ġwith",
        "in"
      ],
      [
        "Ġfriend",
        "s"
      ],
      [
        "T",
        "hat"
      ],
      [
        "Ġbl",
        "ack"
      ],
      [
        "Ġm",
        "et"
      ],
      [
        "ĠN",
        "or"
      ],
      [
        "Ġstr",
        "ong"
      ],
      [
        "Ġo",
        "pp"
      ],
      [
        "h",
        "il"
      ],
      [
        "Ġcont",
        "in"
      ],
      [
        "Ġb",
        "ur"
      ],
      [
        "r",
        "ation"
      ],
      [
        "b",
        "it"
      ],
      [
        "n",
        "o"
      ],
      [
        "ĠH",
        "ow"
      ],
      [
        "re",
        "am"
      ],
      [
        "Ġhel",
        "p"
      ],
      [
        "l",
        "ish"
      ],
      [
        "ent",
        "y"
      ],
      [
        "for",
        "m"
      ],
      [
        "Ġs",
        "ir"
      ],
      [
        "Ġsp",
        "ec"
      ],
      [
        "ord",
        "ing"
      ],
      [
        "il",
        "t"
      ],
      [
        "u",
        "ally"
      ],
      [
        "end",
        "ed"
      ],
      [
        "Ġy",
        "ear"
      ],
      [
        "Ġt",
        "imes"
      ],
      [
        "il",
        "es"
      ],
      [
        "Ġth",
        "ousand"
      ],
      [
        "Ġl",
        "ive"
      ],
      [
        "Ġfor",
        "th"
      ],
      [
        "y",
        "ing"
      ],
      [
        "ĠMr",
        "s"
      ],
      [
        "~}",
        "{~"
      ],
      [
        "iz",
        "ed"
      ],
      [
        "Ġre",
        "pl"
      ],
      [
        "Ġr",
        "un"
      ],
      [
        "Ġal",
        "ong"
      ],
      [
        "ot",
        "e"
      ],
      [
        "Ġhow",
        "ever"
      ],
      [
        "ang",
        "er"
      ],
      [
        "as",
        "h"
      ],
      [
        "Ġg",
        "entle"
      ],
      [
        "r",
        "ic"
      ],
      [
        "u",
        "g"
      ],
      [
        "k",
        "en"
      ],
      [
        "ard",
        "s"
      ],
      [
        "w",
        "er"
      ],
      [
        "Ġ",
        "Q"
      ],
      [
        "T",
        "o"
      ],
      [
        "att",
        "le"
      ],
      [
        "w",
        "or"
      ],
      [
        "Ġpass",
        "ed"
      ],
      [
        "Ġde",
        "v"
      ],
      [
        "d",
        "om"
      ],
      [
        "l",
        "t"
      ],
      [
        "ove",
        "red"
      ],
      [
        "re",
        "ady"
      ],
      [
        "Ġde",
        "ar"
      ],
      [
        "id",
        "ent"
      ],
      [
        "Ġl",
        "ord"
      ],
      [
        "or",
        "row"
      ],
      [
        "Ġp",
        "rom"
      ],
      [
        "ĠO",
        "F"
      ],
      [
        "iv",
        "ing"
      ],
      [
        "Ġcl",
        "ose"
      ],
      [
        "ubl",
        "ic"
      ],
      [
        "Ġg",
        "re"
      ],
      [
        "s",
        "he"
      ],
      [
        "the",
        "m"
      ],
      [
        "p",
        "ar"
      ],
      [
        "st",
        "r"
      ],
      [
        "ie",
        "w"
      ],
      [
        "b",
        "s"
      ],
      [
        "ut",
        "ion"
      ],
      [
        "it",
        "es"
      ],
      [
        "a",
        "im"
      ],
      [
        "Ġsec",
        "ond"
      ],
      [
        "Ġin",
        "de"
      ],
      [
        "Ġc",
        "ol"
      ],
      [
        "Ġin",
        "terest"
      ],
      [
        "Ġsay",
        "ing"
      ],
      [
        "d",
        "den"
      ],
      [
        "the",
        "re"
      ],
      [
        "Ġc",
        "ried"
      ],
      [
        "Ġpr",
        "in"
      ],
      [
        "Ġw",
        "all"
      ],
      [
        "Ġre",
        "ason"
      ],
      [
        "Ġsh",
        "ow"
      ],
      [
        "Ġdif",
        "fe"
      ],
      [
        "Ġm",
        "is"
      ],
      [
        "c",
        "ess"
      ],
      [
        "Ġad",
        "m"
      ],
      [
        "Ġm",
        "id"
      ],
      [
        "Ġs",
        "ound"
      ],
      [
        "Ġf",
        "in"
      ],
      [
        "Ġal",
        "one"
      ],
      [
        "Ġre",
        "al"
      ],
      [
        "Ġin",
        "v"
      ],
      [
        "Ġde",
        "ep"
      ],
      [
        "o",
        "or"
      ],
      [
        "c",
        "ap"
      ],
      [
        "Ġqu",
        "est"
      ],
      [
        "Ġbelie",
        "ve"
      ],
      [
        "f",
        "rom"
      ],
      [
        "ĠS",
        "p"
      ],
      [
        "it",
        "ing"
      ],
      [
        "Ġm",
        "oney"
      ],
      [
        "Ġkn",
        "own"
      ],
      [
        "1",
        "0"
      ],
      [
        "A",
        "s"
      ],
      [
        "if",
        "ul"
      ],
      [
        "Ġto",
        "wn"
      ],
      [
        "e",
        "v"
      ],
      [
        "Ġof",
        "ten"
      ],
      [
        "Ġw",
        "ood"
      ],
      [
        "The",
        "n"
      ],
      [
        "Ġbeh",
        "ind"
      ],
      [
        "k",
        "ing"
      ],
      [
        "w",
        "here"
      ],
      [
        "Ġh",
        "ope"
      ],
      [
        "we",
        "red"
      ],
      [
        "Ġle",
        "ave"
      ],
      [
        "ĠT",
        "HE"
      ],
      [
        "Ġc",
        "or"
      ],
      [
        "Ġm",
        "ine"
      ],
      [
        "T",
        "his"
      ],
      [
        "i",
        "ence"
      ],
      [
        "Ġm",
        "ount"
      ],
      [
        "T",
        "H"
      ],
      [
        "ra",
        "el"
      ],
      [
        "ĠĠĠĠĠĠĠĠĠĠĠĠĠĠĠĠ",
        "ĠĠĠĠĠĠĠĠĠĠĠĠĠĠĠĠ"
      ],
      [
        "s",
        "p"
      ],
      [
        "Ġh",
        "o"
      ],
      [
        "os",
        "ition"
      ],
      [
        "Ġhe",
        "aven"
      ],
      [
        "Ġb",
        "es"
      ],
      [
        "T",
        "h"
      ],
      [
        "Ġapp",
        "ear"
      ],
      [
        "en",
        "g"
      ],
      [
        "Ġb",
        "ar"
      ],
      [
        "ĠA",
        "ll"
      ],
      [
        "--",
        "\""
      ],
      [
        ".",
        ")"
      ],
      [
        "N",
        "o"
      ],
      [
        "ha",
        "ve"
      ],
      [
        "A",
        "P"
      ],
      [
        "Ġsu",
        "dden"
      ],
      [
        "m",
        "b"
      ],
      [
        "ur",
        "al"
      ],
      [
        "Ġs",
        "ix"
      ],
      [
        "Ġor",
        "der"
      ],
      [
        "Ġb",
        "ed"
      ],
      [
        "le",
        "y"
      ],
      [
        "Ġ",
        "8"
      ],
      [
        "Ġher",
        "self"
      ],
      [
        "we",
        "re"
      ],
      [
        "1",
        "8"
      ],
      [
        "Ġpr",
        "ay"
      ],
      [
        "anc",
        "es"
      ],
      [
        "Ġme",
        "et"
      ],
      [
        "is",
        "m"
      ],
      [
        "un",
        "e"
      ],
      [
        "I",
        "S"
      ],
      [
        "'",
        "m"
      ],
      [
        "u",
        "se"
      ],
      [
        "th",
        "ough"
      ],
      [
        "Ġsu",
        "m"
      ],
      [
        "li",
        "ke"
      ],
      [
        "Ġhum",
        "an"
      ],
      [
        "Ġg",
        "od"
      ],
      [
        "Ġt",
        "en"
      ],
      [
        "ĠM",
        "iss"
      ],
      [
        "Ġ",
        "9"
      ],
      [
        "Ġs",
        "y"
      ],
      [
        "Ġs",
        "ight"
      ],
      [
        "Ġsh",
        "ort"
      ],
      [
        "Ġd",
        "iv"
      ],
      [
        "Ġme",
        "ans"
      ],
      [
        "Ġf",
        "ur"
      ],
      [
        "a",
        "x"
      ],
      [
        "Ġw",
        "ild"
      ],
      [
        "Ġ",
        "ide"
      ],
      [
        "Ġv",
        "ar"
      ],
      [
        "Ġre",
        "d"
      ],
      [
        "the",
        "ir"
      ],
      [
        "Ġsp",
        "irit"
      ],
      [
        "l",
        "s"
      ],
      [
        "1",
        "1"
      ],
      [
        "ver",
        "al"
      ],
      [
        "le",
        "t"
      ],
      [
        "Ġany",
        "thing"
      ],
      [
        "am",
        "es"
      ],
      [
        "e",
        "ared"
      ],
      [
        "hi",
        "le"
      ],
      [
        "Ġnat",
        "ure"
      ],
      [
        "i",
        "ent"
      ],
      [
        "Ġ",
        "est"
      ],
      [
        "at",
        "s"
      ],
      [
        "ĠIs",
        "rael"
      ],
      [
        "Ġl",
        "ear"
      ],
      [
        "Ġrem",
        "em"
      ],
      [
        "av",
        "es"
      ],
      [
        "Ġans",
        "wered"
      ],
      [
        "Ġl",
        "ady"
      ],
      [
        "ĠH",
        "er"
      ],
      [
        "t",
        "r"
      ],
      [
        "Ġd",
        "est"
      ],
      [
        "Ġc",
        "ase"
      ],
      [
        "c",
        "o"
      ],
      [
        "Ġe",
        "ither"
      ],
      [
        "at",
        "ive"
      ],
      [
        "'",
        "ve"
      ],
      [
        "w",
        "hat"
      ],
      [
        "Ġrepl",
        "ied"
      ],
      [
        "Ġc",
        "ut"
      ],
      [
        "ĠS",
        "ir"
      ],
      [
        "Ġor",
        "d"
      ],
      [
        "âĢ",
        "Ŀ"
      ],
      [
        "at",
        "ure"
      ],
      [
        "Ġc",
        "ast"
      ],
      [
        "Ġd",
        "ro"
      ],
      [
        "Ġinde",
        "ed"
      ],
      [
        "1",
        "3"
      ],
      [
        "1",
        "4"
      ],
      [
        "1",
        "2"
      ],
      [
        "Ġ",
        "*"
      ],
      [
        "il",
        "ed"
      ],
      [
        "itt",
        "ed"
      ],
      [
        "W",
        "hen"
      ],
      [
        "IN",
        "G"
      ],
      [
        "ĠâĢ",
        "ľ"
      ],
      [
        "Ġlo",
        "st"
      ],
      [
        "Ġfa",
        "ith"
      ],
      [
        "he",
        "ad"
      ],
      [
        "ha",
        "ll"
      ],
      [
        "Ġman",
        "ner"
      ],
      [
        "Ġl",
        "au"
      ],
      [
        "ter",
        "n"
      ],
      [
        "Ġar",
        "m"
      ],
      [
        "I",
        "C"
      ],
      [
        "ren",
        "ce"
      ],
      [
        "on",
        "es"
      ],
      [
        "r",
        "ing"
      ],
      [
        "Ġdou",
        "bt"
      ],
      [
        "Ġt",
        "alk"
      ],
      [
        "ĠJo",
        "hn"
      ],
      [
        "ĠO",
        "ne"
      ],
      [
        "Ġnum",
        "ber"
      ],
      [
        "Ġc",
        "irc"
      ],
      [
        "ha",
        "m"
      ],
      [
        "Ġob",
        "ser"
      ],
      [
        "Ġm",
        "us"
      ],
      [
        "th",
        "is"
      ],
      [
        "ĠC",
        "l"
      ],
      [
        "Ġbe",
        "ar"
      ],
      [
        "il",
        "ity"
      ],
      [
        "ne",
        "y"
      ],
      [
        "Ġtr",
        "uth"
      ],
      [
        "art",
        "ed"
      ],
      [
        "Ġc",
        "e"
      ],
      [
        "Ġsub",
        "ject"
      ],
      [
        "Ġst",
        "ru"
      ],
      [
        "Ġcomm",
        "on"
      ],
      [
        "Ġar",
        "ms"
      ],
      [
        "g",
        "es"
      ],
      [
        "Ġhor",
        "se"
      ],
      [
        "Ġde",
        "f"
      ],
      [
        "ry",
        "ing"
      ],
      [
        "Ġm",
        "aster"
      ],
      [
        "Ċ",
        "ĊĠĠĠ"
      ],
      [
        "et",
        "y"
      ],
      [
        "Ġcom",
        "ing"
      ],
      [
        "b",
        "and"
      ],
      [
        "Ġm",
        "od"
      ],
      [
        "h",
        "o"
      ],
      [
        "ĠU",
        "n"
      ],
      [
        "Ġf",
        "ree"
      ],
      [
        "Ġwh",
        "y"
      ],
      [
        "0",
        "4"
      ],
      [
        "Ġpre",
        "t"
      ],
      [
        "Ġen",
        "em"
      ],
      [
        "The",
        "y"
      ],
      [
        "ĊĊĠĠĠĠĠĠĠĠ",
        "Ġ"
      ],
      [
        "Ġst",
        "ate"
      ],
      [
        "Ġle",
        "ad"
      ],
      [
        "Ġit",
        "self"
      ],
      [
        "Ġle",
        "ast"
      ],
      [
        "Ġse",
        "veral"
      ],
      [
        "Ġfo",
        "ot"
      ],
      [
        "b",
        "ody"
      ],
      [
        "c",
        "er"
      ],
      [
        "Ġal",
        "ready"
      ],
      [
        "Ġe",
        "as"
      ],
      [
        "al",
        "th"
      ],
      [
        "Ġtr",
        "ans"
      ],
      [
        "Ġd",
        "ri"
      ],
      [
        "Ġke",
        "pt"
      ],
      [
        "em",
        "pt"
      ],
      [
        "u",
        "ght"
      ],
      [
        "Ġp",
        "ast"
      ],
      [
        "g",
        "y"
      ],
      [
        "ri",
        "e"
      ],
      [
        "i",
        "o"
      ],
      [
        "um",
        "p"
      ],
      [
        "Ġ",
        "ed"
      ],
      [
        "Ġnec",
        "ess"
      ],
      [
        "Ġchar",
        "ac"
      ],
      [
        "mer",
        "ic"
      ],
      [
        "ar",
        "ch"
      ],
      [
        "c",
        "he"
      ],
      [
        "Ġl",
        "ow"
      ],
      [
        "c",
        "hes"
      ],
      [
        "p",
        "art"
      ],
      [
        "ver",
        "n"
      ],
      [
        "Ġhe",
        "ld"
      ],
      [
        "ĠA",
        "N"
      ],
      [
        "Ġposs",
        "ess"
      ],
      [
        "Ġw",
        "ish"
      ],
      [
        "Ġex",
        "c"
      ],
      [
        "F",
        "or"
      ],
      [
        "Ġex",
        "pl"
      ],
      [
        "cri",
        "pt"
      ],
      [
        "Ġf",
        "ive"
      ],
      [
        "Ġre",
        "qu"
      ],
      [
        "c",
        "y"
      ],
      [
        "ĠĠĠĠ",
        "Ġ"
      ],
      [
        "Ġab",
        "s"
      ],
      [
        "te",
        "red"
      ],
      [
        "u",
        "ed"
      ],
      [
        "Ġel",
        "se"
      ],
      [
        "Ġey",
        "e"
      ],
      [
        "Ġpe",
        "ace"
      ],
      [
        "ic",
        "es"
      ],
      [
        "ĠF",
        "r"
      ],
      [
        "Ġaf",
        "f"
      ],
      [
        "Ġp",
        "ain"
      ],
      [
        "Ġsle",
        "ep"
      ],
      [
        "Ġch",
        "ief"
      ],
      [
        "in",
        "ation"
      ],
      [
        "Ġne",
        "ither"
      ],
      [
        "Ġcle",
        "ar"
      ],
      [
        "Ġch",
        "urch"
      ],
      [
        "s",
        "on"
      ],
      [
        "Ġn",
        "one"
      ],
      [
        "Ġpro",
        "du"
      ],
      [
        "W",
        "ell"
      ],
      [
        "a",
        "f"
      ],
      [
        "ou",
        "ra"
      ],
      [
        "Ġc",
        "reat"
      ],
      [
        "cc",
        "ess"
      ],
      [
        "Ġacc",
        "ording"
      ],
      [
        "Ġ",
        "&"
      ],
      [
        "Ġpro",
        "v"
      ],
      [
        "Ġacc",
        "ount"
      ],
      [
        "ot",
        "s"
      ],
      [
        "al",
        "ked"
      ],
      [
        "Ġbec",
        "ome"
      ],
      [
        "it",
        "ude"
      ],
      [
        "Ġw",
        "it"
      ],
      [
        "Ġpro",
        "f"
      ],
      [
        "u",
        "nder"
      ],
      [
        "Ġwom",
        "en"
      ],
      [
        "ious",
        "ly"
      ],
      [
        "Ġcon",
        "st"
      ],
      [
        "Ġbec",
        "ame"
      ],
      [
        "re",
        "m"
      ],
      [
        "!",
        "'"
      ],
      [
        "Ġr",
        "u"
      ],
      [
        "m",
        "a"
      ],
      [
        "Ġc",
        "ause"
      ],
      [
        "Ġh",
        "us"
      ],
      [
        "I",
        "L"
      ],
      [
        "s",
        "ide"
      ],
      [
        "Ġfor",
        "t"
      ],
      [
        "Ġm",
        "ark"
      ],
      [
        "Ġstr",
        "ange"
      ],
      [
        "res",
        "ent"
      ],
      [
        "Ġv",
        "iew"
      ],
      [
        "Ġper",
        "fect"
      ],
      [
        "Ġe",
        "qu"
      ],
      [
        "Ġar",
        "ound"
      ],
      [
        "Y",
        "es"
      ],
      [
        "?",
        "'"
      ],
      [
        "Ġc",
        "a"
      ],
      [
        "Ġ",
        "ir"
      ],
      [
        "ĠI",
        "nd"
      ],
      [
        "e",
        "an"
      ],
      [
        "Ġc",
        "ap"
      ],
      [
        "Ġw",
        "alk"
      ],
      [
        "Ġs",
        "ort"
      ],
      [
        "h",
        "old"
      ],
      [
        "Ġso",
        "ld"
      ],
      [
        "ĠR",
        "e"
      ],
      [
        "O",
        "h"
      ],
      [
        "ir",
        "t"
      ],
      [
        "Ġd",
        "aughter"
      ],
      [
        "ow",
        "ing"
      ],
      [
        "bl",
        "ed"
      ],
      [
        "Ġst",
        "ri"
      ],
      [
        "Ġin",
        "f"
      ],
      [
        "ick",
        "ed"
      ],
      [
        "as",
        "ion"
      ],
      [
        "Ġwond",
        "er"
      ],
      [
        "Ġreturn",
        "ed"
      ],
      [
        "Ġob",
        "ject"
      ],
      [
        "Ġswe",
        "et"
      ],
      [
        "Ġapp",
        "ro"
      ],
      [
        "Ġlook",
        "ing"
      ],
      [
        "Ġ",
        "Z"
      ],
      [
        "ĠS",
        "ee"
      ],
      [
        "ust",
        "ration"
      ],
      [
        "Ġcons",
        "ider"
      ],
      [
        "ward",
        "s"
      ],
      [
        "S",
        "o"
      ],
      [
        "Ġh",
        "ur"
      ],
      [
        "ci",
        "ent"
      ],
      [
        "Ġs",
        "in"
      ],
      [
        "s",
        "c"
      ],
      [
        "ow",
        "ers"
      ],
      [
        "as",
        "ed"
      ],
      [
        "Ġbeg",
        "in"
      ],
      [
        "Ġunder",
        "stand"
      ],
      [
        "o",
        "in"
      ],
      [
        "Ġeff",
        "ect"
      ],
      [
        "Ġp",
        "ar"
      ],
      [
        "1",
        "6"
      ],
      [
        "Ġqu",
        "ick"
      ],
      [
        "it",
        "er"
      ],
      [
        "or",
        "m"
      ],
      [
        "I",
        "f"
      ],
      [
        "el",
        "s"
      ],
      [
        "1",
        "5"
      ],
      [
        "Ġtr",
        "ou"
      ],
      [
        "Ġf",
        "ine"
      ],
      [
        "wh",
        "o"
      ],
      [
        "A",
        "n"
      ],
      [
        "al",
        "ity"
      ],
      [
        "ist",
        "s"
      ],
      [
        "av",
        "ing"
      ],
      [
        "O",
        "L"
      ],
      [
        "Ġst",
        "o"
      ],
      [
        "Ġ",
        "ut"
      ],
      [
        "..",
        ".."
      ],
      [
        "Ġwhe",
        "ther"
      ],
      [
        "ĠB",
        "y"
      ],
      [
        "Ġf",
        "ight"
      ],
      [
        "2",
        "0"
      ],
      [
        "Ġmon",
        "th"
      ],
      [
        "Ġm",
        "ag"
      ],
      [
        "a",
        "ld"
      ],
      [
        "if",
        "t"
      ],
      [
        "Ġf",
        "av"
      ],
      [
        "Ġri",
        "ver"
      ],
      [
        "are",
        "nt"
      ],
      [
        "ĠO",
        "r"
      ],
      [
        "itt",
        "en"
      ],
      [
        "g",
        "s"
      ],
      [
        "st",
        "er"
      ],
      [
        "ĠD",
        "e"
      ],
      [
        "I",
        "ll"
      ],
      [
        "n",
        "ight"
      ],
      [
        "Ġper",
        "haps"
      ],
      [
        "is",
        "ing"
      ],
      [
        "w",
        "ould"
      ],
      [
        "ra",
        "w"
      ],
      [
        "em",
        "ent"
      ],
      [
        "Ġtoward",
        "s"
      ],
      [
        "Ġro",
        "ad"
      ],
      [
        "Ġa",
        "uth"
      ],
      [
        "Ġha",
        "ir"
      ],
      [
        "Ġres",
        "pect"
      ],
      [
        "Ġfam",
        "ily"
      ],
      [
        "g",
        "ing"
      ],
      [
        "2",
        "3"
      ],
      [
        "p",
        "ose"
      ],
      [
        "Ġquest",
        "ion"
      ],
      [
        "on",
        "y"
      ],
      [
        "Ġtw",
        "enty"
      ],
      [
        "Ġe",
        "at"
      ],
      [
        "Ġex",
        "pect"
      ],
      [
        "if",
        "ied"
      ],
      [
        "Ġp",
        "ublic"
      ],
      [
        "Ġs",
        "it"
      ],
      [
        "Ġp",
        "ol"
      ],
      [
        "Ġd",
        "ie"
      ],
      [
        "Ġf",
        "re"
      ],
      [
        "Ġv",
        "al"
      ],
      [
        "d",
        "le"
      ],
      [
        "Ġf",
        "ield"
      ],
      [
        "iz",
        "e"
      ],
      [
        "Ġev",
        "il"
      ],
      [
        "ĠA",
        "meric"
      ],
      [
        "Ġr",
        "an"
      ],
      [
        "Ġs",
        "ons"
      ],
      [
        "2",
        "4"
      ],
      [
        "M",
        "y"
      ],
      [
        "itt",
        "ing"
      ],
      [
        "Ġsha",
        "lt"
      ],
      [
        "w",
        "ill"
      ],
      [
        "ce",
        "nd"
      ],
      [
        "Ġen",
        "g"
      ],
      [
        "us",
        "s"
      ],
      [
        "a",
        "ul"
      ],
      [
        "med",
        "i"
      ],
      [
        "r",
        "act"
      ],
      [
        "ĠL",
        "et"
      ],
      [
        "Ġpro",
        "per"
      ],
      [
        "Ill",
        "ustration"
      ],
      [
        "Ġwor",
        "th"
      ],
      [
        "c",
        "ome"
      ],
      [
        "Ġl",
        "aid"
      ],
      [
        "Ġv",
        "ill"
      ],
      [
        "Ġun",
        "c"
      ],
      [
        "Ġab",
        "le"
      ],
      [
        "er",
        "t"
      ],
      [
        "ĠEng",
        "lish"
      ],
      [
        "Ġf",
        "ig"
      ],
      [
        "Ġh",
        "ill"
      ],
      [
        "Ġsw",
        "ord"
      ],
      [
        "Ġex",
        "am"
      ],
      [
        "ĠG",
        "r"
      ],
      [
        "Ġt",
        "ou"
      ],
      [
        "Ġd",
        "uring"
      ],
      [
        "Ġb",
        "attle"
      ],
      [
        "Ġs",
        "ac"
      ],
      [
        "Ġc",
        "apt"
      ],
      [
        "z",
        "e"
      ],
      [
        "Ġc",
        "old"
      ],
      [
        "Ġm",
        "aking"
      ],
      [
        "Ġdiffe",
        "rent"
      ],
      [
        "Ġj",
        "oy"
      ],
      [
        "Ġhus",
        "band"
      ],
      [
        "Ġe",
        "le"
      ],
      [
        "us",
        "h"
      ],
      [
        "id",
        "ence"
      ],
      [
        "Ġgener",
        "al"
      ],
      [
        "i",
        "or"
      ],
      [
        "Ġcharac",
        "ter"
      ],
      [
        "Ġans",
        "wer"
      ],
      [
        "Ġp",
        "at"
      ],
      [
        "g",
        "u"
      ],
      [
        "Â",
        "ł"
      ],
      [
        "Ġst",
        "ay"
      ],
      [
        "the",
        "n"
      ],
      [
        "b",
        "o"
      ],
      [
        "ĠAn",
        "ne"
      ],
      [
        "T",
        "HE"
      ],
      [
        "ro",
        "y"
      ],
      [
        "e",
        "ad"
      ],
      [
        "qu",
        "e"
      ],
      [
        "E",
        "D"
      ],
      [
        "2",
        "6"
      ],
      [
        "A",
        "l"
      ],
      [
        "Ġm",
        "outh"
      ],
      [
        "Ġb",
        "reat"
      ],
      [
        "Ġre",
        "ady"
      ],
      [
        "Ġp",
        "al"
      ],
      [
        "tain",
        "ed"
      ],
      [
        "Ġseem",
        "s"
      ],
      [
        "Ġb",
        "ene"
      ],
      [
        "d",
        "is"
      ],
      [
        "ĠW",
        "here"
      ],
      [
        "r",
        "or"
      ],
      [
        "Ġf",
        "if"
      ],
      [
        "Ġbre",
        "ak"
      ],
      [
        "an",
        "n"
      ],
      [
        "am",
        "ent"
      ],
      [
        "av",
        "y"
      ],
      [
        "Ġbeaut",
        "iful"
      ],
      [
        "i",
        "ally"
      ],
      [
        "ĠA",
        "b"
      ],
      [
        "Ġgl",
        "ad"
      ],
      [
        "pp",
        "er"
      ],
      [
        "Ġ1",
        "7"
      ],
      [
        "A",
        "T"
      ],
      [
        "u",
        "ff"
      ],
      [
        "p",
        "re"
      ],
      [
        "Ġst",
        "ep"
      ],
      [
        "A",
        "t"
      ],
      [
        "L",
        "E"
      ],
      [
        "ut",
        "es"
      ],
      [
        "Ġb",
        "ig"
      ],
      [
        "Ġdire",
        "ct"
      ],
      [
        "----",
        "----"
      ],
      [
        "Ġrece",
        "ived"
      ],
      [
        "ound",
        "ed"
      ],
      [
        "1",
        "7"
      ],
      [
        "Ġd",
        "ream"
      ],
      [
        "R",
        "O"
      ],
      [
        "Ġes",
        "cap"
      ],
      [
        "Ġp",
        "ay"
      ],
      [
        "ress",
        "ion"
      ],
      [
        "Ġt",
        "able"
      ],
      [
        "ia",
        "h"
      ],
      [
        "Ġfollow",
        "ed"
      ],
      [
        "ant",
        "ly"
      ],
      [
        "ĠP",
        "ro"
      ],
      [
        "is",
        "f"
      ],
      [
        "Ġb",
        "ad"
      ],
      [
        "Ġeven",
        "ing"
      ],
      [
        "Ġm",
        "erc"
      ],
      [
        "Ġv",
        "ol"
      ],
      [
        "m",
        "p"
      ],
      [
        "Ġp",
        "a"
      ],
      [
        "ĠP",
        "ar"
      ],
      [
        "Ġrem",
        "ark"
      ],
      [
        "Ġo",
        "ri"
      ],
      [
        "Ġsu",
        "ccess"
      ],
      [
        "Ġp",
        "ort"
      ],
      [
        "Ġar",
        "ri"
      ],
      [
        "Ġcar",
        "ried"
      ],
      [
        "l",
        "ight"
      ],
      [
        "Ġm",
        "ot"
      ],
      [
        "Ġas",
        "k"
      ],
      [
        "Ġf",
        "ast"
      ],
      [
        "cho",
        "ol"
      ],
      [
        "ĠN",
        "ot"
      ],
      [
        "re",
        "g"
      ],
      [
        "Ġex",
        "per"
      ],
      [
        "Ġlet",
        "ter"
      ],
      [
        "our",
        "s"
      ],
      [
        "ĠĠĠĠĠĠĠĠĠĠĠĠĠĠĠĠ",
        "ĠĠĠĠĠĠĠĠ"
      ],
      [
        "im",
        "ent"
      ],
      [
        "Ġw",
        "on"
      ],
      [
        "if",
        "f"
      ],
      [
        "v",
        "al"
      ],
      [
        "Ġro",
        "se"
      ],
      [
        "Ġbus",
        "iness"
      ],
      [
        "Ġlo",
        "c"
      ],
      [
        "Ġstre",
        "ng"
      ],
      [
        "Ġsl",
        "ow"
      ],
      [
        "in",
        "ter"
      ],
      [
        "ĠA",
        "m"
      ],
      [
        "c",
        "ious"
      ],
      [
        "Ġm",
        "ist"
      ],
      [
        "Ġlong",
        "er"
      ],
      [
        "Ġdec",
        "l"
      ],
      [
        "i",
        "ar"
      ],
      [
        "re",
        "l"
      ],
      [
        "led",
        "ge"
      ],
      [
        "os",
        "es"
      ],
      [
        "Ġpr",
        "ison"
      ],
      [
        "ri",
        "es"
      ],
      [
        "y",
        "ond"
      ],
      [
        "Ġbu",
        "ild"
      ],
      [
        "ĠWh",
        "o"
      ],
      [
        "i",
        "ol"
      ],
      [
        "Ġb",
        "ird"
      ],
      [
        "Ġpart",
        "ic"
      ],
      [
        "a",
        "j"
      ],
      [
        "om",
        "an"
      ],
      [
        "Ġ",
        "ve"
      ],
      [
        "Ġdif",
        "fic"
      ],
      [
        "Ġl",
        "ad"
      ],
      [
        "Ġfor",
        "g"
      ],
      [
        "H",
        "ow"
      ],
      [
        "Ġan",
        "im"
      ],
      [
        "Ġme",
        "re"
      ],
      [
        "Ġl",
        "ed"
      ],
      [
        "Ġex",
        "cept"
      ],
      [
        "Ġc",
        "ross"
      ],
      [
        "Ġl",
        "ist"
      ],
      [
        "Ġpro",
        "b"
      ],
      [
        "ust",
        "om"
      ],
      [
        "O",
        "n"
      ],
      [
        "Ġdis",
        "p"
      ],
      [
        "in",
        "ct"
      ],
      [
        "Ġs",
        "al"
      ],
      [
        "Ġb",
        "it"
      ],
      [
        "Ġm",
        "ur"
      ],
      [
        "ound",
        "s"
      ],
      [
        "Ġt",
        "ree"
      ],
      [
        "ĠW",
        "hy"
      ],
      [
        "Ġ1",
        "6"
      ],
      [
        "u",
        "es"
      ],
      [
        "Ġst",
        "ud"
      ],
      [
        "Ġw",
        "atch"
      ],
      [
        "Ġre",
        "ally"
      ],
      [
        "Ġauth",
        "or"
      ],
      [
        "Ġear",
        "ly"
      ],
      [
        "w",
        "o"
      ],
      [
        "AP",
        "TER"
      ],
      [
        "Ġde",
        "m"
      ],
      [
        "Ġso",
        "l"
      ],
      [
        "m",
        "ber"
      ],
      [
        "Ġsomet",
        "imes"
      ],
      [
        "Ġbeh",
        "old"
      ],
      [
        "E",
        "L"
      ],
      [
        "ĠĠĠĠĠĠ",
        "Ġ"
      ],
      [
        "Ġse",
        "nd"
      ],
      [
        "d",
        "o"
      ],
      [
        "N",
        "ow"
      ],
      [
        "Ġimp",
        "ort"
      ],
      [
        "ĠN",
        "ew"
      ],
      [
        "Ġc",
        "orn"
      ],
      [
        "i",
        "ver"
      ],
      [
        "ĠEng",
        "land"
      ],
      [
        "Ġsc",
        "ar"
      ],
      [
        "Ġc",
        "al"
      ],
      [
        "of",
        "f"
      ],
      [
        "Ã",
        "©"
      ],
      [
        "Ġrel",
        "ig"
      ],
      [
        "r",
        "s"
      ],
      [
        "ro",
        "om"
      ],
      [
        "air",
        "s"
      ],
      [
        "Ġpri",
        "est"
      ],
      [
        "_",
        "."
      ],
      [
        "Ġex",
        "ist"
      ],
      [
        "Ġfollow",
        "ing"
      ],
      [
        "Ġposs",
        "ible"
      ],
      [
        "Ġac",
        "ross"
      ],
      [
        "Ġl",
        "ab"
      ],
      [
        "r",
        "on"
      ],
      [
        "cl",
        "aim"
      ],
      [
        "Ġb",
        "ra"
      ],
      [
        "ha",
        "nd"
      ],
      [
        ":",
        "--"
      ],
      [
        "Ġdra",
        "w"
      ],
      [
        "ond",
        "on"
      ],
      [
        "Ġdr",
        "ink"
      ],
      [
        "w",
        "hen"
      ],
      [
        "ĠThe",
        "se"
      ],
      [
        "Ġw",
        "at"
      ],
      [
        "v",
        "ol"
      ],
      [
        "ri",
        "age"
      ],
      [
        "t",
        "on"
      ],
      [
        "Ġcour",
        "t"
      ],
      [
        "Ġide",
        "a"
      ],
      [
        "h",
        "ow"
      ],
      [
        "ĠC",
        "om"
      ],
      [
        "igh",
        "b"
      ],
      [
        "Ġm",
        "ove"
      ],
      [
        "Ġfell",
        "ow"
      ],
      [
        "ing",
        "ly"
      ],
      [
        "Ġpl",
        "ain"
      ],
      [
        "Ġ1",
        "9"
      ],
      [
        "Ġm",
        "iles"
      ],
      [
        "y",
        "l"
      ],
      [
        "Ġqu",
        "iet"
      ],
      [
        "b",
        "ec"
      ],
      [
        "h",
        "ouse"
      ],
      [
        "Ġl",
        "iving"
      ],
      [
        "Ġgo",
        "vern"
      ],
      [
        "Ġc",
        "oll"
      ],
      [
        "ĠD",
        "o"
      ],
      [
        "Ġori",
        "gin"
      ],
      [
        "Ġsp",
        "oke"
      ],
      [
        "Ġhapp",
        "y"
      ],
      [
        "Ġfo",
        "ol"
      ],
      [
        "O",
        "U"
      ],
      [
        "i",
        "ers"
      ],
      [
        "l",
        "o"
      ],
      [
        "ĠH",
        "ar"
      ],
      [
        "Ġrem",
        "ain"
      ],
      [
        "ect",
        "ion"
      ],
      [
        "Ġhis",
        "t"
      ],
      [
        "Ġa",
        "ge"
      ],
      [
        "ĠHe",
        "re"
      ],
      [
        "Ġm",
        "ad"
      ],
      [
        "Ġreg",
        "ard"
      ],
      [
        "'",
        "re"
      ],
      [
        "ir",
        "m"
      ],
      [
        "ĠE",
        "x"
      ],
      [
        "im",
        "p"
      ],
      [
        "ĠS",
        "c"
      ],
      [
        "Ġcomp",
        "le"
      ],
      [
        "eng",
        "th"
      ],
      [
        "g",
        "o"
      ],
      [
        "pl",
        "es"
      ],
      [
        "Ġre",
        "ached"
      ],
      [
        "ard",
        "en"
      ],
      [
        "up",
        "on"
      ],
      [
        "u",
        "ct"
      ],
      [
        "Ġapp",
        "eared"
      ],
      [
        "l",
        "ook"
      ],
      [
        "Ġd",
        "ied"
      ],
      [
        "Ġgre",
        "en"
      ],
      [
        "2",
        "2"
      ],
      [
        "Ġro",
        "ck"
      ],
      [
        "Ġchan",
        "ge"
      ],
      [
        "Ġst",
        "ory"
      ],
      [
        "Ġl",
        "ang"
      ],
      [
        "Ġfor",
        "mer"
      ],
      [
        "ie",
        "ce"
      ],
      [
        "Ġfor",
        "ce"
      ],
      [
        "m",
        "in"
      ],
      [
        "it",
        "ions"
      ],
      [
        "ru",
        "pt"
      ],
      [
        "m",
        "ore"
      ],
      [
        "k",
        "y"
      ],
      [
        "Ġbe",
        "yond"
      ],
      [
        "en",
        "n"
      ],
      [
        "ĠW",
        "ill"
      ],
      [
        "Ġs",
        "qu"
      ],
      [
        "Ġsha",
        "d"
      ],
      [
        "Ġs",
        "ense"
      ],
      [
        "o",
        "e"
      ],
      [
        "ous",
        "ly"
      ],
      [
        "Ġqu",
        "ar"
      ],
      [
        "Ġst",
        "ra"
      ],
      [
        "Ġde",
        "al"
      ],
      [
        "Ġb",
        "urn"
      ],
      [
        "00",
        "0"
      ],
      [
        "b",
        "es"
      ],
      [
        "ren",
        "ch"
      ],
      [
        "g",
        "an"
      ],
      [
        "Ġbl",
        "ess"
      ],
      [
        "Ġp",
        "i"
      ],
      [
        "Ġd",
        "anger"
      ],
      [
        "ĠL",
        "e"
      ],
      [
        "Ġpret",
        "ty"
      ],
      [
        "Ġdid",
        "n"
      ],
      [
        "Ġp",
        "ict"
      ],
      [
        "Ġe",
        "t"
      ],
      [
        "Ġ1",
        "5"
      ],
      [
        "Ġhour",
        "s"
      ],
      [
        "Ġcom",
        "es"
      ],
      [
        "s",
        "ome"
      ],
      [
        "Ġent",
        "ered"
      ],
      [
        "W",
        "hy"
      ],
      [
        "os",
        "p"
      ],
      [
        "Ġc",
        "oun"
      ],
      [
        "S",
        "T"
      ],
      [
        "am",
        "ed"
      ],
      [
        "ĠF",
        "rom"
      ],
      [
        "Ġb",
        "right"
      ],
      [
        "y",
        "r"
      ],
      [
        "ĠB",
        "l"
      ],
      [
        "Ġacc",
        "om"
      ],
      [
        "Ġc",
        "ry"
      ],
      [
        "Ġsec",
        "ret"
      ],
      [
        "Ġt",
        "end"
      ],
      [
        "Ġs",
        "n"
      ],
      [
        "as",
        "p"
      ],
      [
        "Ġsur",
        "pr"
      ],
      [
        "Ġocc",
        "asion"
      ],
      [
        "Ġe",
        "ight"
      ],
      [
        "i",
        "od"
      ],
      [
        "Ġo",
        "ught"
      ],
      [
        "Ġsh",
        "ip"
      ],
      [
        "o",
        "int"
      ],
      [
        "s",
        "hip"
      ],
      [
        "e",
        "or"
      ],
      [
        "Ġsu",
        "per"
      ],
      [
        "Ġnat",
        "ural"
      ],
      [
        "Ġpur",
        "pose"
      ],
      [
        "at",
        "he"
      ],
      [
        "Ġl",
        "ived"
      ],
      [
        "i",
        "ant"
      ],
      [
        "ĠJ",
        "es"
      ],
      [
        "Ġim",
        "ag"
      ],
      [
        "Ġto",
        "p"
      ],
      [
        "se",
        "qu"
      ],
      [
        "Ġstreng",
        "th"
      ],
      [
        "Ġremem",
        "ber"
      ],
      [
        "ar",
        "ing"
      ],
      [
        "Ġtri",
        "be"
      ],
      [
        "k",
        "n"
      ],
      [
        "Ġ1",
        "4"
      ],
      [
        "Ġl",
        "ie"
      ],
      [
        "Ġsa",
        "ve"
      ],
      [
        "il",
        "s"
      ],
      [
        "ĠAN",
        "D"
      ],
      [
        "a",
        "fter"
      ],
      [
        "as",
        "ure"
      ],
      [
        "Ġtre",
        "es"
      ],
      [
        "Ġsudden",
        "ly"
      ],
      [
        "as",
        "es"
      ],
      [
        "Ġl",
        "ine"
      ],
      [
        "Ġyou",
        "th"
      ],
      [
        "ic",
        "s"
      ],
      [
        "Ġl",
        "ate"
      ],
      [
        "Ġdo",
        "ct"
      ],
      [
        "Ġdes",
        "p"
      ],
      [
        "âĢ",
        "Ķ"
      ],
      [
        "i",
        "am"
      ],
      [
        "um",
        "e"
      ],
      [
        "Ġfr",
        "ont"
      ],
      [
        "j",
        "oy"
      ],
      [
        "Ġst",
        "one"
      ],
      [
        "Ġs",
        "ad"
      ],
      [
        "id",
        "ge"
      ],
      [
        "ĠE",
        "l"
      ],
      [
        "Ġl",
        "ater"
      ],
      [
        "ore",
        "d"
      ],
      [
        "ĠC",
        "on"
      ],
      [
        "ber",
        "t"
      ],
      [
        "Ġop",
        "ened"
      ],
      [
        "h",
        "ood"
      ],
      [
        "Ġh",
        "ung"
      ],
      [
        "Ġl",
        "ength"
      ],
      [
        "Ġoff",
        "ic"
      ],
      [
        "Ġh",
        "ot"
      ],
      [
        "Ġr",
        "ich"
      ],
      [
        "ri",
        "ble"
      ],
      [
        "all",
        "ey"
      ],
      [
        "ec",
        "h"
      ],
      [
        "ĠP",
        "hil"
      ],
      [
        "Ġdel",
        "ight"
      ],
      [
        "r",
        "ough"
      ],
      [
        "Ġwr",
        "itten"
      ],
      [
        "ur",
        "g"
      ],
      [
        "Ġnear",
        "ly"
      ],
      [
        "Ġt",
        "aking"
      ],
      [
        "p",
        "ec"
      ],
      [
        "i",
        "res"
      ],
      [
        "Ġc",
        "re"
      ],
      [
        "a",
        "ff"
      ],
      [
        "us",
        "ion"
      ],
      [
        "Ġfur",
        "ther"
      ],
      [
        "ĠB",
        "ar"
      ],
      [
        "Ġwr",
        "ong"
      ],
      [
        "u",
        "ke"
      ],
      [
        "ol",
        "og"
      ],
      [
        "us",
        "hed"
      ],
      [
        "Ġno",
        "ble"
      ],
      [
        "Ġac",
        "qu"
      ],
      [
        "Ġh",
        "op"
      ],
      [
        "en",
        "ing"
      ],
      [
        "Ġaf",
        "fect"
      ],
      [
        "se",
        "m"
      ],
      [
        "Ġso",
        "ft"
      ],
      [
        "o",
        "ved"
      ],
      [
        "Ġm",
        "ain"
      ],
      [
        "Ġfor",
        "ward"
      ],
      [
        "in",
        "ion"
      ],
      [
        "fl",
        "u"
      ],
      [
        "as",
        "k"
      ],
      [
        "I",
        "A"
      ],
      [
        "Ġcl",
        "ot"
      ],
      [
        "Ġs",
        "ister"
      ],
      [
        "Ġs",
        "us"
      ],
      [
        "ag",
        "ed"
      ],
      [
        "rie",
        "f"
      ],
      [
        "ra",
        "id"
      ],
      [
        "Ġent",
        "ire"
      ],
      [
        "W",
        "ith"
      ],
      [
        "Ġf",
        "le"
      ],
      [
        "be",
        "en"
      ],
      [
        "ĠL",
        "ondon"
      ],
      [
        "ay",
        "s"
      ],
      [
        "Ġan",
        "t"
      ],
      [
        "ous",
        "es"
      ],
      [
        "Ġ1",
        "3"
      ],
      [
        "Ġha",
        "t"
      ],
      [
        "Ġd",
        "ut"
      ],
      [
        "Ġth",
        "ine"
      ],
      [
        "i",
        "ke"
      ],
      [
        "iss",
        "ion"
      ],
      [
        "er",
        "ry"
      ],
      [
        "Ġpro",
        "ceed"
      ],
      [
        "w",
        "ise"
      ],
      [
        "ĠA",
        "fter"
      ],
      [
        "Ġprin",
        "ci"
      ],
      [
        "Ġd",
        "en"
      ],
      [
        "0",
        "5"
      ],
      [
        "ve",
        "ll"
      ],
      [
        "Ġse",
        "lf"
      ],
      [
        "Ġvis",
        "it"
      ],
      [
        "Ġne",
        "ighb"
      ],
      [
        "in",
        "ary"
      ],
      [
        "i",
        "k"
      ],
      [
        "i",
        "um"
      ],
      [
        "Ġcom",
        "fort"
      ],
      [
        "Ġf",
        "ail"
      ],
      [
        "ce",
        "ll"
      ],
      [
        "og",
        "n"
      ],
      [
        "ect",
        "ed"
      ],
      [
        "Ġar",
        "my"
      ],
      [
        ")",
        "."
      ],
      [
        "Ġpl",
        "aced"
      ],
      [
        "ĠN",
        "ep"
      ],
      [
        "ĠC",
        "ar"
      ],
      [
        "Ġboy",
        "s"
      ],
      [
        "he",
        "l"
      ],
      [
        "bl",
        "ing"
      ],
      [
        "Ġso",
        "ci"
      ],
      [
        "f",
        "er"
      ],
      [
        "id",
        "ing"
      ],
      [
        "Ġsat",
        "isf"
      ],
      [
        "es",
        "h"
      ],
      [
        "ĠS",
        "e"
      ],
      [
        "c",
        "ent"
      ],
      [
        "Ġim",
        "medi"
      ],
      [
        "Ġm",
        "akes"
      ],
      [
        "Ġs",
        "chool"
      ],
      [
        "i",
        "en"
      ],
      [
        "c",
        "an"
      ],
      [
        "Ġper",
        "iod"
      ],
      [
        "Ġpr",
        "ot"
      ],
      [
        "Ġpr",
        "act"
      ],
      [
        "Ġadd",
        "ed"
      ],
      [
        "g",
        "l"
      ],
      [
        "I",
        "T"
      ],
      [
        "Ġdes",
        "ire"
      ],
      [
        "ed",
        "s"
      ],
      [
        "Ġj",
        "our"
      ],
      [
        "Ġw",
        "is"
      ],
      [
        "Ġm",
        "ention"
      ],
      [
        "Ġar",
        "r"
      ],
      [
        "Ġth",
        "ir"
      ],
      [
        "res",
        "h"
      ],
      [
        "2",
        "5"
      ],
      [
        "c",
        "ons"
      ],
      [
        "c",
        "ount"
      ],
      [
        "Ġcon",
        "cer"
      ],
      [
        "Ġcomp",
        "any"
      ],
      [
        "Ġb",
        "ound"
      ],
      [
        "Ġd",
        "et"
      ],
      [
        "ĠChrist",
        "ian"
      ],
      [
        "Ġgod",
        "s"
      ],
      [
        "Ġ",
        "ver"
      ],
      [
        "Ġcon",
        "ce"
      ],
      [
        "Ġhon",
        "our"
      ],
      [
        "CH",
        "APTER"
      ],
      [
        "t",
        "ime"
      ],
      [
        "Ġevery",
        "thing"
      ],
      [
        "Ġpartic",
        "ular"
      ],
      [
        "I",
        "O"
      ],
      [
        "c",
        "ould"
      ],
      [
        "Ġbl",
        "ue"
      ],
      [
        "Ġbe",
        "ast"
      ],
      [
        "ag",
        "er"
      ],
      [
        "Ġh",
        "ig"
      ],
      [
        "Ġqu",
        "e"
      ],
      [
        "2",
        "1"
      ],
      [
        "Ġcontin",
        "ued"
      ],
      [
        "ve",
        "re"
      ],
      [
        "se",
        "t"
      ],
      [
        "est",
        "ed"
      ],
      [
        "Ġlau",
        "gh"
      ],
      [
        "Ġnecess",
        "ary"
      ],
      [
        "en",
        "ess"
      ],
      [
        "Ġan",
        "cient"
      ],
      [
        "il",
        "ing"
      ],
      [
        "p",
        "an"
      ],
      [
        "Ġdist",
        "ance"
      ],
      [
        "ac",
        "y"
      ],
      [
        "Ġgr",
        "and"
      ],
      [
        "Ġpl",
        "an"
      ],
      [
        "Ġbel",
        "ong"
      ],
      [
        "O",
        "f"
      ],
      [
        "Ġt",
        "ried"
      ],
      [
        "Ġv",
        "ict"
      ],
      [
        "ĠT",
        "om"
      ],
      [
        "Ġpri",
        "v"
      ],
      [
        "l",
        "er"
      ],
      [
        "Ġgreat",
        "er"
      ],
      [
        "Ġsupp",
        "ose"
      ],
      [
        "te",
        "en"
      ],
      [
        "Ġmight",
        "y"
      ],
      [
        "g",
        "ment"
      ],
      [
        "is",
        "es"
      ],
      [
        "Ġm",
        "aid"
      ],
      [
        "ors",
        "es"
      ],
      [
        "m",
        "n"
      ],
      [
        "Ġwind",
        "ow"
      ],
      [
        "Ġm",
        "ed"
      ],
      [
        "Ġde",
        "g"
      ],
      [
        "Ġn",
        "ation"
      ],
      [
        "ad",
        "ed"
      ],
      [
        "con",
        "t"
      ],
      [
        "in",
        "ing"
      ],
      [
        "Ġc",
        "row"
      ],
      [
        "ĠTh",
        "ou"
      ],
      [
        "Ġw",
        "ide"
      ],
      [
        "Ġd",
        "a"
      ],
      [
        "ix",
        "ed"
      ],
      [
        "Ġ",
        "er"
      ],
      [
        "er",
        "v"
      ],
      [
        "anc",
        "ed"
      ],
      [
        "Ġse",
        "ven"
      ],
      [
        "Ġh",
        "ost"
      ],
      [
        "Ġho",
        "ly"
      ],
      [
        "Ġl",
        "atter"
      ],
      [
        "Ġag",
        "o"
      ],
      [
        "Ġin",
        "cl"
      ],
      [
        "Ġtr",
        "ust"
      ],
      [
        "ou",
        "red"
      ],
      [
        "Ġm",
        "or"
      ],
      [
        "ell",
        "ow"
      ],
      [
        "Ġpl",
        "aces"
      ],
      [
        "al",
        "ed"
      ],
      [
        "Ġgr",
        "ow"
      ],
      [
        "Ġserv",
        "ice"
      ],
      [
        "Ġth",
        "ird"
      ],
      [
        "Ġchan",
        "ce"
      ],
      [
        "Ġhe",
        "avy"
      ],
      [
        "Ġst",
        "art"
      ],
      [
        "f",
        "ace"
      ],
      [
        "ur",
        "s"
      ],
      [
        "Ġgentle",
        "man"
      ],
      [
        "Ġk",
        "ill"
      ],
      [
        "p",
        "ass"
      ],
      [
        "ĠJes",
        "us"
      ],
      [
        "Ġd",
        "rew"
      ],
      [
        "ĠD",
        "av"
      ],
      [
        "Ġpre",
        "p"
      ],
      [
        "Ġb",
        "ott"
      ],
      [
        "Ġin",
        "n"
      ],
      [
        "Ġpleas",
        "ure"
      ],
      [
        "ri",
        "f"
      ],
      [
        "ĠM",
        "an"
      ],
      [
        "Ġking",
        "dom"
      ],
      [
        "Ġwant",
        "ed"
      ],
      [
        "I",
        "G"
      ],
      [
        "r",
        "al"
      ],
      [
        "Ġsp",
        "r"
      ],
      [
        "j",
        "ust"
      ],
      [
        ".",
        "--"
      ],
      [
        "Ġp",
        "ra"
      ],
      [
        "ac",
        "hing"
      ],
      [
        "2",
        "7"
      ],
      [
        "Ġdo",
        "ing"
      ],
      [
        "Ġf",
        "ly"
      ],
      [
        "Ġf",
        "ru"
      ],
      [
        "iv",
        "id"
      ],
      [
        "o",
        "v"
      ],
      [
        "pp",
        "ing"
      ],
      [
        "Ġmus",
        "ic"
      ],
      [
        "se",
        "c"
      ],
      [
        "Ġset",
        "t"
      ],
      [
        "Ġinc",
        "re"
      ],
      [
        "Ġbro",
        "ken"
      ],
      [
        "b",
        "el"
      ],
      [
        "eter",
        "m"
      ],
      [
        "ab",
        "out"
      ],
      [
        "Ġsa",
        "ith"
      ],
      [
        "Ġknow",
        "ledge"
      ],
      [
        "Ġf",
        "illed"
      ],
      [
        "Ġenem",
        "y"
      ],
      [
        "Ġal",
        "though"
      ],
      [
        "o",
        "ot"
      ],
      [
        "O",
        "M"
      ],
      [
        "ro",
        "du"
      ],
      [
        "Ġrep",
        "resent"
      ],
      [
        "ro",
        "ad"
      ],
      [
        "i",
        "vers"
      ],
      [
        "Ġrem",
        "ained"
      ],
      [
        "Ġsing",
        "le"
      ],
      [
        "in",
        "to"
      ],
      [
        "Ġgra",
        "ve"
      ],
      [
        "A",
        "ll"
      ],
      [
        "Ġw",
        "alked"
      ],
      [
        "ĠJ",
        "ud"
      ],
      [
        "D",
        "W"
      ],
      [
        "O",
        "T"
      ],
      [
        "Ġgra",
        "ce"
      ],
      [
        "ĠF",
        "rench"
      ],
      [
        "Ġcirc",
        "um"
      ],
      [
        "g",
        "reat"
      ],
      [
        "i",
        "ps"
      ],
      [
        "l",
        "ong"
      ],
      [
        "oss",
        "ible"
      ],
      [
        "Ġscar",
        "ce"
      ],
      [
        "d",
        "es"
      ],
      [
        "n",
        "or"
      ],
      [
        "Ġc",
        "ru"
      ],
      [
        "Ġs",
        "ick"
      ],
      [
        "ag",
        "ain"
      ],
      [
        "Ġcl",
        "ass"
      ],
      [
        "Ġatt",
        "empt"
      ],
      [
        "ĠY",
        "et"
      ],
      [
        "Ġn",
        "ar"
      ],
      [
        "Ġp",
        "en"
      ],
      [
        "Ġan",
        "g"
      ],
      [
        "Ġfeel",
        "ing"
      ],
      [
        "um",
        "ent"
      ],
      [
        "Ġcomp",
        "an"
      ],
      [
        "for",
        "med"
      ],
      [
        "N",
        "ot"
      ],
      [
        "ist",
        "ed"
      ],
      [
        "ĠS",
        "ome"
      ],
      [
        "Ġl",
        "im"
      ],
      [
        "Ġth",
        "ick"
      ],
      [
        "ĠG",
        "eor"
      ],
      [
        "Ġa",
        "v"
      ],
      [
        "Ġw",
        "icked"
      ],
      [
        "ge",
        "l"
      ],
      [
        "Ġmo",
        "on"
      ],
      [
        "Ġstra",
        "ight"
      ],
      [
        "Ġii",
        "i"
      ],
      [
        "00",
        "1"
      ],
      [
        "Ġbeaut",
        "y"
      ],
      [
        "Ġlang",
        "u"
      ],
      [
        "Ġt",
        "ry"
      ],
      [
        "Ġt",
        "reat"
      ],
      [
        "Ġb",
        "orn"
      ],
      [
        "Ġaf",
        "raid"
      ],
      [
        "pl",
        "ace"
      ],
      [
        "Ġpart",
        "y"
      ],
      [
        "Ġres",
        "ol"
      ],
      [
        "Ġnor",
        "th"
      ],
      [
        "ic",
        "ally"
      ],
      [
        "Ġp",
        "un"
      ],
      [
        "ĠE",
        "d"
      ],
      [
        "ĠP",
        "l"
      ],
      [
        "Ġl",
        "a"
      ],
      [
        "Ġli",
        "ps"
      ],
      [
        "A",
        "M"
      ],
      [
        "Ġp",
        "ost"
      ],
      [
        "Ġme",
        "m"
      ],
      [
        "ĠDav",
        "id"
      ],
      [
        "b",
        "ar"
      ],
      [
        "Ġtrou",
        "ble"
      ],
      [
        "Ġcertain",
        "ly"
      ],
      [
        "ĠG",
        "er"
      ],
      [
        "00",
        "2"
      ],
      [
        "bl",
        "es"
      ],
      [
        "u",
        "ge"
      ],
      [
        "anc",
        "y"
      ],
      [
        "Ġcon",
        "v"
      ],
      [
        "S",
        "t"
      ],
      [
        "Ġdis",
        "app"
      ],
      [
        "Ġstand",
        "ing"
      ],
      [
        "Ġres",
        "ult"
      ],
      [
        "Ġf",
        "ut"
      ],
      [
        "com",
        "m"
      ],
      [
        "at",
        "or"
      ],
      [
        "pl",
        "oy"
      ],
      [
        "ĠTh",
        "us"
      ],
      [
        "Ġbre",
        "ad"
      ],
      [
        "ar",
        "m"
      ],
      [
        "ha",
        "nt"
      ],
      [
        "Ġpart",
        "s"
      ],
      [
        "claim",
        "ed"
      ],
      [
        "Ġin",
        "qu"
      ],
      [
        "is",
        "ion"
      ],
      [
        "os",
        "ing"
      ],
      [
        "ok",
        "en"
      ],
      [
        "Ġo",
        "bl"
      ],
      [
        "Ġmin",
        "utes"
      ],
      [
        "ĠNep",
        "hi"
      ],
      [
        "ra",
        "ce"
      ],
      [
        "Ġvar",
        "ious"
      ],
      [
        "gy",
        "pt"
      ],
      [
        "k",
        "es"
      ],
      [
        "ĠM",
        "ad"
      ],
      [
        "Ġw",
        "ise"
      ],
      [
        "Ġbel",
        "ow"
      ],
      [
        "Ġhapp",
        "ened"
      ],
      [
        "Ġen",
        "joy"
      ],
      [
        "s",
        "aid"
      ],
      [
        "ri",
        "but"
      ],
      [
        "ch",
        "ing"
      ],
      [
        "it",
        "al"
      ],
      [
        "Ġent",
        "er"
      ],
      [
        "Ġocc",
        "up"
      ],
      [
        "ent",
        "h"
      ],
      [
        "Ġstru",
        "ck"
      ],
      [
        "oura",
        "ge"
      ],
      [
        "Ġv",
        "irt"
      ],
      [
        "Ġd",
        "ress"
      ],
      [
        "ish",
        "ment"
      ],
      [
        "Ġ1",
        "0"
      ],
      [
        "ex",
        "t"
      ],
      [
        "ĠQ",
        "u"
      ],
      [
        "Ġjour",
        "ney"
      ],
      [
        "Ġd",
        "well"
      ],
      [
        "Ġp",
        "osition"
      ],
      [
        "op",
        "s"
      ],
      [
        "Ġf",
        "al"
      ],
      [
        "p",
        "ri"
      ],
      [
        "Ġt",
        "ong"
      ],
      [
        "Ċ",
        "ĊĠĠ"
      ],
      [
        "ĠPr",
        "ince"
      ],
      [
        "in",
        "a"
      ],
      [
        "Ġdest",
        "roy"
      ],
      [
        "Ġpa",
        "per"
      ],
      [
        "Ġs",
        "ong"
      ],
      [
        "ĠA",
        "nt"
      ],
      [
        "II",
        "I"
      ],
      [
        "Ġv",
        "iol"
      ],
      [
        "00",
        "3"
      ],
      [
        "Ġbes",
        "ide"
      ],
      [
        "ort",
        "ed"
      ],
      [
        "n",
        "ce"
      ],
      [
        "hy",
        "s"
      ],
      [
        "Ġstre",
        "et"
      ],
      [
        "Ġm",
        "ass"
      ],
      [
        "um",
        "b"
      ],
      [
        "Ġbreat",
        "h"
      ],
      [
        "ĠC",
        "har"
      ],
      [
        "ĠQ",
        "ue"
      ],
      [
        "Ġthought",
        "s"
      ],
      [
        "sh",
        "ould"
      ],
      [
        "Ġsil",
        "ver"
      ],
      [
        "Ġwe",
        "ak"
      ],
      [
        "ĠE",
        "n"
      ],
      [
        "p",
        "id"
      ],
      [
        "Ġc",
        "amp"
      ],
      [
        "I",
        "R"
      ],
      [
        "p",
        "ly"
      ],
      [
        "Ġf",
        "ing"
      ],
      [
        "ic",
        "ed"
      ],
      [
        "Ġfl",
        "esh"
      ],
      [
        "apt",
        "ain"
      ],
      [
        "st",
        "ood"
      ],
      [
        "Ġfore",
        "st"
      ],
      [
        "s",
        "m"
      ],
      [
        "Ġw",
        "ine"
      ],
      [
        "Ġs",
        "ens"
      ],
      [
        "Ġle",
        "g"
      ],
      [
        "Ġoff",
        "er"
      ],
      [
        "ay",
        "ed"
      ],
      [
        "is",
        "p"
      ],
      [
        "ĠJ",
        "er"
      ],
      [
        "Ġg",
        "arden"
      ],
      [
        "Ġwork",
        "s"
      ],
      [
        "Ġan",
        "n"
      ],
      [
        "ĠC",
        "ol"
      ],
      [
        "be",
        "fore"
      ],
      [
        "ĠA",
        "d"
      ],
      [
        "Ġsa",
        "fe"
      ],
      [
        "I",
        "s"
      ],
      [
        "t",
        "han"
      ],
      [
        "u",
        "ous"
      ],
      [
        "Ġwe",
        "ek"
      ],
      [
        "Ġcont",
        "r"
      ],
      [
        "Ġpres",
        "ence"
      ],
      [
        "r",
        "id"
      ],
      [
        "Ġyour",
        "self"
      ],
      [
        "n",
        "a"
      ],
      [
        "or",
        "ies"
      ],
      [
        "Ġlo",
        "ved"
      ],
      [
        "or",
        "k"
      ],
      [
        "Ġre",
        "ign"
      ],
      [
        "ive",
        "ly"
      ],
      [
        "Ġcl",
        "oud"
      ],
      [
        "ci",
        "ence"
      ],
      [
        "m",
        "it"
      ],
      [
        "Ġme",
[...]
