{"vocab_size": 4096, "vocab": {"0": "\u0002", "1": "\u0007", "2": "\t", "3": "\n", "4": " ", "5": "!", "6": "\"", "7": "$", "8": "&", "9": "'", "10": "(", "11": ")", "12": "*", "13": ",", "14": "-", "15": ".", "16": "/", "17": "0", "18": "1", "19": "2", "20": "3", "21": "4", "22": "5", "23": "6", "24": "7", "25": "8", "26": "9", "27": ":", "28": ";", "29": "<", "30": ">", "31": "?", "32": "A", "33": "B", "34": "C", "35": "D", "36": "E", "37": "F", "38": "G", "39": "H", "40": "I", "41": "J", "42": "K", "43": "L", "44": "M", "45": "N", "46": "O", "47": "P", "48": "Q", "49": "R", "50": "S", "51": "T", "52": "U", "53": "V", "54": "W", "55": "X", "56": "Y", "57": "Z", "58": "[", "59": "]", "60": "`", "61": "a", "62": "b", "63": "c", "64": "d", "65": "e", "66": "f", "67": "g", "68": "h", "69": "i", "70": "j", "71": "k", "72": "l", "73": "m", "74": "n", "75": "o", "76": "p", "77": "q", "78": "r", "79": "s", "80": "t", "81": "u", "82": "v", "83": "w", "84": "x", "85": "y", "86": "z", "87": "{", "88": "}", "89": "£", "90": "Û", "91": "à", "92": "â", "93": "æ", "94": "ç", "95": "è", "96": "é", "97": "ê", "98": "ë", "99": "î", "100": "ï", "101": "ô", "102": "ù", "103": "ü", "104": "—", "105": "“", "106": "”", "107": "e ", "108": "th", "109": "d ", "110": "s ", "111": "t ", "112": "er", "113": ", ", "114": "in", "115": "an", "116": "y ", "117": "ou", "118": "on", "119": "en", "120": " th", "121": "or", "122": "o ", "123": "ar", "124": "of", "125": "and ", "126": "re", "127": "ha", "128": "ing", "129": " the ", "130": "ll", "131": "ed ", "132": ". ", "133": " s", "134": "ti", "135": "to ", "136": " a", "137": "hi", "138": "es", "139": "om", "140": "er ", "141": "of ", "142": "the ", "143": "ch", "144": "is", "145": "ow", "146": "at ", "147": " w", "148": "it", "149": "he ", "150": "as ", "151": "al", "152": "ing ", "153": "be", "154": ".\n", "155": "for", "156": "at", "157": "se", "158": "st", "159": "le", "160": " m", "161": "ve ", "162": "you", "163": ", and ", "164": "is ", "165": "ly ", "166": "li", "167": "I ", "168": "gh", "169": "ith", "170": "no", "171": "tion", "172": "ir", "173": ":\n", "174": "ur", "175": "ll ", "176": "as", "177": "ac", "178": "es ", "179": "e, ", "180": "ld ", "181": "in ", "182": "en ", "183": "ed", "184": "to", "185": "ro", "186": "a ", "187": "it ", "188": "ec", "189": "em", "190": "ver", "191": "le ", "192": "ri", "193": "; ", "194": ",\n", "195": "that ", "196": "un", "197": "di", "198": "ere ", "199": "not ", "200": "st ", "201": "his ", "202": "be ", "203": "ter", "204": "am", "205": "with", "206": "oo", "207": "ut ", "208": "he", "209": "have ", "210": "de", "211": "s, ", "212": "ent", "213": "of the ", "214": "ould ", "215": "an ", "216": "ad", "217": "our", "218": "con", "219": "ch ", "220": "was ", "221": ".\n\n", "222": "si", "223": "com", "224": "ic", "225": " a ", "226": "had ", "227": "ab", "228": "all", "229": "wh", "230": "ag", "231": "ex", "232": "y, ", "233": "ay ", "234": "po", "235": "ent ", "236": "'s ", "237": "up", "238": "on ", "239": "by ", "240": "fr", "241": "el", "242": "se ", "243": "ation", "244": "ak", "245": "ne", "246": "him", "247": "her ", "248": "oth", "249": "ce ", "250": "ain", "251": "my ", "252": "ai", "253": "tr", "254": "qu", "255": "or ", "256": "but ", "257": "her", "258": "me ", "259": "res", "260": "and", "261": "nd ", "262": "lo", "263": "from", "264": "now", "265": "are ", "266": "ul", "267": "ough", "268": "the", "269": "in the ", "270": "whi", "271": "al ", "272": "k ", "273": "ce", "274": "hat ", "275": "ay", "276": "per", "277": "su", "278": "t, ", "279": "f ", "280": " the", "281": "n ", "282": "we", "283": "pro", "284": "par", "285": "one ", "286": "pe", "287": " that ", "288": "fe", "289": "you ", "290": "for ", "291": "The ", "292": "pec", "293": "pl", "294": "op", "295": "ap", "296": "out ", "297": "your", "298": "ff", "299": "'\n", "300": "im", "301": "et ", "302": "dis", "303": "ol", "304": "d, ", "305": "ong", "306": "um", "307": "very ", "308": "any ", "309": "wi", "310": "sel", "311": "der", "312": "Mr", "313": "s. ", "314": "to the ", "315": "sh", "316": "s of ", "317": "ther", "318": "gr", "319": "ev", "320": "mo", "321": "And ", "322": "ir ", "323": "ome ", "324": "me", "325": "--", "326": "she ", "327": "with ", "328": "ted ", "329": "igh", "330": "oun", "331": "av", "332": "mor", "333": "il", "334": "mu", "335": "id", "336": "ame ", "337": "ter ", "338": "aid ", "339": "wor", "340": "au", "341": "pr", "342": "end", "343": "te", "344": "I w", "345": "es, ", "346": "no ", "347": "\n\n", "348": "ts ", "349": "gre", "350": "uc", "351": "; and ", "352": "were ", "353": "I s", "354": "know", "355": "Th", "356": "ous ", "357": "our ", "358": " this ", "359": "ar ", "360": "aw", "361": "ed, ", "362": "so ", "363": "ish", "364": "ow ", "365": "us", "366": "ess ", "367": "do", "368": " my ", "369": "bl", "370": "your ", "371": "ang", "372": "inc", "373": "ed to ", "374": "th ", "375": "est ", "376": " with", "377": ";\n", "378": " as ", "379": "et", "380": "on the ", "381": "ard", "382": "pres", "383": "peci", "384": "which ", "385": "ood ", "386": "man", "387": "from ", "388": "ook", "389": "gi", "390": "we ", "391": "ke ", "392": ".'\n", "393": ". I", "394": "ten", "395": "would ", "396": "ate ", "397": "ake ", "398": "tion ", "399": "fi", "400": "str", "401": "' ", "402": "been ", "403": "form", "404": "itt", "405": "fa", "406": "this ", "407": "ut", "408": "they ", "409": "could ", "410": "tic", "411": "ad ", "412": " at ", "413": "able ", "414": "But ", "415": "go", "416": "own", "417": "ge", "418": "tw", "419": "ep", "420": "other ", "421": "ure ", "422": "oc", "423": "do ", "424": "anc", "425": " am", "426": "Wh", "427": "O:\n", "428": "of s", "429": "gen", "430": "ation ", "431": "br", "432": "vi", "433": "ess", "434": "e. ", "435": "EN", "436": "  ", "437": "all ", "438": "ally ", "439": "bo", "440": "to be ", "441": "ear", "442": "des", "443": " said ", "444": "hear", "445": "ou ", "446": "more ", "447": "e\n", "448": "! ", "449": "pre", "450": ": ", "451": "other", "452": "us ", "453": "IN", "454": "has ", "455": "ant", "456": "'d ", "457": "ant ", "458": "self", "459": "cl", "460": "ari", "461": "him ", "462": "co", "463": "He ", "464": "ast", "465": "long", "466": "ence ", "467": "ind", "468": "I have ", "469": "its ", "470": "ful", "471": "so", "472": "ome", "473": " se", "474": "if ", "475": "ther ", "476": "ure", "477": "ity ", "478": "?\n\n", "479": "own ", "480": "ver ", "481": "will ", "482": "most ", "483": "rem", "484": "what ", "485": "ord", "486": "Mr. ", "487": "fac", "488": "ind ", "489": "ese ", "490": "pos", "491": "ight ", "492": "AR", "493": "S:\n", "494": "though", "495": "a s", "496": "diff", "497": " whi", "498": "? ", "499": "ing, ", "500": "ber", "501": "ose ", "502": "ast ", "503": "nat", "504": "ple", "505": "ust ", "506": "w ", "507": "ea", "508": "ill", "509": "can", "510": "s\n", "511": "tim", "512": "y\n", "513": "bet", "514": "ance ", "515": " she ", "516": "litt", "517": "hap", "518": "ble ", "519": "tur", "520": "like ", "521": "come ", "522": "look", "523": "ud", "524": " wh", "525": " was ", "526": " them", "527": "fl", "528": "ound ", "529": "fir", "530": " their ", "531": "them", "532": "been", "533": "ld", "534": "e of ", "535": "I am", "536": "which", "537": "there ", "538": "char", "539": "s, and ", "540": " and ", "541": "some ", "542": "erv", "543": "s and ", "544": "same ", "545": "por", "546": "fore ", "547": "ing the ", "548": "ell", "549": "ed by ", "550": "good ", "551": "little ", "552": "ght ", "553": "ke", "554": "enc", "555": "if", "556": "ill ", "557": "ain ", "558": "sha", "559": "speci", "560": "af", "561": "IO:\n", "562": "; but ", "563": "ave ", "564": "vari", "565": "two ", "566": "ite ", "567": "gener", "568": "tt", "569": "ade ", "570": ". S", "571": "ous", "572": "inter", "573": "est", "574": "ine ", "575": "only ", "576": "Mis", "577": "ng", "578": "ay, ", "579": "' said ", "580": "ve", "581": "coun", "582": "ever", "583": ". The ", "584": "of a", "585": "thing ", "586": "can ", "587": "tri", "588": "ed the ", "589": "hand", "590": "time ", "591": "off", "592": "oll", "593": "fri", "594": " to ", "595": "bre", "596": "ink", "597": "well", "598": "ob", "599": "did ", "600": "comm", "601": "To ", "602": "when ", "603": ".  ", "604": "sc", "605": "'t ", "606": "hou", "607": "great ", "608": "Miss ", "609": "may ", "610": "tain", "611": "ary ", "612": "ati", "613": "ey", "614": "how", "615": "for the ", "616": "ays ", "617": "cer", "618": "don", "619": "US:\n", "620": ", as ", "621": "old ", "622": "ck", "623": "who ", "624": " su", "625": "vis", "626": "too", "627": "from the ", "628": "mar", "629": "”\n", "630": "ig", "631": "plac", "632": ". A", "633": "tru", "634": "hav", "635": "came ", "636": "ge ", "637": "red ", "638": " st", "639": "-\n", "640": "ER", "641": " we ", "642": "ass", "643": "sp", "644": "fu", "645": "cr", "646": "en, ", "647": "ack", "648": "ated ", "649": "ick", "650": "differ", "651": "ing to ", "652": " they ", "653": "cas", "654": "jec", "655": "end ", "656": "cau", "657": "emp", "658": "t of ", "659": "under", "660": ", the ", "661": "ard ", "662": "sti", "663": "That ", "664": "ty ", "665": "lar", "666": "ath", "667": " some ", "668": ". I ", "669": "of a ", "670": "ly", "671": "into ", "672": "lif", "673": ".\n“", "674": "AN", "675": "must ", "676": "t\n", "677": "turn", "678": "e, and ", "679": " with ", "680": "s to ", "681": "it is ", "682": ",\nAnd ", "683": "before ", "684": "in a ", "685": "ood", "686": "duc", "687": "over", "688": "cont", "689": "ore ", "690": " all", "691": "bro", "692": "let", "693": "My ", "694": "first ", "695": "car", "696": "see ", "697": "ved ", "698": "rough", "699": ".\n`", "700": "chi", "701": "ound", "702": ", that ", "703": "ion", "704": "ever ", "705": "ham", "706": "I m", "707": "ment", "708": "when", "709": " so ", "710": "dist", "711": "rec", "712": "Jo", "713": "ble", "714": "OR", "715": "!\n", "716": "ought ", "717": "ely ", "718": "never ", "719": "I was ", "720": "ING", "721": "UC", "722": " of ", "723": ",' said ", "724": "their ", "725": "self ", "726": "with the ", "727": "I had ", "728": "dr", "729": "age ", "730": "yet ", "731": "beli", "732": "ers ", "733": "a m", "734": "charac", "735": "many ", "736": ". T", "737": "rel", "738": "hould ", "739": "read", "740": "In", "741": "should ", "742": "thing", "743": "er, ", "744": "son", "745": "every ", "746": "cur", "747": "less ", "748": "und", "749": "We ", "750": " what ", "751": "Br", "752": "de ", "753": "wr", "754": "by the ", "755": "how ", "756": " a s", "757": "tre", "758": "ist", "759": ", but ", "760": ", s", "761": "ked ", "762": "again", "763": "arm", "764": "It ", "765": " these ", "766": "beg", "767": "seem", "768": "clo", "769": "room", "770": "lec", "771": "at the ", "772": "gl", "773": " me ", "774": "What ", "775": "made ", "776": "I'", "777": "natur", "778": "young", "779": "s of the ", "780": "ET", "781": "ious ", "782": "now ", "783": "ach", "784": "much ", "785": "tly ", "786": "make ", "787": "ently ", "788": ". H", "789": "ans", "790": "able", "791": "Mr ", "792": "min", "793": "tu", "794": "ip", "795": "?\n", "796": "hor", "797": "abe", "798": "peak", "799": "give ", "800": "go ", "801": "land", "802": "ail", "803": "es of ", "804": "o, ", "805": "sion", "806": "pleas", "807": "liz", "808": "it was ", "809": " ac", "810": "du", "811": "eng", "812": "I th", "813": "pear", "814": "to s", "815": "take ", "816": "than ", "817": "day", "818": "se, ", "819": "each ", "820": "Eliz", "821": "feel", "822": "inst", "823": "betwe", "824": ". He ", "825": "I am ", "826": "bit", "827": "gent", "828": "bu", "829": "giv", "830": "both", "831": "ra", "832": "cour", "833": "ses ", "834": "— ", "835": "being ", "836": "thy ", "837": "ffec", "838": "reas", "839": "than", "840": "!\n\n", "841": ". It ", "842": "ful ", "843": ". But ", "844": "bri", "845": "ister", "846": "?'\n", "847": "too ", "848": "ros", "849": "here ", "850": ".”\n", "851": "augh", "852": "day ", "853": "tal", "854": "that the ", "855": "ho", "856": "gu", "857": "te ", "858": "har", "859": "sub", "860": "lic", "861": "comp", "862": "might ", "863": "    ", "864": "As ", "865": "ing s", "866": "he was ", "867": "A:\n", "868": "way ", "869": "he had ", "870": "down", "871": "new", "872": "Elizabe", "873": "ink ", "874": "e,\n", "875": "cri", "876": "fam", "877": "mer", "878": "io", "879": "some", "880": "e.\n\n", "881": "ru", "882": "ence", "883": "On", "884": "KING", "885": "EL", "886": ", I ", "887": "chang", "888": "IC", "889": "ree ", "890": "ise ", "891": "friend", "892": "You ", "893": "up ", "894": "pi", "895": " which ", "896": "even", "897": "let ", "898": "will", "899": "OL", "900": "gain", "901": "cannot ", "902": "ings ", "903": "year", "904": "have been ", "905": "Whi", "906": "poin", "907": "ing a", "908": "qui", "909": "vel", "910": ". “", "911": "cor", "912": "much", "913": "produc", "914": "high", "915": "ON", "916": "ment ", "917": "ed\n", "918": ",' ", "919": "ways ", "920": "sed ", "921": "cre", "922": "of his ", "923": "vo", "924": "hall ", "925": "quite ", "926": ",”", "927": "dou", "928": "where ", "929": "ting ", "930": "species ", "931": "sup", "932": "ness ", "933": "ef", "934": "my", "935": ".'\n\"", "936": "arc", "937": "ES", "938": "ool", "939": "s,\n", "940": "tak", "941": "fer", "942": "nec", "943": "port", "944": "hop", "945": "- ", "946": ", and the ", "947": "num", "948": "ly, ", "949": "it, ", "950": "mi", "951": "old", "952": "org", "953": "you w", "954": " those ", "955": "ligh", "956": "pri", "957": "inde", "958": "foll", "959": "cei", "960": "jo", "961": "call", "962": "fin", "963": ". Th", "964": "ont", "965": "hal", "966": "mon", "967": "consi", "968": "then ", "969": "character", "970": "king", "971": "happ", "972": "For", "973": "shi", "974": "fic", "975": "thou ", "976": "out", "977": "great", "978": "about ", "979": "here", "980": " the\n", "981": " a m", "982": "hey ", "983": "ark", "984": "air", "985": "e and ", "986": "You", "987": "shall ", "988": "oul", "989": ".'\n`", "990": "me, ", "991": "nigh", "992": "hat", "993": "hon", "994": "mat", "995": "ew", "996": "th, ", "997": "then", "998": "pu", "999": "ants ", "1000": "fec", "1001": "cep", "1002": "ance", "1003": "ity", "1004": "ack ", "1005": "in his ", "1006": "last ", "1007": "of\n", "1008": " thy ", "1009": "men", "1010": "Mrs. ", "1011": "ARD", "1012": "A ", "1013": "s.\n", "1014": "om ", "1015": "p ", "1016": "IUS:\n", "1017": "KING ", "1018": "low", "1019": "ties ", "1020": "d\n", "1021": "and\n", "1022": "toge", "1023": "anim", "1024": "pur", "1025": "a w", "1026": "found ", "1027": "long ", "1028": "fort", "1029": " more ", "1030": "dec", "1031": "full", "1032": "liv", "1033": " me", "1034": "new ", "1035": "E ", "1036": "arr", "1037": "att", "1038": "pow", "1039": "serv", "1040": "there", "1041": "cause ", "1042": "that", "1043": "appear", "1044": "after", "1045": "I should ", "1046": "king ", "1047": "get ", "1048": "This ", "1049": "though ", "1050": "doub", "1051": "far", "1052": "eve ", "1053": "who", "1054": "cle", "1055": "II", "1056": "vid", "1057": "near", "1058": "s the ", "1059": " which", "1060": "den", "1061": "With", "1062": "upon", "1063": "tell", "1064": "light ", "1065": "into the ", "1066": "natural", "1067": " al", "1068": "times ", "1069": "ci", "1070": "a, ", "1071": "No", "1072": "contin", "1073": "possi", "1074": "through", "1075": "ations ", "1076": "edi", "1077": "father", "1078": "know ", "1079": "and, ", "1080": "ber ", "1081": "organ", "1082": "ty", "1083": "head", "1084": "gentle", "1085": "reg", "1086": "ook ", "1087": "es, and ", "1088": "you, ", "1089": "t to ", "1090": "ed and ", "1091": "ed, and ", "1092": "bour", "1093": "was", "1094": "Her", "1095": "consider", "1096": "having ", "1097": "habit", "1098": "upon ", "1099": "without ", "1100": "perio", "1101": " ab", "1102": "re ", "1103": "sm", "1104": "E:\n", "1105": "wer", "1106": "looked ", "1107": "Go", "1108": "bod", "1109": "put ", "1110": "tor", "1111": "lef", "1112": "with a ", "1113": "til", "1114": "her s", "1115": "ably ", "1116": "ca", "1117": " speci", "1118": "ond ", "1119": "such", "1120": "condi", "1121": "gg", "1122": ".--", "1123": "perfec", "1124": "ten ", "1125": "Jan", "1126": "these ", "1127": "tion, ", "1128": "nam", "1129": "ation, ", "1130": "Char", "1131": "hel", "1132": " as", "1133": "ince ", "1134": "s are ", "1135": " mo", "1136": "certain", "1137": "sur", "1138": "follow", "1139": "val", "1140": "could not ", "1141": "indi", "1142": "on, ", "1143": " all ", "1144": "heav", "1145": "time", "1146": "lord", "1147": "nes", "1148": "ish ", "1149": "dur", "1150": "in s", "1151": "to\n", "1152": "pass", "1153": "ces", "1154": "mis", "1155": " ad", "1156": "nor", "1157": "peop", "1158": "ord ", "1159": " \n", "1160": "sen", "1161": ".\n\nC", "1162": "in my ", "1163": "mean", "1164": "varie", "1165": "id ", "1166": "said ", "1167": "well ", "1168": "e.\n", "1169": ".\n\nP", "1170": "different ", "1171": "lin", "1172": "lat", "1173": "expres", "1174": "Mar", "1175": "fre", "1176": "hy", "1177": "do not ", "1178": "ent, ", "1179": "e to ", "1180": "went ", "1181": "of my ", "1182": " their", "1183": "sion ", "1184": "got ", "1185": "Y ", "1186": "heard ", "1187": "I'll ", "1188": "ren", "1189": "life", "1190": "not", "1191": "ner", "1192": "always ", "1193": "An", "1194": "ide", "1195": "pect", "1196": "sever", "1197": "y, and ", "1198": "inct ", "1199": "down ", "1200": "en the ", "1201": "them ", "1202": "ward", "1203": "ance, ", "1204": "Bront", "1205": "Brontë", "1206": "Darc", "1207": "man ", "1208": "nothing ", "1209": "just ", "1210": "house", "1211": "in this ", "1212": "and the ", "1213": " there ", "1214": "would be ", "1215": "animal", "1216": "find ", "1217": "present ", "1218": "part ", "1219": "ext", "1220": "fel", "1221": "stri", "1222": "ould", "1223": "ds ", "1224": " ap", "1225": "over ", "1226": "RO", "1227": "cum", "1228": "keep", "1229": "gn", "1230": "ember", "1231": "believe ", "1232": "tion of ", "1233": "tic ", "1234": "Com", "1235": "plain", "1236": "all the ", "1237": "of this ", "1238": "aw ", "1239": "back", "1240": "countr", "1241": "dom", "1242": "even ", "1243": "rep", "1244": "is the ", "1245": "thou", "1246": "another ", "1247": "you s", "1248": "ond", "1249": "desc", "1250": "les ", "1251": "wat", "1252": "have been", "1253": "return", "1254": ".\n\nL", "1255": "I will ", "1256": "ry ", "1257": "life ", "1258": "geo", "1259": "fur", "1260": "cha", "1261": "love ", "1262": "cir", "1263": "ee", "1264": " at the ", "1265": "ily ", "1266": "cros", "1267": ". She ", "1268": "daugh", "1269": "She ", "1270": "had been ", "1271": "Charlo", "1272": "ven", "1273": "prob", "1274": "once ", "1275": "death", "1276": "lad", "1277": "kind", "1278": "ARD ", "1279": "ice ", "1280": " that", "1281": "door", "1282": "tain ", "1283": "ir, ", "1284": "ither ", "1285": "left ", "1286": "oci", "1287": "medi", "1288": ". `", "1289": "For ", "1290": "ger", "1291": "grac", "1292": ";\nAnd ", "1293": "AU", "1294": "occas", "1295": "child", "1296": "cu", "1297": "ed in ", "1298": "row", "1299": "TIO:\n", "1300": "grou", "1301": "tow", "1302": "ing and ", "1303": "enough", "1304": "whole ", "1305": " than", "1306": "enti", "1307": "cap", "1308": "hour", "1309": "m ", "1310": "letter", "1311": "ing\n", "1312": "recei", "1313": " again", "1314": "eas", "1315": "bur", "1316": "condition", "1317": "of her ", "1318": "often ", "1319": "ner ", "1320": "did not ", "1321": "hum", "1322": "es\n", "1323": "es and ", "1324": "Hav", "1325": "ET:\n", "1326": "ory ", "1327": "struc", "1328": "sol", "1329": "continu", "1330": ". . ", "1331": "is a ", "1332": "way", "1333": "told ", "1334": "ed that ", "1335": "is, ", "1336": "Ben", "1337": "clas", "1338": "felt ", "1339": "part", "1340": "himself", "1341": " than ", "1342": "ion ", "1343": "sai", "1344": "subjec", "1345": "IS", "1346": "e's ", "1347": "underst", "1348": "him, ", "1349": "any", "1350": "y to ", "1351": "18", "1352": "mak", "1353": "bir", "1354": "import", "1355": "both ", "1356": " them ", "1357": "say ", "1358": " must ", "1359": "le, ", "1360": "; the ", "1361": "she", "1362": "led", "1363": "Benne", "1364": ". N", "1365": "large ", "1366": "modi", "1367": "ves ", "1368": "led ", "1369": "If ", "1370": "for a ", "1371": "tend", "1372": "fear", "1373": "degre", "1374": "house ", "1375": "pose ", "1376": "writ", "1377": "e-", "1378": "ility ", "1379": "ing a ", "1380": "vic", "1381": "ic ", "1382": "Well", "1383": "open", "1384": "dres", "1385": "best ", "1386": "ser", "1387": "because ", "1388": " selec", "1389": " man", "1390": "after ", "1391": "pris", "1392": "ement ", "1393": ". And ", "1394": "” ", "1395": "When ", "1396": "hard", "1397": "ster", "1398": "ingle", "1399": "tra", "1400": "idd", "1401": "thus ", "1402": "kind ", "1403": "under ", "1404": "K:\n", "1405": "done ", "1406": "iz", "1407": "time, ", "1408": "ICH", "1409": "leave ", "1410": "wom", "1411": "never", "1412": "?'\n`", "1413": " mu", "1414": "sor", "1415": "sister", "1416": "become ", "1417": "work", "1418": "tell ", "1419": "strang", "1420": "myself", "1421": "head ", "1422": "night", "1423": "ence, ", "1424": "young ", "1425": "TH", "1426": "suff", "1427": ". B", "1428": "vol", "1429": "log", "1430": "speak", "1431": "us, ", "1432": "ished ", "1433": "together", "1434": "In ", "1435": "RICH", "1436": "icul", "1437": "y's ", "1438": "'d", "1439": "conf", "1440": "y and ", "1441": "col", "1442": "dre", "1443": "DU", "1444": "vidu", "1445": ".\n\nB", "1446": "direc", "1447": "posi", "1448": "gri", "1449": "TER", "1450": "DUK", "1451": "individu", "1452": "while ", "1453": ".\n\nS", "1454": "I would ", "1455": "DUKE ", "1456": "difficul", "1457": "till", "1458": "\nthe ", "1459": "fav", "1460": "Pip", "1461": ".\n\nG", "1462": "occasion", "1463": "such ", "1464": "however", "1465": "Havis", "1466": "s; ", "1467": "Fr", "1468": "tive ", "1469": "perhap", "1470": "Fir", "1471": "present", "1472": "sequ", "1473": "ong ", "1474": "Un", "1475": "ously ", "1476": "ow, ", "1477": "book", "1478": ") ", "1479": "remain", "1480": "tro", "1481": "does ", "1482": "isten", "1483": " were ", "1484": "hand ", "1485": "fter", "1486": ".\n\nKING ", "1487": "group", "1488": "Or", "1489": "almost ", "1490": "will be ", "1491": "morn", "1492": "ited ", "1493": "ew ", "1494": "Havisham", "1495": "better ", "1496": "Bingle", "1497": "may be ", "1498": "bear", "1499": " will ", "1500": " str", "1501": "ENTIO:\n", "1502": ",” said ", "1503": "ure, ", "1504": "till ", "1505": " wor", "1506": "ather", "1507": "brother", "1508": " such ", "1509": ".\nThe ", "1510": "round ", "1511": "don't ", "1512": "ing that ", "1513": "their", "1514": "Ha", "1515": "lim", "1516": "AB", "1517": "INC", "1518": "good", "1519": "is not ", "1520": "nor ", "1521": "eyes ", "1522": "vers", "1523": "ign", "1524": "dear ", "1525": "-- ", "1526": " would ", "1527": "wal", "1528": "e; ", "1529": "whe", "1530": "y-", "1531": "those ", "1532": "Miss Havisham", "1533": "sl", "1534": "hom", "1535": "toward", "1536": "few ", "1537": "Elizabeth", "1538": "arn", "1539": "pas", "1540": "Y:\n", "1541": "believ", "1542": "rest", "1543": "arri", "1544": "et, ", "1545": "gave ", "1546": "law", "1547": "ular", "1548": "They ", "1549": "ques", "1550": "generally ", "1551": ".\n\nM", "1552": "suc", "1553": "fully ", "1554": "took ", "1555": "remark", "1556": "cover", "1557": "far ", "1558": "the\n", "1559": "flow", "1560": "herself", "1561": "There ", "1562": "fell", "1563": "half", "1564": "between ", "1565": "one, ", "1566": "adv", "1567": "sed", "1568": "still ", "1569": "ity, ", "1570": "was a ", "1571": "fortun", "1572": "wind", "1573": "ped ", "1574": " so", "1575": "t the ", "1576": ",—", "1577": "better", "1578": "right ", "1579": "pend", "1580": " such", "1581": "!'\n", "1582": "certain ", "1583": "ation of ", "1584": "OF", "1585": "bus", "1586": "enter", "1587": "like", "1588": "effec", "1589": "ture ", "1590": " may ", "1591": "answer", "1592": "leg", "1593": "ue ", "1594": "person", "1595": "spo", "1596": "ran", "1597": "ght", "1598": "bor", "1599": "swe", "1600": "case ", "1601": "OF ", "1602": "'t", "1603": "tions ", "1604": "sing", "1605": "daughter", "1606": "AL", "1607": " ther", "1608": "distinct ", "1609": ". We ", "1610": "think", "1611": "objec", "1612": "Is ", "1613": "nex", "1614": "place ", "1615": "Charlott", "1616": "you have ", "1617": "ceed", "1618": "onder", "1619": "view", "1620": "common ", "1621": "father ", "1622": "h ", "1623": "use ", "1624": "ward ", "1625": "against ", "1626": "known ", "1627": "back ", "1628": "equ", "1629": ". In", "1630": "First ", "1631": " about ", "1632": "brought ", "1633": "amp", "1634": "How ", "1635": "So ", "1636": "ock", "1637": "inhabit", "1638": "visi", "1639": "o'", "1640": "ents ", "1641": "LO", "1642": "ient ", "1643": "ged ", "1644": "soon", "1645": "trac", "1646": "UL", "1647": "circum", "1648": "mil", "1649": "as the ", "1650": "sec", "1651": "AM", "1652": "sid", "1653": " with the ", "1654": "I could ", "1655": "befor", "1656": "vill", "1657": "gir", "1658": "necess", "1659": "she was ", "1660": "but", "1661": "bed", "1662": "to have ", "1663": "descend", "1664": "fied ", "1665": "Est", "1666": "Kemp", "1667": "        ", "1668": " many ", "1669": "partic", "1670": "pain", "1671": "look ", "1672": "cal", "1673": ".' ", "1674": "read ", "1675": "comes ", "1676": "course ", "1677": "beh", "1678": "lip", "1679": "din", "1680": "often", "1681": "Eng", "1682": "Estell", "1683": "ness", "1684": "of their ", "1685": "ately ", "1686": "sum", "1687": "t and ", "1688": "ing at ", "1689": "RICHARD ", "1690": "RICHARD II", "1691": "natural selec", "1692": "ts, ", "1693": "ers, ", "1694": "show", "1695": "t that ", "1696": "ed by the ", "1697": "TER:\n", "1698": "I:\n", "1699": "Joe ", "1700": "O, ", "1701": "people ", "1702": "ied ", "1703": "one", "1704": "az", "1705": "spir", "1706": "mind ", "1707": "her, ", "1708": "UCH", "1709": "ed. ", "1710": "another", "1711": "deep", "1712": "body ", "1713": "fter ", "1714": "number ", "1715": "she had ", "1716": "Let ", "1717": "he\n", "1718": "three ", "1719": "adi", "1720": "hall", "1721": "star", "1722": "nature ", "1723": "princ", "1724": "girl", "1725": "I must ", "1726": "acc", "1727": "heart", "1728": "draw", "1729": "marri", "1730": "hath ", "1731": "night ", "1732": "prof", "1733": "s in ", "1734": ". This ", "1735": "LOUC", "1736": "LOUCES", "1737": "LOUCESTER:\n", "1738": "lov", "1739": "I shall ", "1740": "ready ", "1741": "word", "1742": "you are ", "1743": "letter ", "1744": "to my ", "1745": ".\n\"", "1746": "mal", "1747": "\nTo ", "1748": "had been", "1749": "ordin", "1750": "x ", "1751": "s were ", "1752": "sive ", "1753": "thor", "1754": "run", "1755": "on my ", "1756": "O ", "1757": "beau", "1758": "EEN", "1759": "Herber", "1760": "say", "1761": "bes", "1762": "ying ", "1763": "sil", "1764": "comple", "1765": "sle", "1766": "light", "1767": "an a", "1768": "sis", "1769": "land ", "1770": "n't ", "1771": "Mr. Darc", "1772": "imp", "1773": "affec", "1774": "sir", "1775": "honour", "1776": "face ", "1777": " thou ", "1778": "expec", "1779": "Why, ", "1780": "eld", "1781": "God ", "1782": "circumst", "1783": "es of the ", "1784": ". They ", "1785": "wish", "1786": "son ", "1787": "turn ", "1788": "whose ", "1789": "reason", "1790": " though", "1791": "favour", "1792": "s; and ", "1793": " all the ", "1794": ", my ", "1795": "plan", "1796": "coll", "1797": "varieties ", "1798": "not, ", "1799": "ate, ", "1800": "chool", "1801": "al, ", "1802": "hardly ", "1803": "to his ", "1804": "imag", "1805": "VINC", "1806": "iti", "1807": "prom", "1808": "ship", "1809": "shall", "1810": "el ", "1811": "of that ", "1812": "cal ", "1813": "pen", "1814": "QU", "1815": "QUEEN", "1816": "VINCENTIO:\n", "1817": "dear", "1818": "that he ", "1819": "Your ", "1820": "fo", "1821": "knowled", "1822": "ing w", "1823": "ity of ", "1824": "gone ", "1825": "atis", "1826": "order", "1827": "poor ", "1828": "hus", "1829": "or s", "1830": "ised ", "1831": "HEN", "1832": ".----", "1833": "pa", "1834": "His ", "1835": "heal", "1836": "in her ", "1837": "ED", "1838": "Not ", "1839": "es. ", "1840": "world", "1841": "name ", "1842": "mother", "1843": "to-", "1844": "next ", "1845": "ouch", "1846": "opin", "1847": "upon the ", "1848": "can be ", "1849": "grow", "1850": "y of ", "1851": "ical ", "1852": "character ", "1853": "last", "1854": "dro", "1855": "t's ", "1856": "Ri", "1857": "st, ", "1858": "When", "1859": " when ", "1860": "jud", "1861": "observ", "1862": "rather ", "1863": "busin", "1864": "y. ", "1865": ",--", "1866": "er and ", "1867": "ost ", "1868": "husb", "1869": "embr", "1870": "full ", "1871": "less", "1872": "sely ", "1873": "thought ", "1874": "ing-", "1875": "usu", "1876": "nearly ", "1877": "mast", "1878": ", sir", "1879": "least ", "1880": "ing his ", "1881": "ed a ", "1882": "'ll ", "1883": "like a ", "1884": "break", "1885": "'ti", "1886": "poss", "1887": " me, ", "1888": "St", "1889": "years ", "1890": "family ", "1891": "atten", "1892": "By ", "1893": "hur", "1894": "stre", "1895": "going ", "1896": "Yor", "1897": "uli", "1898": "not be ", "1899": "to a ", "1900": "am ", "1901": "bar", "1902": "home ", "1903": "hope ", "1904": "either ", "1905": "still", "1906": "ELL", "1907": " who ", "1908": "blood", "1909": "each", "1910": "lay ", "1911": "of th", "1912": "excep", "1913": "breed", "1914": "velop", "1915": "Charlotte ", "1916": "ma", "1917": "s that ", "1918": "al s", "1919": "thee ", "1920": "AP", "1921": "Hawor", "1922": "itor", "1923": "noble ", "1924": "hat's ", "1925": "in a", "1926": "y,\n", "1927": "dar", "1928": "did", "1929": "to th", "1930": "!' ", "1931": "himself ", "1932": "domes", "1933": "ed her ", "1934": "RY ", "1935": "pal", "1936": "cell", "1937": "stand", "1938": "foo", "1939": "ORI", "1940": "HENRY ", "1941": ".”\n“", "1942": "Wick", "1943": "men ", "1944": "ut, ", "1945": "offic", "1946": "hat, ", "1947": "to make ", "1948": "took", "1949": "was the ", "1950": "extre", "1951": "quain", "1952": "que", "1953": "s, the ", "1954": "ris", "1955": "off ", "1956": "Where ", "1957": " see ", "1958": "hold ", "1959": "ste", "1960": "few", "1961": "consequ", "1962": "Jane ", "1963": "ed with ", "1964": "war", "1965": "ed his ", "1966": "of these ", "1967": "given ", "1968": "ili", "1969": "adm", "1970": "would have ", "1971": "day, ", "1972": "point", "1973": "Elizabeth ", "1974": "age, ", "1975": "Lon", "1976": "a\n", "1977": "Of ", "1978": "I think", "1979": "wher", "1980": "atch", "1981": "seen ", "1982": "ref", "1983": "must be ", "1984": " that the ", "1985": ".\n\nDUKE ", "1986": "individual", "1987": "econd ", "1988": "hear ", "1989": "ace ", "1990": "play", "1991": "leav", "1992": "che", "1993": "life, ", "1994": "period ", "1995": "red", "1996": "out of ", "1997": "ture", "1998": "wa", "1999": "said, ", "2000": "until", "2001": "London", "2002": "Be", "2003": "ies ", "2004": "in\n", "2005": "ing of ", "2006": "called ", "2007": "plants ", "2008": "Wem", "2009": "resol", "2010": "several ", "2011": "carri", "2012": "shor", "2013": "ash", "2014": "; for ", "2015": "Ly", "2016": "QUEEN ", "2017": "early ", "2018": "sometimes ", "2019": "ONT", "2020": "occur", "2021": "Which ", "2022": ",\nThat ", "2023": "'tis ", "2024": "UM", "2025": "to see ", "2026": ",\nTo ", "2027": "ph", "2028": "has been ", "2029": "evid", "2030": "ES:\n", "2031": "visible ", "2032": ":\nA", "2033": "'T", "2034": "true ", "2035": "cul", "2036": "truc", "2037": "in m", "2038": "YOR", "2039": "mediate ", "2040": "your s", "2041": "If", "2042": "I, ", "2043": "each other", "2044": "exper", "2045": "Ed", "2046": "YORK:\n", "2047": "perhaps ", "2048": "of all", "2049": "\nAnd ", "2050": "OM", "2051": "love", "2052": "the s", "2053": "grav", "2054": "ing, and ", "2055": "mp", "2056": "in some ", "2057": "power ", "2058": "Lad", "2059": "termin", "2060": "orig", "2061": "consc", "2062": "world ", "2063": "Pr", "2064": "able to ", "2065": "away ", "2066": " through", "2067": "began ", "2068": ", or ", "2069": "bourgeo", "2070": "INIUS:\n", "2071": "ess, ", "2072": "use", "2073": "nothing", "2074": "cloth", "2075": "possible ", "2076": "grad", "2077": "ide ", "2078": "ement", "2079": "lik", "2080": "get", "2081": "sy", "2082": "lor", "2083": "tion of the ", "2084": "between the ", "2085": "forms ", "2086": "they were ", "2087": "ed in the ", "2088": ".\nA", "2089": "compar", "2090": "certainly ", "2091": "develop", "2092": "Wemm", "2093": "ating ", "2094": "ate", "2095": "\nThe ", "2096": "side ", "2097": "in their ", "2098": "sent ", "2099": "ither", "2100": "gentleman", "2101": "dead", "2102": "with his ", "2103": "ances ", "2104": "parent", "2105": "however, ", "2106": "Coll", "2107": "No ", "2108": "could be ", "2109": " we", "2110": "not\n", "2111": "change ", "2112": "fire", "2113": "me to ", "2114": "ks ", "2115": "his\n", "2116": "to her ", "2117": "mom", "2118": "unt", "2119": "remember", "2120": "s;", "2121": "wif", "2122": "ath ", "2123": "twent", "2124": "itch", "2125": "ely, ", "2126": "over the ", "2127": "ociet", "2128": "known", "2129": "tch", "2130": "doth", "2131": "laugh", "2132": "ted to ", "2133": "inher", "2134": "taken ", "2135": "being", "2136": "ban", "2137": "los", "2138": "EDW", "2139": "Bidd", "2140": "One ", "2141": "aff", "2142": "cup", "2143": ",'", "2144": "is\n", "2145": "Do ", "2146": "ted", "2147": "chur", "2148": "ance of ", "2149": "every", "2150": "Wickham", "2151": "With ", "2152": "trans", "2153": "ute ", "2154": "nature", "2155": "heart ", "2156": "utter", "2157": "on his ", "2158": "there was ", "2159": "Lord ", "2160": ". There ", "2161": "Collin", "2162": "ef ", "2163": "set ", "2164": "pic", "2165": "ali", "2166": "I cannot ", "2167": "towards ", "2168": "respec", "2169": "ative ", "2170": "agger", "2171": "general ", "2172": "sem", "2173": "antag", "2174": "bed ", "2175": "app", "2176": "friend ", "2177": "an in", "2178": "Why ", "2179": "kep", "2180": "compan", "2181": "species, ", "2182": "varieti", "2183": "live ", "2184": "ee ", "2185": "Yet ", "2186": "es,\n", "2187": "quar", "2188": "cho", "2189": "ult", "2190": "days ", "2191": "see", "2192": "now, ", "2193": "fanc", "2194": "ire ", "2195": "Pro", "2196": "voic", "2197": "rup", "2198": "Dr", "2199": "Miss Brontë", "2200": "k, ", "2201": "y.\n", "2202": "are", "2203": "power", "2204": "plant", "2205": "her\n", "2206": "stair", "2207": "home", "2208": "spr", "2209": "as a ", "2210": "fall", "2211": "together ", "2212": "s.  ", "2213": "zen", "2214": "'st ", "2215": "atter", "2216": "tem", "2217": "ME", "2218": "probably ", "2219": "\nA", "2220": "repli", "2221": "stor", "2222": "art ", "2223": "prev", "2224": "es.\n", "2225": "cent", "2226": "close ", "2227": "meric", "2228": "rest ", "2229": "dem", "2230": "became ", "2231": "remo", "2232": "ight", "2233": "; for", "2234": "table", "2235": "an, ", "2236": "reason ", "2237": "Ro", "2238": "view ", "2239": "clear", "2240": " species ", "2241": "reli", "2242": "Rome", "2243": "tear", "2244": "stem", "2245": "out of the ", "2246": "it, and ", "2247": "myself ", "2248": "\n, ", "2249": "mine ", "2250": "since ", "2251": "a little ", "2252": "On the ", "2253": "prov", "2254": "ular ", "2255": "between", "2256": "descri", "2257": "Americ", "2258": "I\n", "2259": "abl", "2260": "increas", "2261": "pir", "2262": "proper", "2263": "boy", "2264": "connec", "2265": "g ", "2266": "Come, ", "2267": "ub", "2268": "neigh", "2269": " most ", "2270": "if he ", "2271": "ust", "2272": "the same ", "2273": "ed at ", "2274": "ROME", "2275": "ROMEO:\n", "2276": "of the same ", "2277": "ENEN", "2278": "ENENIUS:\n", "2279": "Who ", "2280": "strong", "2281": "wonder", "2282": "bly ", "2283": "ick ", "2284": "cely ", "2285": "vil", "2286": "coming ", "2287": "to this ", "2288": "stood ", "2289": "ude ", "2290": "abo", "2291": "frequ", "2292": "really ", "2293": "famil", "2294": "Joe, ", "2295": "prett", "2296": "er:\n", "2297": "ist ", "2298": "among", "2299": ", to ", "2300": "knew ", "2301": "ery ", "2302": "repe", "2303": "Of", "2304": "ton", "2305": "leng", "2306": "when the ", "2307": ". I am", "2308": "happy ", "2309": "island", "2310": ". It was ", "2311": "help", "2312": "think ", "2313": "tong", "2314": "fellow", "2315": "s:\n", "2316": "No, ", "2317": "number", "2318": "sk", "2319": "le of ", "2320": " sub", "2321": "Nor", "2322": "ETR", "2323": "Lydi", "2324": "hybri", "2325": " where ", "2326": "ne ", "2327": " made ", "2328": "eri", "2329": "it to ", "2330": "ed.\n", "2331": " seem", "2332": "posed ", "2333": "collec", "2334": "ate of ", "2335": "ed to be ", "2336": "exc", "2337": "ETRUCH", "2338": "ETRUCHIO:\n", "2339": "modific", "2340": "Mrs ", "2341": "der ", "2342": "from a ", "2343": ", he ", "2344": "inn", "2345": "why ", "2346": "should be ", "2347": "up the ", "2348": "stop", "2349": "join", "2350": "anx", "2351": "tend ", "2352": "IL", "2353": "per ", "2354": "spec", "2355": "s in the ", "2356": "whether ", "2357": "ur ", "2358": "\nS", "2359": "selves ", "2360": "ator", "2361": "doubt ", "2362": "ed with", "2363": "uck", "2364": "also ", "2365": "ni", "2366": "closely ", "2367": "knew", "2368": "one of the ", "2369": "intermediate ", "2370": "away", "2371": "eld ", "2372": "ly\n", "2373": "ben", "2374": ". W", "2375": "aim", "2376": "come to ", "2377": "ed me ", "2378": "Good ", "2379": "concl", "2380": "IV", "2381": "vely ", "2382": ".\n\nKING RICHARD II", "2383": " she had ", "2384": "”\n“", "2385": "wise ", "2386": " thee ", "2387": "ask", "2388": "unc", "2389": "ld, ", "2390": "so, ", "2391": "something ", "2392": ". M", "2393": "cons", "2394": "yself", "2395": " some", "2396": "\nand ", "2397": "under the ", "2398": "Hen", "2399": ", and that ", "2400": "flu", "2401": "glad ", "2402": "secon", "2403": "else ", "2404": "again ", "2405": "umble", "2406": "looking ", "2407": "in which", "2408": "accoun", "2409": "he is ", "2410": "hath", "2411": "ousand ", "2412": "ven ", "2413": "right", "2414": "outh", "2415": "town", "2416": "in that ", "2417": "ant, ", "2418": "that, ", "2419": "manner", "2420": "ations, ", "2421": "ine", "2422": " OF ", "2423": "hab", "2424": ". In ", "2425": "s.\n\n", "2426": "if you ", "2427": "whom ", "2428": "out, ", "2429": "mind", "2430": "ear ", "2431": "sed, ", "2432": "ORIOL", "2433": "ORIOLAN", "2434": "ences ", "2435": "ing her ", "2436": "origin", "2437": "Mr J", "2438": "but, ", "2439": "lab", "2440": "To", "2441": "here, ", "2442": "How", "2443": "mad", "2444": "ORIOLANUS:\n", "2445": "dd", "2446": "he, ", "2447": "lord, ", "2448": "kept ", "2449": "ordinary ", "2450": "be\n", "2451": "hir", "2452": "five ", "2453": "rang", "2454": "alo", "2455": "man, ", "2456": "t, and ", "2457": "ach ", "2458": ",” ", "2459": "inv", "2460": "gar", "2461": "ken ", "2462": "fair", "2463": "ck ", "2464": "rap", "2465": "impres", "2466": "cous", "2467": "ST", "2468": "satis", "2469": "ing in ", "2470": "stru", "2471": "country ", "2472": "you\n", "2473": "It is ", "2474": "fool", "2475": "bey", "2476": ". C", "2477": "received ", "2478": "sure ", "2479": "I can ", "2480": "itted ", "2481": "possible", "2482": "ed as ", "2483": "York", "2484": "agre", "2485": "herself ", "2486": "ism", "2487": "instance, ", "2488": "cases ", "2489": "particular", "2490": "compe", "2491": "row ", "2492": "work ", "2493": "hysi", "2494": "we have ", "2495": "add", "2496": " three ", "2497": "piec", "2498": ", which ", "2499": "allow", "2500": "er to ", "2501": "ge, ", "2502": "AD", "2503": "ence of ", "2504": "are not ", "2505": "I know ", "2506": "dang", "2507": "wel", "2508": "fair ", "2509": "for my ", "2510": "requ", "2511": "ing to the ", "2512": "manner ", "2513": " a w", "2514": "brother ", "2515": "AND", "2516": "perfectly ", "2517": "Have ", "2518": "I do ", "2519": "of them", "2520": "dri", "2521": "er s", "2522": "ood, ", "2523": "imagin", "2524": " much ", "2525": "step", "2526": "matter", "2527": "natural ", "2528": "const", "2529": " after", "2530": "fore, ", "2531": "respect", "2532": "aid", "2533": "there is ", "2534": "ts of ", "2535": " sever", "2536": "has been", "2537": ". As ", "2538": "a very ", "2539": "neighbour", "2540": "selv", "2541": " make ", "2542": "Thou ", "2543": "then, ", "2544": "es; ", "2545": "Al", "2546": "question", "2547": "on a ", "2548": "h, ", "2549": "lost ", "2550": "might be ", "2551": "Luc", "2552": "?' ", "2553": "s. The ", "2554": "princip", "2555": "INA:\n", "2556": "Pumble", "2557": "to say ", "2558": "oman", "2559": "through the ", "2560": "call ", "2561": "stand ", "2562": "to me", "2563": "Lady ", "2564": "four", "2565": " as the ", "2566": "pleasure ", "2567": "no more ", "2568": "hands ", "2569": "parts ", "2570": "del", "2571": "denly ", "2572": "itu", "2573": "peculi", "2574": "important ", "2575": "Wemmick", "2576": "tit", "2577": "Li", "2578": "I may ", "2579": "I can", "2580": "jus", "2581": "keep ", "2582": "uni", "2583": "shall be ", "2584": "He", "2585": "inform", "2586": "I thought ", "2587": "I think ", "2588": "urder", "2589": ".\n\nGLOUCESTER:\n", "2590": "War", "2591": "oured ", "2592": "door ", "2593": "gain ", "2594": "pretty ", "2595": " wr", "2596": "ed,\n", "2597": "high ", "2598": "tail", "2599": "scar", "2600": "Eur", "2601": "exist", "2602": "conditions of ", "2603": ".\n\nFirst ", "2604": "consci", "2605": "pub", "2606": "behind ", "2607": "physi", "2608": "word ", "2609": "already ", "2610": "ists ", "2611": "any one ", "2612": "during the ", "2613": "prou", "2614": "And, ", "2615": "fore", "2616": " might ", "2617": "soul", "2618": "hast", "2619": "erous ", "2620": "it\n", "2621": "fal", "2622": "of the\n", "2623": "wis", "2624": "lit", "2625": "sat ", "2626": "flo", "2627": "mist", "2628": "domestic ", "2629": "case", "2630": "obli", "2631": "immedi", "2632": "tice ", "2633": "held ", "2634": "pati", "2635": "trou", "2636": " will", "2637": "cold ", "2638": "it seem", "2639": "care", "2640": "turned ", "2641": "common", "2642": "on this ", "2643": "one of ", "2644": ". I have ", "2645": "not to ", "2646": "exp", "2647": "Ch", "2648": "Warw", "2649": "RE", "2650": "), ", "2651": "Pumblech", "2652": "Mrs. Benne", "2653": "bal", "2654": "ive ", "2655": " should ", "2656": "age", "2657": "distri", "2658": "convers", "2659": "earth", "2660": "bon", "2661": "es the ", "2662": "ve, ", "2663": "of those ", "2664": "expect", "2665": "ember ", "2666": " with a ", "2667": "ly to ", "2668": "fres", "2669": "sign", "2670": "chap", "2671": "t-", "2672": "ted by ", "2673": ",\nS", "2674": "liber", "2675": "blood ", "2676": "dog", "2677": "I do not ", "2678": "perfect ", "2679": "put", "2680": "seen", "2681": "ness, ", "2682": "ford", "2683": "bird", "2684": ".\n\nDUKE VINCENTIO:\n", "2685": "'s\n", "2686": ", she ", "2687": "Now, ", "2688": "warm", "2689": " appear", "2690": "could", "2691": "ation of the ", "2692": "s of s", "2693": "going to ", "2694": "resp", "2695": "does not ", "2696": "explain", "2697": "., ", "2698": "Mr W", "2699": "yi", "2700": "heaven", "2701": "hund", "2702": "they are ", "2703": ":\nAnd ", "2704": "ingle ", "2705": "hast ", "2706": "had", "2707": "bout ", "2708": "pup", "2709": "diver", "2710": ".\nS", "2711": "as I ", "2712": "church", "2713": "ABELL", "2714": "organic ", "2715": "for his ", "2716": "erc", "2717": "answ", "2718": "public", "2719": " then ", "2720": "prepar", "2721": " when", "2722": "Then ", "2723": "top", "2724": ". My ", "2725": "touch", "2726": "come, ", "2727": "; and the ", "2728": "my lord", "2729": "degree ", "2730": "engag", "2731": "ISABELL", "2732": "ISABELLA:\n", "2733": "existen", "2734": "?'\n\"", "2735": "animals ", "2736": "especi", "2737": "ingly ", "2738": "uch", "2739": "soon ", "2740": "greater ", "2741": "learn", "2742": "hill", "2743": "som", "2744": "il ", "2745": "it would ", "2746": "you know", "2747": "in, ", "2748": "famili", "2749": "cried ", "2750": ". E", "2751": "concer", "2752": "amoun", "2753": "suffer", "2754": "From", "2755": "sure", "2756": "was\n", "2757": "cli", "2758": "ancient ", "2759": "drop", "2760": "ly and ", "2761": "this", "2762": "saw", "2763": "tum", "2764": "regard ", "2765": "fertil", "2766": "room ", "2767": "commun", "2768": "looked at ", "2769": "opinion", "2770": "ladi", "2771": "indeed, ", "2772": "gentle ", "2773": "Here ", "2774": "uch ", "2775": ". It is ", "2776": "you will ", "2777": "temp", "2778": "JUL", "2779": "which are ", "2780": "Hall", "2781": "insec", "2782": "ici", "2783": "ank ", "2784": " thou", "2785": "prin", "2786": "urse", "2787": "window", "2788": "past ", "2789": "creat", "2790": "had not ", "2791": "ute", "2792": "to me ", "2793": "ENC", "2794": "JULI", "2795": "JULIET:\n", "2796": "EONT", "2797": "EONTES:\n", "2798": "natural selection", "2799": ".  The ", "2800": "hun", "2801": "--\n", "2802": "I know", "2803": "s: ", "2804": "of it", "2805": "outh ", "2806": "viol", "2807": "accord", "2808": "in which ", "2809": " thus ", "2810": ", for ", "2811": "black", "2812": "ound, ", "2813": "intell", "2814": "of all ", "2815": "understand ", "2816": "tern", "2817": "ous, ", "2818": "exac", "2819": "ustr", "2820": "publ", "2821": "Marvel", "2822": ":\nS", "2823": "Well, ", "2824": "appe", "2825": "four ", "2826": "ele", "2827": "rather", "2828": "lady ", "2829": "dark", "2830": ". His ", "2831": "prec", "2832": "I am s", "2833": "occup", "2834": "given", "2835": "twenty ", "2836": "sing ", "2837": "by", "2838": "comfor", "2839": "idea ", "2840": "a b", "2841": "ary, ", "2842": "in the same ", "2843": "?' said ", "2844": "cus", "2845": "st\n", "2846": "VOL", "2847": "faith", "2848": ". P", "2849": "down the ", "2850": "glas", "2851": "joy", "2852": "was not ", "2853": "dut", "2854": "ADY ", "2855": "near ", "2856": "sett", "2857": "on't ", "2858": "number of ", "2859": "part of the ", "2860": "184", "2861": "——", "2862": "people", "2863": "vir", "2864": "have\n", "2865": "crown", "2866": ":\nThe ", "2867": "Which", "2868": "I'll", "2869": "half ", "2870": "\nM", "2871": "discover", "2872": "umm", "2873": "quick", "2874": "God", "2875": "him to ", "2876": "claim", "2877": "distinc", "2878": "e, but ", "2879": "instinc", "2880": "ENCE:\n", "2881": "Gr", "2882": "happen", "2883": "passed ", "2884": "arrang", "2885": "Mr. Collin", "2886": "geolog", "2887": "kne", "2888": "exam", "2889": "let me ", "2890": "antly ", "2891": "eds ", "2892": "low ", "2893": "sud", "2894": "to their ", "2895": " there", "2896": "means ", "2897": "Yes, ", "2898": "Man", "2899": "talk", "2900": "a-", "2901": "ean", "2902": "aun", "2903": "real", "2904": "interest", "2905": "through ", "2906": "ION", "2907": "I don't ", "2908": "Pock", "2909": "itizen", "2910": "help ", "2911": "for m", "2912": "comfort", "2913": "fine ", "2914": "hold", "2915": "Gre", "2916": "experi", "2917": "kill", "2918": "side", "2919": "black ", "2920": "duce ", "2921": "watch", "2922": "difference ", "2923": "—\n", "2924": "author", "2925": "breath", "2926": " think", "2927": ".\n\nT", "2928": ". If ", "2929": "hard ", "2930": "bring ", "2931": "; and, ", "2932": "late ", "2933": "e, the ", "2934": "ured ", "2935": "ELI", "2936": "resem", "2937": "ability ", "2938": "facts ", "2939": "represent", "2940": ", `", "2941": "What, ", "2942": "forth", "2943": "ICINIUS:\n", "2944": "belong", "2945": "determin", "2946": "judg", "2947": "fix", "2948": "er's ", "2949": "weak", "2950": "pursu", "2951": "kin", "2952": "ETH", "2953": "I went ", "2954": "fut", "2955": "slow", "2956": "production", "2957": "You are ", "2958": "enem", "2959": "way, ", "2960": "Or ", "2961": "else", "2962": "school", "2963": "father's ", "2964": "cam", "2965": "s as ", "2966": "itself", "2967": "of some ", "2968": "before the ", "2969": "an un", "2970": "or the ", "2971": "quaint", "2972": "dream", "2973": "or, ", "2974": "wee", "2975": "ELIZ", "2976": "ELIZAB", "2977": "ELIZABETH", "2978": "erly ", "2979": "feeling", "2980": "; `", "2981": "Estella", "2982": "stay ", "2983": "MAR", "2984": "\nThat ", "2985": "former ", "2986": "visit ", "2987": "th and ", "2988": "e, as ", "2989": "in a m", "2990": " shall ", "2991": "ush", "2992": "when I ", "2993": "temper", "2994": "whom", "2995": "said", "2996": "fail", "2997": "tten", "2998": "Ar", "2999": "ary", "3000": "gard", "3001": "ated", "3002": "Gard", "3003": "that she ", "3004": "period", "3005": "he's ", "3006": "s;\n", "3007": ",\nThe ", "3008": "bear ", "3009": "es to ", "3010": "?\n\nB", "3011": " thought ", "3012": "s' ", "3013": "ning ", "3014": "fill", "3015": "forc", "3016": " mor", "3017": "Be ", "3018": "honour ", "3019": "leep", "3020": "que ", "3021": "children", "3022": "ken", "3023": "house, ", "3024": "th of ", "3025": ", and I ", "3026": "happin", "3027": "gover", "3028": "living ", "3029": "from his ", "3030": "I sup", "3031": "AR ", "3032": "ggle ", "3033": "mention", "3034": "Cather", "3035": "\n \n", "3036": "that\n", "3037": ". You", "3038": "pray ", "3039": "ase", "3040": "depend", "3041": "lead", "3042": "childr", "3043": "ness of ", "3044": "appro", "3045": "kitch", "3046": "Her ", "3047": "quiet", "3048": "it of ", "3049": "sister ", "3050": "a great ", "3051": "fig", "3052": "quiet ", "3053": "small", "3054": "t of the ", "3055": "isi", "3056": "” said ", "3057": "Nay, ", "3058": ". If", "3059": "used ", "3060": "\nW", "3061": "wall", "3062": "here's ", "3063": "'Tis ", "3064": "return ", "3065": "open ", "3066": "prison", "3067": "if it ", "3068": "doth ", "3069": "angu", "3070": "saw ", "3071": "paper", "3072": "for her ", "3073": "AT", "3074": "ial ", "3075": ".\n\nPETRUCHIO:\n", "3076": "oblig", "3077": "various ", "3078": "atur", "3079": "Con", "3080": "to them", "3081": "s, but ", "3082": "best", "3083": "receiv", "3084": "hang", "3085": "you to ", "3086": "UT", "3087": "These ", "3088": "I saw ", "3089": "ty, ", "3090": ", in ", "3091": "prac", "3092": "laid ", "3093": "spe", "3094": "bott", "3095": "confid", "3096": "se of ", "3097": "ister ", "3098": "pap", "3099": "dy", "3100": "necessary ", "3101": "UCIO:\n", "3102": "IAN", "3103": "extreme", "3104": "Invisible ", "3105": "ans ", "3106": "sir, ", "3107": "Up", "3108": "I will", "3109": "Now ", "3110": "if the ", "3111": "pose", "3112": "death ", "3113": ",\nand ", "3114": "priv", "3115": "preh", "3116": "ing with ", "3117": "ed my ", "3118": "poll", "3119": "want ", "3120": "with her ", "3121": "man:\n", "3122": "form ", "3123": "EDWARD ", "3124": "EDWARD IV", "3125": "listen", "3126": "an ex", "3127": "rote ", "3128": "Mr. Darcy ", "3129": "Citizen", "3130": "ank", "3131": "sun", "3132": "thre", "3133": "beyond ", "3134": "neither ", "3135": "; he ", "3136": "as\n", "3137": "ke of ", "3138": "your m", "3139": "eag", "3140": "es; and ", "3141": "erable ", "3142": "which the ", "3143": "following ", "3144": "room, ", "3145": "pige", "3146": "rush", "3147": "trang", "3148": "stat", "3149": "rever", "3150": "cham", "3151": "state ", "3152": "od", "3153": "parti", "3154": "ston", "3155": "eek", "3156": "hand, ", "3157": "regi", "3158": "Clar", "3159": "term", "3160": "round", "3161": "feet ", "3162": "inten", "3163": "— and ", "3164": "Mr Wop", "3165": "especially ", "3166": " speak", "3167": "IR", "3168": "none ", "3169": "I see ", "3170": "streng", "3171": "agg", "3172": "wound", "3173": "percei", "3174": "lam", "3175": "udi", "3176": "Pe", "3177": "by a ", "3178": "dread", "3179": "pleasure", "3180": "half-", "3181": "ner, ", "3182": "queen", "3183": "night, ", "3184": "extremely ", "3185": "Pumblechook", "3186": "Bingley ", "3187": "pat", "3188": "first", "3189": "care ", "3190": "tin", "3191": "our s", "3192": "def", "3193": "along", "3194": "it's ", "3195": "doubt", "3196": "ons ", "3197": "position", "3198": "retch", "3199": "table ", "3200": "thir", "3201": "; that ", "3202": ", who ", "3203": "highly ", "3204": "morrow", "3205": "dead ", "3206": "In the ", "3207": ". O", "3208": "emplo", "3209": "\nof ", "3210": "cler", "3211": "stitu", "3212": ". A ", "3213": " she was ", "3214": "Bran", "3215": "variet", "3216": "him, and ", "3217": "such a ", "3218": "bid ", "3219": "fall ", "3220": "Thy ", "3221": "ry", "3222": "Long", "3223": "regard", "3224": "ed to the ", "3225": "QUEEN ELIZABETH", "3226": "Du", "3227": "Par", "3228": "ILL", "3229": "independ", "3230": "'re ", "3231": "small ", "3232": "earn", "3233": "pher", "3234": "?\n\nC", "3235": "jour", "3236": "kn", "3237": "ling ", "3238": "ask ", "3239": "conv", "3240": "therefore ", "3241": "incl", "3242": "ult ", "3243": "had a ", "3244": "s on the ", "3245": "quired ", "3246": "simp", "3247": "had\n", "3248": "appar", "3249": "subject ", "3250": "pleasant ", "3251": "in its ", "3252": "!' said ", "3253": "migr", "3254": " always ", "3255": ".\n\nMENENIUS:\n", "3256": "in your ", "3257": " this", "3258": "yourself", "3259": "fing", "3260": "ground", "3261": "stom", "3262": "tiv", "3263": "rock", "3264": "roy", "3265": "wo", "3266": "more than ", "3267": "render", "3268": "cheer", "3269": "reco", "3270": "play ", "3271": "ally, ", "3272": "fem", "3273": "agree", "3274": "her sister", "3275": "s—", "3276": "Mr Jagger", "3277": " thousand ", "3278": "you must ", "3279": "It was ", "3280": "ed it ", "3281": "sensi", "3282": "At ", "3283": " att", "3284": "one. ", "3285": "preserv", "3286": "ing them", "3287": "ted, ", "3288": "like the ", "3289": "moun", "3290": "ignor", "3291": "Ne", "3292": "write ", "3293": "convic", "3294": "ESS", "3295": "mone", "3296": "rac", "3297": "But, ", "3298": "answer ", "3299": "mov", "3300": " think ", "3301": "IA:\n", "3302": "s; but ", "3303": "fron", "3304": "tongu", "3305": "er of ", "3306": "worth", "3307": "sleep", "3308": "road", "3309": "desp", "3310": "kind of ", "3311": "rar", "3312": ".\n\nH", "3313": "olly ", "3314": "in any ", "3315": "quir", "3316": "of a s", "3317": "beauti", "3318": "influ", "3319": "fact ", "3320": "pecies ", "3321": "virtu", "3322": "vent", "3323": "bell", "3324": "mark", "3325": "bas", "3326": ": but ", "3327": "are the ", "3328": "no mor", "3329": "ell ", "3330": "sweet ", "3331": "ucces", "3332": "talk ", "3333": "erve ", "3334": "fast", "3335": "s, as ", "3336": "to do ", "3337": "thr", "3338": "that I ", "3339": "van", "3340": "eal", "3341": "peac", "3342": "with my ", "3343": "trust ", "3344": "heavy ", "3345": "AST", "3346": "Sir ", "3347": "in a s", "3348": "merely ", "3349": "RAN", "3350": " modi", "3351": "moment ", "3352": ",” said the ", "3353": "to give ", "3354": "need ", "3355": "business ", "3356": "s:", "3357": "ign ", "3358": " well", "3359": "company ", "3360": "'d, ", "3361": "say, ", "3362": "ead ", "3363": "tol", "3364": "well, ", "3365": "part of ", "3366": "chief", "3367": "err", "3368": "would not ", "3369": "tes", "3370": "a and ", "3371": "aid, ", "3372": "s at ", "3373": "cat", "3374": "cannot be ", "3375": "as it ", "3376": "offer", "3377": "HAM", "3378": "?\n\nP", "3379": ". I am ", "3380": "reach", "3381": "WAR", "3382": "WIC", "3383": "WICK:\n", "3384": "distant ", "3385": "disap", "3386": "New ", "3387": ".” ", "3388": "tte", "3389": "cumul", "3390": "to that ", "3391": " then", "3392": "RUT", "3393": "pray", "3394": "prove ", "3395": "in our ", "3396": "dare ", "3397": ". D", "3398": "try ", "3399": "al and ", "3400": "Serv", "3401": "until ", "3402": "feel ", "3403": "Ge", "3404": "Warwick", "3405": "ing of the ", "3406": "each other ", "3407": "Engl", "3408": "boo", "3409": "Elizabeth, ", "3410": "IST", "3411": "HENRY V", "3412": "sex", "3413": "it would be ", "3414": "scarcely ", "3415": "Charlotte", "3416": "descended ", "3417": "with s", "3418": "nerv", "3419": "when he ", "3420": "would", "3421": "gat", "3422": "'d\n", "3423": "e;\n", "3424": "bad ", "3425": "sper", "3426": " sup", "3427": "than the ", "3428": " min", "3429": "as, ", "3430": "educ", "3431": "Rich", "3432": "which was ", "3433": "reflec", "3434": ".\nC", "3435": "lived ", "3436": "greatly ", "3437": "surpris", "3438": "began to ", "3439": "All", "3440": "ger ", "3441": "well as ", "3442": "makes ", "3443": "ed on ", "3444": "revol", "3445": "woman", "3446": "ilt ", "3447": "firm", "3448": "lies ", "3449": "ing it ", "3450": "pardon", "3451": "fear ", "3452": "ts and ", "3453": "two", "3454": "second ", "3455": "ce, ", "3456": " almost ", "3457": "ump", "3458": " without ", "3459": "cut ", "3460": "separ", "3461": " asked ", "3462": "above ", "3463": "oulder", "3464": "stud", "3465": "WARWICK:\n", "3466": "anything ", "3467": "Sund", "3468": "Mr. Brontë", "3469": "ated, ", "3470": "Gardin", "3471": "embry", "3472": "not the ", "3473": "find", "3474": "Mad", "3475": ",\nAs ", "3476": "hundred ", "3477": "en and ", "3478": "valu", "3479": "ended ", "3480": "enough ", "3481": "er, and ", "3482": "I saw", "3483": " such a ", "3484": ". At ", "3485": "inherit", "3486": "either", "3487": "fain", "3488": "confin", "3489": "anch", "3490": "Ex", "3491": "APUL", "3492": "APULET:\n", "3493": "ing at the ", "3494": "—\n“", "3495": "immediately ", "3496": "men, ", "3497": "of your ", "3498": "Cor", "3499": "cen", "3500": "y; ", "3501": ",\nW", "3502": "oppos", "3503": "antage ", "3504": "inclin", "3505": "too, ", "3506": "ech", "3507": "ann", "3508": "lou", "3509": "wit", "3510": ":\nMy ", "3511": "of their", "3512": "walk", "3513": "propor", "3514": "visit", "3515": "itting ", "3516": "wards ", "3517": "we may ", "3518": "BRO", "3519": "l'", "3520": "furn", "3521": "enough to ", "3522": "soon as ", "3523": "wide", "3524": "concern", "3525": "corresp", "3526": "difficulty ", "3527": "alog", "3528": "e.  ", "3529": "ale ", "3530": "hate", "3531": "greatest ", "3532": "trem", "3533": "ages ", "3534": "eye ", "3535": "er-", "3536": "air ", "3537": "far as ", "3538": "Richar", "3539": "mall ", "3540": "Nurse", "3541": ".\n\nLEONTES:\n", "3542": "port ", "3543": "afe", "3544": " much", "3545": "Ay, ", "3546": "if we ", "3547": ".\n\nCORIOLANUS:\n", "3548": " again ", "3549": "as to ", "3550": "as he ", "3551": "wife", "3552": "post", "3553": "ation and ", "3554": "indeed ", "3555": "wild ", "3556": " after ", "3557": "contr", "3558": "ende", "3559": "endeav", "3560": "parl", "3561": ".\n\nKING RICHARD III:\n", "3562": "daughter ", "3563": "allied ", "3564": "differences ", "3565": "circumstanc", "3566": "tion to ", "3567": "returned ", "3568": "gradu", "3569": "slight ", "3570": "system", "3571": "believe that ", "3572": "theory ", "3573": "olog", "3574": "mother ", "3575": "up and ", "3576": "\nAs ", "3577": "sw", "3578": "home, ", "3579": "RUTUS:\n", "3580": "un ", "3581": "teach", "3582": ". You ", "3583": "health", "3584": "lock", "3585": "grati", "3586": "pupil", "3587": "hood ", "3588": "ester", "3589": "nur", "3590": "Lord", "3591": ", a ", "3592": "abb", "3593": "ford ", "3594": " they were ", "3595": "tec", "3596": "UCKING", "3597": "UCKINGHAM", "3598": ", and he ", "3599": ".\n\nAN", "3600": "latter ", "3601": "ERL", "3602": "person ", "3603": ".\n\nROMEO:\n", "3604": "LAU", "3605": "as she ", "3606": "amount of ", "3607": "Herbert ", "3608": "Is", "3609": " accoun", "3610": "labour", "3611": "will not ", "3612": "succes", "3613": "hether ", "3614": "chance ", "3615": "proved ", "3616": "fell ", "3617": "am, ", "3618": "gracious ", "3619": "white ", "3620": "accep", "3621": "colour", "3622": "Mer", "3623": "into a ", "3624": "ce of ", "3625": "fast ", "3626": "therefore, ", "3627": " while ", "3628": "ground ", "3629": "cross", "3630": "GLOUCESTER:\n", "3631": "story ", "3632": "England", "3633": "interest ", "3634": "notic", "3635": "HENRY B", "3636": "HENRY BOL", "3637": "HENRY BOLING", "3638": "HENRY BOLINGBRO", "3639": "HENRY BOLINGBROK", "3640": "HENRY BOLINGBROKE:\n", "3641": "RI", "3642": "offspr", "3643": "extra", "3644": "RANIO:\n", "3645": "believe, ", "3646": "feelings ", "3647": "discus", "3648": "interval", "3649": "which have ", "3650": "bourgeoisi", "3651": "done", "3652": " suff", "3653": ", sir, ", "3654": "ior ", "3655": "proceed", "3656": "words ", "3657": "friends ", "3658": "ough ", "3659": "husband", "3660": "free ", "3661": "end, ", "3662": ",\nBut ", "3663": "further ", "3664": " word", "3665": "comb", "3666": "able, ", "3667": "itten ", "3668": "Duke of ", "3669": "you would ", "3670": "well-", "3671": "EDWARD IV:\n", "3672": "illi", "3673": "for some ", "3674": "on\n", "3675": "It's ", "3676": "at, ", "3677": "PER", "3678": "delic", "3679": "to get ", "3680": "relation", "3681": "seemed ", "3682": "sion of ", "3683": ". Her ", "3684": "remarkable ", "3685": "expression", "3686": "la ", "3687": "-- the ", "3688": ".\n\nSecond ", "3689": "'s, ", "3690": "ling", "3691": "batt", "3692": "anted ", "3693": "inj", "3694": "une ", "3695": "e. The ", "3696": "arg", "3697": "wrong", "3698": ".\nBut ", "3699": "ug", "3700": "clock", "3701": "occasionally ", "3702": "two or", "3703": "tendenc", "3704": "during ", "3705": "s! ", "3706": "est, ", "3707": "ting", "3708": " mean", "3709": "general", "3710": "weet ", "3711": "ild", "3712": " sh", "3713": "elec", "3714": " say ", "3715": "loved ", "3716": "to him", "3717": "pass ", "3718": "meet ", "3719": "tice", "3720": "be, ", "3721": "used to ", "3722": "of them ", "3723": "extreme ", "3724": "taken", "3725": "fresh", "3726": "ley ", "3727": "shire", "3728": " several ", "3729": "t. ", "3730": "curious ", "3731": "at least ", "3732": "ATH", "3733": "correspond", "3734": "Col", "3735": "extinc", "3736": "Lady Cather", "3737": "species", "3738": "it be ", "3739": "to do", "3740": "s have ", "3741": "st the ", "3742": "must have ", "3743": "you were ", "3744": "wear", "3745": "full of ", "3746": "bring", "3747": "e; and ", "3748": "no one ", "3749": "fos", "3750": "ed in", "3751": "met ", "3752": "custom", "3753": "easily ", "3754": "a's ", "3755": "eless ", "3756": "for this ", "3757": "road ", "3758": "remember ", "3759": "attemp", "3760": "Fren", "3761": "QUEEN MAR", "3762": "QUEEN MARG", "3763": "QUEEN MARGAR", "3764": "QUEEN MARGARET:\n", "3765": "try", "3766": "thern ", "3767": "Cam", "3768": "future ", "3769": "asked ", "3770": "produce ", "3771": "Emi", "3772": "inhabitants ", "3773": "earli", "3774": "differ ", "3775": "o' the ", "3776": "establ", "3777": "deli", "3778": "deserv", "3779": "IT", "3780": "dow", "3781": "opinion ", "3782": "but\n", "3783": "from her ", "3784": "elo", "3785": "pra", "3786": "ix", "3787": "progen", "3788": "to take ", "3789": "soldi", "3790": "ution", "3791": "need", "3792": "when we ", "3793": "l ", "3794": "grap", "3795": "father, ", "3796": "her a", "3797": "uncle", "3798": "Lond", "3799": "there are ", "3800": "ORD", "3801": "ping ", "3802": "hatever ", "3803": "AMILL", "3804": ", and was ", "3805": "intro", "3806": "simil", "3807": "ffin", "3808": "itable ", "3809": "y the ", "3810": ". What ", "3811": "where", "3812": "lady", "3813": "counten", "3814": "blow", "3815": "bow", "3816": "truth", "3817": "gro", "3818": "possess", "3819": "weep", "3820": "whether", "3821": "point ", "3822": "cess", "3823": "found", "3824": "beginn", "3825": "banish", "3826": "Ang", "3827": "s. But ", "3828": "summ", "3829": "QUEEN ELIZABETH:\n", "3830": "usion", "3831": "in one ", "3832": "civil", "3833": "gentleman ", "3834": "light, ", "3835": "opport", "3836": "Drumm", "3837": "tional ", "3838": ". In the ", "3839": "having been ", "3840": "anxi", "3841": "produced ", "3842": "letari", "3843": "Our ", "3844": "le and ", "3845": "such as ", "3846": "shop", "3847": "The", "3848": " that, ", "3849": "persu", "3850": "give me ", "3851": "to you", "3852": "e the ", "3853": "boy ", "3854": "horse", "3855": "kis", "3856": "terr", "3857": "intend", "3858": "to speak", "3859": "avo", "3860": "elf", "3861": "out the ", "3862": "instead ", "3863": "jest", "3864": "Po", "3865": "fraid ", "3866": "ARD:\n", "3867": "eigh", "3868": "societ", "3869": "cop", "3870": "ago", "3871": "s, and the ", "3872": "GEL", "3873": "GELO:\n", "3874": "expected ", "3875": ". No ", "3876": "during", "3877": "selec", "3878": "'\n`", "3879": ".----The ", "3880": "Marc", "3881": "with\n", "3882": "country", "3883": "poor", "3884": "up, ", "3885": "tell you", "3886": "by\n", "3887": "hither", "3888": "Give ", "3889": "Look", "3890": "and his ", "3891": "conce", "3892": "harm", "3893": "roo", "3894": "a good ", "3895": "ital", "3896": "scen", "3897": "n, ", "3898": "desir", "3899": "crow", "3900": " that he ", "3901": "husband ", "3902": "fru", "3903": "aster", "3904": "includ", "3905": "London ", "3906": "about the ", "3907": "KING RICHARD II", "3908": "flower", "3909": "ARINA:\n", "3910": "namely, ", "3911": "arily ", "3912": "s of the same ", "3913": "Joe", "3914": "proletari", "3915": "we are ", "3916": "tually ", "3917": "content", "3918": "al of ", "3919": "Cl", "3920": "for s", "3921": "conduc", "3922": "hort ", "3923": "eu", "3924": "if I ", "3925": "strange ", "3926": "drink", "3927": "e:\n", "3928": "to go ", "3929": ", with ", "3930": "which is ", "3931": " thing", "3932": "langu", "3933": "course", "3934": "rip", "3935": " myself", "3936": "egg", "3937": "edd", "3938": "kno", "3939": "up to ", "3940": "shoulder", "3941": "LE", "3942": "employ", "3943": "ax", "3944": "extinct ", "3945": "trav", "3946": "on her ", "3947": ", and then ", "3948": "struggle ", "3949": "tical ", "3950": "KATH", "3951": "KATHARINA:\n", "3952": "class", "3953": "excit", "3954": " species, ", "3955": "Citizen:\n", "3956": "Marci", "3957": ": the ", "3958": "infer", "3959": "out\n", "3960": "hour ", "3961": "a man", "3962": "hair", "3963": "mir", "3964": "Then", "3965": "Are ", "3966": "agu", "3967": "upon my ", "3968": "mem", "3969": "Go ", "3970": "journe", "3971": "; it ", "3972": "tion and ", "3973": "with a s", "3974": "advantag", "3975": "tast", "3976": "isted ", "3977": "which, ", "3978": " acc", "3979": "sent", "3980": "month", "3981": "or two ", "3982": "competi", "3983": "exactly ", "3984": "glo", "3985": "opportun", "3986": "climat", "3987": "CAL", "3988": "Haworth", "3989": "improv", "3990": "                ", "3991": "nature, ", "3992": "s? ", "3993": "have a ", "3994": "eyes", "3995": "world, ", "3996": "not a ", "3997": "human ", "3998": "that they ", "3999": "ident", "4000": "the most ", "4001": "fish", "4002": "ter, ", "4003": ";\nFor ", "4004": "poli", "4005": "ait ", "4006": "forward ", "4007": "favourable ", "4008": "least", "4009": "dep", "4010": "constitu", "4011": ",” he ", "4012": "Pocket ", "4013": " \n \n", "4014": "?\n\nS", "4015": "'em", "4016": "ed for ", "4017": "little", "4018": "Than ", "4019": "swor", "4020": "gon", "4021": "to re", "4022": "children ", "4023": "afterno", "4024": "LAR", "4025": "Now", "4026": "equal ", "4027": "morning", "4028": "uff", "4029": ".\n\nF", "4030": "anti", "4031": "cand", "4032": "mouth", "4033": "I said ", "4034": "assu", "4035": "lod", "4036": "fif", "4037": "vious ", "4038": "King ", "4039": "I might ", "4040": "; she ", "4041": "to her", "4042": "dark ", "4043": "when she ", "4044": "ESCAL", "4045": "ESCALUS:\n", "4046": "vost", "4047": "rudi", "4048": ",' he ", "4049": "Longbour", "4050": " \"", "4051": "genera ", "4052": "but the ", "4053": "Cap", "4054": " in ", "4055": "strong ", "4056": ". For", "4057": "?\n\nM", "4058": "promis", "4059": ".\n\nSICINIUS:\n", "4060": "he would ", "4061": "terri", "4062": "ation, and ", "4063": "conver", "4064": "in all ", "4065": "force ", "4066": "strai", "4067": "come", "4068": "al\n", "4069": "a, and ", "4070": "from my ", "4071": "particular ", "4072": "s, or ", "4073": "written ", "4074": "Edward ", "4075": "for me ", "4076": "pit", "4077": "UCKINGHAM:\n", "4078": "if she ", "4079": "cousin", "4080": "I am not ", "4081": "brid", "4082": "stric", "4083": "others ", "4084": "understand", "4085": "except ", "4086": "in the\n", "4087": "consequently ", "4088": "inhabitant", "4089": "at a ", "4090": ": and ", "4091": "bility ", "4092": "proud ", "4093": "fas", "4094": "act ", "4095": "field"}, "merges": [["e", " ", "e "], ["t", "h", "th"], ["d", " ", "d "], ["s", " ", "s "], ["t", " ", "t "], ["e", "r", "er"], [",", " ", ", "], ["i", "n", "in"], ["a", "n", "an"], ["y", " ", "y "], ["o", "u", "ou"], ["o", "n", "on"], ["e", "n", "en"], [" ", "th", " th"], ["o", "r", "or"], ["o", " ", "o "], ["a", "r", "ar"], ["o", "f", "of"], ["an", "d ", "and "], ["r", "e", "re"], ["h", "a", "ha"], ["in", "g", "ing"], [" th", "e ", " the "], ["l", "l", "ll"], ["e", "d ", "ed "], [".", " ", ". "], [" ", "s", " s"], ["t", "i", "ti"], ["t", "o ", "to "], [" ", "a", " a"], ["h", "i", "hi"], ["e", "s", "es"], ["o", "m", "om"], ["er", " ", "er "], ["of", " ", "of "], ["th", "e ", "the "], ["c", "h", "ch"], ["i", "s", "is"], ["o", "w", "ow"], ["a", "t ", "at "], [" ", "w", " w"], ["i", "t", "it"], ["h", "e ", "he "], ["a", "s ", "as "], ["a", "l", "al"], ["ing", " ", "ing "], ["b", "e", "be"], [".", "\n", ".\n"], ["f", "or", "for"], ["a", "t", "at"], ["s", "e", "se"], ["s", "t", "st"], ["l", "e", "le"], [" ", "m", " m"], ["v", "e ", "ve "], ["y", "ou", "you"], [", ", "and ", ", and "], ["i", "s ", "is "], ["l", "y ", "ly "], ["l", "i", "li"], ["I", " ", "I "], ["g", "h", "gh"], ["i", "th", "ith"], ["n", "o", "no"], ["ti", "on", "tion"], ["i", "r", "ir"], [":", "\n", ":\n"], ["u", "r", "ur"], ["ll", " ", "ll "], ["a", "s", "as"], ["a", "c", "ac"], ["e", "s ", "es "], ["e", ", ", "e, "], ["l", "d ", "ld "], ["in", " ", "in "], ["en", " ", "en "], ["e", "d", "ed"], ["t", "o", "to"], ["r", "o", "ro"], ["a", " ", "a "], ["i", "t ", "it "], ["e", "c", "ec"], ["e", "m", "em"], ["v", "er", "ver"], ["l", "e ", "le "], ["r", "i", "ri"], [";", " ", "; "], [",", "\n", ",\n"], ["th", "at ", "that "], ["u", "n", "un"], ["d", "i", "di"], ["er", "e ", "ere "], ["no", "t ", "not "], ["s", "t ", "st "], ["hi", "s ", "his "], ["b", "e ", "be "], ["t", "er", "ter"], ["a", "m", "am"], ["w", "ith", "with"], ["o", "o", "oo"], ["u", "t ", "ut "], ["h", "e", "he"], ["ha", "ve ", "have "], ["d", "e", "de"], ["s", ", ", "s, "], ["en", "t", "ent"], ["of", " the ", "of the "], ["ou", "ld ", "ould "], ["an", " ", "an "], ["a", "d", "ad"], ["ou", "r", "our"], ["c", "on", "con"], ["ch", " ", "ch "], ["w", "as ", "was "], [".\n", "\n", ".\n\n"], ["s", "i", "si"], ["c", "om", "com"], ["i", "c", "ic"], [" a", " ", " a "], ["ha", "d ", "had "], ["a", "b", "ab"], ["a", "ll", "all"], ["w", "h", "wh"], ["a", "g", "ag"], ["e", "x", "ex"], ["y", ", ", "y, "], ["a", "y ", "ay "], ["p", "o", "po"], ["en", "t ", "ent "], ["'", "s ", "'s "], ["u", "p", "up"], ["on", " ", "on "], ["b", "y ", "by "], ["f", "r", "fr"], ["e", "l", "el"], ["s", "e ", "se "], ["a", "tion", "ation"], ["a", "k", "ak"], ["n", "e", "ne"], ["hi", "m", "him"], ["h", "er ", "her "], ["o", "th", "oth"], ["c", "e ", "ce "], ["a", "in", "ain"], ["m", "y ", "my "], ["a", "i", "ai"], ["t", "r", "tr"], ["q", "u", "qu"], ["or", " ", "or "], ["b", "ut ", "but "], ["h", "er", "her"], ["m", "e ", "me "], ["re", "s", "res"], ["an", "d", "and"], ["n", "d ", "nd "], ["l", "o", "lo"], ["fr", "om", "from"], ["n", "ow", "now"], ["ar", "e ", "are "], ["u", "l", "ul"], ["ou", "gh", "ough"], ["th", "e", "the"], ["in", " the ", "in the "], ["w", "hi", "whi"], ["al", " ", "al "], ["k", " ", "k "], ["c", "e", "ce"], ["ha", "t ", "hat "], ["a", "y", "ay"], ["p", "er", "per"], ["s", "u", "su"], ["t", ", ", "t, "], ["f", " ", "f "], [" th", "e", " the"], ["n", " ", "n "], ["w", "e", "we"], ["p", "ro", "pro"], ["p", "ar", "par"], ["on", "e ", "one "], ["p", "e", "pe"], [" th", "at ", " that "], ["f", "e", "fe"], ["you", " ", "you "], ["for", " ", "for "], ["T", "he ", "The "], ["p", "ec", "pec"], ["p", "l", "pl"], ["o", "p", "op"], ["a", "p", "ap"], ["ou", "t ", "out "], ["you", "r", "your"], ["f", "f", "ff"], ["'", "\n", "'\n"], ["i", "m", "im"], ["e", "t ", "et "], ["d", "is", "dis"], ["o", "l", "ol"], ["d", ", ", "d, "], ["on", "g", "ong"], ["u", "m", "um"], ["ver", "y ", "very "], ["an", "y ", "any "], ["w", "i", "wi"], ["se", "l", "sel"], ["d", "er", "der"], ["M", "r", "Mr"], ["s", ". ", "s. "], ["to", " the ", "to the "], ["s", "h", "sh"], ["s ", "of ", "s of "], ["th", "er", "ther"], ["g", "r", "gr"], ["e", "v", "ev"], ["m", "o", "mo"], ["A", "nd ", "And "], ["ir", " ", "ir "], ["om", "e ", "ome "], ["m", "e", "me"], ["-", "-", "--"], ["s", "he ", "she "], ["with", " ", "with "], ["t", "ed ", "ted "], ["i", "gh", "igh"], ["ou", "n", "oun"], ["a", "v", "av"], ["m", "or", "mor"], ["i", "l", "il"], ["m", "u", "mu"], ["i", "d", "id"], ["am", "e ", "ame "], ["t", "er ", "ter "], ["ai", "d ", "aid "], ["w", "or", "wor"], ["a", "u", "au"], ["p", "r", "pr"], ["en", "d", "end"], ["t", "e", "te"], ["I", " w", "I w"], ["es", ", ", "es, "], ["n", "o ", "no "], ["\n", "\n", "\n\n"], ["t", "s ", "ts "], ["g", "re", "gre"], ["u", "c", "uc"], ["; ", "and ", "; and "], ["w", "ere ", "were "], ["I", " s", "I s"], ["k", "now", "know"], ["T", "h", "Th"], ["ou", "s ", "ous "], ["our", " ", "our "], [" th", "is ", " this "], ["ar", " ", "ar "], ["a", "w", "aw"], ["ed", ", ", "ed, "], ["s", "o ", "so "], ["is", "h", "ish"], ["ow", " ", "ow "], ["u", "s", "us"], ["es", "s ", "ess "], ["d", "o", "do"], [" m", "y ", " my "], ["b", "l", "bl"], ["your", " ", "your "], ["an", "g", "ang"], ["in", "c", "inc"], ["ed ", "to ", "ed to "], ["th", " ", "th "], ["es", "t ", "est "], [" w", "ith", " with"], [";", "\n", ";\n"], [" a", "s ", " as "], ["e", "t", "et"], ["on", " the ", "on the "], ["ar", "d", "ard"], ["p", "res", "pres"], ["pec", "i", "peci"], ["whi", "ch ", "which "], ["oo", "d ", "ood "], ["m", "an", "man"], ["from", " ", "from "], ["oo", "k", "ook"], ["g", "i", "gi"], ["w", "e ", "we "], ["k", "e ", "ke "], [".", "'\n", ".'\n"], [". ", "I", ". I"], ["t", "en", "ten"], ["w", "ould ", "would "], ["at", "e ", "ate "], ["ak", "e ", "ake "], ["tion", " ", "tion "], ["f", "i", "fi"], ["st", "r", "str"], ["'", " ", "' "], ["be", "en ", "been "], ["for", "m", "form"], ["it", "t", "itt"], ["f", "a", "fa"], ["th", "is ", "this "], ["u", "t", "ut"], ["the", "y ", "they "], ["c", "ould ", "could "], ["ti", "c", "tic"], ["a", "d ", "ad "], [" a", "t ", " at "], ["ab", "le ", "able "], ["B", "ut ", "But "], ["g", "o", "go"], ["ow", "n", "own"], ["g", "e", "ge"], ["t", "w", "tw"], ["e", "p", "ep"], ["oth", "er ", "other "], ["ur", "e ", "ure "], ["o", "c", "oc"], ["d", "o ", "do "], ["an", "c", "anc"], [" a", "m", " am"], ["W", "h", "Wh"], ["O", ":\n", "O:\n"], ["of", " s", "of s"], ["g", "en", "gen"], ["ation", " ", "ation "], ["b", "r", "br"], ["v", "i", "vi"], ["es", "s", "ess"], ["e", ". ", "e. "], ["E", "N", "EN"], [" ", " ", "  "], ["a", "ll ", "all "], ["all", "y ", "ally "], ["b", "o", "bo"], ["to ", "be ", "to be "], ["e", "ar", "ear"], ["d", "es", "des"], [" s", "aid ", " said "], ["he", "ar", "hear"], ["ou", " ", "ou "], ["mor", "e ", "more "], ["e", "\n", "e\n"], ["!", " ", "! "], ["p", "re", "pre"], [":", " ", ": "], ["oth", "er", "other"], ["u", "s ", "us "], ["I", "N", "IN"], ["ha", "s ", "has "], ["an", "t", "ant"], ["'", "d ", "'d "], ["an", "t ", "ant "], ["sel", "f", "self"], ["c", "l", "cl"], ["ar", "i", "ari"], ["him", " ", "him "], ["c", "o", "co"], ["H", "e ", "He "], ["a", "st", "ast"], ["l", "ong", "long"], ["en", "ce ", "ence "], ["in", "d", "ind"], ["I ", "have ", "I have "], ["it", "s ", "its "], ["f", "ul", "ful"], ["s", "o", "so"], ["om", "e", "ome"], [" s", "e", " se"], ["i", "f ", "if "], ["th", "er ", "ther "], ["u", "re", "ure"], ["it", "y ", "ity "], ["?", "\n\n", "?\n\n"], ["ow", "n ", "own "], ["v", "er ", "ver "], ["wi", "ll ", "will "], ["mo", "st ", "most "], ["re", "m", "rem"], ["w", "hat ", "what "], ["or", "d", "ord"], ["Mr", ". ", "Mr. "], ["f", "ac", "fac"], ["in", "d ", "ind "], ["es", "e ", "ese "], ["po", "s", "pos"], ["igh", "t ", "ight "], ["A", "R", "AR"], ["S", ":\n", "S:\n"], ["th", "ough", "though"], ["a", " s", "a s"], ["di", "ff", "diff"], [" w", "hi", " whi"], ["?", " ", "? "], ["ing", ", ", "ing, "], ["b", "er", "ber"], ["o", "se ", "ose "], ["as", "t ", "ast "], ["n", "at", "nat"], ["p", "le", "ple"], ["u", "st ", "ust "], ["w", " ", "w "], ["e", "a", "ea"], ["i", "ll", "ill"], ["c", "an", "can"], ["s", "\n", "s\n"], ["ti", "m", "tim"], ["y", "\n", "y\n"], ["be", "t", "bet"], ["an", "ce ", "ance "], [" s", "he ", " she "], ["l", "itt", "litt"], ["ha", "p", "hap"], ["b", "le ", "ble "], ["t", "ur", "tur"], ["li", "ke ", "like "], ["com", "e ", "come "], ["l", "ook", "look"], ["u", "d", "ud"], [" w", "h", " wh"], [" w", "as ", " was "], [" th", "em", " them"], ["f", "l", "fl"], ["ou", "nd ", "ound "], ["f", "ir", "fir"], [" the", "ir ", " their "], ["th", "em", "them"], ["be", "en", "been"], ["l", "d", "ld"], ["e ", "of ", "e of "], ["I", " am", "I am"], ["whi", "ch", "which"], ["th", "ere ", "there "], ["ch", "ar", "char"], ["s", ", and ", "s, and "], [" ", "and ", " and "], ["s", "ome ", "some "], ["er", "v", "erv"], ["s ", "and ", "s and "], ["s", "ame ", "same "], ["p", "or", "por"], ["for", "e ", "fore "], ["ing", " the ", "ing the "], ["e", "ll", "ell"], ["ed ", "by ", "ed by "], ["g", "ood ", "good "], ["litt", "le ", "little "], ["gh", "t ", "ght "], ["k", "e", "ke"], ["en", "c", "enc"], ["i", "f", "if"], ["i", "ll ", "ill "], ["a", "in ", "ain "], ["s", "ha", "sha"], ["s", "peci", "speci"], ["a", "f", "af"], ["I", "O:\n", "IO:\n"], ["; ", "but ", "; but "], ["a", "ve ", "ave "], ["v", "ari", "vari"], ["tw", "o ", "two "], ["it", "e ", "ite "], ["gen", "er", "gener"], ["t", "t", "tt"], ["ad", "e ", "ade "], [". ", "S", ". S"], ["ou", "s", "ous"], ["in", "ter", "inter"], ["es", "t", "est"], ["in", "e ", "ine "], ["on", "ly ", "only "], ["M", "is", "Mis"], ["n", "g", "ng"], ["a", "y, ", "ay, "], ["'", " said ", "' said "], ["v", "e", "ve"], ["c", "oun", "coun"], ["e", "ver", "ever"], [". ", "The ", ". The "], ["of", " a", "of a"], ["th", "ing ", "thing "], ["c", "an ", "can "], ["t", "ri", "tri"], ["ed ", "the ", "ed the "], ["h", "and", "hand"], ["ti", "me ", "time "], ["of", "f", "off"], ["o", "ll", "oll"], ["f", "ri", "fri"], [" ", "to ", " to "], ["b", "re", "bre"], ["in", "k", "ink"], ["we", "ll", "well"], ["o", "b", "ob"], ["di", "d ", "did "], ["com", "m", "comm"], ["T", "o ", "To "], ["wh", "en ", "when "], [". ", " ", ".  "], ["s", "c", "sc"], ["'", "t ", "'t "], ["h", "ou", "hou"], ["gre", "at ", "great "], ["Mis", "s ", "Miss "], ["m", "ay ", "may "], ["t", "ain", "tain"], ["ar", "y ", "ary "], ["a", "ti", "ati"], ["e", "y", "ey"], ["h", "ow", "how"], ["for", " the ", "for the "], ["ay", "s ", "ays "], ["c", "er", "cer"], ["d", "on", "don"], ["U", "S:\n", "US:\n"], [", ", "as ", ", as "], ["o", "ld ", "old "], ["c", "k", "ck"], ["wh", "o ", "who "], [" s", "u", " su"], ["v", "is", "vis"], ["to", "o", "too"], ["from", " the ", "from the "], ["m", "ar", "mar"], ["”", "\n", "”\n"], ["i", "g", "ig"], ["pl", "ac", "plac"], [". ", "A", ". A"], ["tr", "u", "tru"], ["ha", "v", "hav"], ["c", "ame ", "came "], ["g", "e ", "ge "], ["re", "d ", "red "], [" s", "t", " st"], ["-", "\n", "-\n"], ["E", "R", "ER"], [" w", "e ", " we "], ["as", "s", "ass"], ["s", "p", "sp"], ["f", "u", "fu"], ["c", "r", "cr"], ["en", ", ", "en, "], ["ac", "k", "ack"], ["at", "ed ", "ated "], ["ic", "k", "ick"], ["diff", "er", "differ"], ["ing ", "to ", "ing to "], [" the", "y ", " they "], ["c", "as", "cas"], ["j", "ec", "jec"], ["en", "d ", "end "], ["c", "au", "cau"], ["em", "p", "emp"], ["t ", "of ", "t of "], ["un", "der", "under"], [", ", "the ", ", the "], ["ar", "d ", "ard "], ["s", "ti", "sti"], ["T", "hat ", "That "], ["t", "y ", "ty "], ["l", "ar", "lar"], ["a", "th", "ath"], [" s", "ome ", " some "], [". ", "I ", ". I "], ["of", " a ", "of a "], ["l", "y", "ly"], ["in", "to ", "into "], ["li", "f", "lif"], [".\n", "“", ".\n“"], ["A", "N", "AN"], ["mu", "st ", "must "], ["t", "\n", "t\n"], ["tur", "n", "turn"], ["e", ", and ", "e, and "], [" with", " ", " with "], ["s ", "to ", "s to "], ["it ", "is ", "it is "], [",\n", "And ", ",\nAnd "], ["be", "fore ", "before "], ["in", " a ", "in a "], ["oo", "d", "ood"], ["d", "uc", "duc"], ["o", "ver", "over"], ["con", "t", "cont"], ["or", "e ", "ore "], [" a", "ll", " all"], ["b", "ro", "bro"], ["le", "t", "let"], ["M", "y ", "My "], ["fir", "st ", "first "], ["c", "ar", "car"], ["se", "e ", "see "], ["v", "ed ", "ved "], ["r", "ough", "rough"], [".\n", "`", ".\n`"], ["c", "hi", "chi"], ["oun", "d", "ound"], [", ", "that ", ", that "], ["i", "on", "ion"], ["ev", "er ", "ever "], ["ha", "m", "ham"], ["I", " m", "I m"], ["m", "ent", "ment"], ["wh", "en", "when"], [" s", "o ", " so "], ["dis", "t", "dist"], ["re", "c", "rec"], ["J", "o", "Jo"], ["b", "le", "ble"], ["O", "R", "OR"], ["!", "\n", "!\n"], ["ough", "t ", "ought "], ["e", "ly ", "ely "], ["ne", "ver ", "never "], ["I w", "as ", "I was "], ["IN", "G", "ING"], ["U", "C", "UC"], [" ", "of ", " of "], [",", "' said ", ",' said "], ["the", "ir ", "their "], ["sel", "f ", "self "], ["with", " the ", "with the "], ["I ", "had ", "I had "], ["d", "r", "dr"], ["ag", "e ", "age "], ["y", "et ", "yet "], ["be", "li", "beli"], ["er", "s ", "ers "], ["a", " m", "a m"], ["char", "ac", "charac"], ["m", "any ", "many "], [". ", "T", ". T"], ["re", "l", "rel"], ["h", "ould ", "hould "], ["re", "ad", "read"], ["I", "n", "In"], ["sh", "ould ", "should "], ["th", "ing", "thing"], ["er", ", ", "er, "], ["s", "on", "son"], ["e", "very ", "every "], ["c", "ur", "cur"], ["l", "ess ", "less "], ["un", "d", "und"], ["W", "e ", "We "], [" w", "hat ", " what "], ["B", "r", "Br"], ["d", "e ", "de "], ["w", "r", "wr"], ["by ", "the ", "by the "], ["h", "ow ", "how "], [" a", " s", " a s"], ["t", "re", "tre"], ["is", "t", "ist"], [", ", "but ", ", but "], [", ", "s", ", s"], ["k", "ed ", "ked "], ["ag", "ain", "again"], ["ar", "m", "arm"], ["I", "t ", "It "], [" th", "ese ", " these "], ["be", "g", "beg"], ["se", "em", "seem"], ["c", "lo", "clo"], ["ro", "om", "room"], ["le", "c", "lec"], ["at ", "the ", "at the "], ["g", "l", "gl"], [" m", "e ", " me "], ["W", "hat ", "What "], ["m", "ade ", "made "], ["I", "'", "I'"], ["nat", "ur", "natur"], ["you", "ng", "young"], ["s ", "of the ", "s of the "], ["E", "T", "ET"], ["i", "ous ", "ious "], ["now", " ", "now "], ["a", "ch", "ach"], ["mu", "ch ", "much "], ["t", "ly ", "tly "], ["m", "ake ", "make "], ["ent", "ly ", "ently "], [". ", "H", ". H"], ["an", "s", "ans"], ["ab", "le", "able"], ["Mr", " ", "Mr "], ["m", "in", "min"], ["t", "u", "tu"], ["i", "p", "ip"], ["?", "\n", "?\n"], ["h", "or", "hor"], ["a", "be", "abe"], ["pe", "ak", "peak"], ["gi", "ve ", "give "], ["g", "o ", "go "], ["l", "and", "land"], ["ai", "l", "ail"], ["es ", "of ", "es of "], ["o", ", ", "o, "], ["si", "on", "sion"], ["ple", "as", "pleas"], ["li", "z", "liz"], ["it ", "was ", "it was "], [" a", "c", " ac"], ["d", "u", "du"], ["en", "g", "eng"], ["I", " th", "I th"], ["pe", "ar", "pear"], ["to ", "s", "to s"], ["t", "ake ", "take "], ["th", "an ", "than "], ["d", "ay", "day"], ["se", ", ", "se, "], ["ea", "ch ", "each "], ["E", "liz", "Eliz"], ["fe", "el", "feel"], ["in", "st", "inst"], ["bet", "we", "betwe"], [". ", "He ", ". He "], ["I am", " ", "I am "], ["b", "it", "bit"], ["g", "ent", "gent"], ["b", "u", "bu"], ["gi", "v", "giv"], ["b", "oth", "both"], ["r", "a", "ra"], ["c", "our", "cour"], ["se", "s ", "ses "], ["—", " ", "— "], ["be", "ing ", "being "], ["th", "y ", "thy "], ["ff", "ec", "ffec"], ["re", "as", "reas"], ["th", "an", "than"], ["!", "\n\n", "!\n\n"], [". I", "t ", ". It "], ["ful", " ", "ful "], [". ", "But ", ". But "], ["b", "ri", "bri"], ["is", "ter", "ister"], ["?", "'\n", "?'\n"], ["to", "o ", "too "], ["ro", "s", "ros"], ["h", "ere ", "here "], [".", "”\n", ".”\n"], ["au", "gh", "augh"], ["d", "ay ", "day "], ["t", "al", "tal"], ["that ", "the ", "that the "], ["h", "o", "ho"], ["g", "u", "gu"], ["t", "e ", "te "], ["h", "ar", "har"], ["su", "b", "sub"], ["li", "c", "lic"], ["com", "p", "comp"], ["m", "ight ", "might "], ["  ", "  ", "    "], ["A", "s ", "As "], ["ing", " s", "ing s"], ["he ", "was ", "he was "], ["A", ":\n", "A:\n"], ["w", "ay ", "way "], ["he ", "had ", "he had "], ["d", "own", "down"], ["ne", "w", "new"], ["Eliz", "abe", "Elizabe"], ["in", "k ", "ink "], ["e", ",\n", "e,\n"], ["c", "ri", "cri"], ["f", "am", "fam"], ["m", "er", "mer"], ["i", "o", "io"], ["s", "ome", "some"], ["e", ".\n\n", "e.\n\n"], ["r", "u", "ru"], ["en", "ce", "ence"], ["O", "n", "On"], ["K", "ING", "KING"], ["E", "L", "EL"], [", ", "I ", ", I "], ["ch", "ang", "chang"], ["I", "C", "IC"], ["re", "e ", "ree "], ["is", "e ", "ise "], ["fri", "end", "friend"], ["Y", "ou ", "You "], ["up", " ", "up "], ["p", "i", "pi"], [" whi", "ch ", " which "], ["ev", "en", "even"], ["le", "t ", "let "], ["wi", "ll", "will"], ["O", "L", "OL"], ["g", "ain", "gain"], ["can", "not ", "cannot "], ["ing", "s ", "ings "], ["y", "ear", "year"], ["have ", "been ", "have been "], ["W", "hi", "Whi"], ["po", "in", "poin"], ["ing", " a", "ing a"], ["qu", "i", "qui"], ["v", "el", "vel"], [". ", "“", ". “"], ["c", "or", "cor"], ["mu", "ch", "much"], ["pro", "duc", "produc"], ["hi", "gh", "high"], ["O", "N", "ON"], ["m", "ent ", "ment "], ["ed", "\n", "ed\n"], [",", "' ", ",' "], ["w", "ays ", "ways "], ["s", "ed ", "sed "], ["c", "re", "cre"], ["of ", "his ", "of his "], ["v", "o", "vo"], ["ha", "ll ", "hall "], ["qu", "ite ", "quite "], [",", "”", ",”"], ["d", "ou", "dou"], ["wh", "ere ", "where "], ["t", "ing ", "ting "], ["speci", "es ", "species "], ["s", "up", "sup"], ["n", "ess ", "ness "], ["e", "f", "ef"], ["m", "y", "my"], [".'\n", "\"", ".'\n\""], ["ar", "c", "arc"], ["E", "S", "ES"], ["oo", "l", "ool"], ["s", ",\n", "s,\n"], ["t", "ak", "tak"], ["f", "er", "fer"], ["n", "ec", "nec"], ["por", "t", "port"], ["h", "op", "hop"], ["-", " ", "- "], [", and ", "the ", ", and the "], ["n", "um", "num"], ["l", "y, ", "ly, "], ["it", ", ", "it, "], ["m", "i", "mi"], ["ol", "d", "old"], ["or", "g", "org"], ["you", " w", "you w"], [" th", "ose ", " those "], ["li", "gh", "ligh"], ["p", "ri", "pri"], ["in", "de", "inde"], ["f", "oll", "foll"], ["ce", "i", "cei"], ["j", "o", "jo"], ["c", "all", "call"], ["f", "in", "fin"], [". ", "Th", ". Th"], ["on", "t", "ont"], ["ha", "l", "hal"], ["m", "on", "mon"], ["con", "si", "consi"], ["th", "en ", "then "], ["charac", "ter", "character"], ["k", "ing", "king"], ["hap", "p", "happ"], ["F", "or", "For"], ["s", "hi", "shi"], ["f", "ic", "fic"], ["th", "ou ", "thou "], ["ou", "t", "out"], ["gre", "at", "great"], ["ab", "out ", "about "], ["her", "e", "here"], [" the", "\n", " the\n"], [" a", " m", " a m"], ["he", "y ", "hey "], ["ar", "k", "ark"], ["a", "ir", "air"], ["e ", "and ", "e and "], ["Y", "ou", "You"], ["sha", "ll ", "shall "], ["ou", "l", "oul"], [".'\n", "`", ".'\n`"], ["m", "e, ", "me, "], ["n", "igh", "nigh"], ["ha", "t", "hat"], ["h", "on", "hon"], ["m", "at", "mat"], ["e", "w", "ew"], ["th", ", ", "th, "], ["th", "en", "then"], ["p", "u", "pu"], ["an", "ts ", "ants "], ["f", "ec", "fec"], ["ce", "p", "cep"], ["an", "ce", "ance"], ["it", "y", "ity"], ["ac", "k ", "ack "], ["in ", "his ", "in his "], ["l", "ast ", "last "], ["of", "\n", "of\n"], [" th", "y ", " thy "], ["m", "en", "men"], ["Mr", "s. ", "Mrs. "], ["AR", "D", "ARD"], ["A", " ", "A "], ["s", ".\n", "s.\n"], ["om", " ", "om "], ["p", " ", "p "], ["I", "US:\n", "IUS:\n"], ["KING", " ", "KING "], ["l", "ow", "low"], ["ti", "es ", "ties "], ["d", "\n", "d\n"], ["and", "\n", "and\n"], ["to", "ge", "toge"], ["an", "im", "anim"], ["p", "ur", "pur"], ["a", " w", "a w"], ["f", "ound ", "found "], ["long", " ", "long "], ["for", "t", "fort"], [" m", "ore ", " more "], ["d", "ec", "dec"], ["fu", "ll", "full"], ["li", "v", "liv"], [" m", "e", " me"], ["ne", "w ", "new "], ["E", " ", "E "], ["ar", "r", "arr"], ["at", "t", "att"], ["p", "ow", "pow"], ["s", "erv", "serv"], ["ther", "e", "there"], ["cau", "se ", "cause "], ["th", "at", "that"], ["ap", "pear", "appear"], ["af", "ter", "after"], ["I s", "hould ", "I should "], ["k", "ing ", "king "], ["g", "et ", "get "], ["T", "his ", "This "], ["though", " ", "though "], ["dou", "b", "doub"], ["f", "ar", "far"], ["e", "ve ", "eve "], ["wh", "o", "who"], ["c", "le", "cle"], ["I", "I", "II"], ["v", "id", "vid"], ["ne", "ar", "near"], ["s ", "the ", "s the "], [" whi", "ch", " which"], ["d", "en", "den"], ["W", "ith", "With"], ["up", "on", "upon"], ["te", "ll", "tell"], ["li", "ght ", "light "], ["in", "to the ", "into the "], ["natur", "al", "natural"], [" a", "l", " al"], ["tim", "es ", "times "], ["c", "i", "ci"], ["a", ", ", "a, "], ["N", "o", "No"], ["cont", "in", "contin"], ["pos", "si", "possi"], ["th", "rough", "through"], ["ation", "s ", "ations "], ["ed", "i", "edi"], ["fa", "ther", "father"], ["know", " ", "know "], ["and", ", ", "and, "], ["b", "er ", "ber "], ["org", "an", "organ"], ["t", "y", "ty"], ["he", "ad", "head"], ["gent", "le", "gentle"], ["re", "g", "reg"], ["oo", "k ", "ook "], ["es", ", and ", "es, and "], ["you", ", ", "you, "], ["t ", "to ", "t to "], ["ed ", "and ", "ed and "], ["ed", ", and ", "ed, and "], ["b", "our", "bour"], ["w", "as", "was"], ["H", "er", "Her"], ["consi", "der", "consider"], ["hav", "ing ", "having "], ["ha", "bit", "habit"], ["up", "on ", "upon "], ["with", "out ", "without "], ["per", "io", "perio"], [" a", "b", " ab"], ["r", "e ", "re "], ["s", "m", "sm"], ["E", ":\n", "E:\n"], ["w", "er", "wer"], ["look", "ed ", "looked "], ["G", "o", "Go"], ["bo", "d", "bod"], ["p", "ut ", "put "], ["t", "or", "tor"], ["le", "f", "lef"], ["with", " a ", "with a "], ["ti", "l", "til"], ["her", " s", "her s"], ["ab", "ly ", "ably "], ["c", "a", "ca"], [" s", "peci", " speci"], ["on", "d ", "ond "], ["su", "ch", "such"], ["con", "di", "condi"], ["g", "g", "gg"], [".", "--", ".--"], ["per", "fec", "perfec"], ["t", "en ", "ten "], ["J", "an", "Jan"], ["th", "ese ", "these "], ["tion", ", ", "tion, "], ["n", "am", "nam"], ["ation", ", ", "ation, "], ["C", "har", "Char"], ["he", "l", "hel"], [" a", "s", " as"], ["in", "ce ", "ince "], ["s ", "are ", "s are "], [" m", "o", " mo"], ["cer", "tain", "certain"], ["s", "ur", "sur"], ["foll", "ow", "follow"], ["v", "al", "val"], ["could ", "not ", "could not "], ["in", "di", "indi"], ["on", ", ", "on, "], [" a", "ll ", " all "], ["he", "av", "heav"], ["ti", "me", "time"], ["l", "ord", "lord"], ["n", "es", "nes"], ["ish", " ", "ish "], ["d", "ur", "dur"], ["in", " s", "in s"], ["to", "\n", "to\n"], ["p", "ass", "pass"], ["c", "es", "ces"], ["m", "is", "mis"], [" a", "d", " ad"], ["n", "or", "nor"], ["pe", "op", "peop"], ["or", "d ", "ord "], [" ", "\n", " \n"], ["s", "en", "sen"], [".\n\n", "C", ".\n\nC"], ["in", " my ", "in my "], ["me", "an", "mean"], ["vari", "e", "varie"], ["i", "d ", "id "], ["s", "aid ", "said "], ["we", "ll ", "well "], ["e", ".\n", "e.\n"], [".\n\n", "P", ".\n\nP"], ["differ", "ent ", "different "], ["l", "in", "lin"], ["l", "at", "lat"], ["ex", "pres", "expres"], ["M", "ar", "Mar"], ["f", "re", "fre"], ["h", "y", "hy"], ["do ", "not ", "do not "], ["ent", ", ", "ent, "], ["e ", "to ", "e to "], ["w", "ent ", "went "], ["of ", "my ", "of my "], [" the", "ir", " their"], ["si", "on ", "sion "], ["go", "t ", "got "], ["Y", " ", "Y "], ["hear", "d ", "heard "], ["I'", "ll ", "I'll "], ["r", "en", "ren"], ["li", "fe", "life"], ["no", "t", "not"], ["n", "er", "ner"], ["al", "ways ", "always "], ["A", "n", "An"], ["i", "de", "ide"], ["pec", "t", "pect"], ["se", "ver", "sever"], ["y", ", and ", "y, and "], ["inc", "t ", "inct "], ["d", "own ", "down "], ["en", " the ", "en the "], ["them", " ", "them "], ["w", "ard", "ward"], ["anc", "e, ", "ance, "], ["Br", "ont", "Bront"], ["Bront", "ë", "Brontë"], ["D", "arc", "Darc"], ["m", "an ", "man "], ["no", "thing ", "nothing "], ["j", "ust ", "just "], ["hou", "se", "house"], ["in", " this ", "in this "], ["and ", "the ", "and the "], [" th", "ere ", " there "], ["would ", "be ", "would be "], ["anim", "al", "animal"], ["f", "ind ", "find "], ["pres", "ent ", "present "], ["par", "t ", "part "], ["ex", "t", "ext"], ["f", "el", "fel"], ["st", "ri", "stri"], ["ou", "ld", "ould"], ["d", "s ", "ds "], [" a", "p", " ap"], ["o", "ver ", "over "], ["R", "O", "RO"], ["c", "um", "cum"], ["ke", "ep", "keep"], ["g", "n", "gn"], ["em", "ber", "ember"], ["beli", "eve ", "believe "], ["tion ", "of ", "tion of "], ["tic", " ", "tic "], ["C", "om", "Com"], ["pl", "ain", "plain"], ["all", " the ", "all the "], ["of", " this ", "of this "], ["aw", " ", "aw "], ["b", "ack", "back"], ["coun", "tr", "countr"], ["d", "om", "dom"], ["ev", "en ", "even "], ["re", "p", "rep"], ["is ", "the ", "is the "], ["th", "ou", "thou"], ["an", "other ", "another "], ["you", " s", "you s"], ["on", "d", "ond"], ["des", "c", "desc"], ["le", "s ", "les "], ["w", "at", "wat"], ["have ", "been", "have been"], ["re", "turn", "return"], [".\n\n", "L", ".\n\nL"], ["I w", "ill ", "I will "], ["r", "y ", "ry "], ["lif", "e ", "life "], ["ge", "o", "geo"], ["f", "ur", "fur"], ["c", "ha", "cha"], ["lo", "ve ", "love "], ["c", "ir", "cir"], ["e", "e", "ee"], [" at ", "the ", " at the "], ["i", "ly ", "ily "], ["c", "ros", "cros"], [". S", "he ", ". She "], ["d", "augh", "daugh"], ["S", "he ", "She "], ["had ", "been ", "had been "], ["Char", "lo", "Charlo"], ["v", "en", "ven"], ["pro", "b", "prob"], ["on", "ce ", "once "], ["de", "ath", "death"], ["l", "ad", "lad"], ["k", "ind", "kind"], ["ARD", " ", "ARD "], ["ic", "e ", "ice "], [" th", "at", " that"], ["do", "or", "door"], ["t", "ain ", "tain "], ["ir", ", ", "ir, "], ["ith", "er ", "ither "], ["lef", "t ", "left "], ["oc", "i", "oci"], ["m", "edi", "medi"], [". ", "`", ". `"], ["F", "or ", "For "], ["g", "er", "ger"], ["gr", "ac", "grac"], [";\n", "And ", ";\nAnd "], ["A", "U", "AU"], ["oc", "cas", "occas"], ["chi", "ld", "child"], ["c", "u", "cu"], ["ed ", "in ", "ed in "], ["r", "ow", "row"], ["T", "IO:\n", "TIO:\n"], ["gr", "ou", "grou"], ["t", "ow", "tow"], ["ing ", "and ", "ing and "], ["en", "ough", "enough"], ["who", "le ", "whole "], [" th", "an", " than"], ["en", "ti", "enti"], ["c", "ap", "cap"], ["h", "our", "hour"], ["m", " ", "m "], ["let", "ter", "letter"], ["ing", "\n", "ing\n"], ["re", "cei", "recei"], [" a", "gain", " again"], ["e", "as", "eas"], ["b", "ur", "bur"], ["condi", "tion", "condition"], ["of ", "her ", "of her "], ["of", "ten ", "often "], ["n", "er ", "ner "], ["did ", "not ", "did not "], ["h", "um", "hum"], ["es", "\n", "es\n"], ["es ", "and ", "es and "], ["H", "av", "Hav"], ["ET", ":\n", "ET:\n"], ["or", "y ", "ory "], ["str", "uc", "struc"], ["s", "ol", "sol"], ["contin", "u", "continu"], [". ", ". ", ". . "], ["is ", "a ", "is a "], ["w", "ay", "way"], ["to", "ld ", "told "], ["ed ", "that ", "ed that "], ["is", ", ", "is, "], ["B", "en", "Ben"], ["cl", "as", "clas"], ["fel", "t ", "felt "], ["par", "t", "part"], ["him", "self", "himself"], [" th", "an ", " than "], ["i", "on ", "ion "], ["s", "ai", "sai"], ["sub", "jec", "subjec"], ["I", "S", "IS"], ["e", "'s ", "e's "], ["under", "st", "underst"], ["him", ", ", "him, "], ["an", "y", "any"], ["y ", "to ", "y to "], ["1", "8", "18"], ["m", "ak", "mak"], ["b", "ir", "bir"], ["im", "port", "import"], ["both", " ", "both "], [" them", " ", " them "], ["s", "ay ", "say "], [" m", "ust ", " must "], ["le", ", ", "le, "], [";", " the ", "; the "], ["s", "he", "she"], ["le", "d", "led"], ["Ben", "ne", "Benne"], [". ", "N", ". N"], ["lar", "ge ", "large "], ["mo", "di", "modi"], ["v", "es ", "ves "], ["l", "ed ", "led "], ["I", "f ", "If "], ["for", " a ", "for a "], ["t", "end", "tend"], ["fe", "ar", "fear"], ["de", "gre", "degre"], ["hou", "se ", "house "], ["po", "se ", "pose "], ["wr", "it", "writ"], ["e", "-", "e-"], ["il", "ity ", "ility "], ["ing", " a ", "ing a "], ["v", "ic", "vic"], ["ic", " ", "ic "], ["W", "ell", "Well"], ["op", "en", "open"], ["d", "res", "dres"], ["b", "est ", "best "], ["s", "er", "ser"], ["be", "cause ", "because "], [" se", "lec", " selec"], [" m", "an", " man"], ["af", "ter ", "after "], ["pr", "is", "pris"], ["em", "ent ", "ement "], [". ", "And ", ". And "], ["”", " ", "” "], ["Wh", "en ", "When "], ["h", "ard", "hard"], ["st", "er", "ster"], ["ing", "le", "ingle"], ["tr", "a", "tra"], ["id", "d", "idd"], ["th", "us ", "thus "], ["k", "ind ", "kind "], ["und", "er ", "under "], ["K", ":\n", "K:\n"], ["d", "one ", "done "], ["i", "z", "iz"], ["tim", "e, ", "time, "], ["IC", "H", "ICH"], ["le", "ave ", "leave "], ["w", "om", "wom"], ["ne", "ver", "never"], ["?'\n", "`", "?'\n`"], [" m", "u", " mu"], ["s", "or", "sor"], ["s", "ister", "sister"], ["be", "come ", "become "], ["wor", "k", "work"], ["te", "ll ", "tell "], ["str", "ang", "strang"], ["my", "self", "myself"], ["he", "ad ", "head "], ["nigh", "t", "night"], ["enc", "e, ", "ence, "], ["young", " ", "young "], ["T", "H", "TH"], ["su", "ff", "suff"], [". ", "B", ". B"], ["v", "ol", "vol"], ["lo", "g", "log"], ["s", "peak", "speak"], ["u", "s, ", "us, "], ["ish", "ed ", "ished "], ["toge", "ther", "together"], ["I", "n ", "In "], ["R", "ICH", "RICH"], ["ic", "ul", "icul"], ["y", "'s ", "y's "], ["'", "d", "'d"], ["con", "f", "conf"], ["y ", "and ", "y and "], ["c", "ol", "col"], ["d", "re", "dre"], ["D", "U", "DU"], ["vid", "u", "vidu"], [".\n\n", "B", ".\n\nB"], ["di", "rec", "direc"], ["po", "si", "posi"], ["g", "ri", "gri"], ["T", "ER", "TER"], ["DU", "K", "DUK"], ["indi", "vidu", "individu"], ["whi", "le ", "while "], [".\n\n", "S", ".\n\nS"], ["I w", "ould ", "I would "], ["DUK", "E ", "DUKE "], ["diff", "icul", "difficul"], ["ti", "ll", "till"], ["\n", "the ", "\nthe "], ["f", "av", "fav"], ["P", "ip", "Pip"], [".\n\n", "G", ".\n\nG"], ["occas", "ion", "occasion"], ["su", "ch ", "such "], ["how", "ever", "however"], ["Hav", "is", "Havis"], ["s", "; ", "s; "], ["F", "r", "Fr"], ["ti", "ve ", "tive "], ["per", "hap", "perhap"], ["F", "ir", "Fir"], ["pres", "ent", "present"], ["se", "qu", "sequ"], ["ong", " ", "ong "], ["U", "n", "Un"], ["ous", "ly ", "ously "], ["ow", ", ", "ow, "], ["b", "ook", "book"], [")", " ", ") "], ["rem", "ain", "remain"], ["t", "ro", "tro"], ["do", "es ", "does "], ["is", "ten", "isten"], [" w", "ere ", " were "], ["h", "and ", "hand "], ["f", "ter", "fter"], [".\n\n", "KING ", ".\n\nKING "], ["grou", "p", "group"], ["O", "r", "Or"], ["al", "most ", "almost "], ["will ", "be ", "will be "], ["mor", "n", "morn"], ["it", "ed ", "ited "], ["e", "w ", "ew "], ["Havis", "ham", "Havisham"], ["bet", "ter ", "better "], ["B", "ingle", "Bingle"], ["may ", "be ", "may be "], ["be", "ar", "bear"], [" w", "ill ", " will "], [" s", "tr", " str"], ["EN", "TIO:\n", "ENTIO:\n"], [",”", " said ", ",” said "], ["ure", ", ", "ure, "], ["ti", "ll ", "till "], [" w", "or", " wor"], ["a", "ther", "ather"], ["bro", "ther", "brother"], [" su", "ch ", " such "], [".\n", "The ", ".\nThe "], ["r", "ound ", "round "], ["don", "'t ", "don't "], ["ing", " that ", "ing that "], ["the", "ir", "their"], ["H", "a", "Ha"], ["li", "m", "lim"], ["A", "B", "AB"], ["IN", "C", "INC"], ["g", "ood", "good"], ["is ", "not ", "is not "], ["n", "or ", "nor "], ["ey", "es ", "eyes "], ["ver", "s", "vers"], ["ig", "n", "ign"], ["de", "ar ", "dear "], ["--", " ", "-- "], [" w", "ould ", " would "], ["w", "al", "wal"], ["e", "; ", "e; "], ["w", "he", "whe"], ["y", "-", "y-"], ["th", "ose ", "those "], ["Miss ", "Havisham", "Miss Havisham"], ["s", "l", "sl"], ["h", "om", "hom"], ["tow", "ard", "toward"], ["fe", "w ", "few "], ["Elizabe", "th", "Elizabeth"], ["ar", "n", "arn"], ["p", "as", "pas"], ["Y", ":\n", "Y:\n"], ["beli", "ev", "believ"], ["re", "st", "rest"], ["ar", "ri", "arri"], ["e", "t, ", "et, "], ["g", "ave ", "gave "], ["l", "aw", "law"], ["ul", "ar", "ular"], ["T", "hey ", "They "], ["qu", "es", "ques"], ["gener", "ally ", "generally "], [".\n\n", "M", ".\n\nM"], ["su", "c", "suc"], ["full", "y ", "fully "], ["too", "k ", "took "], ["rem", "ark", "remark"], ["co", "ver", "cover"], ["f", "ar ", "far "], ["the", "\n", "the\n"], ["fl", "ow", "flow"], ["her", "self", "herself"], ["Th", "ere ", "There "], ["fe", "ll", "fell"], ["hal", "f", "half"], ["betwe", "en ", "between "], ["on", "e, ", "one, "], ["ad", "v", "adv"], ["se", "d", "sed"], ["sti", "ll ", "still "], ["it", "y, ", "ity, "], ["was ", "a ", "was a "], ["fort", "un", "fortun"], ["w", "ind", "wind"], ["p", "ed ", "ped "], [" s", "o", " so"], ["t ", "the ", "t the "], [",", "—", ",—"], ["bet", "ter", "better"], ["ri", "ght ", "right "], ["p", "end", "pend"], [" su", "ch", " such"], ["!", "'\n", "!'\n"], ["cer", "tain ", "certain "], ["ation ", "of ", "ation of "], ["O", "F", "OF"], ["b", "us", "bus"], ["en", "ter", "enter"], ["li", "ke", "like"], ["e", "ffec", "effec"], ["t", "ure ", "ture "], [" m", "ay ", " may "], ["ans", "wer", "answer"], ["le", "g", "leg"], ["u", "e ", "ue "], ["per", "son", "person"], ["s", "po", "spo"], ["r", "an", "ran"], ["gh", "t", "ght"], ["b", "or", "bor"], ["s", "we", "swe"], ["cas", "e ", "case "], ["OF", " ", "OF "], ["'", "t", "'t"], ["tion", "s ", "tions "], ["s", "ing", "sing"], ["daugh", "ter", "daughter"], ["A", "L", "AL"], [" th", "er", " ther"], ["dist", "inct ", "distinct "], [". ", "We ", ". We "], ["th", "ink", "think"], ["ob", "jec", "objec"], ["I", "s ", "Is "], ["n", "ex", "nex"], ["plac", "e ", "place "], ["Charlo", "tt", "Charlott"], ["you ", "have ", "you have "], ["ce", "ed", "ceed"], ["on", "der", "onder"], ["vi", "ew", "view"], ["comm", "on ", "common "], ["fa", "ther ", "father "], ["h", " ", "h "], ["u", "se ", "use "], ["w", "ard ", "ward "], ["again", "st ", "against "], ["know", "n ", "known "], ["b", "ack ", "back "], ["e", "qu", "equ"], [". I", "n", ". In"], ["Fir", "st ", "First "], [" ab", "out ", " about "], ["br", "ought ", "brought "], ["am", "p", "amp"], ["H", "ow ", "How "], ["S", "o ", "So "], ["oc", "k", "ock"], ["in", "habit", "inhabit"], ["vis", "i", "visi"], ["o", "'", "o'"], ["ent", "s ", "ents "], ["L", "O", "LO"], ["i", "ent ", "ient "], ["g", "ed ", "ged "], ["so", "on", "soon"], ["tr", "ac", "trac"], ["U", "L", "UL"], ["cir", "cum", "circum"], ["m", "il", "mil"], ["as ", "the ", "as the "], ["se", "c", "sec"], ["A", "M", "AM"], ["si", "d", "sid"], [" with", " the ", " with the "], ["I ", "could ", "I could "], ["be", "for", "befor"], ["vi", "ll", "vill"], ["g", "ir", "gir"], ["nec", "ess", "necess"], ["she ", "was ", "she was "], ["b", "ut", "but"], ["be", "d", "bed"], ["to ", "have ", "to have "], ["desc", "end", "descend"], ["fi", "ed ", "fied "], ["E", "st", "Est"], ["K", "emp", "Kemp"], ["    ", "    ", "        "], [" m", "any ", " many "], ["par", "tic", "partic"], ["p", "ain", "pain"], ["l", "ook ", "look "], ["c", "al", "cal"], [".", "' ", ".' "], ["re", "ad ", "read "], ["com", "es ", "comes "], ["cour", "se ", "course "], ["be", "h", "beh"], ["li", "p", "lip"], ["d", "in", "din"], ["of", "ten", "often"], ["E", "ng", "Eng"], ["Est", "ell", "Estell"], ["n", "ess", "ness"], ["of", " their ", "of their "], ["at", "ely ", "ately "], ["su", "m", "sum"], ["t ", "and ", "t and "], ["ing", " at ", "ing at "], ["RICH", "ARD ", "RICHARD "], ["RICHARD ", "II", "RICHARD II"], ["natural", " selec", "natural selec"], ["t", "s, ", "ts, "], ["er", "s, ", "ers, "], ["sh", "ow", "show"], ["t ", "that ", "t that "], ["ed by ", "the ", "ed by the "], ["TER", ":\n", "TER:\n"], ["I", ":\n", "I:\n"], ["Jo", "e ", "Joe "], ["O", ", ", "O, "], ["peop", "le ", "people "], ["i", "ed ", "ied "], ["on", "e", "one"], ["a", "z", "az"], ["sp", "ir", "spir"], ["m", "ind ", "mind "], ["her", ", ", "her, "], ["UC", "H", "UCH"], ["ed", ". ", "ed. "], ["an", "other", "another"], ["de", "ep", "deep"], ["bod", "y ", "body "], ["f", "ter ", "fter "], ["num", "ber ", "number "], ["she ", "had ", "she had "], ["L", "et ", "Let "], ["he", "\n", "he\n"], ["th", "ree ", "three "], ["a", "di", "adi"], ["ha", "ll", "hall"], ["st", "ar", "star"], ["nat", "ure ", "nature "], ["pr", "inc", "princ"], ["gir", "l", "girl"], ["I m", "ust ", "I must "], ["ac", "c", "acc"], ["hear", "t", "heart"], ["dr", "aw", "draw"], ["mar", "ri", "marri"], ["ha", "th ", "hath "], ["n", "ight ", "night "], ["pr", "of", "prof"], ["s ", "in ", "s in "], [". T", "his ", ". This "], ["LO", "UC", "LOUC"], ["LOUC", "ES", "LOUCES"], ["LOUCES", "TER:\n", "LOUCESTER:\n"], ["lo", "v", "lov"], ["I s", "hall ", "I shall "], ["read", "y ", "ready "], ["wor", "d", "word"], ["you ", "are ", "you are "], ["let", "ter ", "letter "], ["to ", "my ", "to my "], [".\n", "\"", ".\n\""], ["m", "al", "mal"], ["\n", "To ", "\nTo "], ["had ", "been", "had been"], ["ord", "in", "ordin"], ["x", " ", "x "], ["s ", "were ", "s were "], ["si", "ve ", "sive "], ["th", "or", "thor"], ["r", "un", "run"], ["on", " my ", "on my "], ["O", " ", "O "], ["be", "au", "beau"], ["E", "EN", "EEN"], ["Her", "ber", "Herber"], ["s", "ay", "say"], ["b", "es", "bes"], ["y", "ing ", "ying "], ["si", "l", "sil"], ["com", "ple", "comple"], ["s", "le", "sle"], ["ligh", "t", "light"], ["an", " a", "an a"], ["s", "is", "sis"], ["l", "and ", "land "], ["n", "'t ", "n't "], ["Mr. ", "Darc", "Mr. Darc"], ["im", "p", "imp"], ["a", "ffec", "affec"], ["s", "ir", "sir"], ["hon", "our", "honour"], ["fac", "e ", "face "], [" th", "ou ", " thou "], ["ex", "pec", "expec"], ["Wh", "y, ", "Why, "], ["el", "d", "eld"], ["Go", "d ", "God "], ["circum", "st", "circumst"], ["es ", "of the ", "es of the "], [". T", "hey ", ". They "], ["w", "ish", "wish"], ["s", "on ", "son "], ["tur", "n ", "turn "], ["wh", "ose ", "whose "], ["reas", "on", "reason"], [" th", "ough", " though"], ["fav", "our", "favour"], ["s", "; and ", "s; and "], [" all", " the ", " all the "], [", ", "my ", ", my "], ["pl", "an", "plan"], ["co", "ll", "coll"], ["varie", "ties ", "varieties "], ["no", "t, ", "not, "], ["at", "e, ", "ate, "], ["ch", "ool", "chool"], ["al", ", ", "al, "], ["hard", "ly ", "hardly "], ["to ", "his ", "to his "], ["im", "ag", "imag"], ["V", "INC", "VINC"], ["i", "ti", "iti"], ["pr", "om", "prom"], ["shi", "p", "ship"], ["sha", "ll", "shall"], ["el", " ", "el "], ["of", " that ", "of that "], ["c", "al ", "cal "], ["p", "en", "pen"], ["Q", "U", "QU"], ["QU", "EEN", "QUEEN"], ["VINC", "ENTIO:\n", "VINCENTIO:\n"], ["de", "ar", "dear"], ["that ", "he ", "that he "], ["Y", "our ", "Your "], ["f", "o", "fo"], ["know", "led", "knowled"], ["ing", " w", "ing w"], ["ity ", "of ", "ity of "], ["g", "one ", "gone "], ["ati", "s", "atis"], ["or", "der", "order"], ["po", "or ", "poor "], ["h", "us", "hus"], ["or", " s", "or s"], ["is", "ed ", "ised "], ["H", "EN", "HEN"], [".--", "--", ".----"], ["p", "a", "pa"], ["H", "is ", "His "], ["he", "al", "heal"], ["in ", "her ", "in her "], ["E", "D", "ED"], ["No", "t ", "Not "], ["es", ". ", "es. "], ["wor", "ld", "world"], ["n", "ame ", "name "], ["m", "other", "mother"], ["to", "-", "to-"], ["nex", "t ", "next "], ["ou", "ch", "ouch"], ["op", "in", "opin"], ["up", "on the ", "upon the "], ["can ", "be ", "can be "], ["gr", "ow", "grow"], ["y ", "of ", "y of "], ["ic", "al ", "ical "], ["charac", "ter ", "character "], ["l", "ast", "last"], ["d", "ro", "dro"], ["t", "'s ", "t's "], ["R", "i", "Ri"], ["st", ", ", "st, "], ["Wh", "en", "When"], [" wh", "en ", " when "], ["j", "ud", "jud"], ["ob", "serv", "observ"], ["ra", "ther ", "rather "], ["bus", "in", "busin"], ["y", ". ", "y. "], [",", "--", ",--"], ["er ", "and ", "er and "], ["o", "st ", "ost "], ["hus", "b", "husb"], ["em", "br", "embr"], ["fu", "ll ", "full "], ["l", "ess", "less"], ["se", "ly ", "sely "], ["though", "t ", "thought "], ["ing", "-", "ing-"], ["u", "su", "usu"], ["near", "ly ", "nearly "], ["m", "ast", "mast"], [", s", "ir", ", sir"], ["le", "ast ", "least "], ["ing ", "his ", "ing his "], ["ed ", "a ", "ed a "], ["'", "ll ", "'ll "], ["like ", "a ", "like a "], ["bre", "ak", "break"], ["'", "ti", "'ti"], ["pos", "s", "poss"], [" m", "e, ", " me, "], ["S", "t", "St"], ["year", "s ", "years "], ["fam", "ily ", "family "], ["at", "ten", "atten"], ["B", "y ", "By "], ["h", "ur", "hur"], ["st", "re", "stre"], ["go", "ing ", "going "], ["Y", "or", "Yor"], ["u", "li", "uli"], ["not ", "be ", "not be "], ["to ", "a ", "to a "], ["am", " ", "am "], ["b", "ar", "bar"], ["h", "ome ", "home "], ["hop", "e ", "hope "], ["e", "ither ", "either "], ["sti", "ll", "still"], ["EL", "L", "ELL"], [" wh", "o ", " who "], ["bl", "ood", "blood"], ["ea", "ch", "each"], ["l", "ay ", "lay "], ["of", " th", "of th"], ["ex", "cep", "excep"], ["bre", "ed", "breed"], ["vel", "op", "velop"], ["Charlott", "e ", "Charlotte "], ["m", "a", "ma"], ["s ", "that ", "s that "], ["al", " s", "al s"], ["the", "e ", "thee "], ["A", "P", "AP"], ["Ha", "wor", "Hawor"], ["it", "or", "itor"], ["no", "ble ", "noble "], ["hat", "'s ", "hat's "], ["in", " a", "in a"], ["y", ",\n", "y,\n"], ["d", "ar", "dar"], ["di", "d", "did"], ["to", " th", "to th"], ["!", "' ", "!' "], ["him", "self ", "himself "], ["dom", "es", "domes"], ["ed ", "her ", "ed her "], ["R", "Y ", "RY "], ["p", "al", "pal"], ["ce", "ll", "cell"], ["st", "and", "stand"], ["f", "oo", "foo"], ["OR", "I", "ORI"], ["HEN", "RY ", "HENRY "], [".”\n", "“", ".”\n“"], ["W", "ick", "Wick"], ["m", "en ", "men "], ["u", "t, ", "ut, "], ["off", "ic", "offic"], ["ha", "t, ", "hat, "], ["to ", "make ", "to make "], ["too", "k", "took"], ["was ", "the ", "was the "], ["ex", "tre", "extre"], ["qu", "ain", "quain"], ["qu", "e", "que"], ["s, ", "the ", "s, the "], ["r", "is", "ris"], ["of", "f ", "off "], ["Wh", "ere ", "Where "], [" se", "e ", " see "], ["h", "old ", "hold "], ["st", "e", "ste"], ["fe", "w", "few"], ["con", "sequ", "consequ"], ["Jan", "e ", "Jane "], ["ed ", "with ", "ed with "], ["w", "ar", "war"], ["ed ", "his ", "ed his "], ["of", " these ", "of these "], ["giv", "en ", "given "], ["i", "li", "ili"], ["ad", "m", "adm"], ["would ", "have ", "would have "], ["d", "ay, ", "day, "], ["poin", "t", "point"], ["Elizabe", "th ", "Elizabeth "], ["ag", "e, ", "age, "], ["L", "on", "Lon"], ["a", "\n", "a\n"], ["O", "f ", "Of "], ["I th", "ink", "I think"], ["wh", "er", "wher"], ["at", "ch", "atch"], ["se", "en ", "seen "], ["re", "f", "ref"], ["must ", "be ", "must be "], [" that ", "the ", " that the "], [".\n\n", "DUKE ", ".\n\nDUKE "], ["individu", "al", "individual"], ["ec", "ond ", "econd "], ["he", "ar ", "hear "], ["ac", "e ", "ace "], ["pl", "ay", "play"], ["le", "av", "leav"], ["ch", "e", "che"], ["lif", "e, ", "life, "], ["perio", "d ", "period "], ["re", "d", "red"], ["out ", "of ", "out of "], ["t", "ure", "ture"], ["w", "a", "wa"], ["sai", "d, ", "said, "], ["un", "til", "until"], ["Lon", "don", "London"], ["B", "e", "Be"], ["i", "es ", "ies "], ["in", "\n", "in\n"], ["ing ", "of ", "ing of "], ["call", "ed ", "called "], ["pl", "ants ", "plants "], ["W", "em", "Wem"], ["res", "ol", "resol"], ["sever", "al ", "several "], ["car", "ri", "carri"], ["sh", "or", "shor"], ["as", "h", "ash"], ["; ", "for ", "; for "], ["L", "y", "Ly"], ["QUEEN", " ", "QUEEN "], ["ear", "ly ", "early "], ["some", "times ", "sometimes "], ["ON", "T", "ONT"], ["oc", "cur", "occur"], ["Whi", "ch ", "Which "], [",\n", "That ", ",\nThat "], ["'ti", "s ", "'tis "], ["U", "M", "UM"], ["to ", "see ", "to see "], [",\n", "To ", ",\nTo "], ["p", "h", "ph"], ["has ", "been ", "has been "], ["ev", "id", "evid"], ["E", "S:\n", "ES:\n"], ["visi", "ble ", "visible "], [":\n", "A", ":\nA"], ["'", "T", "'T"], ["tru", "e ", "true "], ["c", "ul", "cul"], ["tr", "uc", "truc"], ["in", " m", "in m"], ["Y", "OR", "YOR"], ["medi", "ate ", "mediate "], ["your", " s", "your s"], ["I", "f", "If"], ["I", ", ", "I, "], ["each ", "other", "each other"], ["ex", "per", "exper"], ["E", "d", "Ed"], ["YOR", "K:\n", "YORK:\n"], ["perhap", "s ", "perhaps "], ["of a", "ll", "of all"], ["\n", "And ", "\nAnd "], ["O", "M", "OM"], ["lo", "ve", "love"], ["the ", "s", "the s"], ["gr", "av", "grav"], ["ing", ", and ", "ing, and "], ["m", "p", "mp"], ["in", " some ", "in some "], ["pow", "er ", "power "], ["L", "ad", "Lad"], ["ter", "min", "termin"], ["or", "ig", "orig"], ["con", "sc", "consc"], ["wor", "ld ", "world "], ["P", "r", "Pr"], ["able ", "to ", "able to "], ["aw", "ay ", "away "], [" th", "rough", " through"], ["beg", "an ", "began "], [", ", "or ", ", or "], ["bour", "geo", "bourgeo"], ["IN", "IUS:\n", "INIUS:\n"], ["es", "s, ", "ess, "], ["u", "se", "use"], ["no", "thing", "nothing"], ["cl", "oth", "cloth"], ["possi", "ble ", "possible "], ["gr", "ad", "grad"], ["id", "e ", "ide "], ["em", "ent", "ement"], ["li", "k", "lik"], ["g", "et", "get"], ["s", "y", "sy"], ["l", "or", "lor"], ["tion ", "of the ", "tion of the "], ["betwe", "en the ", "between the "], ["form", "s ", "forms "], ["they ", "were ", "they were "], ["ed ", "in the ", "ed in the "], [".\n", "A", ".\nA"], ["com", "par", "compar"], ["certain", "ly ", "certainly "], ["de", "velop", "develop"], ["Wem", "m", "Wemm"], ["at", "ing ", "ating "], ["at", "e", "ate"], ["\n", "The ", "\nThe "], ["si", "de ", "side "], ["in", " their ", "in their "], ["s", "ent ", "sent "], ["ith", "er", "ither"], ["gentle", "man", "gentleman"], ["de", "ad", "dead"], ["with ", "his ", "with his "], ["anc", "es ", "ances "], ["par", "ent", "parent"], ["however", ", ", "however, "], ["C", "oll", "Coll"], ["N", "o ", "No "], ["could ", "be ", "could be "], [" w", "e", " we"], ["no", "t\n", "not\n"], ["chang", "e ", "change "], ["fi", "re", "fire"], ["me ", "to ", "me to "], ["k", "s ", "ks "], ["hi", "s\n", "his\n"], ["to ", "her ", "to her "], ["m", "om", "mom"], ["un", "t", "unt"], ["rem", "ember", "remember"], ["s", ";", "s;"], ["wi", "f", "wif"], ["a", "th ", "ath "], ["tw", "ent", "twent"], ["it", "ch", "itch"], ["el", "y, ", "ely, "], ["over", " the ", "over the "], ["oci", "et", "ociet"], ["know", "n", "known"], ["t", "ch", "tch"], ["d", "oth", "doth"], ["l", "augh", "laugh"], ["ted ", "to ", "ted to "], ["in", "her", "inher"], ["tak", "en ", "taken "], ["be", "ing", "being"], ["b", "an", "ban"], ["lo", "s", "los"], ["ED", "W", "EDW"], ["B", "idd", "Bidd"], ["On", "e ", "One "], ["a", "ff", "aff"], ["c", "up", "cup"], [",", "'", ",'"], ["is", "\n", "is\n"], ["D", "o ", "Do "], ["t", "ed", "ted"], ["ch", "ur", "chur"], ["ance ", "of ", "ance of "], ["ever", "y", "every"], ["Wick", "ham", "Wickham"], ["With", " ", "With "], ["tr", "ans", "trans"], ["ut", "e ", "ute "], ["nat", "ure", "nature"], ["hear", "t ", "heart "], ["ut", "ter", "utter"], ["on ", "his ", "on his "], ["there ", "was ", "there was "], ["L", "ord ", "Lord "], [". Th", "ere ", ". There "], ["Coll", "in", "Collin"], ["e", "f ", "ef "], ["se", "t ", "set "], ["p", "ic", "pic"], ["al", "i", "ali"], ["I ", "cannot ", "I cannot "], ["toward", "s ", "towards "], ["res", "pec", "respec"], ["ati", "ve ", "ative "], ["ag", "ger", "agger"], ["gener", "al ", "general "], ["se", "m", "sem"], ["ant", "ag", "antag"], ["b", "ed ", "bed "], ["ap", "p", "app"], ["fri", "end ", "friend "], ["an ", "in", "an in"], ["Wh", "y ", "Why "], ["k", "ep", "kep"], ["comp", "an", "compan"], ["speci", "es, ", "species, "], ["varie", "ti", "varieti"], ["li", "ve ", "live "], ["e", "e ", "ee "], ["Y", "et ", "Yet "], ["es", ",\n", "es,\n"], ["qu", "ar", "quar"], ["ch", "o", "cho"], ["ul", "t", "ult"], ["d", "ays ", "days "], ["se", "e", "see"], ["now", ", ", "now, "], ["f", "anc", "fanc"], ["ir", "e ", "ire "], ["P", "ro", "Pro"], ["vo", "ic", "voic"], ["r", "up", "rup"], ["D", "r", "Dr"], ["Miss ", "Brontë", "Miss Brontë"], ["k", ", ", "k, "], ["y", ".\n", "y.\n"], ["ar", "e", "are"], ["pow", "er", "power"], ["pl", "ant", "plant"], ["her", "\n", "her\n"], ["st", "air", "stair"], ["h", "ome", "home"], ["s", "pr", "spr"], ["as ", "a ", "as a "], ["f", "all", "fall"], ["toge", "ther ", "together "], ["s. ", " ", "s.  "], ["z", "en", "zen"], ["'", "st ", "'st "], ["at", "ter", "atter"], ["t", "em", "tem"], ["M", "E", "ME"], ["prob", "ably ", "probably "], ["\n", "A", "\nA"], ["rep", "li", "repli"], ["st", "or", "stor"], ["ar", "t ", "art "], ["pre", "v", "prev"], ["es", ".\n", "es.\n"], ["c", "ent", "cent"], ["clo", "se ", "close "], ["mer", "ic", "meric"], ["re", "st ", "rest "], ["d", "em", "dem"], ["be", "came ", "became "], ["re", "mo", "remo"], ["igh", "t", "ight"], ["; ", "for", "; for"], ["t", "able", "table"], ["an", ", ", "an, "], ["reas", "on ", "reason "], ["R", "o", "Ro"], ["vi", "ew ", "view "], ["cle", "ar", "clear"], [" speci", "es ", " species "], ["re", "li", "reli"], ["R", "ome", "Rome"], ["te", "ar", "tear"], ["st", "em", "stem"], ["out ", "of the ", "out of the "], ["it", ", and ", "it, and "], ["my", "self ", "myself "], ["\n", ", ", "\n, "], ["m", "ine ", "mine "], ["s", "ince ", "since "], ["a ", "little ", "a little "], ["On", " the ", "On the "], ["pro", "v", "prov"], ["ul", "ar ", "ular "], ["betwe", "en", "between"], ["des", "cri", "descri"], ["A", "meric", "Americ"], ["I", "\n", "I\n"], ["ab", "l", "abl"], ["inc", "reas", "increas"], ["p", "ir", "pir"], ["pro", "per", "proper"], ["bo", "y", "boy"], ["con", "nec", "connec"], ["g", " ", "g "], ["Com", "e, ", "Come, "], ["u", "b", "ub"], ["ne", "igh", "neigh"], [" mo", "st ", " most "], ["if ", "he ", "if he "], ["u", "st", "ust"], ["the ", "same ", "the same "], ["ed ", "at ", "ed at "], ["RO", "ME", "ROME"], ["ROME", "O:\n", "ROMEO:\n"], ["of the ", "same ", "of the same "], ["EN", "EN", "ENEN"], ["ENEN", "IUS:\n", "ENENIUS:\n"], ["Wh", "o ", "Who "], ["str", "ong", "strong"], ["w", "onder", "wonder"], ["b", "ly ", "bly "], ["ic", "k ", "ick "], ["ce", "ly ", "cely "], ["v", "il", "vil"], ["com", "ing ", "coming "], ["to", " this ", "to this "], ["st", "ood ", "stood "], ["ud", "e ", "ude "], ["ab", "o", "abo"], ["fre", "qu", "frequ"], ["re", "ally ", "really "], ["fam", "il", "famil"], ["Jo", "e, ", "Joe, "], ["pre", "tt", "prett"], ["er", ":\n", "er:\n"], ["is", "t ", "ist "], ["am", "ong", "among"], [", ", "to ", ", to "], ["k", "new ", "knew "], ["er", "y ", "ery "], ["re", "pe", "repe"], ["O", "f", "Of"], ["t", "on", "ton"], ["l", "eng", "leng"], ["when", " the ", "when the "], [". I", " am", ". I am"], ["happ", "y ", "happy "], ["is", "land", "island"], [". It ", "was ", ". It was "], ["hel", "p", "help"], ["th", "ink ", "think "], ["t", "ong", "tong"], ["fell", "ow", "fellow"], ["s", ":\n", "s:\n"], ["N", "o, ", "No, "], ["num", "ber", "number"], ["s", "k", "sk"], ["le ", "of ", "le of "], [" su", "b", " sub"], ["N", "or", "Nor"], ["ET", "R", "ETR"], ["Ly", "di", "Lydi"], ["hy", "bri", "hybri"], [" wh", "ere ", " where "], ["n", "e ", "ne "], [" m", "ade ", " made "], ["er", "i", "eri"], ["it ", "to ", "it to "], ["ed", ".\n", "ed.\n"], [" se", "em", " seem"], ["pos", "ed ", "posed "], ["coll", "ec", "collec"], ["ate ", "of ", "ate of "], ["ed to ", "be ", "ed to be "], ["ex", "c", "exc"], ["ETR", "UCH", "ETRUCH"], ["ETRUCH", "IO:\n", "ETRUCHIO:\n"], ["modi", "fic", "modific"], ["Mr", "s ", "Mrs "], ["d", "er ", "der "], ["from", " a ", "from a "], [", ", "he ", ", he "], ["in", "n", "inn"], ["wh", "y ", "why "], ["should ", "be ", "should be "], ["up", " the ", "up the "], ["st", "op", "stop"], ["jo", "in", "join"], ["an", "x", "anx"], ["ten", "d ", "tend "], ["I", "L", "IL"], ["p", "er ", "per "], ["s", "pec", "spec"], ["s ", "in the ", "s in the "], ["whe", "ther ", "whether "], ["ur", " ", "ur "], ["\n", "S", "\nS"], ["sel", "ves ", "selves "], ["at", "or", "ator"], ["doub", "t ", "doubt "], ["ed ", "with", "ed with"], ["uc", "k", "uck"], ["al", "so ", "also "], ["n", "i", "ni"], ["clo", "sely ", "closely "], ["k", "new", "knew"], ["one ", "of the ", "one of the "], ["inter", "mediate ", "intermediate "], ["aw", "ay", "away"], ["e", "ld ", "eld "], ["l", "y\n", "ly\n"], ["b", "en", "ben"], [". ", "W", ". W"], ["ai", "m", "aim"], ["come ", "to ", "come to "], ["ed ", "me ", "ed me "], ["G", "ood ", "Good "], ["con", "cl", "concl"], ["I", "V", "IV"], ["ve", "ly ", "vely "], [".\n\nKING ", "RICHARD II", ".\n\nKING RICHARD II"], [" she ", "had ", " she had "], ["”\n", "“", "”\n“"], ["w", "ise ", "wise "], [" the", "e ", " thee "], ["as", "k", "ask"], ["un", "c", "unc"], ["l", "d, ", "ld, "], ["so", ", ", "so, "], ["some", "thing ", "something "], [". ", "M", ". M"], ["con", "s", "cons"], ["y", "self", "yself"], [" s", "ome", " some"], ["\n", "and ", "\nand "], ["under", " the ", "under the "], ["H", "en", "Hen"], [", and ", "that ", ", and that "], ["fl", "u", "flu"], ["gl", "ad ", "glad "], ["se", "con", "secon"], ["el", "se ", "else "], ["ag", "ain ", "again "], ["um", "ble", "umble"], ["look", "ing ", "looking "], ["in", " which", "in which"], ["ac", "coun", "accoun"], ["he ", "is ", "he is "], ["ha", "th", "hath"], ["ous", "and ", "ousand "], ["v", "en ", "ven "], ["ri", "ght", "right"], ["ou", "th", "outh"], ["t", "own", "town"], ["in", " that ", "in that "], ["an", "t, ", "ant, "], ["that", ", ", "that, "], ["man", "ner", "manner"], ["ation", "s, ", "ations, "], ["in", "e", "ine"], [" ", "OF ", " OF "], ["ha", "b", "hab"], [". I", "n ", ". In "], ["s", ".\n\n", "s.\n\n"], ["if ", "you ", "if you "], ["wh", "om ", "whom "], ["ou", "t, ", "out, "], ["m", "ind", "mind"], ["e", "ar ", "ear "], ["se", "d, ", "sed, "], ["ORI", "OL", "ORIOL"], ["ORIOL", "AN", "ORIOLAN"], ["enc", "es ", "ences "], ["ing ", "her ", "ing her "], ["orig", "in", "origin"], ["Mr ", "J", "Mr J"], ["bu", "t, ", "but, "], ["l", "ab", "lab"], ["T", "o", "To"], ["her", "e, ", "here, "], ["H", "ow", "How"], ["m", "ad", "mad"], ["ORIOLAN", "US:\n", "ORIOLANUS:\n"], ["d", "d", "dd"], ["h", "e, ", "he, "], ["lor", "d, ", "lord, "], ["kep", "t ", "kept "], ["ordin", "ary ", "ordinary "], ["be", "\n", "be\n"], ["hi", "r", "hir"], ["fi", "ve ", "five "], ["r", "ang", "rang"], ["al", "o", "alo"], ["man", ", ", "man, "], ["t", ", and ", "t, and "], ["a", "ch ", "ach "], [",”", " ", ",” "], ["in", "v", "inv"], ["g", "ar", "gar"], ["k", "en ", "ken "], ["fa", "ir", "fair"], ["c", "k ", "ck "], ["r", "ap", "rap"], ["im", "pres", "impres"], ["c", "ous", "cous"], ["S", "T", "ST"], ["s", "atis", "satis"], ["ing ", "in ", "ing in "], ["str", "u", "stru"], ["countr", "y ", "country "], ["you", "\n", "you\n"], ["It ", "is ", "It is "], ["f", "ool", "fool"], ["be", "y", "bey"], [". ", "C", ". C"], ["recei", "ved ", "received "], ["s", "ure ", "sure "], ["I ", "can ", "I can "], ["it", "ted ", "itted "], ["possi", "ble", "possible"], ["ed ", "as ", "ed as "], ["Yor", "k", "York"], ["ag", "re", "agre"], ["her", "self ", "herself "], ["is", "m", "ism"], ["inst", "ance, ", "instance, "], ["ca", "ses ", "cases "], ["partic", "ular", "particular"], ["com", "pe", "compe"], ["r", "ow ", "row "], ["wor", "k ", "work "], ["hy", "si", "hysi"], ["we ", "have ", "we have "], ["ad", "d", "add"], [" th", "ree ", " three "], ["pi", "ec", "piec"], [", ", "which ", ", which "], ["all", "ow", "allow"], ["er ", "to ", "er to "], ["g", "e, ", "ge, "], ["A", "D", "AD"], ["ence ", "of ", "ence of "], ["are ", "not ", "are not "], ["I ", "know ", "I know "], ["d", "ang", "dang"], ["w", "el", "wel"], ["fa", "ir ", "fair "], ["for", " my ", "for my "], ["re", "qu", "requ"], ["ing ", "to the ", "ing to the "], ["man", "ner ", "manner "], [" a", " w", " a w"], ["bro", "ther ", "brother "], ["AN", "D", "AND"], ["perfec", "tly ", "perfectly "], ["H", "ave ", "Have "], ["I ", "do ", "I do "], ["of", " them", "of them"], ["d", "ri", "dri"], ["er", " s", "er s"], ["oo", "d, ", "ood, "], ["imag", "in", "imagin"], [" mu", "ch ", " much "], ["st", "ep", "step"], ["mat", "ter", "matter"], ["natur", "al ", "natural "], ["con", "st", "const"], [" a", "fter", " after"], ["for", "e, ", "fore, "], ["res", "pect", "respect"], ["ai", "d", "aid"], ["there ", "is ", "there is "], ["t", "s of ", "ts of "], [" se", "ver", " sever"], ["has ", "been", "has been"], [". A", "s ", ". As "], ["a ", "very ", "a very "], ["neigh", "bour", "neighbour"], ["sel", "v", "selv"], [" m", "ake ", " make "], ["Th", "ou ", "Thou "], ["th", "en, ", "then, "], ["es", "; ", "es; "], ["A", "l", "Al"], ["ques", "tion", "question"], ["on", " a ", "on a "], ["h", ", ", "h, "], ["lo", "st ", "lost "], ["might ", "be ", "might be "], ["L", "uc", "Luc"], ["?", "' ", "?' "], ["s. ", "The ", "s. The "], ["princ", "ip", "princip"], ["IN", "A:\n", "INA:\n"], ["P", "umble", "Pumble"], ["to s", "ay ", "to say "], ["om", "an", "oman"], ["through", " the ", "through the "], ["c", "all ", "call "], ["st", "and ", "stand "], ["to ", "me", "to me"], ["Lad", "y ", "Lady "], ["f", "our", "four"], [" as ", "the ", " as the "], ["pleas", "ure ", "pleasure "], ["no ", "more ", "no more "], ["hand", "s ", "hands "], ["par", "ts ", "parts "], ["de", "l", "del"], ["den", "ly ", "denly "], ["it", "u", "itu"], ["pec", "uli", "peculi"], ["import", "ant ", "important "], ["Wemm", "ick", "Wemmick"], ["ti", "t", "tit"], ["L", "i", "Li"], ["I m", "ay ", "I may "], ["I ", "can", "I can"], ["j", "us", "jus"], ["keep", " ", "keep "], ["un", "i", "uni"], ["shall ", "be ", "shall be "], ["H", "e", "He"], ["in", "form", "inform"], ["I th", "ought ", "I thought "], ["I th", "ink ", "I think "], ["ur", "der", "urder"], [".\n\nG", "LOUCESTER:\n", ".\n\nGLOUCESTER:\n"], ["W", "ar", "War"], ["ou", "red ", "oured "], ["do", "or ", "door "], ["g", "ain ", "gain "], ["prett", "y ", "pretty "], [" w", "r", " wr"], ["ed", ",\n", "ed,\n"], ["high", " ", "high "], ["t", "ail", "tail"], ["sc", "ar", "scar"], ["E", "ur", "Eur"], ["ex", "ist", "exist"], ["condition", "s of ", "conditions of "], [".\n\n", "First ", ".\n\nFirst "], ["consc", "i", "consci"], ["pu", "b", "pub"], ["beh", "ind ", "behind "], ["p", "hysi", "physi"], ["wor", "d ", "word "], ["al", "ready ", "already "], ["is", "ts ", "ists "], ["any ", "one ", "any one "], ["dur", "ing the ", "during the "], ["pr", "ou", "prou"], ["An", "d, ", "And, "], ["for", "e", "fore"], [" m", "ight ", " might "], ["s", "oul", "soul"], ["ha", "st", "hast"], ["er", "ous ", "erous "], ["it", "\n", "it\n"], ["f", "al", "fal"], ["of", " the\n", "of the\n"], ["w", "is", "wis"], ["l", "it", "lit"], ["s", "at ", "sat "], ["f", "lo", "flo"], ["m", "ist", "mist"], ["domes", "tic ", "domestic "], ["ca", "se", "case"], ["ob", "li", "obli"], ["im", "medi", "immedi"], ["ti", "ce ", "tice "], ["he", "ld ", "held "], ["p", "ati", "pati"], ["tr", "ou", "trou"], [" w", "ill", " will"], ["co", "ld ", "cold "], ["it ", "seem", "it seem"], ["car", "e", "care"], ["turn", "ed ", "turned "], ["comm", "on", "common"], ["on", " this ", "on this "], ["one ", "of ", "one of "], [". ", "I have ", ". I have "], ["not ", "to ", "not to "], ["ex", "p", "exp"], ["C", "h", "Ch"], ["War", "w", "Warw"], ["R", "E", "RE"], [")", ", ", "), "], ["Pumble", "ch", "Pumblech"], ["Mrs. ", "Benne", "Mrs. Benne"], ["b", "al", "bal"], ["i", "ve ", "ive "], [" s", "hould ", " should "], ["ag", "e", "age"], ["dis", "tri", "distri"], ["con", "vers", "convers"], ["ear", "th", "earth"], ["b", "on", "bon"], ["es ", "the ", "es the "], ["v", "e, ", "ve, "], ["of", " those ", "of those "], ["ex", "pect", "expect"], ["em", "ber ", "ember "], [" with", " a ", " with a "], ["ly ", "to ", "ly to "], ["f", "res", "fres"], ["si", "gn", "sign"], ["c", "hap", "chap"], ["t", "-", "t-"], ["ted ", "by ", "ted by "], [",\n", "S", ",\nS"], ["li", "ber", "liber"], ["bl", "ood ", "blood "], ["do", "g", "dog"], ["I ", "do not ", "I do not "], ["perfec", "t ", "perfect "], ["p", "ut", "put"], ["se", "en", "seen"], ["nes", "s, ", "ness, "], ["for", "d", "ford"], ["bir", "d", "bird"], [".\n\nDUKE ", "VINCENTIO:\n", ".\n\nDUKE VINCENTIO:\n"], ["'", "s\n", "'s\n"], [", ", "she ", ", she "], ["N", "ow, ", "Now, "], ["w", "arm", "warm"], [" ap", "pear", " appear"], ["c", "ould", "could"], ["ation ", "of the ", "ation of the "], ["s ", "of s", "s of s"], ["go", "ing to ", "going to "], ["res", "p", "resp"], ["does ", "not ", "does not "], ["ex", "plain", "explain"], [".", ", ", "., "], ["Mr ", "W", "Mr W"], ["y", "i", "yi"], ["heav", "en", "heaven"], ["h", "und", "hund"], ["they ", "are ", "they are "], [":\n", "And ", ":\nAnd "], ["ing", "le ", "ingle "], ["ha", "st ", "hast "], ["ha", "d", "had"], ["b", "out ", "bout "], ["p", "up", "pup"], ["di", "ver", "diver"], [".\n", "S", ".\nS"], ["as ", "I ", "as I "], ["chur", "ch", "church"], ["AB", "ELL", "ABELL"], ["organ", "ic ", "organic "], ["for ", "his ", "for his "], ["er", "c", "erc"], ["ans", "w", "answ"], ["pub", "lic", "public"], [" th", "en ", " then "], ["pre", "par", "prepar"], [" wh", "en", " when"], ["Th", "en ", "Then "], ["to", "p", "top"], [". ", "My ", ". My "], ["t", "ouch", "touch"], ["com", "e, ", "come, "], ["; and ", "the ", "; and the "], ["my ", "lord", "my lord"], ["degre", "e ", "degree "], ["eng", "ag", "engag"], ["IS", "ABELL", "ISABELL"], ["ISABELL", "A:\n", "ISABELLA:\n"], ["ex", "isten", "existen"], ["?'\n", "\"", "?'\n\""], ["animal", "s ", "animals "], ["es", "peci", "especi"], ["ing", "ly ", "ingly "], ["u", "ch", "uch"], ["so", "on ", "soon "], ["great", "er ", "greater "], ["le", "arn", "learn"], ["hi", "ll", "hill"], ["s", "om", "som"], ["il", " ", "il "], ["it ", "would ", "it would "], ["you ", "know", "you know"], ["in", ", ", "in, "], ["fam", "ili", "famili"], ["cri", "ed ", "cried "], [". ", "E", ". E"], ["con", "cer", "concer"], ["am", "oun", "amoun"], ["suff", "er", "suffer"], ["Fr", "om", "From"], ["su", "re", "sure"], ["was", "\n", "was\n"], ["c", "li", "cli"], ["anc", "ient ", "ancient "], ["dro", "p", "drop"], ["ly ", "and ", "ly and "], ["th", "is", "this"], ["s", "aw", "saw"], ["t", "um", "tum"], ["reg", "ard ", "regard "], ["fer", "til", "fertil"], ["room", " ", "room "], ["comm", "un", "commun"], ["looked ", "at ", "looked at "], ["opin", "ion", "opinion"], ["l", "adi", "ladi"], ["inde", "ed, ", "indeed, "], ["gent", "le ", "gentle "], ["H", "ere ", "Here "], ["u", "ch ", "uch "], [". It ", "is ", ". It is "], ["you w", "ill ", "you will "], ["t", "emp", "temp"], ["J", "UL", "JUL"], ["which ", "are ", "which are "], ["H", "all", "Hall"], ["in", "sec", "insec"], ["ic", "i", "ici"], ["an", "k ", "ank "], [" th", "ou", " thou"], ["pr", "in", "prin"], ["ur", "se", "urse"], ["wind", "ow", "window"], ["p", "ast ", "past "], ["cre", "at", "creat"], ["had ", "not ", "had not "], ["u", "te", "ute"], ["to ", "me ", "to me "], ["EN", "C", "ENC"], ["JUL", "I", "JULI"], ["JULI", "ET:\n", "JULIET:\n"], ["E", "ONT", "EONT"], ["EONT", "ES:\n", "EONTES:\n"], ["natural selec", "tion", "natural selection"], [".  ", "The ", ".  The "], ["h", "un", "hun"], ["--", "\n", "--\n"], ["I ", "know", "I know"], ["s", ": ", "s: "], ["of ", "it", "of it"], ["ou", "th ", "outh "], ["vi", "ol", "viol"], ["acc", "ord", "accord"], ["in", " which ", "in which "], [" th", "us ", " thus "], [", ", "for ", ", for "], ["bl", "ack", "black"], ["oun", "d, ", "ound, "], ["in", "tell", "intell"], ["of a", "ll ", "of all "], ["underst", "and ", "understand "], ["ter", "n", "tern"], ["ou", "s, ", "ous, "], ["ex", "ac", "exac"], ["u", "str", "ustr"], ["pu", "bl", "publ"], ["Mar", "vel", "Marvel"], [":\n", "S", ":\nS"], ["Well", ", ", "Well, "], ["ap", "pe", "appe"], ["f", "our ", "four "], ["e", "le", "ele"], ["ra", "ther", "rather"], ["lad", "y ", "lady "], ["d", "ark", "dark"], [". H", "is ", ". His "], ["pre", "c", "prec"], ["I am", " s", "I am s"], ["oc", "cup", "occup"], ["giv", "en", "given"], ["twent", "y ", "twenty "], ["s", "ing ", "sing "], ["b", "y", "by"], ["com", "for", "comfor"], ["ide", "a ", "idea "], ["a ", "b", "a b"], ["ar", "y, ", "ary, "], ["in the ", "same ", "in the same "], ["?", "' said ", "?' said "], ["c", "us", "cus"], ["st", "\n", "st\n"], ["V", "OL", "VOL"], ["fa", "ith", "faith"], [". ", "P", ". P"], ["down", " the ", "down the "], ["gl", "as", "glas"], ["jo", "y", "joy"], ["was ", "not ", "was not "], ["d", "ut", "dut"], ["AD", "Y ", "ADY "], ["ne", "ar ", "near "], ["se", "tt", "sett"], ["on", "'t ", "on't "], ["number ", "of ", "number of "], ["part ", "of the ", "part of the "], ["18", "4", "184"], ["—", "—", "——"], ["peop", "le", "people"], ["v", "ir", "vir"], ["hav", "e\n", "have\n"], ["cr", "own", "crown"], [":\n", "The ", ":\nThe "], ["Whi", "ch", "Which"], ["I'", "ll", "I'll"], ["hal", "f ", "half "], ["\n", "M", "\nM"], ["dis", "cover", "discover"], ["um", "m", "umm"], ["qu", "ick", "quick"], ["Go", "d", "God"], ["him ", "to ", "him to "], ["cl", "aim", "claim"], ["dist", "inc", "distinc"], ["e, ", "but ", "e, but "], ["inst", "inc", "instinc"], ["ENC", "E:\n", "ENCE:\n"], ["G", "r", "Gr"], ["happ", "en", "happen"], ["pass", "ed ", "passed "], ["arr", "ang", "arrang"], ["Mr. ", "Collin", "Mr. Collin"], ["geo", "log", "geolog"], ["k", "ne", "kne"], ["ex", "am", "exam"], ["let ", "me ", "let me "], ["ant", "ly ", "antly "], ["ed", "s ", "eds "], ["l", "ow ", "low "], ["su", "d", "sud"], ["to", " their ", "to their "], [" ther", "e", " there"], ["mean", "s ", "means "], ["Y", "es, ", "Yes, "], ["M", "an", "Man"], ["tal", "k", "talk"], ["a", "-", "a-"], ["e", "an", "ean"], ["a", "un", "aun"], ["re", "al", "real"], ["inter", "est", "interest"], ["through", " ", "through "], ["I", "ON", "ION"], ["I ", "don't ", "I don't "], ["P", "ock", "Pock"], ["iti", "zen", "itizen"], ["hel", "p ", "help "], ["for", " m", "for m"], ["com", "fort", "comfort"], ["f", "ine ", "fine "], ["h", "old", "hold"], ["G", "re", "Gre"], ["exper", "i", "experi"], ["k", "ill", "kill"], ["si", "de", "side"], ["bl", "ack ", "black "], ["du", "ce ", "duce "], ["wat", "ch", "watch"], ["differ", "ence ", "difference "], ["—", "\n", "—\n"], ["au", "thor", "author"], ["bre", "ath", "breath"], [" th", "ink", " think"], [".\n\n", "T", ".\n\nT"], [". I", "f ", ". If "], ["h", "ard ", "hard "], ["br", "ing ", "bring "], ["; ", "and, ", "; and, "], ["l", "ate ", "late "], ["e, ", "the ", "e, the "], ["ure", "d ", "ured "], ["EL", "I", "ELI"], ["re", "sem", "resem"], ["ab", "ility ", "ability "], ["fac", "ts ", "facts "], ["re", "present", "represent"], [", ", "`", ", `"], ["W", "hat, ", "What, "], ["for", "th", "forth"], ["IC", "INIUS:\n", "ICINIUS:\n"], ["be", "long", "belong"], ["de", "termin", "determin"], ["jud", "g", "judg"], ["fi", "x", "fix"], ["er", "'s ", "er's "], ["we", "ak", "weak"], ["pur", "su", "pursu"], ["k", "in", "kin"], ["ET", "H", "ETH"], ["I w", "ent ", "I went "], ["f", "ut", "fut"], ["s", "low", "slow"], ["produc", "tion", "production"], ["You ", "are ", "You are "], ["en", "em", "enem"], ["w", "ay, ", "way, "], ["Or", " ", "Or "], ["el", "se", "else"], ["s", "chool", "school"], ["father", "'s ", "father's "], ["c", "am", "cam"], ["s ", "as ", "s as "], ["it", "self", "itself"], ["of s", "ome ", "of some "], ["before ", "the ", "before the "], ["an ", "un", "an un"], ["or", " the ", "or the "], ["quain", "t", "quaint"], ["dre", "am", "dream"], ["or", ", ", "or, "], ["we", "e", "wee"], ["ELI", "Z", "ELIZ"], ["ELIZ", "AB", "ELIZAB"], ["ELIZAB", "ETH", "ELIZABETH"], ["er", "ly ", "erly "], ["feel", "ing", "feeling"], ["; ", "`", "; `"], ["Estell", "a", "Estella"], ["st", "ay ", "stay "], ["M", "AR", "MAR"], ["\n", "That ", "\nThat "], ["form", "er ", "former "], ["vis", "it ", "visit "], ["th ", "and ", "th and "], ["e, ", "as ", "e, as "], ["in", " a m", "in a m"], [" s", "hall ", " shall "], ["u", "sh", "ush"], ["when ", "I ", "when I "], ["tem", "per", "temper"], ["wh", "om", "whom"], ["sai", "d", "said"], ["f", "ail", "fail"], ["t", "ten", "tten"], ["A", "r", "Ar"], ["ar", "y", "ary"], ["g", "ard", "gard"], ["at", "ed", "ated"], ["G", "ard", "Gard"], ["that ", "she ", "that she "], ["perio", "d", "period"], ["he", "'s ", "he's "], ["s", ";\n", "s;\n"], [",\n", "The ", ",\nThe "], ["be", "ar ", "bear "], ["es ", "to ", "es to "], ["?\n\n", "B", "?\n\nB"], [" th", "ought ", " thought "], ["s", "' ", "s' "], ["n", "ing ", "ning "], ["fi", "ll", "fill"], ["for", "c", "forc"], [" m", "or", " mor"], ["B", "e ", "Be "], ["hon", "our ", "honour "], ["le", "ep", "leep"], ["qu", "e ", "que "], ["child", "ren", "children"], ["k", "en", "ken"], ["hou", "se, ", "house, "], ["th ", "of ", "th of "], [", and ", "I ", ", and I "], ["happ", "in", "happin"], ["go", "ver", "gover"], ["liv", "ing ", "living "], ["from ", "his ", "from his "], ["I s", "up", "I sup"], ["AR", " ", "AR "], ["gg", "le ", "ggle "], ["men", "tion", "mention"], ["C", "ather", "Cather"], ["\n", " \n", "\n \n"], ["that", "\n", "that\n"], [". ", "You", ". You"], ["pr", "ay ", "pray "], ["a", "se", "ase"], ["de", "pend", "depend"], ["le", "ad", "lead"], ["child", "r", "childr"], ["nes", "s of ", "ness of "], ["ap", "pro", "appro"], ["k", "itch", "kitch"], ["H", "er ", "Her "], ["qui", "et", "quiet"], ["it ", "of ", "it of "], ["sis", "ter ", "sister "], ["a ", "great ", "a great "], ["fi", "g", "fig"], ["qui", "et ", "quiet "], ["sm", "all", "small"], ["t ", "of the ", "t of the "], ["is", "i", "isi"], ["”", " said ", "” said "], ["N", "ay, ", "Nay, "], [". I", "f", ". If"], ["us", "ed ", "used "], ["\n", "W", "\nW"], ["w", "all", "wall"], ["here", "'s ", "here's "], ["'T", "is ", "'Tis "], ["re", "turn ", "return "], ["op", "en ", "open "], ["pris", "on", "prison"], ["if ", "it ", "if it "], ["doth", " ", "doth "], ["ang", "u", "angu"], ["s", "aw ", "saw "], ["pa", "per", "paper"], ["for ", "her ", "for her "], ["A", "T", "AT"], ["i", "al ", "ial "], [".\n\nP", "ETRUCHIO:\n", ".\n\nPETRUCHIO:\n"], ["obli", "g", "oblig"], ["vari", "ous ", "various "], ["at", "ur", "atur"], ["C", "on", "Con"], ["to", " them", "to them"], ["s, ", "but ", "s, but "], ["b", "est", "best"], ["recei", "v", "receiv"], ["h", "ang", "hang"], ["you ", "to ", "you to "], ["U", "T", "UT"], ["Th", "ese ", "These "], ["I s", "aw ", "I saw "], ["t", "y, ", "ty, "], [", ", "in ", ", in "], ["pr", "ac", "prac"], ["l", "aid ", "laid "], ["s", "pe", "spe"], ["bo", "tt", "bott"], ["conf", "id", "confid"], ["se ", "of ", "se of "], ["is", "ter ", "ister "], ["p", "ap", "pap"], ["d", "y", "dy"], ["necess", "ary ", "necessary "], ["UC", "IO:\n", "UCIO:\n"], ["I", "AN", "IAN"], ["extre", "me", "extreme"], ["In", "visible ", "Invisible "], ["an", "s ", "ans "], ["s", "ir, ", "sir, "], ["U", "p", "Up"], ["I w", "ill", "I will"], ["N", "ow ", "Now "], ["if", " the ", "if the "], ["po", "se", "pose"], ["de", "ath ", "death "], [",\n", "and ", ",\nand "], ["pri", "v", "priv"], ["pre", "h", "preh"], ["ing", " with ", "ing with "], ["ed ", "my ", "ed my "], ["po", "ll", "poll"], ["w", "ant ", "want "], ["with ", "her ", "with her "], ["man", ":\n", "man:\n"], ["form", " ", "form "], ["EDW", "ARD ", "EDWARD "], ["EDWARD ", "IV", "EDWARD IV"], ["l", "isten", "listen"], ["an ", "ex", "an ex"], ["ro", "te ", "rote "], ["Mr. Darc", "y ", "Mr. Darcy "], ["C", "itizen", "Citizen"], ["an", "k", "ank"], ["s", "un", "sun"], ["th", "re", "thre"], ["bey", "ond ", "beyond "], ["ne", "ither ", "neither "], ["; ", "he ", "; he "], ["as", "\n", "as\n"], ["ke ", "of ", "ke of "], ["your", " m", "your m"], ["e", "ag", "eag"], ["es", "; and ", "es; and "], ["er", "able ", "erable "], ["which", " the ", "which the "], ["follow", "ing ", "following "], ["room", ", ", "room, "], ["pi", "ge", "pige"], ["ru", "sh", "rush"], ["tr", "ang", "trang"], ["st", "at", "stat"], ["re", "ver", "rever"], ["c", "ham", "cham"], ["st", "ate ", "state "], ["o", "d", "od"], ["par", "ti", "parti"], ["st", "on", "ston"], ["ee", "k", "eek"], ["hand", ", ", "hand, "], ["re", "gi", "regi"], ["C", "lar", "Clar"], ["ter", "m", "term"], ["r", "ound", "round"], ["fe", "et ", "feet "], ["in", "ten", "inten"], ["—", " and ", "— and "], ["Mr W", "op", "Mr Wop"], ["especi", "ally ", "especially "], [" s", "peak", " speak"], ["I", "R", "IR"], ["n", "one ", "none "], ["I s", "ee ", "I see "], ["str", "eng", "streng"], ["ag", "g", "agg"], ["w", "ound", "wound"], ["per", "cei", "percei"], ["l", "am", "lam"], ["u", "di", "udi"], ["P", "e", "Pe"], ["by ", "a ", "by a "], ["d", "read", "dread"], ["pleas", "ure", "pleasure"], ["half", "-", "half-"], ["n", "er, ", "ner, "], ["que", "en", "queen"], ["nigh", "t, ", "night, "], ["extreme", "ly ", "extremely "], ["Pumblech", "ook", "Pumblechook"], ["Bingle", "y ", "Bingley "], ["p", "at", "pat"], ["fir", "st", "first"], ["c", "are ", "care "], ["t", "in", "tin"], ["our", " s", "our s"], ["de", "f", "def"], ["al", "ong", "along"], ["it", "'s ", "it's "], ["doub", "t", "doubt"], ["on", "s ", "ons "], ["posi", "tion", "position"], ["re", "tch", "retch"], ["t", "able ", "table "], ["th", "ir", "thir"], [";", " that ", "; that "], [", ", "who ", ", who "], ["high", "ly ", "highly "], ["mor", "row", "morrow"], ["de", "ad ", "dead "], ["In", " the ", "In the "], [". ", "O", ". O"], ["emp", "lo", "emplo"], ["\n", "of ", "\nof "], ["cl", "er", "cler"], ["sti", "tu", "stitu"], [". A", " ", ". A "], [" she ", "was ", " she was "], ["Br", "an", "Bran"], ["vari", "et", "variet"], ["him", ", and ", "him, and "], ["such", " a ", "such a "], ["b", "id ", "bid "], ["fa", "ll ", "fall "], ["Th", "y ", "Thy "], ["r", "y", "ry"], ["L", "ong", "Long"], ["reg", "ard", "regard"], ["ed ", "to the ", "ed to the "], ["QUEEN ", "ELIZABETH", "QUEEN ELIZABETH"], ["D", "u", "Du"], ["P", "ar", "Par"], ["IL", "L", "ILL"], ["inde", "pend", "independ"], ["'", "re ", "'re "], ["sm", "all ", "small "], ["ear", "n", "earn"], ["p", "her", "pher"], ["?\n\n", "C", "?\n\nC"], ["j", "our", "jour"], ["k", "n", "kn"], ["l", "ing ", "ling "], ["as", "k ", "ask "], ["con", "v", "conv"], ["there", "fore ", "therefore "], ["inc", "l", "incl"], ["ul", "t ", "ult "], ["had ", "a ", "had a "], ["s ", "on the ", "s on the "], ["qui", "red ", "quired "], ["si", "mp", "simp"], ["ha", "d\n", "had\n"], ["ap", "par", "appar"], ["subjec", "t ", "subject "], ["pleas", "ant ", "pleasant "], ["in ", "its ", "in its "], ["!", "' said ", "!' said "], ["mi", "gr", "migr"], [" al", "ways ", " always "], [".\n\nM", "ENENIUS:\n", ".\n\nMENENIUS:\n"], ["in ", "your ", "in your "], [" th", "is", " this"], ["your", "self", "yourself"], ["f", "ing", "fing"], ["gr", "ound", "ground"], ["st", "om", "stom"], ["ti", "v", "tiv"], ["ro", "ck", "rock"], ["ro", "y", "roy"], ["w", "o", "wo"], ["more ", "than ", "more than "], ["ren", "der", "render"], ["che", "er", "cheer"], ["re", "co", "reco"], ["pl", "ay ", "play "], ["all", "y, ", "ally, "], ["f", "em", "fem"], ["agre", "e", "agree"], ["her s", "ister", "her sister"], ["s", "—", "s—"], ["Mr J", "agger", "Mr Jagger"], [" th", "ousand ", " thousand "], ["you", " must ", "you must "], ["It ", "was ", "It was "], ["ed ", "it ", "ed it "], ["sen", "si", "sensi"], ["A", "t ", "At "], [" a", "tt", " att"], ["on", "e. ", "one. "], ["pres", "erv", "preserv"], ["ing", " them", "ing them"], ["t", "ed, ", "ted, "], ["like ", "the ", "like the "], ["m", "oun", "moun"], ["ig", "nor", "ignor"], ["N", "e", "Ne"], ["wr", "ite ", "write "], ["con", "vic", "convic"], ["ES", "S", "ESS"], ["mon", "e", "mone"], ["r", "ac", "rac"], ["B", "ut, ", "But, "], ["answ", "er ", "answer "], ["mo", "v", "mov"], [" th", "ink ", " think "], ["I", "A:\n", "IA:\n"], ["s", "; but ", "s; but "], ["fr", "on", "fron"], ["tong", "u", "tongu"], ["er ", "of ", "er of "], ["wor", "th", "worth"], ["sle", "ep", "sleep"], ["ro", "ad", "road"], ["des", "p", "desp"], ["kind ", "of ", "kind of "], ["r", "ar", "rar"], [".\n\n", "H", ".\n\nH"], ["oll", "y ", "olly "], ["in ", "any ", "in any "], ["qu", "ir", "quir"], ["of a", " s", "of a s"], ["beau", "ti", "beauti"], ["in", "flu", "influ"], ["fac", "t ", "fact "], ["peci", "es ", "pecies "], ["vir", "tu", "virtu"], ["v", "ent", "vent"], ["be", "ll", "bell"], ["mar", "k", "mark"], ["b", "as", "bas"], [": ", "but ", ": but "], ["are ", "the ", "are the "], ["no ", "mor", "no mor"], ["e", "ll ", "ell "], ["swe", "et ", "sweet "], ["uc", "ces", "ucces"], ["tal", "k ", "talk "], ["er", "ve ", "erve "], ["fa", "st", "fast"], ["s, ", "as ", "s, as "], ["to ", "do ", "to do "], ["th", "r", "thr"], ["that ", "I ", "that I "], ["v", "an", "van"], ["e", "al", "eal"], ["pe", "ac", "peac"], ["with", " my ", "with my "], ["tr", "ust ", "trust "], ["heav", "y ", "heavy "], ["A", "ST", "AST"], ["S", "ir ", "Sir "], ["in", " a s", "in a s"], ["mer", "ely ", "merely "], ["R", "AN", "RAN"], [" mo", "di", " modi"], ["mom", "ent ", "moment "], [",” said ", "the ", ",” said the "], ["to ", "give ", "to give "], ["ne", "ed ", "need "], ["busin", "ess ", "business "], ["s", ":", "s:"], ["ig", "n ", "ign "], [" w", "ell", " well"], ["comp", "any ", "company "], ["'", "d, ", "'d, "], ["s", "ay, ", "say, "], ["e", "ad ", "ead "], ["to", "l", "tol"], ["well", ", ", "well, "], ["par", "t of ", "part of "], ["chi", "ef", "chief"], ["er", "r", "err"], ["would ", "not ", "would not "], ["t", "es", "tes"], ["a ", "and ", "a and "], ["ai", "d, ", "aid, "], ["s ", "at ", "s at "], ["c", "at", "cat"], ["cannot ", "be ", "cannot be "], ["as ", "it ", "as it "], ["off", "er", "offer"], ["H", "AM", "HAM"], ["?\n\n", "P", "?\n\nP"], [". I am", " ", ". I am "], ["re", "ach", "reach"], ["W", "AR", "WAR"], ["W", "IC", "WIC"], ["WIC", "K:\n", "WICK:\n"], ["dist", "ant ", "distant "], ["dis", "ap", "disap"], ["N", "ew ", "New "], [".", "” ", ".” "], ["t", "te", "tte"], ["cum", "ul", "cumul"], ["to", " that ", "to that "], [" th", "en", " then"], ["R", "UT", "RUT"], ["pr", "ay", "pray"], ["pro", "ve ", "prove "], ["in ", "our ", "in our "], ["d", "are ", "dare "], [". ", "D", ". D"], ["tr", "y ", "try "], ["al ", "and ", "al and "], ["S", "erv", "Serv"], ["until", " ", "until "], ["feel", " ", "feel "], ["G", "e", "Ge"], ["Warw", "ick", "Warwick"], ["ing ", "of the ", "ing of the "], ["each ", "other ", "each other "], ["Eng", "l", "Engl"], ["b", "oo", "boo"], ["Elizabe", "th, ", "Elizabeth, "], ["IS", "T", "IST"], ["HENRY ", "V", "HENRY V"], ["se", "x", "sex"], ["it ", "would be ", "it would be "], ["scar", "cely ", "scarcely "], ["Charlo", "tte", "Charlotte"], ["descend", "ed ", "descended "], ["with", " s", "with s"], ["n", "erv", "nerv"], ["when ", "he ", "when he "], ["w", "ould", "would"], ["g", "at", "gat"], ["'", "d\n", "'d\n"], ["e", ";\n", "e;\n"], ["b", "ad ", "bad "], ["s", "per", "sper"], [" s", "up", " sup"], ["than", " the ", "than the "], [" m", "in", " min"], ["as", ", ", "as, "], ["ed", "uc", "educ"], ["Ri", "ch", "Rich"], ["which", " was ", "which was "], ["ref", "lec", "reflec"], [".\n", "C", ".\nC"], ["li", "ved ", "lived "], ["great", "ly ", "greatly "], ["sur", "pris", "surpris"], ["began ", "to ", "began to "], ["A", "ll", "All"], ["g", "er ", "ger "], ["well", " as ", "well as "], ["mak", "es ", "makes "], ["ed ", "on ", "ed on "], ["re", "vol", "revol"], ["wom", "an", "woman"], ["il", "t ", "ilt "], ["fir", "m", "firm"], ["li", "es ", "lies "], ["ing ", "it ", "ing it "], ["par", "don", "pardon"], ["fe", "ar ", "fear "], ["ts ", "and ", "ts and "], ["tw", "o", "two"], ["secon", "d ", "second "], ["c", "e, ", "ce, "], [" al", "most ", " almost "], ["um", "p", "ump"], [" with", "out ", " without "], ["c", "ut ", "cut "], ["se", "par", "separ"], [" as", "ked ", " asked "], ["abo", "ve ", "above "], ["oul", "der", "oulder"], ["st", "ud", "stud"], ["WAR", "WICK:\n", "WARWICK:\n"], ["any", "thing ", "anything "], ["S", "und", "Sund"], ["Mr. ", "Brontë", "Mr. Brontë"], ["at", "ed, ", "ated, "], ["Gard", "in", "Gardin"], ["embr", "y", "embry"], ["not ", "the ", "not the "], ["f", "ind", "find"], ["M", "ad", "Mad"], [",\n", "As ", ",\nAs "], ["hund", "red ", "hundred "], ["en ", "and ", "en and "], ["val", "u", "valu"], ["end", "ed ", "ended "], ["enough", " ", "enough "], ["er", ", and ", "er, and "], ["I s", "aw", "I saw"], [" such", " a ", " such a "], [". A", "t ", ". At "], ["inher", "it", "inherit"], ["e", "ither", "either"], ["f", "ain", "fain"], ["con", "fin", "confin"], ["an", "ch", "anch"], ["E", "x", "Ex"], ["AP", "UL", "APUL"], ["APUL", "ET:\n", "APULET:\n"], ["ing", " at the ", "ing at the "], ["—\n", "“", "—\n“"], ["immedi", "ately ", "immediately "], ["m", "en, ", "men, "], ["of ", "your ", "of your "], ["C", "or", "Cor"], ["c", "en", "cen"], ["y", "; ", "y; "], [",\n", "W", ",\nW"], ["op", "pos", "oppos"], ["ant", "age ", "antage "], ["inc", "lin", "inclin"], ["too", ", ", "too, "], ["e", "ch", "ech"], ["an", "n", "ann"], ["l", "ou", "lou"], ["w", "it", "wit"], [":\n", "My ", ":\nMy "], ["of", " their", "of their"], ["wal", "k", "walk"], ["pro", "por", "propor"], ["vis", "it", "visit"], ["itt", "ing ", "itting "], ["ward", "s ", "wards "], ["we ", "may ", "we may "], ["B", "RO", "BRO"], ["l", "'", "l'"], ["fur", "n", "furn"], ["enough", " to ", "enough to "], ["soon", " as ", "soon as "], ["wi", "de", "wide"], ["concer", "n", "concern"], ["cor", "resp", "corresp"], ["difficul", "ty ", "difficulty "], ["alo", "g", "alog"], ["e. ", " ", "e.  "], ["al", "e ", "ale "], ["ha", "te", "hate"], ["great", "est ", "greatest "], ["t", "rem", "trem"], ["ag", "es ", "ages "], ["ey", "e ", "eye "], ["er", "-", "er-"], ["a", "ir ", "air "], ["far", " as ", "far as "], ["Ri", "char", "Richar"], ["m", "all ", "mall "], ["N", "urse", "Nurse"], [".\n\nL", "EONTES:\n", ".\n\nLEONTES:\n"], ["por", "t ", "port "], ["a", "fe", "afe"], [" mu", "ch", " much"], ["A", "y, ", "Ay, "], ["if", " we ", "if we "], [".\n\nC", "ORIOLANUS:\n", ".\n\nCORIOLANUS:\n"], [" a", "gain ", " again "], ["as ", "to ", "as to "], ["as ", "he ", "as he "], ["wi", "fe", "wife"], ["po", "st", "post"], ["ation ", "and ", "ation and "], ["inde", "ed ", "indeed "], ["wi", "ld ", "wild "], [" a", "fter ", " after "], ["con", "tr", "contr"], ["en", "de", "ende"], ["ende", "av", "endeav"], ["par", "l", "parl"], [".\n\nKING RICHARD II", "I:\n", ".\n\nKING RICHARD III:\n"], ["daugh", "ter ", "daughter "], ["all", "ied ", "allied "], ["differ", "ences ", "differences "], ["circumst", "anc", "circumstanc"], ["tion ", "to ", "tion to "], ["return", "ed ", "returned "], ["grad", "u", "gradu"], ["s", "light ", "slight "], ["sy", "stem", "system"], ["believe ", "that ", "believe that "], ["the", "ory ", "theory "], ["o", "log", "olog"], ["m", "other ", "mother "], ["up", " and ", "up and "], ["\n", "As ", "\nAs "], ["s", "w", "sw"], ["hom", "e, ", "home, "], ["RUT", "US:\n", "RUTUS:\n"], ["un", " ", "un "], ["te", "ach", "teach"], [". ", "You ", ". You "], ["heal", "th", "health"], ["lo", "ck", "lock"], ["gr", "ati", "grati"], ["pup", "il", "pupil"], ["h", "ood ", "hood "], ["es", "ter", "ester"], ["n", "ur", "nur"], ["L", "ord", "Lord"], [", ", "a ", ", a "], ["ab", "b", "abb"], ["for", "d ", "ford "], [" they ", "were ", " they were "], ["t", "ec", "tec"], ["UC", "KING", "UCKING"], ["UCKING", "HAM", "UCKINGHAM"], [", and ", "he ", ", and he "], [".\n\n", "AN", ".\n\nAN"], ["lat", "ter ", "latter "], ["ER", "L", "ERL"], ["per", "son ", "person "], [".\n\n", "ROMEO:\n", ".\n\nROMEO:\n"], ["L", "AU", "LAU"], ["as ", "she ", "as she "], ["amoun", "t of ", "amount of "], ["Herber", "t ", "Herbert "], ["I", "s", "Is"], [" ac", "coun", " accoun"], ["lab", "our", "labour"], ["will ", "not ", "will not "], ["suc", "ces", "succes"], ["he", "ther ", "hether "], ["ch", "ance ", "chance "], ["pro", "ved ", "proved "], ["fe", "ll ", "fell "], ["am", ", ", "am, "], ["grac", "ious ", "gracious "], ["whi", "te ", "white "], ["ac", "cep", "accep"], ["col", "our", "colour"], ["M", "er", "Mer"], ["into ", "a ", "into a "], ["ce ", "of ", "ce of "], ["f", "ast ", "fast "], ["there", "fore, ", "therefore, "], [" whi", "le ", " while "], ["gr", "ound ", "ground "], ["cros", "s", "cross"], ["G", "LOUCESTER:\n", "GLOUCESTER:\n"], ["st", "ory ", "story "], ["Eng", "land", "England"], ["inter", "est ", "interest "], ["no", "tic", "notic"], ["HENRY ", "B", "HENRY B"], ["HENRY B", "OL", "HENRY BOL"], ["HENRY BOL", "ING", "HENRY BOLING"], ["HENRY BOLING", "BRO", "HENRY BOLINGBRO"], ["HENRY BOLINGBRO", "K", "HENRY BOLINGBROK"], ["HENRY BOLINGBROK", "E:\n", "HENRY BOLINGBROKE:\n"], ["R", "I", "RI"], ["off", "spr", "offspr"], ["ex", "tra", "extra"], ["RAN", "IO:\n", "RANIO:\n"], ["believ", "e, ", "believe, "], ["feel", "ings ", "feelings "], ["dis", "cus", "discus"], ["inter", "val", "interval"], ["which ", "have ", "which have "], ["bourgeo", "isi", "bourgeoisi"], ["don", "e", "done"], [" su", "ff", " suff"], [", s", "ir, ", ", sir, "], ["i", "or ", "ior "], ["pro", "ceed", "proceed"], ["wor", "ds ", "words "], ["friend", "s ", "friends "], ["ough", " ", "ough "], ["husb", "and", "husband"], ["f", "ree ", "free "], ["en", "d, ", "end, "], [",\n", "But ", ",\nBut "], ["fur", "ther ", "further "], [" w", "ord", " word"], ["com", "b", "comb"], ["able", ", ", "able, "], ["itt", "en ", "itten "], ["Du", "ke of ", "Duke of "], ["you w", "ould ", "you would "], ["well", "-", "well-"], ["EDWARD IV", ":\n", "EDWARD IV:\n"], ["ill", "i", "illi"], ["for", " some ", "for some "], ["on", "\n", "on\n"], ["I", "t's ", "It's "], ["at", ", ", "at, "], ["P", "ER", "PER"], ["de", "lic", "delic"], ["to ", "get ", "to get "], ["rel", "ation", "relation"], ["seem", "ed ", "seemed "], ["sion ", "of ", "sion of "], [". H", "er ", ". Her "], ["remark", "able ", "remarkable "], ["expres", "sion", "expression"], ["l", "a ", "la "], ["--", " the ", "-- the "], [".\n\nS", "econd ", ".\n\nSecond "], ["'", "s, ", "'s, "], ["l", "ing", "ling"], ["b", "att", "batt"], ["an", "ted ", "anted "], ["in", "j", "inj"], ["un", "e ", "une "], ["e. ", "The ", "e. The "], ["ar", "g", "arg"], ["wr", "ong", "wrong"], [".\n", "But ", ".\nBut "], ["u", "g", "ug"], ["clo", "ck", "clock"], ["occasion", "ally ", "occasionally "], ["two ", "or", "two or"], ["tend", "enc", "tendenc"], ["dur", "ing ", "during "], ["s", "! ", "s! "], ["es", "t, ", "est, "], ["t", "ing", "ting"], [" me", "an", " mean"], ["gener", "al", "general"], ["we", "et ", "weet "], ["il", "d", "ild"], [" s", "h", " sh"], ["e", "lec", "elec"], [" s", "ay ", " say "], ["lo", "ved ", "loved "], ["to ", "him", "to him"], ["pas", "s ", "pass "], ["me", "et ", "meet "], ["ti", "ce", "tice"], ["be", ", ", "be, "], ["us", "ed to ", "used to "], ["of", " them ", "of them "], ["extre", "me ", "extreme "], ["tak", "en", "taken"], ["fres", "h", "fresh"], ["le", "y ", "ley "], ["shi", "re", "shire"], [" sever", "al ", " several "], ["t", ". ", "t. "], ["cur", "ious ", "curious "], ["at ", "least ", "at least "], ["A", "TH", "ATH"], ["corresp", "ond", "correspond"], ["C", "ol", "Col"], ["ext", "inc", "extinc"], ["Lady ", "Cather", "Lady Cather"], ["speci", "es", "species"], ["it ", "be ", "it be "], ["to ", "do", "to do"], ["s ", "have ", "s have "], ["st ", "the ", "st the "], ["must ", "have ", "must have "], ["you w", "ere ", "you were "], ["we", "ar", "wear"], ["full ", "of ", "full of "], ["br", "ing", "bring"], ["e", "; and ", "e; and "], ["no ", "one ", "no one "], ["fo", "s", "fos"], ["ed ", "in", "ed in"], ["m", "et ", "met "], ["cu", "stom", "custom"], ["eas", "ily ", "easily "], ["a", "'s ", "a's "], ["el", "ess ", "eless "], ["for", " this ", "for this "], ["ro", "ad ", "road "], ["rem", "ember ", "remember "], ["att", "emp", "attemp"], ["F", "ren", "Fren"], ["QUEEN ", "MAR", "QUEEN MAR"], ["QUEEN MAR", "G", "QUEEN MARG"], ["QUEEN MARG", "AR", "QUEEN MARGAR"], ["QUEEN MARGAR", "ET:\n", "QUEEN MARGARET:\n"], ["tr", "y", "try"], ["ther", "n ", "thern "], ["C", "am", "Cam"], ["fut", "ure ", "future "], ["as", "ked ", "asked "], ["pro", "duce ", "produce "], ["E", "mi", "Emi"], ["inhabit", "ants ", "inhabitants "], ["ear", "li", "earli"], ["diff", "er ", "differ "], ["o'", " the ", "o' the "], ["est", "abl", "establ"], ["de", "li", "deli"], ["des", "erv", "deserv"], ["I", "T", "IT"], ["d", "ow", "dow"], ["opin", "ion ", "opinion "], ["but", "\n", "but\n"], ["from ", "her ", "from her "], ["el", "o", "elo"], ["pr", "a", "pra"], ["i", "x", "ix"], ["pro", "gen", "progen"], ["to ", "take ", "to take "], ["sol", "di", "soldi"], ["u", "tion", "ution"], ["ne", "ed", "need"], ["when", " we ", "when we "], ["l", " ", "l "], ["gr", "ap", "grap"], ["father", ", ", "father, "], ["her", " a", "her a"], ["un", "cle", "uncle"], ["L", "ond", "Lond"], ["there ", "are ", "there are "], ["OR", "D", "ORD"], ["p", "ing ", "ping "], ["hat", "ever ", "hatever "], ["AM", "ILL", "AMILL"], [", and ", "was ", ", and was "], ["in", "tro", "intro"], ["si", "mil", "simil"], ["ff", "in", "ffin"], ["it", "able ", "itable "], ["y ", "the ", "y the "], [". ", "What ", ". What "], ["wher", "e", "where"], ["lad", "y", "lady"], ["coun", "ten", "counten"], ["bl", "ow", "blow"], ["b", "ow", "bow"], ["tru", "th", "truth"], ["g", "ro", "gro"], ["poss", "ess", "possess"], ["we", "ep", "weep"], ["whe", "ther", "whether"], ["poin", "t ", "point "], ["c", "ess", "cess"], ["f", "ound", "found"], ["beg", "inn", "beginn"], ["ban", "ish", "banish"], ["A", "ng", "Ang"], ["s. ", "But ", "s. But "], ["sum", "m", "summ"], ["QUEEN ELIZABETH", ":\n", "QUEEN ELIZABETH:\n"], ["u", "sion", "usion"], ["in ", "one ", "in one "], ["ci", "vil", "civil"], ["gentle", "man ", "gentleman "], ["ligh", "t, ", "light, "], ["op", "port", "opport"], ["Dr", "umm", "Drumm"], ["tion", "al ", "tional "], [". In", " the ", ". In the "], ["having ", "been ", "having been "], ["anx", "i", "anxi"], ["produc", "ed ", "produced "], ["let", "ari", "letari"], ["O", "ur ", "Our "], ["le ", "and ", "le and "], ["such", " as ", "such as "], ["sh", "op", "shop"], ["T", "he", "The"], [" that", ", ", " that, "], ["per", "su", "persu"], ["give ", "me ", "give me "], ["to ", "you", "to you"], ["e ", "the ", "e the "], ["bo", "y ", "boy "], ["hor", "se", "horse"], ["k", "is", "kis"], ["ter", "r", "terr"], ["in", "tend", "intend"], ["to s", "peak", "to speak"], ["av", "o", "avo"], ["el", "f", "elf"], ["out ", "the ", "out the "], ["inst", "ead ", "instead "], ["j", "est", "jest"], ["P", "o", "Po"], ["fr", "aid ", "fraid "], ["ARD", ":\n", "ARD:\n"], ["e", "igh", "eigh"], ["s", "ociet", "societ"], ["c", "op", "cop"], ["ag", "o", "ago"], ["s, and ", "the ", "s, and the "], ["G", "EL", "GEL"], ["GEL", "O:\n", "GELO:\n"], ["expec", "ted ", "expected "], [". N", "o ", ". No "], ["dur", "ing", "during"], ["se", "lec", "selec"], ["'\n", "`", "'\n`"], [".----", "The ", ".----The "], ["M", "arc", "Marc"], ["with", "\n", "with\n"], ["countr", "y", "country"], ["po", "or", "poor"], ["up", ", ", "up, "], ["tell ", "you", "tell you"], ["b", "y\n", "by\n"], ["hi", "ther", "hither"], ["G", "ive ", "Give "], ["L", "ook", "Look"], ["and ", "his ", "and his "], ["con", "ce", "conce"], ["h", "arm", "harm"], ["ro", "o", "roo"], ["a ", "good ", "a good "], ["it", "al", "ital"], ["sc", "en", "scen"], ["n", ", ", "n, "], ["des", "ir", "desir"], ["cr", "ow", "crow"], [" that ", "he ", " that he "], ["husb", "and ", "husband "], ["fr", "u", "fru"], ["ast", "er", "aster"], ["incl", "ud", "includ"], ["Lond", "on ", "London "], ["about ", "the ", "about the "], ["KING ", "RICHARD II", "KING RICHARD II"], ["flow", "er", "flower"], ["AR", "INA:\n", "ARINA:\n"], ["nam", "ely, ", "namely, "], ["ari", "ly ", "arily "], ["s of the ", "same ", "s of the same "], ["Jo", "e", "Joe"], ["pro", "letari", "proletari"], ["we ", "are ", "we are "], ["tu", "ally ", "tually "], ["cont", "ent", "content"], ["al ", "of ", "al of "], ["C", "l", "Cl"], ["for", " s", "for s"], ["con", "duc", "conduc"], ["hor", "t ", "hort "], ["e", "u", "eu"], ["if ", "I ", "if I "], ["strang", "e ", "strange "], ["dr", "ink", "drink"], ["e", ":\n", "e:\n"], ["to ", "go ", "to go "], [", ", "with ", ", with "], ["which ", "is ", "which is "], [" th", "ing", " thing"], ["l", "angu", "langu"], ["cour", "se", "course"], ["ri", "p", "rip"], [" m", "yself", " myself"], ["e", "gg", "egg"], ["ed", "d", "edd"], ["k", "no", "kno"], ["up", " to ", "up to "], ["sh", "oulder", "shoulder"], ["L", "E", "LE"], ["emplo", "y", "employ"], ["a", "x", "ax"], ["ext", "inct ", "extinct "], ["tr", "av", "trav"], ["on ", "her ", "on her "], [", and ", "then ", ", and then "], ["stru", "ggle ", "struggle "], ["tic", "al ", "tical "], ["K", "ATH", "KATH"], ["KATH", "ARINA:\n", "KATHARINA:\n"], ["cl", "ass", "class"], ["exc", "it", "excit"], [" speci", "es, ", " species, "], ["Citizen", ":\n", "Citizen:\n"], ["Marc", "i", "Marci"], [":", " the ", ": the "], ["in", "fer", "infer"], ["ou", "t\n", "out\n"], ["h", "our ", "hour "], ["a m", "an", "a man"], ["ha", "ir", "hair"], ["m", "ir", "mir"], ["Th", "en", "Then"], ["A", "re ", "Are "], ["ag", "u", "agu"], ["upon", " my ", "upon my "], ["m", "em", "mem"], ["G", "o ", "Go "], ["jour", "ne", "journe"], ["; ", "it ", "; it "], ["tion ", "and ", "tion and "], ["with", " a s", "with a s"], ["adv", "antag", "advantag"], ["t", "ast", "tast"], ["is", "ted ", "isted "], ["which", ", ", "which, "], [" ac", "c", " acc"], ["s", "ent", "sent"], ["mon", "th", "month"], ["or ", "two ", "or two "], ["compe", "ti", "competi"], ["exac", "tly ", "exactly "], ["g", "lo", "glo"], ["opport", "un", "opportun"], ["cli", "mat", "climat"], ["C", "AL", "CAL"], ["Hawor", "th", "Haworth"], ["im", "prov", "improv"], ["        ", "        ", "                "], ["nat", "ure, ", "nature, "], ["s", "? ", "s? "], ["have ", "a ", "have a "], ["ey", "es", "eyes"], ["wor", "ld, ", "world, "], ["not ", "a ", "not a "], ["hum", "an ", "human "], ["that ", "they ", "that they "], ["id", "ent", "ident"], ["the ", "most ", "the most "], ["f", "ish", "fish"], ["ter", ", ", "ter, "], [";\n", "For ", ";\nFor "], ["po", "li", "poli"], ["a", "it ", "ait "], ["for", "ward ", "forward "], ["favour", "able ", "favourable "], ["le", "ast", "least"], ["de", "p", "dep"], ["con", "stitu", "constitu"], [",” ", "he ", ",” he "], ["Pock", "et ", "Pocket "], [" \n", " \n", " \n \n"], ["?\n\n", "S", "?\n\nS"], ["'", "em", "'em"], ["ed ", "for ", "ed for "], ["litt", "le", "little"], ["Th", "an ", "Than "], ["s", "wor", "swor"], ["g", "on", "gon"], ["to ", "re", "to re"], ["childr", "en ", "children "], ["after", "no", "afterno"], ["L", "AR", "LAR"], ["N", "ow", "Now"], ["equ", "al ", "equal "], ["morn", "ing", "morning"], ["u", "ff", "uff"], [".\n\n", "F", ".\n\nF"], ["an", "ti", "anti"], ["c", "and", "cand"], ["m", "outh", "mouth"], ["I s", "aid ", "I said "], ["as", "su", "assu"], ["lo", "d", "lod"], ["fi", "f", "fif"], ["vi", "ous ", "vious "], ["K", "ing ", "King "], ["I m", "ight ", "I might "], [";", " she ", "; she "], ["to ", "her", "to her"], ["dar", "k ", "dark "], ["when", " she ", "when she "], ["ES", "CAL", "ESCAL"], ["ESCAL", "US:\n", "ESCALUS:\n"], ["vo", "st", "vost"], ["ru", "di", "rudi"], [",' ", "he ", ",' he "], ["Long", "bour", "Longbour"], [" ", "\"", " \""], ["gener", "a ", "genera "], ["but ", "the ", "but the "], ["C", "ap", "Cap"], [" ", "in ", " in "], ["str", "ong ", "strong "], [". ", "For", ". For"], ["?\n\n", "M", "?\n\nM"], ["prom", "is", "promis"], [".\n\nS", "ICINIUS:\n", ".\n\nSICINIUS:\n"], ["he ", "would ", "he would "], ["ter", "ri", "terri"], ["ation", ", and ", "ation, and "], ["con", "ver", "conver"], ["in", " all ", "in all "], ["for", "ce ", "force "], ["str", "ai", "strai"], ["com", "e", "come"], ["al", "\n", "al\n"], ["a", ", and ", "a, and "], ["from", " my ", "from my "], ["partic", "ular ", "particular "], ["s, ", "or ", "s, or "], ["wr", "itten ", "written "], ["Ed", "ward ", "Edward "], ["for", " me ", "for me "], ["p", "it", "pit"], ["UCKINGHAM", ":\n", "UCKINGHAM:\n"], ["if", " she ", "if she "], ["cous", "in", "cousin"], ["I am ", "not ", "I am not "], ["bri", "d", "brid"], ["stri", "c", "stric"], ["other", "s ", "others "], ["underst", "and", "understand"], ["excep", "t ", "except "], ["in", " the\n", "in the\n"], ["consequ", "ently ", "consequently "], ["inhabit", "ant", "inhabitant"], ["at ", "a ", "at a "], [": ", "and ", ": and "], ["b", "ility ", "bility "], ["prou", "d ", "proud "], ["f", "as", "fas"], ["ac", "t ", "act "], ["fi", "eld", "field"]]}